0.0007162605761550367
0.0014946074225008488
0.0023772534914314747
0.001534253009594977
0.0010561055969446898
0.0006599999614991248
0.0010125471744686365
0.001249101827852428
0.0014437118079513311
0.001403658534400165
0.0012723198160529137
0.000667304324451834
0.0006077924626879394
0.001908294390887022
0.001322649302892387
0.0011276282602921128
0.0018762154504656792
0.0020038874354213476
0.0008050823234952986
0.001529105706140399
0.001045712037011981
0.0011328315595164895
0.0014859643997624516
0.0013849642127752304
0.0005684169009327888
0.0015626676613464952
0.0013486791867762804
0.0010702009312808514
0.001636543427594006
0.0006606781389564276
0.001051625469699502
0.001059423084370792
0.0007015762967057526
0.0009997452143579721
0.0006639574421569705
0.001243104925379157
0.0009300087695010006
0.0007546830456703901
0.0008419929654337466
0.0009019284625537694
0.0009532534750178456
0.0028813746757805347
0.0021390251349657774
0.001109369215555489
0.0012652475852519274
0.0005834980984218419
0.0014425358967855573
0.002117028459906578
0.0012503970647230744
0.0017422124510630965
0.0010228678584098816
0.00125631014816463
0.0010916858445852995
0.0007092315936461091
0.0009711401653476059
0.0007538438658230007
0.0024446616880595684
0.0007697297260165215
0.0017120660049840808
0.0012544895289465785
0.001729274750687182
0.0006847298354841769
0.0008357228944078088
0.0010461583733558655
