0.002860673237591982
0.0020796835888177156
0.003255343995988369
0.001824850682169199
0.0008251458639279008
0.001903423690237105
0.0017840259242802858
0.0008128617773763835
0.0012746150605380535
0.0004816506407223642
0.00120162358507514
0.0020419335924088955
0.002142842160537839
0.0032419543713331223
0.0012129346141591668
0.0031442514155060053
