0.001008480554446578
0.0014039812376722693
0.0009667811682447791
0.0011204755865037441
0.0004999175434932113
0.0008846666314639151
0.0009463272872380912
0.0016696950187906623
0.000542174035217613
0.002216616179794073
0.0017235735431313515
0.0008549923659302294
0.002710095839574933
0.0013641720870509744
0.0005599000724032521
0.0005082666757516563
0.0013208563905209303
0.0008284719660878181
0.003791345749050379
0.0012318938970565796
0.0006796715897507966
0.0014206611085683107
0.0014186633052304387
0.0004985829000361264
0.0007447122479788959
0.0019004110945388675
0.0010624905116856098
0.0011155460961163044
0.0012395408703014255
0.001570634194649756
0.000706709804944694
0.002901562722399831
