0.0009319988312199712
0.001001368393190205
0.001143765402957797
0.0019735756795853376
0.001100197434425354
0.0007707508048042655
0.0006616293103434145
0.0007006480591371655
0.0007304829778149724
0.0004842524358537048
0.0008168952772393823
0.0013612833572551608
0.0012460369616746902
0.0017546688904985785
0.0008007248979993165
0.00153551425319165
0.0008608521311543882
0.0006553098792210221
0.0006253671599552035
0.0008293333230540156
0.000522228074260056
0.0008015217026695609
0.001114948419854045
0.0011721368646249175
0.0013295275857672095
0.0009796814993023872
0.0029047930147498846
0.001183031126856804
0.0015085183549672365
0.0006740697426721454
0.0008516439120285213
0.0004839533066842705
0.0011521331034600735
0.001180405612103641
0.0012776808580383658
0.0012590246042236686
0.0007916109752841294
0.0006377371028065681
0.0008090315968729556
0.0012524790363386273
0.0008191533270291984
0.0006185398669913411
0.0018520632293075323
0.0007551417220383883
0.0007101402734406292
0.0006822986179031432
0.0009589301189407706
0.0007299400749616325
0.0007222418207675219
0.0009556661243550479
0.00101736921351403
0.0007576615898869932
0.0007954949978739023
0.0005179757135920227
0.0008325973176397383
0.0007551792077720165
0.0010052244178950787
0.0009671081206761301
0.0006976997829042375
0.001387259690091014
0.001928095705807209
0.0005942958523519337
0.0009550424292683601
0.004169867839664221
0.000647803652100265
0.0007631612243130803
0.0009031924419105053
0.0009603051003068686
0.0009000460850074887
0.0008513402426615357
0.001204870524816215
0.0006850433419458568
0.0009078672737814486
0.0005624620243906975
0.0007880213670432568
0.0009029702050611377
0.000631728966254741
0.0010820426978170872
0.0009155998704954982
0.0009502125321887434
0.0007659337134100497
0.0013640103861689568
0.0015627596294507384
0.000580302148591727
0.0018180572660639882
0.0006505496567115188
0.0008689790265634656
0.0006213908200152218
0.0008979146950878203
0.001852135406807065
0.0005288567626848817
0.0005490564508363605
0.000880544597748667
0.0014025905402377248
0.00045372825115919113
0.0010455958545207977
0.002038793172687292
0.000705904676578939
0.0004264972812961787
0.0009040659642778337
0.0005528728943318129
0.002375412732362747
0.00024553295224905014
0.0012398193357512355
0.0011358839692547917
0.001258642179891467
0.0010126677807420492
0.0010385852074250579
0.0009311275789514184
0.0013158447109162807
0.0009903657482936978
0.0010145425330847502
0.0009544202475808561
0.001517526456154883
0.0010458218166604638
0.0009012292139232159
0.0013876288430765271
0.0018548979423940182
0.0009661877411417663
0.001046217163093388
0.0011595040559768677
0.001528086606413126
0.0011205048067495227
0.0015736935893073678
0.0013629317982122302
0.001329802442342043
0.0009100490715354681
0.0007450159173458815
