0.010738383047282696
0.007596517913043499
0.01322054024785757
0.009595859795808792
0.009573332034051418
0.009589145891368389
0.0067164539359509945
0.013606104999780655
0.009897143580019474
0.009786003269255161
0.00864080898463726
0.007352352142333984
0.0067879934795200825
0.010292750783264637
0.009233868680894375
0.006954499986022711
0.010638765059411526
0.0075039854273200035
0.01207400020211935
0.008954958990216255
0.008898848667740822
0.00815435778349638
0.011117545887827873
0.013259406201541424
0.011301560327410698
0.008788595907390118
0.012777245603501797
0.010465129278600216
0.010130414739251137
0.014350411482155323
0.009654874913394451
0.007967703975737095
0.007507816888391972
0.009171459823846817
0.008115912787616253
0.009794816374778748
0.007496606092900038
0.00837236549705267
0.009055386297404766
0.008067987859249115
0.0075101591646671295
0.010753706097602844
0.0064514148980379105
0.007353789173066616
0.006287132389843464
0.01063934713602066
0.006063665729016066
0.009207777678966522
