0.01234462857246399
0.009452207945287228
0.04094910994172096
0.026152683421969414
0.015929317101836205
0.008197168819606304
0.007499914150685072
0.014320292510092258
0.011546917259693146
0.009942152537405491
0.008513156324625015
0.031221676617860794
0.015324922278523445
0.026248008012771606
0.019950298592448235
0.016205403953790665
0.021650923416018486
0.008356917649507523
0.040008243173360825
0.01603046990931034
0.006300799082964659
0.019403239712119102
0.03277751803398132
0.023673197254538536
0.011328033171594143
0.015510397963225842
0.03395127132534981
0.027899647131562233
0.013181931339204311
0.03172941133379936
0.026376374065876007
0.017970124259591103
0.02660241164267063
0.030913718044757843
0.014910721220076084
0.011267921887338161
0.02325887605547905
0.017548872157931328
0.02314085140824318
0.01988403871655464
0.010247115977108479
0.01995396614074707
0.012480851262807846
0.026577932760119438
0.005376230925321579
0.009958252310752869
0.009402620606124401
0.021664733067154884
