0.0375458225607872
0.037931766360998154
0.2643910348415375
0.1856740564107895
0.029974671080708504
0.011127389967441559
0.003381280694156885
0.07544536143541336
0.02780659683048725
0.007165173534303904
0.014542811550199986
0.1633015275001526
0.12972241640090942
0.29332679510116577
0.009856415912508965
0.004667083732783794
0.011099359951913357
0.0045311832800507545
0.017576614394783974
0.26025617122650146
0.13648992776870728
0.010749599896371365
0.15532997250556946
0.010449865832924843
0.1091073751449585
0.0037589005660265684
0.15431487560272217
0.020572777837514877
0.05934257432818413
0.03447894752025604
0.15425549447536469
0.026589810848236084
0.005520631093531847
0.0029709511436522007
0.009924747049808502
0.009044857695698738
0.0026021660305559635
0.011910973116755486
0.01428179256618023
0.007491793483495712
0.0022263498976826668
0.016383154317736626
0.01289704255759716
0.2243376225233078
0.012798283249139786
0.014495687559247017
0.1627642959356308
0.008133378811180592
0.32392972707748413
0.13019242882728577
0.13159501552581787
0.012533294968307018
0.024562863633036613
0.008319787681102753
0.011621391400694847
0.01620718091726303
0.013688293285667896
0.028200143948197365
0.029071621596813202
0.2343522310256958
0.007692836690694094
0.17759467661380768
0.06317570805549622
0.034870609641075134
0.009116392582654953
0.005470253527164459
0.026245633140206337
0.00836065411567688
0.0139912199229002
0.07879821956157684
0.016439370810985565
0.21332333981990814
0.006822922267019749
0.17899233102798462
0.09017075598239899
0.016567368060350418
0.0048096575774252415
0.011914159171283245
0.00819595716893673
0.06610625237226486
0.01026313379406929
0.007917876355350018
0.018633397296071053
0.010461575351655483
0.01897803507745266
0.00940094143152237
0.023434175178408623
0.14762639999389648
0.01705789566040039
0.19969747960567474
0.023305073380470276
0.028259508311748505
0.009952516295015812
0.00444974796846509
0.004733083304017782
0.17659547924995422
0.19177968800067902
0.2736733853816986
0.01767539046704769
0.0703887939453125
0.030779650434851646
0.22911310195922852
0.011704602278769016
0.16556093096733093
0.008159543387591839
0.008665801025927067
0.005218420177698135
0.013755527324974537
0.24691204726696014
0.01892710290849209
0.2412053942680359
0.004199313465505838
0.024137625470757484
0.051172442734241486
0.00715892668813467
0.012899811379611492
0.026660898700356483
0.22694768011569977
0.005299713928252459
0.00716431625187397
0.02284858003258705
0.002281542168930173
0.14557573199272156
0.022581081837415695
0.008446884341537952
0.05839896574616432
0.015204849652945995
0.0110851489007473
0.023785404860973358
0.01230838242918253
0.014637653715908527
0.018242700025439262
0.08256082236766815
0.006090091075748205
0.09329459816217422
0.020938564091920853
0.008860443718731403
0.0801820382475853
0.006839764304459095
0.10180851817131042
0.11314329504966736
0.19512876868247986
0.007999625988304615
0.01023623812943697
0.20747822523117065
0.015469030477106571
0.19415484368801117
0.2071940302848816
0.010271960869431496
0.017646389082074165
0.009782892651855946
0.007206135895103216
0.191282719373703
0.008455428294837475
0.01650114543735981
0.11101915687322617
0.019105253741145134
0.03772379085421562
0.01930973492562771
0.024673037230968475
0.017953375354409218
0.01838267222046852
0.011272713541984558
0.0349225215613842
0.30627796053886414
0.01226190198212862
0.020578423514962196
0.023879101499915123
0.005917221773415804
0.005100045818835497
0.01030039507895708
0.003627915633842349
0.015421192161738873
0.008183911442756653
0.01886516623198986
0.153978630900383
0.003911054227501154
0.022178638726472855
0.29864296317100525
0.02968582883477211
0.2757934033870697
0.009342172183096409
0.007310469634830952
0.013029851019382477
0.011735636740922928
0.22999058663845062
0.17210955917835236
0.0024537169374525547
0.0031427035573869944
0.07048042863607407
0.0213233083486557
0.2951861321926117
