0.05720259249210358
0.03583493456244469
0.02501603774726391
0.008861224167048931
0.08406709134578705
0.011841848492622375
0.005497382953763008
0.010588199831545353
0.06847674399614334
0.04960775747895241
0.007276836317032576
0.005190667230635881
0.06791277229785919
0.014561032876372337
0.05142178013920784
0.0031488731037825346
0.03632120415568352
0.008282864466309547
0.04049167037010193
0.02620365098118782
0.008737958036363125
0.002530608791857958
0.11305201053619385
0.013110948726534843
0.006882473826408386
0.02151869423687458
0.0016359713627025485
0.017902879044413567
0.007120024878531694
0.16184179484844208
0.004684165585786104
0.10347287356853485
0.09989510476589203
0.08843264728784561
0.005182777531445026
0.01300870068371296
0.0782972127199173
0.03593103215098381
0.03840503469109535
0.005190315656363964
0.011642303317785263
0.01019308716058731
0.004720248281955719
0.040278803557157516
0.008355814032256603
0.05821032449603081
0.03545220568776131
0.06601642072200775
0.011730949394404888
0.005083591677248478
0.043616365641355515
0.1280881017446518
0.0709773376584053
0.004026878159493208
0.07860996574163437
0.010383219458162785
0.006408161949366331
0.009332460351288319
0.07287266105413437
0.08095789700746536
0.015427847392857075
0.034076567739248276
0.007529701571911573
0.010639533400535583
0.005328080616891384
0.005482344888150692
0.15349024534225464
0.12804609537124634
0.006019266322255135
0.05517027899622917
0.028270509093999863
0.13539963960647583
0.07590051740407944
0.005706903990358114
0.0048248907551169395
0.01655534654855728
0.057877909392118454
0.009339418262243271
0.1162392869591713
0.021694375202059746
0.04463943839073181
0.04733389616012573
0.04968240484595299
0.002796628512442112
0.02442886121571064
0.05069277063012123
0.020241977646946907
0.013204592280089855
0.009760547429323196
0.037617962807416916
0.0046583558432757854
0.014956892468035221
0.02395506203174591
0.010149027220904827
0.004302388522773981
0.059158165007829666
0.01293933391571045
0.01385600958019495
0.039903901517391205
0.044605787843465805
0.017191363498568535
0.004273673519492149
0.02759435400366783
0.0087046567350626
0.03951931744813919
0.019243065267801285
0.02109980769455433
0.07490529865026474
0.015362289734184742
0.01160401664674282
0.00818347092717886
0.040460746735334396
0.17709270119667053
0.04311976209282875
0.06533084064722061
0.020997174084186554
0.007841356098651886
0.030237480998039246
0.049747392535209656
0.09252208471298218
0.010792243294417858
0.020534764975309372
0.012923135422170162
0.0968577042222023
0.013698384165763855
0.16413894295692444
0.0035585479345172644
0.01911940798163414
0.010008235462009907
0.11451581865549088
0.008098090067505836
0.05962356925010681
0.011014829389750957
0.008191422559320927
0.011203408241271973
0.05336900055408478
0.09426432847976685
0.06990548968315125
0.027889907360076904
0.06831850111484528
0.03347237408161163
0.11720113456249237
0.06437363475561142
0.02027142234146595
0.006719241384416819
0.014324239455163479
0.010489718988537788
0.0298036877065897
0.003195985686033964
0.012783095240592957
0.008287747390568256
0.08439479023218155
0.010633661411702633
0.017109891399741173
0.007075423374772072
0.010663778521120548
0.012195112183690071
0.005315281916409731
0.06682916730642319
0.009783902205526829
0.021526306867599487
0.0461941622197628
0.006003850605338812
0.0018452879739925265
0.03364279866218567
0.0016589107690379024
0.14970830082893372
0.05453229323029518
0.027268802747130394
0.006279483437538147
0.015198618173599243
0.058137305080890656
0.03885487839579582
0.012428369373083115
0.003109428333118558
0.006897801533341408
0.00873088650405407
0.010850968770682812
0.06796035915613174
0.008271712809801102
0.009365948848426342
0.010063881054520607
0.036408450454473495
0.0026393074076622725
0.052491459995508194
0.03151773288846016
0.06528838723897934
0.034260816872119904
0.01036040484905243
0.007085909601300955
0.07932788878679276
0.04875629022717476
0.024938246235251427
0.05223611369729042
0.03603203967213631
0.005442588124424219
0.051963455975055695
0.0629916712641716
0.036848731338977814
0.005354759283363819
0.007045748643577099
0.007283298298716545
0.023581411689519882
0.037636712193489075
0.10900017619132996
0.060289256274700165
0.027568435296416283
0.02016959711909294
0.04851071164011955
0.052637651562690735
0.057031214237213135
0.07764379680156708
0.01360816229134798
0.009570760652422905
0.016826113685965538
0.035961732268333435
0.02832522988319397
0.03656017780303955
0.01068488135933876
0.01570861227810383
0.012003445066511631
0.021929465234279633
0.10700879245996475
0.010349038057029247
0.0530720017850399
0.03507837653160095
0.04346271604299545
0.06692206859588623
0.0062631238251924515
0.04831642284989357
0.03239009156823158
0.026515211910009384
0.047860704362392426
0.033269356936216354
0.04541883245110512
0.07261775434017181
0.17177695035934448
0.025466743856668472
0.0763220563530922
0.103401780128479
0.03175823390483856
0.05806553363800049
0.014713945798575878
0.012988311238586903
0.0024083061143755913
0.002181465970352292
0.013051994144916534
0.02381700649857521
0.03851043060421944
0.16333433985710144
0.07861810177564621
0.06607411801815033
0.013824437744915485
0.05474657565355301
0.02595999650657177
0.07575365900993347
0.026063913479447365
0.03289014846086502
0.07915499806404114
0.01607486605644226
0.009420341812074184
0.0807042047381401
0.00918286107480526
0.007491547614336014
0.010456527583301067
0.08243963122367859
0.01380893774330616
0.06035000830888748
0.010756637901067734
0.09826105087995529
0.017952701076865196
0.002186147728934884
0.052248042076826096
0.01367107778787613
0.11937979608774185
0.011693967506289482
0.029922032728791237
0.08467991650104523
0.011269844137132168
0.031480927020311356
0.023334721103310585
0.048273198306560516
0.03646372631192207
0.03329356759786606
0.008867209777235985
0.10728496313095093
0.022770307958126068
0.04294343665242195
0.19393369555473328
0.12210244685411453
0.023168914020061493
0.034578870981931686
0.0139396283775568
0.02771861106157303
0.04708227515220642
0.035221975296735764
0.016268286854028702
0.05179044231772423
0.08740811794996262
0.008726103231310844
0.004615494981408119
0.0051781171932816505
0.048013150691986084
0.030727779492735863
0.013599076308310032
0.02517908811569214
0.08662809431552887
0.04363904520869255
0.003842649981379509
0.019769886508584023
0.024884501472115517
0.03867163136601448
0.031821899116039276
0.01298888772726059
0.00418833876028657
0.07300091534852982
0.0018026025500148535
0.05806232616305351
0.009613956324756145
0.014844827353954315
0.02268141694366932
0.010184750892221928
0.019840825349092484
0.027445901185274124
0.03907695412635803
0.009211891330778599
0.0344310887157917
0.05340151861310005
0.017612742260098457
0.011997081339359283
0.009718232788145542
0.003876853035762906
0.020007971674203873
0.012586526572704315
0.023383842781186104
0.010058987885713577
0.026506932452321053
0.014102709479629993
0.02989339455962181
0.01887338049709797
0.02374023199081421
0.024595901370048523
0.0070189968682825565
0.04713825136423111
0.006683609448373318
0.017658328637480736
0.02262902446091175
0.04217765852808952
0.014483056962490082
0.042145710438489914
0.062003426253795624
0.0416189469397068
0.002966479863971472
0.044211771339178085
0.00784479919821024
0.015839997678995132
0.009978549554944038
0.007119376212358475
0.020223719999194145
0.010927527211606503
0.043560173362493515
0.04344769939780235
0.020193738862872124
0.004602986387908459
0.05180037394165993
0.05405992642045021
0.03530791401863098
0.04426218196749687
0.15452896058559418
0.005975806154310703
0.047915756702423096
0.005475737154483795
0.00559242395684123
0.041223540902137756
0.006669351831078529
0.006727463100105524
0.012003866024315357
0.06514421105384827
0.007415258791297674
0.06737160682678223
0.03184888884425163
0.04755615070462227
0.009004884399473667
0.038824424147605896
