0.004096983000636101
0.002566581591963768
0.001791707007214427
0.0006346615846268833
0.00602108146995306
0.000848140858579427
0.00039373539038933814
0.0007583515834994614
0.004904464352875948
0.0035530233290046453
0.0005211840034462512
0.0003717677027452737
0.004864071495831013
0.0010428951354697347
0.003682947950437665
0.00022552964219357818
0.0026014093309640884
0.0005932381027378142
0.0029001079965382814
0.0018767666770145297
0.0006258329376578331
0.00018124810594599694
0.008097048848867416
0.0009390367777086794
0.0004929388524033129
0.001541219069622457
0.00011717208690242842
0.0012822459684684873
0.0005099527770653367
0.011591487564146519
0.0003354908840265125
0.007410968653857708
0.0071547203697264194
0.0063337525352835655
0.00037120262277312577
0.0009317134972661734
0.005607828963547945
0.00257346429862082
0.0027506581973284483
0.00037174252793192863
0.0008338489569723606
0.0007300527067855
0.00033807518775574863
0.0028848620131611824
0.0005984628805890679
0.004169159103184938
0.002539169741794467
0.004728250205516815
0.0008401979575864971
0.0003640986979007721
0.003123905975371599
0.009173968806862831
0.005083562806248665
0.00028841441962867975
0.0056302291341125965
0.0007436703890562057
0.00045896752271801233
0.0006684125983156264
0.0052193100564181805
0.00579839339479804
0.0011049784952774644
0.0024406432639807463
0.0005392947932705283
0.0007620282121933997
0.0003816095704678446
0.0003926583449356258
0.01099332980811596
0.009170960634946823
0.00043111390550620854
0.003951424267143011
0.002024799818173051
0.00969763845205307
0.005436172243207693
0.00040874179103411734
0.0003455699479673058
0.001185732544399798
0.004145350772887468
0.0006689109141007066
0.008325329050421715
0.0015538018196821213
0.0031971808057278395
0.003390164114534855
0.003558369819074869
0.00020030105952173471
0.0017496520886197686
0.0036307345144450665
0.0014497777447104454
0.0009457436972297728
0.0006990731926634908
0.0026942864060401917
0.0003336423251312226
0.0010712475050240755
0.0017157174879685044
0.0007268970366567373
0.00030814710771664977
0.0042370459996163845
0.0009267452987842262
0.000992399756796658
0.0028580105863511562
0.0031947705429047346
0.0012312856270000339
0.0003060904855374247
0.0019763719756156206
0.0006234478205442429
0.002830465789884329
0.0013782333116978407
0.001511217444203794
0.005364892538636923
0.0011002829996868968
0.0008311067358590662
0.0005861193058080971
0.002897893078625202
0.012683792971074581
0.003088338067755103
0.004679147154092789
0.0015038666315376759
0.0005616162088699639
0.0021656788885593414
0.0035630243364721537
0.006626647897064686
0.0007729656645096838
0.001470747753046453
0.000925585103686899
0.006937175057828426
0.0009811102645471692
0.011756014078855515
0.0002548714983277023
0.0013693766668438911
0.0007168131996877491
0.008201890625059605
0.0005800041253678501
0.004270379431545734
0.000788907811511308
0.0005866888095624745
0.000802414258942008
0.0038224123418331146
0.006751431152224541
0.005006794352084398
0.0019975402392446995
0.004893130622804165
0.0023973695933818817
0.008394218981266022
0.004610590171068907
0.0014518866082653403
0.0004812477563973516
0.0010259355185553432
0.0007512981537729502
0.0021346097346395254
0.00022890395484864712
0.0009155551088042557
0.0005935878143645823
0.006044551730155945
0.0007616076618432999
0.0012254503089934587
0.0005067583406344056
0.0007637647213414311
0.0008734423900023103
0.00038069288711994886
0.004786461126059294
0.0007007459062151611
0.0015417643589898944
0.003308533690869808
0.00043000979349017143
0.00013216382649261504
0.002409575739875436
0.00011881506361532956
0.010722458362579346
0.003905730089172721
0.0019530552672222257
0.0004497512709349394
0.0010885605588555336
0.0041639297269284725
0.002782877068966627
0.0008901488035917282
0.00022270451881922781
0.0004940366488881409
0.000625326472800225
0.0007771716918796301
0.004867479670792818
0.0005924393772147596
0.0006708111031912267
0.0007207986782304943
0.0026076582726091146
0.00018903335148934275
0.003759560873731971
0.0022573736496269703
0.0046761068515479565
0.0024538396392017603
0.0007420363835990429
0.0005075093940831721
0.005681648384779692
0.003492039395496249
0.00178613536991179
0.0037412724923342466
0.002580698812380433
0.0003898108552675694
0.003721744054928422
0.004511610604822636
0.002639192156493664
0.000383520353352651
0.0005046329461038113
0.0005216468125581741
0.001688955700956285
0.0026956291403621435
0.007806846871972084
0.004318057093769312
0.0019745156168937683
0.0014445936540141702
0.0034744504373520613
0.003770031500607729
0.004084708634763956
0.005561030004173517
0.0009746483410708606
0.0006854802486486733
0.0012051255907863379
0.002575663151219487
0.0020287190563976765
0.0026185251772403717
0.0007652761414647102
0.00112508749589324
0.000859714753460139
0.00157063954975456
0.007664219476282597
0.0007412222912535071
0.0038011407013982534
0.0025123951490968466
0.003112901234999299
0.004793114960193634
0.0004485795507207513
0.003460535081103444
0.00231985398568213
0.0018990813987329602
0.0034278954844921827
0.002382829086855054
0.0032530028838664293
0.005201052874326706
0.012303066439926624
0.001823987695388496
0.005466363858431578
0.007405876647680998
0.002274598926305771
0.004158789291977882
0.0010538471397012472
0.0009302531834691763
0.00017248850781470537
0.00015624168736394495
0.0009348142775706947
0.001705829636193812
0.002758207032456994
0.011698386631906033
0.005630812142044306
0.004732382483780384
0.0009901385055854917
0.003921077586710453
0.0018593155546113849
0.005425653886049986
0.0018667583353817463
0.0023556691594421864
0.005669265519827604
0.001151319476775825
0.0006747068837285042
0.00578022375702858
0.000657697964925319
0.0005365621182136238
0.0007489208946935833
0.005904518999159336
0.00098902836907655
0.004322408698499203
0.0007704155286774039
0.007037685718387365
0.0012858143309131265
0.0001565770071465522
0.0037421267479658127
0.0009791544871404767
0.008550259284675121
0.0008375492761842906
0.0021430859342217445
0.006064973305910826
0.0008071725605987012
0.002254737541079521
0.0016712872311472893
0.0034574391320347786
0.0026116170920431614
0.0023845629766583443
0.000635090284049511
0.007683999370783567
0.0016308625927194953
0.0030757091008126736
0.013889984227716923
0.008745262399315834
0.0016594117041677237
0.0024766195565462112
0.0009983887430280447
0.001985271694138646
0.003372142557054758
0.0025226802099496126
0.0011651726672425866
0.0037093523424118757
0.006260373629629612
0.0006249838625080884
0.00033057251130230725
0.0003708688309416175
0.0034388138446956873
0.0022007953375577927
0.0009739975794218481
0.0018033850938081741
0.006204506382346153
0.0031255302019417286
0.0002752195578068495
0.0014159653801470995
0.0017822860972955823
0.0027697524055838585
0.0022791586816310883
0.0009302944527007639
0.00029997859383001924
0.0052284961566329
0.00012910660007037222
0.004158559255301952
0.0006885739858262241
0.0010632211342453957
0.0016244960715994239
0.0007294556125998497
0.0014210462104529142
0.001965739531442523
0.0027987826615571976
0.000659777142573148
0.0024660348426550627
0.0038247413467615843
0.0012614657171070576
0.0008592589874751866
0.0006960424943827093
0.0002776692563202232
0.0014330176636576653
0.0009014764218591154
0.001674805418588221
0.0007204482099041343
0.0018984883790835738
0.0010100689250975847
0.002141034696251154
0.001351755578070879
0.0017003308748826385
0.001761615858413279
0.0005027169245295227
0.003376151667907834
0.00047869569971226156
0.0012647307012230158
0.0016207435401156545
0.0030208623502403498
0.0010373103432357311
0.0030185740906745195
0.004440830089151859
0.0029808462131768465
0.00021246621327009052
0.0031665503047406673
0.0005618628347292542
0.0011344975791871548
0.000714686990249902
0.0005099063273519278
0.0014484700514003634
0.0007826550281606615
0.0031198812648653984
0.003111825557425618
0.0014463227707892656
0.00032967663719318807
0.0037100636400282383
0.003871898166835308
0.0025288353208452463
0.003170160809531808
0.011067724786698818
0.00042800119263119996
0.0034318382386118174
0.00039218508754856884
0.0004005424561910331
0.0029525263234972954
0.00047767453361302614
0.0004818366141989827
0.0008597449050284922
0.00466578034684062
0.0005310981650836766
0.004825311712920666
0.0022810918744653463
0.0034060825128108263
0.0006449508364312351
0.0027806959114968777
