5.672683982993476e-05
2.9806464226567186e-05
3.2377247407566756e-05
0.0001107937641791068
2.3857241103542037e-05
0.00012758909724652767
0.00015923743194434792
0.00012209225678816438
3.928507794626057e-05
5.092172068543732e-05
0.00019973106100223958
0.00020066984870936722
3.531589754857123e-05
9.367128950543702e-05
0.00010310205834684893
0.00022584255202673376
5.219167724135332e-05
0.00019999769574496895
6.901109736645594e-05
0.0005097123212181032
0.00010802199540194124
0.0003260379016865045
0.0001770152011886239
0.00016378957661800086
0.00018714867474045604
0.0002444610872771591
0.00029155673109926283
0.00010547295096330345
0.00024282513186335564
0.0001660188427194953
0.000249423406785354
1.7908796507981606e-05
4.325425470597111e-05
6.690019654342905e-05
0.000150558291352354
0.00010544507676968351
2.008970477618277e-05
8.432970935245976e-05
3.1420386221725494e-05
0.00020628822676371783
5.2110397518845275e-05
6.401666178135201e-05
9.130705439019948e-05
3.9353672036668286e-05
0.00012506527127698064
0.00010292083607055247
3.0873401556164026e-05
3.239465513615869e-05
0.00013656282681040466
0.0001499693316873163
0.0002046355075435713
0.000341739971190691
4.000407352577895e-05
8.546627213945612e-05
2.674004645086825e-05
0.00020774040604010224
9.70085384324193e-05
0.00010645877046044916
3.777668098337017e-05
2.577136729087215e-05
6.202416989253834e-05
9.930308442562819e-05
0.00021336648205760866
0.0001765843335306272
9.493824472883716e-05
6.955392746021971e-05
4.080926737515256e-05
0.00013454083818942308
0.0001788213849067688
4.960257138009183e-05
0.0001518796052550897
1.7578358892933466e-05
0.00016214796050917357
0.0002118418924510479
0.00016811146633699536
0.00019462608906906098
0.00010557987843640149
0.0002033463679254055
5.306219100020826e-05
6.224152457434684e-05
3.821302379947156e-05
0.00010861019109142944
8.539407281205058e-05
0.00019951415015384555
4.8859204980544746e-05
7.277877739397809e-05
4.81889073853381e-05
9.700731607154012e-05
0.00013634079368785024
5.91459174756892e-05
0.00017432011372875422
6.272675818763673e-05
0.00014298198220785707
9.884364408208057e-05
0.0002187653590226546
6.835577369201928e-05
8.022484689718112e-05
8.483042620355263e-05
0.00012425679597072303
4.8128855269169435e-05
0.00015291925228666514
0.00013828175724484026
7.406447548419237e-05
0.00014207142521627247
2.8369258870952763e-05
4.2293613660149276e-05
4.956430711899884e-05
3.462143649812788e-05
0.0001882078213384375
0.00023301717010326684
0.00018032355001196265
5.2703311666846275e-05
9.24179403227754e-05
4.43964745500125e-05
2.4105214833980426e-05
0.00016189119196496904
0.00022332342632580549
9.190098353428766e-05
0.0003255488118156791
1.2876983419118915e-05
8.085537410806865e-05
4.138379517826252e-05
9.45573701756075e-05
2.7574018531595357e-05
0.0002526080352254212
1.593607521499507e-05
0.00015726927085779607
8.249679376604035e-05
0.00034686585422605276
5.8517372963251546e-05
0.00016249077452812344
5.21085639775265e-05
0.0001222046121256426
0.00013563116954173893
0.0002131198561983183
7.059336348902434e-05
3.492393807391636e-05
2.0038100046804175e-05
0.00012187939864816144
0.00012900058936793357
3.928718433598988e-05
2.5415945856366307e-05
4.127388456254266e-05
6.930559175089002e-05
0.00019222151604481041
0.0001679712877376005
0.00018352574261371046
0.00017675438721198589
0.00023170514032244682
5.874617272638716e-05
0.00018797766824718565
5.5680295190541074e-05
6.700141966575757e-05
9.365262667415664e-05
8.265137148555368e-05
5.0978331273654476e-05
0.00019211447215639055
0.0001663775328779593
2.413402035017498e-05
0.00023692661488894373
0.00015806268493179232
0.00015108122897800058
0.00020525261061266065
0.0002883901761379093
3.5817214666167274e-05
0.00019443289784248918
1.5897079720161855e-05
4.377701770863496e-05
9.935754496837035e-05
0.0002696405572351068
0.00012041828449582681
4.636197263607755e-05
7.744836329948157e-05
0.00017850103904493153
0.000131990309455432
0.00012482941383495927
0.00020361418137326837
0.00018075916159432381
2.4167500669136643e-05
8.727976091904566e-05
0.00023943996347952634
0.0001641022099647671
7.997400098247454e-05
3.5356682928977534e-05
0.00011666986392810941
7.060734060360119e-05
0.00015375557995866984
0.00010506271064514294
7.662498683203012e-05
0.00017653938266448677
6.42014856566675e-05
6.193224544404075e-05
5.1140650612069294e-05
0.00012325900024734437
0.00019720489217434078
0.00016536509792786092
4.185746729490347e-05
3.0575061828130856e-05
4.533426545094699e-05
0.00019346892077010125
0.0002917922683991492
0.00013606130960397422
0.0001078523782780394
0.00016626859724055976
2.737809882091824e-05
0.00012228301784489304
0.00014498189557343721
0.00016621130635030568
4.5477969251805916e-05
4.4152453483548015e-05
4.193861241219565e-05
3.2800089684315026e-05
9.540726023260504e-05
0.00010197558731306344
0.00016913727449718863
8.086318848654628e-05
3.4466116630937904e-05
8.963350410340354e-05
6.399356061592698e-05
8.079953113337979e-05
0.00018408875621389598
0.00017874570039566606
2.7911595680052415e-05
9.954209963325411e-05
3.75994059140794e-05
4.990878369426355e-05
0.00013104395475238562
8.556873945053667e-05
0.0001651598431635648
0.00013755355030298233
3.5656899854075164e-05
0.00020701831090264022
2.6766021619550884e-05
0.00016884345677681267
3.470446608844213e-05
2.9252531021484174e-05
2.867037801479455e-05
0.00014979972911532968
0.0001193635180243291
3.7634948967024684e-05
6.49038192932494e-05
3.5861845390172675e-05
0.00024441914865747094
0.00015530106611549854
0.00034183741081506014
0.00025648833252489567
0.00017060442769434303
5.6817763834260404e-05
7.382238982245326e-05
8.69956347742118e-05
3.210228169336915e-05
7.05215206835419e-05
8.843056275509298e-05
7.183003617683426e-05
0.00041077929199673235
4.763971082866192e-05
5.2256989874877036e-05
0.00010179830860579386
8.605510811321437e-05
0.0002431984175927937
0.0001746319030644372
0.0001494148891652003
0.00014861676027067006
0.00013203767593950033
0.0001960410736501217
6.458570715039968e-05
7.848607492633164e-05
3.38034842570778e-05
0.00010136845230590552
3.190201459801756e-05
0.00010651028424035758
0.0003336555673740804
0.0001696651306701824
0.00013313307135831565
5.264324136078358e-05
0.00014590621867682785
0.0001758906728355214
4.1341078031109646e-05
0.00016783998580649495
5.214635530137457e-05
0.0001226964668603614
2.865876922442112e-05
4.4571494072442874e-05
4.736599657917395e-05
0.00013327911437954754
2.8164115065010265e-05
0.0001542798854643479
0.0001884838129626587
6.395680247806013e-05
1.289973715756787e-05
9.717151988297701e-05
4.378642188385129e-05
0.00011239743616897613
0.00014399645442608744
6.156478775665164e-05
0.00021747959544882178
7.576856296509504e-05
2.6350069674663246e-05
0.00015026058827061206
0.0001873191649792716
0.00014659538283012807
0.00014038398512639105
6.711686728522182e-05
6.310778553597629e-05
0.00010181819379795343
0.00011462608381407335
3.525974534568377e-05
4.651410927181132e-05
0.00026511101168580353
0.0001916995970532298
9.689792932476848e-05
0.00012891998630948365
2.6032450477941893e-05
0.00015169361722655594
0.00016301120922435075
4.480834468267858e-05
0.0001555949856992811
0.00011069919855799526
0.00011618492135312408
5.856990901520476e-05
0.00016426869842689484
0.00013202718400862068
5.3645930165657774e-05
0.0001637868263060227
3.1953819416230544e-05
8.912125485949218e-05
4.9702488468028605e-05
2.5329096388304606e-05
7.183518027886748e-05
0.00020812945149373263
0.00011415259359637275
0.00019839858578052372
0.00013456301530823112
0.00012756750220432878
8.744676597416401e-05
5.815915938001126e-05
0.00018952794198412448
0.00019235364743508399
0.00020364091324154288
4.9463153118267655e-05
9.102110925596207e-05
0.00010122705134563148
0.00017198664136230946
3.5887162084691226e-05
0.00012508072541095316
0.00011864225234603509
8.504573634127155e-05
2.9837801776011474e-05
6.252191815292463e-05
4.0069637179840356e-05
0.00010185868450207636
0.00015196514141280204
0.0002389674773439765
0.00014218658907338977
0.0002057576202787459
4.8930105549516156e-05
6.736517389072105e-05
0.00012949970550835133
9.640250937081873e-05
7.926952093839645e-05
0.00010373091936344281
3.3305954275419936e-05
0.00022753298981115222
0.0002142735756933689
2.54248679993907e-05
3.415687024244107e-05
3.138746978947893e-05
0.00010395413119113073
5.981472713756375e-05
0.00021183397620916367
7.407292287098244e-05
9.857055556494743e-05
0.00022909403196536005
7.815806748112664e-05
0.00011292481940472499
0.00010254378867102787
6.740519165759906e-05
6.229840801097453e-05
0.0001098755092243664
3.873452078551054e-05
4.0179944335250184e-05
0.0001776895805960521
6.103872874518856e-05
0.00026863077073358
