0.001986344112083316
0.0009695063927210867
0.0007648034952580929
0.0005183257744647563
0.001402116846293211
0.000432663771789521
0.0010152111062780023
0.0003774235083255917
0.003975737374275923
0.0007034951122477651
0.0009350342443212867
0.000889368006028235
0.0003728021983988583
0.0004266161995474249
0.0005195049452595413
0.005264779087156057
0.00038670943467877805
0.0013720326824113727
0.001985034206882119
0.0008989053894765675
0.0007480132044292986
0.0041159214451909065
0.000743769749533385
0.0015008613700047135
0.0005303568323142827
0.0005848694709129632
0.0006241672672331333
0.0018139912281185389
0.000988901243545115
0.0011735380394384265
0.0005136988474987447
0.0015893137315288186
0.0007456044550053775
8.358871127711609e-05
0.0008923065615817904
0.0011225978378206491
0.0026410480495542288
0.0011303803185001016
0.0005732462159357965
0.001202319748699665
0.005285239778459072
0.0011300715850666165
0.0013001697370782495
0.0006959358579479158
0.0013452881248667836
0.00022878281015437096
0.0003846211184281856
0.0006397672696039081
0.0012055743718519807
0.000470594794023782
0.0010081544751301408
0.0008396085468120873
0.0028993706218898296
0.0006114542484283447
0.0010987883433699608
0.004125535953789949
0.0005896115908399224
0.00044304566108621657
0.0006775922956876457
0.0005589337670244277
0.0007700310088694096
0.0008041179389692843
0.00033132793032564223
0.000585957255680114
0.0012753299670293927
0.0005205720663070679
0.00044603063724935055
0.0011614087270572782
0.0014830518048256636
0.000657528406009078
0.0044567943550646305
0.00040226048440672457
0.0007159017841331661
0.0005180318257771432
0.001258157310076058
0.0033107006456702948
0.004754526540637016
0.0012135774595662951
0.001547579886391759
0.0008876543724909425
0.0009163750801235437
0.002916349098086357
0.0007935421308502555
0.0008423877297900617
0.00543137826025486
0.0036487628240138292
0.00029051958699710667
0.0007023877114988863
0.0007775331614539027
0.0008359986823052168
0.0008009913726709783
0.000763390155043453
0.0017811092548072338
0.0038808879908174276
0.0007131478632800281
0.0007481143693439662
0.0005002643447369337
0.001004424411803484
0.0009315002826042473
0.0006356036174111068
0.0004157020302955061
0.0008041385444812477
0.003085641423240304
0.0009611746645532548
0.00023913747281767428
0.001156426384113729
0.00023413643066305667
0.0012908021453768015
0.0006650205468758941
0.0013648229651153088
0.0007588463486172259
0.0053465599194169044
0.0019661658443510532
0.0009128934470936656
0.0011174051323905587
0.0016493948642164469
0.0009664118988439441
0.0003766862500924617
0.002007343340665102
0.0007630550535395741
0.0005275647272355855
0.0004669683112297207
0.0005807443521916866
0.0013332990929484367
0.00022987712873145938
0.0006855936371721327
0.0016825812635943294
0.000320804218063131
0.0004491958243306726
0.0013015468139201403
0.0013190059689804912
0.002014826750382781
0.00027652335120365024
0.0012167026288807392
0.0005318820476531982
0.0012129400856792927
0.000694292364642024
0.0008264395291917026
0.0004546928685158491
0.0014258454320952296
0.00039960467256605625
0.00040138766053132713
0.0005794332828372717
0.0011668212246149778
0.00015574846474919468
0.004238427616655827
0.0007991911843419075
0.00018458253180142492
0.0025585652329027653
0.001526990788988769
0.00012360539403744042
0.0013727245386689901
0.001003091223537922
0.00046477612340822816
0.0016567938728258014
0.0006773839122615755
0.0008630520896986127
0.0006448826170526445
0.0006049425574019551
0.0030870724003762007
0.0009335206123068929
0.0004748737846966833
0.0010160208912566304
0.0006780506810173392
0.0002505579905118793
0.001009336905553937
0.00010212903725914657
0.0015072376700118184
0.006151101086288691
0.003816702403128147
0.0006223500822670758
0.0010879159672185779
0.0009386090678162873
0.0010417111916467547
0.0011887867003679276
0.0010253468062728643
0.0008321208297275007
0.0016212227055802941
0.000625422690063715
0.0010678061516955495
0.0009963460033759475
0.0004628690076060593
0.0007632313063368201
0.0020135946106165648
0.00035310033126734197
0.0009081829339265823
0.0007974948966875672
0.005617951974272728
0.0007095254259184003
0.0008943548891693354
0.0016587660647928715
0.0011248075170442462
