0.0001327578938798979
0.00022557016927748919
0.00010379183368058875
0.00018590889521874487
0.00011547424946911633
0.00026788742979988456
0.0001843595819082111
0.00010160018427995965
0.00011835468467324972
0.00024076303816400468
0.00019094538583885878
0.00016322085866704583
0.00019442821212578565
0.00011720695329131559
0.00011211699165869504
0.00014068119344301522
0.00012249471910763532
0.00016195018542930484
8.161942241713405e-05
0.0003551287518348545
0.00016566779231652617
0.00012876876280643046
0.000294956611469388
0.00017004646360874176
