3.162783104926348e-05
2.3716367650195025e-05
2.156246773665771e-05
0.00016173950280062854
3.7117373722139746e-05
3.056754940189421e-05
9.645234968047589e-05
2.4933498934842646e-05
2.8918391762999818e-05
4.023572910227813e-05
0.00013403859338723123
0.0001553214096929878
1.799745950847864e-05
0.0001317575661232695
0.00010269732592860237
4.536959750112146e-05
2.7200683689443395e-05
4.2301671783206984e-05
0.00014589226339012384
9.234548633685336e-05
7.506520341848955e-05
7.666389137739316e-05
8.566405449528247e-05
0.000255706487223506
0.00016029173275455832
9.79614706011489e-05
4.9498339649289846e-05
3.3554759284015745e-05
0.00027051393408328295
0.000109065804281272
0.00031960633350536227
0.0001734097459120676
9.437226981390268e-05
7.223274587886408e-05
3.700700108311139e-05
0.0002326896646991372
3.042528078367468e-05
0.00012015951506327838
0.0005165174952708185
1.817387601477094e-05
6.545947690028697e-05
0.00011947307939408347
0.0001324979675700888
2.987863808812108e-05
2.3843869712436572e-05
0.0001860377233242616
3.459904110059142e-05
4.99883753946051e-05
0.0003016785194631666
4.863762660534121e-05
0.00022904545767232776
6.113203562563285e-05
4.635943696484901e-05
0.00019718726980499923
4.555556006380357e-05
0.00011430445738369599
3.4673288610065356e-05
4.331966920290142e-05
5.267369851935655e-05
3.283723344793543e-05
3.664976611617021e-05
9.714638872537762e-05
0.00027113320538774133
0.00011008713772753254
0.00015705071564298123
0.00010823731281561777
6.668165588052943e-05
0.00017438712529838085
0.0004081938532181084
3.396074316697195e-05
0.00015965769125614315
0.0002016712969634682
7.45488068787381e-05
4.7187051677610725e-05
4.873642683378421e-05
0.00013324549945537
4.135025301366113e-05
0.0002258709428133443
9.065923222806305e-05
5.453987614600919e-05
2.5006431314977817e-05
5.3014511649962515e-05
7.110535079846159e-05
6.979514728300273e-05
0.0001842128112912178
0.0001262187579413876
3.071540777455084e-05
0.00016672880155965686
0.0001354396081296727
2.2093101506470703e-05
2.41013531194767e-05
6.465811748057604e-05
3.05619505525101e-05
0.00012551830150187016
6.354781362460926e-05
5.141739165992476e-05
1.9940571291954257e-05
2.3390619389829226e-05
0.0001590162282809615
5.770946518168785e-05
0.00013838859740644693
9.393529762746766e-05
0.00011854067270178348
0.0001104891998693347
2.4748400392127223e-05
2.220312126155477e-05
4.195902874926105e-05
5.237897130427882e-05
0.00013937508629169315
6.836604734417051e-05
0.00019332434749230742
0.00011372563312761486
0.00018880557036027312
4.7434168664040044e-05
0.0002538131666369736
0.00011810346768470481
0.00015514055849052966
9.930384840117767e-05
7.19532254152e-05
0.00013732435763813555
4.180373070994392e-05
3.2610372727504e-05
0.00015156297013163567
0.00011723022180376574
0.00011134868691442534
0.00019307398179080337
0.00012641437933780253
5.942811549175531e-05
0.00011931496555916965
0.00010512908193049952
5.615489135379903e-05
6.575198494829237e-05
2.9896997148171067e-05
0.00025137592456303537
6.457549170590937e-05
0.00010473475413164124
4.626298323273659e-05
0.00023667099594604224
0.00022876464936416596
6.861044676043093e-05
6.338053935905918e-05
4.893496588920243e-05
0.00022238238307181746
0.0002108973276335746
4.245847594575025e-05
0.00012036557745886967
0.0001856035232776776
0.00010016920714406297
4.8873680498218164e-05
0.00024778262013569474
0.00021719129290431738
8.53220044518821e-05
6.680142541881651e-05
2.585837137303315e-05
4.227026511216536e-05
0.00015699389041401446
0.0001758172147674486
5.572554073296487e-05
3.639622809714638e-05
0.00026279178564436734
7.359868322964758e-05
3.817136894213036e-05
2.6040050215669908e-05
3.816039679804817e-05
2.5080029445234686e-05
0.00010490872955415398
0.00016329492791555822
7.667319005122408e-05
0.00011943577555939555
0.000110752007458359
5.479353785631247e-05
4.1487321141175926e-05
0.00012613646686077118
9.416923421667889e-05
0.00016631733160465956
0.00014535408990923315
7.699286652496085e-05
8.512038766639307e-05
0.00016284761659335345
6.326180300675333e-05
7.897364412201568e-05
4.2743053199956194e-05
0.0001082696981029585
4.348175207269378e-05
4.8368190618930385e-05
0.0001810510002542287
0.00014739049947820604
0.00010014468716690317
0.00011527742026373744
0.00014679586456622928
0.00011413049651309848
5.1000948587898165e-05
2.2194146367837675e-05
0.00013899174518883228
0.00010920778004219756
9.143937495537102e-05
2.45486298808828e-05
2.5984814783441834e-05
5.0995167839573696e-05
0.00010165995627176017
5.88128314120695e-05
0.00018673356680665165
0.00017417279013898224
8.078530663624406e-05
4.065031680511311e-05
5.561727084568702e-05
9.570066322339699e-05
0.00014824781101197004
9.855905955191702e-05
5.18692031619139e-05
2.914419019361958e-05
2.469022001605481e-05
2.4169517928385176e-05
6.664969259873033e-05
0.0001629904581932351
3.730725438799709e-05
2.6987587261828594e-05
0.00016296816465910524
2.1450901840580627e-05
5.475870057125576e-05
0.00012571380648296326
0.00017168295744340867
2.443102675897535e-05
3.8604419387411326e-05
1.9638800949906e-05
2.7976659112027846e-05
0.0001733510580379516
7.450434350175783e-05
3.664098403532989e-05
6.277787178987637e-05
3.361251947353594e-05
0.00026011394220404327
5.510908886208199e-05
0.00017244444461539388
4.302303568692878e-05
3.387623655726202e-05
5.179402796784416e-05
0.0001247334439540282
8.187646744772792e-05
4.5003791456110775e-05
3.4416993003105745e-05
5.287067688186653e-05
0.00015009868366178125
0.0001692113291937858
0.0004109966685064137
6.117480370448902e-05
0.0001464732486056164
3.2003117667045444e-05
0.00012093415716663003
0.00011040509707527235
0.00017884820408653468
0.00020463029795791954
4.226297460263595e-05
0.00012783784768544137
8.012918988242745e-05
4.217272362438962e-05
7.71814666222781e-05
7.359425944741815e-05
0.00017567825852893293
0.00016825298371259123
0.00014529345207847655
9.331376350019127e-05
2.254070022900123e-05
0.00013356753333937377
0.0001699303975328803
0.00012038596469210461
0.00019346733461134136
3.1662195397075266e-05
4.29153697041329e-05
2.4406303055002354e-05
8.727102249395102e-05
5.601107477559708e-05
0.0001425001973984763
0.00020041182870045304
5.484089342644438e-05
0.00019150851585436612
7.869142427807674e-05
5.871524990652688e-05
7.37427399144508e-05
0.00015927893400657922
2.4124139599734917e-05
3.4580123610794544e-05
4.008510586572811e-05
2.3676893761148676e-05
0.00018186282250098884
5.0092417950509116e-05
4.9424175813328475e-05
6.630036659771577e-05
7.736607221886516e-05
0.00016612408217042685
4.534757317742333e-05
2.6679523216444068e-05
0.0001800921163521707
6.479021249106154e-05
8.673948468640447e-05
6.33239615126513e-05
0.00018845278827939183
4.1256000258727e-05
0.0001103854738175869
5.975918611511588e-05
5.47068593732547e-05
0.00018481929146219045
0.0001469311537221074
2.989303902722895e-05
2.502893221389968e-05
9.085377678275108e-05
6.86479834257625e-05
2.516822496545501e-05
0.00012574499123729765
6.095616117818281e-05
0.00015785831783432513
6.675662734778598e-05
4.9382819270249456e-05
9.714988118503243e-05
4.004715447081253e-05
3.6838788219029084e-05
9.379580296808854e-05
0.0001440143823856488
4.464889570954256e-05
5.910088657401502e-05
5.161893932381645e-05
0.00017916460637934506
3.305903737782501e-05
4.852664642385207e-05
3.7862788303755224e-05
0.00014957782696001232
2.873487028409727e-05
6.541913171531633e-05
9.048027277458459e-05
0.0001673054212005809
0.00014450066373683512
6.0565762396436185e-05
0.0001328177168034017
0.00014992963406257331
0.0001035904060699977
5.154416066943668e-05
0.00014387269038707018
8.155905379680917e-05
5.0382353947497904e-05
3.1578823836753145e-05
0.0002108422777382657
8.669021190144122e-05
0.00014762941282242537
1.5592962881783023e-05
0.00013595080235973
5.8153847930952907e-05
2.3304217393160798e-05
2.97100286843488e-05
1.6849466192070395e-05
3.2800115150166675e-05
8.74923644005321e-05
0.00014074741920921952
7.267834735102952e-05
7.203124550869688e-05
0.00016449012036900967
3.4618500649230555e-05
0.00014168400957714766
5.372170562623069e-05
0.00030576344579458237
0.00012063173926435411
8.169683860614896e-05
2.493702959327493e-05
0.00018244322563987225
0.00010922003275481984
0.00010700129496399313
2.4958979338407516e-05
3.064560951315798e-05
6.11859213677235e-05
8.599196735303849e-05
8.857790817273781e-05
6.820139242336154e-05
6.542983464896679e-05
0.00015409196203108877
5.601356679107994e-05
0.00013102979573886842
2.8247199225006625e-05
0.00021855845989193767
8.427794091403484e-05
4.559018270811066e-05
3.45394219039008e-05
3.760809340747073e-05
7.89378973422572e-05
2.896728619816713e-05
0.00010354237747378647
