0.0007244915468618274
0.0005432654870674014
0.0004939265782013535
0.0037049301899969578
0.0008502393029630184
0.0007002039346843958
0.0022094121668487787
0.0005711460253223777
0.0006624270463362336
0.0009216707549057901
0.0030703917145729065
0.0035579123068600893
0.00041226373286917806
0.0030181407928466797
0.0023524644784629345
0.0010392711265012622
0.0006230798899196088
0.0009689948637969792
0.003341920906677842
0.0021153371781110764
0.001719501568004489
0.0017561223357915878
0.0019622871186584234
0.005857410840690136
0.0036717664916068316
0.0022439812310039997
0.0011338472831994295
0.0007686312892474234
0.006196601316332817
0.0024983456823974848
0.007321150042116642
0.003972257953137159
0.002161764306947589
0.0016546191181987524
0.000847710995003581
0.005330169573426247
0.0006969450041651726
0.0027524668257683516
0.011831749230623245
0.00041630485793575644
0.0014994654338806868
0.002736742841079831
0.0030351008754223585
0.0006844231975264847
0.0005461861146613955
0.004261523950845003
0.0007925524259917438
0.001145072397775948
0.0069104814901947975
0.001114131067879498
0.0052466923370957375
0.0014003377873450518
0.0010619451059028506
0.004516924265772104
0.0010435308795422316
0.0026183463633060455
0.0007942531374283135
0.0009923138422891498
0.001206584507599473
0.0007521950756199658
0.0008395278709940612
0.0022253103088587523
0.00621078722178936
0.0025217412039637566
0.003597525181248784
0.002479367656633258
0.0015274615725502372
0.003994646482169628
0.009350404143333435
0.0007779310690239072
0.003657242516055703
0.004619638901203871
0.001707672723568976
0.0010809031082317233
0.0011163942981511354
0.0030522244051098824
0.0009472008678130805
0.005173974670469761
0.0020767105743288994
0.001249332563020289
0.0005728166433982551
0.001214391435496509
0.0016287941252812743
0.0015987816732376814
0.0042197210714221
0.00289126462303102
0.0007035909220576286
0.003819218836724758
0.003102484392002225
0.0005060816765762866
0.0005520842387340963
0.001481108833104372
0.0007000756449997425
0.0028752193320542574
0.0014556754613295197
0.0011778065236285329
0.0004567741707433015
0.0005358036141842604
0.003642548806965351
0.0013219376560300589
0.003170036245137453
0.0021517546847462654
0.002715384354814887
0.002530951052904129
0.000566906004678458
0.000508601893670857
0.0009611459681764245
0.0011998332338407636
0.0031926336232572794
0.0015660455683246255
0.004428436979651451
0.0026050873566418886
0.004324926529079676
0.001086563803255558
0.005814040545374155
0.0027053693775087595
0.003553769551217556
0.002274730708450079
0.001648216275498271
0.0031456579454243183
0.0009575886069796979
0.0007469984702765942
0.003471818519756198
0.0026853661984205246
0.0025506392121315002
0.004422701895236969
0.002895745448768139
0.0013613064074888825
0.0027331209275871515
0.0024081680458039045
0.0012863273732364178
0.0015061658341437578
0.0006848437478765845
0.005758211482316256
0.0014792161528021097
0.0023991353809833527
0.0010597356595098972
0.00542136887088418
0.005240260157734156
0.0015716439811512828
0.0014518436510115862
0.0011209421791136265
0.005094063002616167
0.004830977413803339
0.0009725866839289665
0.0027571870014071465
0.004251577891409397
0.002294553443789482
0.0011195383267477155
0.005675900727510452
0.004975151736289263
0.0019544519018381834
0.0015302051324397326
0.0005923318676650524
0.0009682754171080887
0.0035962234251201153
0.00402740528807044
0.0012764923740178347
0.00083372020162642
0.006019711960107088
0.0016859084134921432
0.0008743829093873501
0.0005964935407973826
0.0008741315687075257
0.0005745025700889528
0.0024031205102801323
0.003740559797734022
0.0017563353758305311
0.0027358883526176214
0.0025369711220264435
0.0012551432009786367
0.0009503407054580748
0.0028893796261399984
0.0021571132820099592
0.003809793386608362
0.0033295932225883007
0.001763658132404089
0.0019498334731906652
0.0037303136195987463
0.0014491238398477435
0.0018090313533321023
0.0009791054762899876
0.002480109455063939
0.0009960266761481762
0.0011079591931775212
0.004147294443100691
0.0033762408420443535
0.0022939916234463453
0.0026406338438391685
0.003362619783729315
0.0026143614668399096
0.0011682672193273902
0.0005083963042125106
0.0031838524155318737
0.002501597860828042
0.002094581024721265
0.0005623298930004239
0.0005952282808721066
0.0011681347386911511
0.002328701550140977
0.0013472122373059392
0.004277463536709547
0.003989736549556255
0.0018505307380110025
0.0009311676258221269
0.0012740122620016336
0.0021921934094280005
0.003395878942683339
0.0022576700430363417
0.001188156078569591
0.0006675993790850043
0.0005655732820741832
0.0005536456592381
0.0015267294365912676
0.003733585588634014
0.0008545888704247773
0.0006181985372677445
0.0037330747582018375
0.0004913709708489478
0.001254345173947513
0.002879697596654296
0.003932702820748091
0.0005596359842456877
0.0008843027171678841
0.0004498615744523704
0.000640854996163398
0.003970913589000702
0.0017066540895029902
0.0008393267053179443
0.0014380385400727391
0.0007699543493799865
0.005958371330052614
0.0012623714283108711
0.003950146026909351
0.0009855189127847552
0.0007759953150525689
0.001186434063129127
0.002857240615412593
0.0018755256896838546
0.0010308916680514812
0.0007883822545409203
0.0012110966490581632
0.003438276471570134
0.003876085625961423
0.009414607658982277
0.0014013174222782254
0.0033552295062690973
0.0007330881780944765
0.0027702113147825003
0.002529024612158537
0.004096835386008024
0.004687420092523098
0.0009681083611212671
0.0029283526819199324
0.0018355012871325016
0.0009660410578362644
0.0017679784214124084
0.001685807015746832
0.004024222027510405
0.003854132955893874
0.0033282043877989054
0.002137517323717475
0.0005163347232155502
0.003059601178392768
0.003892557229846716
0.002757654059678316
0.004431712441146374
0.0007252787472680211
0.0009830526541918516
0.0005590696819126606
0.0019990976434201
0.0012830330524593592
0.003264219732955098
0.0045907883904874325
0.0012562279589474201
0.004386842250823975
0.0018025666940957308
0.0013449769467115402
0.0016892082057893276
0.003648566547781229
0.0005526061868295074
0.000792119069956243
0.0009182204375974834
0.0005423612310551107
0.004165890626609325
0.001147455652244389
0.001132148434408009
0.0015187275130301714
0.00177220709156245
0.003805366810411215
0.0010387665824964643
0.0006111417897045612
0.004125329200178385
0.0014841348165646195
0.001986921764910221
0.0014505477156490088
0.004316845443099737
0.0009450418874621391
0.0025285750161856413
0.0013688901672139764
0.0012531576212495565
0.004233613610267639
0.003365718759596348
0.0006847530603408813
0.0005733320722356439
0.0020811669528484344
0.0015725038247182965
0.0005765228415839374
0.0028804121538996696
0.001396309002302587
0.0036160247400403023
0.0015291789313778281
0.0011312010465189815
0.002225390402600169
0.0009173511061817408
0.0008438577642664313
0.0021485593169927597
0.0032989047467708588
0.0010227621532976627
0.0013538106577470899
0.0011824233224615455
0.004104082938283682
0.0007572758477181196
0.0011115889064967632
0.0008673142874613404
0.003426345530897379
0.0006582231726497412
0.0014985412126407027
0.0020726111251860857
0.003832427319139242
0.003310044063255191
0.0013873662101104856
0.003042425261810422
0.0034344042651355267
0.002372921910136938
0.001180710387416184
0.0032956593204289675
0.0018682547379285097
0.0011540971463546157
0.0007233689539134502
0.00482971640303731
0.001985793001949787
0.0033817135263234377
0.0003571844717953354
0.0031141943763941526
0.001332117011770606
0.0005338244372978806
0.0006805608863942325
0.0003859669086523354
0.0007513447781093419
0.002004167763516307
0.0032240692526102066
0.0016648265300318599
0.001650003483518958
0.003767938120290637
0.0007929981220513582
0.003245523665100336
0.0012305909767746925
0.007004053797572851
0.0027632839046418667
0.0018714109901338816
0.0005712268757633865
0.004179185722023249
0.0025018786545842886
0.0024510545190423727
0.000571729673538357
0.0007019920740276575
0.001401572022587061
0.001969798468053341
0.00202903407625854
0.0015622738283127546
0.001498786499723792
0.0035297495778650045
0.0012830900959670544
0.003001469885930419
0.0006470521911978722
0.0050064693205058575
0.0019305357709527016
0.0010443240171298385
0.0007911866996437311
0.0008614800754003227
0.0018082126043736935
0.0006635470781475306
0.0023718217853456736
