0.07256537675857544
0.015684299170970917
0.024059662595391273
0.07585618644952774
0.04700460657477379
0.016423530876636505
0.017994699999690056
0.0928422287106514
0.03892584890127182
0.04666142910718918
0.043334878981113434
0.020510869100689888
0.010473770089447498
0.0172245092689991
0.00784535612910986
0.12335459887981415
0.0073374006897211075
0.003018622286617756
0.00814254954457283
0.020411083474755287
0.009807243011891842
0.0046730972826480865
0.006144342012703419
0.009938727132976055
0.014420675113797188
0.02372639812529087
0.033079832792282104
0.060691192746162415
0.0015727619174867868
0.001312109176069498
0.02908899262547493
0.03790568932890892
0.010449993424117565
0.043076664209365845
0.023804081603884697
0.010380049236118793
0.0033509298227727413
0.00872755516320467
0.007791544310748577
0.03814318776130676
0.005010935477912426
0.06358414143323898
0.011295398697257042
0.07491394877433777
0.004283021669834852
0.0683813989162445
0.011016953736543655
0.023157043382525444
0.09597477316856384
0.03215247765183449
0.04221991077065468
0.15496011078357697
0.03902982175350189
0.03456795960664749
0.0036836338695138693
0.05525124445557594
0.00800955481827259
0.03192153573036194
0.04769062250852585
0.006278684362769127
0.02559378184378147
0.030555738136172295
0.03811144456267357
0.03429863229393959
0.004414404276758432
0.006134712602943182
0.044770773500204086
0.010625687427818775
0.05758897215127945
0.046282488852739334
0.014405275695025921
0.004216534551233053
0.03011513501405716
0.03135077655315399
0.010897943750023842
0.0054819006472826
0.024329911917448044
0.06945359706878662
0.005004473961889744
0.058289337903261185
0.0031089603435248137
0.07601983100175858
0.009864137507975101
0.07990020513534546
0.013807830400764942
0.005500616505742073
0.01159814465790987
0.012379136867821217
0.004096756689250469
0.1337435245513916
0.02304527349770069
0.007182241417467594
0.00434071384370327
0.025848207995295525
0.01061075646430254
0.009022959508001804
0.006270755548030138
0.007760966196656227
0.03575741872191429
0.004208254627883434
0.038437362760305405
0.09287019819021225
0.017785463482141495
0.101712167263031
0.024705128744244576
0.10174776613712311
0.04954952374100685
0.02857278101146221
0.022212406620383263
0.022205665707588196
0.02844015136361122
0.05699987709522247
0.04287026450037956
0.04930897057056427
0.006896325387060642
0.011103681288659573
0.009395889937877655
0.0030945620965212584
0.06454025954008102
0.005837905220687389
0.01016527321189642
0.031506095081567764
0.042305007576942444
0.010783931240439415
0.007988322526216507
0.034980468451976776
0.0365474708378315
0.024202542379498482
0.005256655625998974
0.03549223393201828
0.024807803332805634
0.061021529138088226
0.00925841461867094
0.0029232215601950884
0.009797551669180393
0.014901341870427132
0.007937374524772167
0.004198961425572634
0.0233599953353405
0.02243794873356819
0.013715405948460102
0.0031442067120224237
0.04076802730560303
0.02715258300304413
0.0922197476029396
0.013072695583105087
0.037308353930711746
0.09061373025178909
0.027065478265285492
0.01816924661397934
0.004771814215928316
0.017616378143429756
0.006653917953372002
0.008335186168551445
0.0050743259489536285
0.003773121628910303
0.0035286403726786375
0.02248252183198929
0.08108306676149368
0.0466344952583313
0.07624068111181259
0.009348137304186821
0.0425134114921093
0.005241840146481991
0.07023091614246368
0.006268564611673355
0.12630286812782288
0.039179082959890366
0.013108883053064346
0.04613183066248894
0.009978197515010834
0.06781831383705139
0.007451844867318869
0.010026082396507263
0.003423912450671196
0.007464857306331396
0.03575187921524048
0.062147147953510284
0.0050560771487653255
0.012368001975119114
0.039127565920352936
0.00891272071748972
0.007466200273483992
0.06290528178215027
0.019454466179013252
0.057923827320337296
0.09782220423221588
0.02190207690000534
0.009894265793263912
0.028867250308394432
0.010474407114088535
0.0030034934170544147
0.011537434533238411
0.00586770661175251
0.035252705216407776
0.005284551531076431
0.03255578130483627
0.01893875189125538
0.02882830798625946
0.0336843840777874
0.010464675724506378
0.005067828577011824
0.005696306005120277
0.021445337682962418
0.00940650887787342
0.029050588607788086
0.06952235102653503
0.05365782231092453
0.00627976143732667
0.002022390952333808
0.02939477190375328
0.0888611376285553
0.0034127121325582266
0.028732316568493843
0.0756966769695282
0.07096728682518005
0.08034870773553848
0.00912512093782425
0.00794009119272232
0.0020469839219003916
0.020865827798843384
0.014305844902992249
0.019068211317062378
0.010091227479279041
0.024012936279177666
0.04532398283481598
0.05150080844759941
0.009892748668789864
0.03243638202548027
0.00703353201970458
0.03506262227892876
0.0203620083630085
0.0024285295512527227
0.02620343491435051
0.01911664567887783
0.11606927216053009
0.053385309875011444
0.017417047172784805
0.00904068723320961
0.0044745951890945435
0.03340267017483711
0.17282734811306
0.004664914682507515
0.11679685860872269
0.009913920424878597
0.007812225725501776
0.01751839742064476
0.03005107119679451
0.0369933657348156
0.006326321046799421
0.058803580701351166
0.004295995458960533
0.015040806494653225
0.002715836279094219
0.016408177092671394
0.0029184992890805006
0.008368255570530891
0.027252666652202606
0.042696982622146606
0.009731252677738667
0.005219123791903257
0.012183167971670628
0.006273332517594099
0.023965543136000633
0.04846545681357384
0.07936035096645355
0.005832195281982422
0.0069444854743778706
0.0124950697645545
0.020946163684129715
0.016532639041543007
0.010119320824742317
0.01817522943019867
0.009782712906599045
0.022423677146434784
0.014521496370434761
0.015159349888563156
0.0039331139996647835
0.003250180510804057
0.10981909930706024
0.024429503828287125
0.002683097030967474
0.005952545441687107
0.01514987088739872
0.014513939619064331
0.052026670426130295
0.014664370566606522
0.018636256456375122
0.06307143718004227
0.024518083781003952
0.05964718014001846
0.004800821654498577
0.04441561922430992
0.0338292233645916
0.003254438517615199
0.019781004637479782
0.007254199590533972
0.015015953220427036
0.04309587553143501
0.03585607931017876
0.03372440114617348
0.09244319051504135
0.1209193542599678
0.02890961989760399
0.00442895432934165
0.03343624621629715
0.0022277513053268194
0.06038598343729973
0.014053668826818466
0.011130310595035553
0.0022274742368608713
0.026092572137713432
0.028388405218720436
0.00658650416880846
0.028019387274980545
0.005441593937575817
0.10299035161733627
0.005852739326655865
0.006888351868838072
0.04061054810881615
0.06618431955575943
0.08632295578718185
0.04236461967229843
0.007327524945139885
0.10175707191228867
0.003607802093029022
0.0036102053709328175
0.0048302896320819855
0.011979853734374046
0.024167202413082123
0.018438510596752167
0.04215072840452194
0.012501253746449947
0.07971064746379852
0.006732952781021595
0.0039024509023875
0.026646923273801804
0.003937944769859314
0.004882228095084429
0.007927204482257366
0.04252614453434944
0.06191406026482582
0.004911309108138084
0.04571659117937088
0.03964792191982269
0.011301626451313496
0.020645219832658768
0.0034100946504622698
0.008147205226123333
0.009096360765397549
0.04148821160197258
0.002169698476791382
0.007189968600869179
0.0026320882607251406
0.025187719613313675
0.06099521368741989
0.007810148876160383
0.00834739487618208
0.007468420080840588
0.006701219826936722
0.060572877526283264
0.011540417559444904
0.03348904475569725
0.0065149469301104546
0.013306362554430962
0.005088839214295149
0.016664478927850723
0.006083424668759108
0.027053209021687508
0.0024345284327864647
0.005335010588169098
0.0537576749920845
0.049606919288635254
0.005238942336291075
0.03883560001850128
0.01716756448149681
0.06598450243473053
0.004128900822252035
0.041067514568567276
0.014708753675222397
0.04089037701487541
0.022318832576274872
0.03511441498994827
0.0061357282102108
