0.009722655639052391
0.014341002330183983
0.013072723522782326
0.005800239276140928
0.007240541744977236
0.006860081106424332
0.007648105267435312
0.01197109930217266
0.005112441256642342
0.012525822035968304
0.011380859650671482
0.005219208542257547
0.010020481422543526
0.00824962928891182
0.0064486730843782425
0.021167675033211708
0.010014031082391739
0.01290573738515377
0.004987502004951239
0.007956089451909065
0.014269703067839146
0.008958292193710804
0.009774158708751202
0.004659597761929035
0.008204907178878784
0.006433823145925999
0.005087913479655981
0.009919453412294388
0.01062067598104477
0.011910645291209221
0.018896596506237984
0.005868882406502962
0.007269912865012884
0.020258601754903793
0.00929463841021061
0.006462946068495512
0.006125780753791332
0.021525511518120766
0.021016739308834076
0.007012743502855301
0.005896384362131357
0.004226952325552702
0.008418599143624306
0.00928281806409359
0.006123444996774197
0.0058543747290968895
0.009702533483505249
0.024185786023736
0.006894436664879322
0.011152239516377449
0.014948675408959389
0.01482465025037527
0.007541603408753872
0.012093557976186275
0.0042785597033798695
0.026677630841732025
0.0060663423500955105
0.010454456321895123
0.029826562851667404
0.006206043064594269
0.011511940509080887
0.004804287571460009
0.010488270781934261
0.002828925149515271
0.017978888005018234
0.007453459315001965
0.006683001760393381
0.011771305464208126
0.012867046520113945
0.003018495626747608
0.006280333735048771
0.007681732065975666
0.013941220007836819
0.006549876183271408
0.0077447956427931786
0.0071653081104159355
0.010397527366876602
0.009710624814033508
0.008247806690633297
0.0035873104352504015
0.010088130831718445
0.02680525742471218
0.0028966679237782955
0.008622768335044384
0.004320002626627684
0.005581161472946405
0.0055859931744635105
0.005877797957509756
0.006700503174215555
0.00889622513204813
0.006895148660987616
0.014383847825229168
0.005749257747083902
0.01204978208988905
0.009478352032601833
0.00509240385144949
