0.004570418503135443
0.007676843088120222
0.0037390508223325014
0.005446129012852907
0.00825969222933054
0.0025634276680648327
0.004150750115513802
0.0032313771080225706
0.008295969106256962
0.0040461779572069645
0.0031514139845967293
0.006742861121892929
0.0055434308014810085
0.006123443134129047
0.005703437142074108
0.005308243911713362
0.006634547840803862
0.004345929250121117
0.004443478304892778
0.007505231071263552
0.006419166922569275
0.003108971519395709
0.005402249284088612
0.004799040500074625
