0.006530384533107281
0.008084192872047424
0.006047929171472788
0.005686498712748289
0.005264635197818279
0.007186564616858959
0.003987593110650778
0.008960947394371033
0.008912232704460621
0.00822252407670021
0.01115388609468937
0.002972518792375922
0.00276227411814034
0.009548039175570011
0.010518684983253479
0.00805634818971157
0.004954080563038588
0.005926663521677256
0.004891050048172474
0.005712588783353567
0.00939153041690588
0.002713502384722233
0.004655963275581598
0.00529260141775012
