0.009217829443514347
0.0033104713074862957
0.008030939847230911
0.008016999810934067
0.015255218371748924
0.009527530521154404
0.02378411591053009
0.03455892950296402
0.03512299433350563
0.1203533262014389
0.061930086463689804
0.011337777599692345
0.030159829184412956
0.01925284042954445
0.006415771786123514
0.03430410847067833
0.010404929518699646
0.028234325349330902
0.0074852509424090385
0.010236570611596107
0.015142133459448814
0.006784535013139248
0.026295257732272148
0.0040585375390946865
0.008425631560385227
0.0075430418364703655
0.03586353734135628
0.010519903153181076
0.018360452726483345
0.04454144090414047
0.014447011053562164
0.008989080786705017
0.008923212066292763
0.006830752827227116
0.04546622931957245
0.06635626405477524
0.0069971103221178055
0.010931774042546749
0.004827526398003101
0.009761624038219452
0.04018523544073105
0.0625065267086029
0.012285355478525162
0.029827279970049858
0.03376137837767601
0.015919040888547897
0.010305732488632202
0.009312348440289497
0.0038908105343580246
0.0580708384513855
0.0026891296729445457
0.04006994515657425
0.01430287305265665
0.02151809260249138
0.01943340338766575
0.0010860093170776963
0.03356398642063141
0.07033655047416687
0.01927276700735092
0.00451175170019269
0.04218389466404915
0.009135423228144646
0.03710661083459854
0.0552758052945137
0.08048897236585617
0.15419715642929077
0.07396409660577774
0.011902039870619774
0.08545412123203278
0.017744889482855797
0.024268807843327522
0.014064468443393707
0.011257841251790524
0.01753399893641472
0.03695312887430191
0.03053542599081993
0.006612048018723726
0.00975518487393856
0.03224964812397957
0.005999624729156494
0.036763474345207214
0.01087607815861702
0.017926281318068504
0.029617998749017715
0.05620110034942627
0.061453185975551605
0.02527250535786152
0.007568600587546825
0.08380593359470367
0.016603590920567513
0.01892736367881298
0.005470608826726675
0.004896814469248056
0.013658326119184494
0.05275917053222656
0.05030563473701477
0.012367947958409786
0.01058552972972393
0.011295140720903873
0.008352966979146004
0.015703080222010612
0.008190863765776157
0.045647166669368744
0.047207023948431015
0.013214277103543282
0.029832400381565094
0.05201244354248047
0.004444243852049112
0.017226742580533028
0.055199433118104935
0.07128394395112991
0.0037184807006269693
0.015466182492673397
0.007258279714733362
0.029541080817580223
0.03197432681918144
0.01660197414457798
0.0029905345290899277
0.10264899581670761
0.014254792593419552
0.02608649991452694
0.010807200334966183
0.050415243953466415
0.01256549172103405
0.012219010852277279
0.008613771758973598
0.020593632012605667
0.03694746643304825
0.009173409081995487
0.006722756661474705
0.009060854092240334
0.01131789106875658
0.006986148189753294
0.009823525324463844
0.008727378211915493
0.030682772397994995
0.013964420184493065
0.05552764609456062
0.05017028748989105
0.007648475933820009
0.018745755776762962
0.07847244292497635
0.03811602666974068
0.04444519430398941
0.04453139379620552
0.004727036692202091
0.04977399483323097
0.010729655623435974
0.022485172376036644
0.018225839361548424
0.017000887542963028
0.08542376011610031
0.02535514533519745
0.053552910685539246
0.03205043449997902
0.05247265845537186
0.016887709498405457
0.007255809381604195
0.018080223351716995
0.009474264457821846
0.023592540994286537
0.011452456004917622
0.014173153787851334
0.06782776117324829
0.024593504145741463
0.0122451800853014
0.009164893068373203
0.029569948092103004
0.010718091391026974
0.016989268362522125
0.013254199177026749
0.09936700016260147
0.03906731680035591
0.010958411730825901
0.008711566217243671
0.09316287189722061
0.015124666504561901
0.023640375584363937
0.015370216220617294
0.027571916580200195
0.019563116133213043
0.015082387253642082
0.1125856414437294
0.023075416684150696
0.04779992997646332
0.012809310108423233
0.011023888364434242
0.02379586547613144
0.04272188991308212
0.07202525436878204
0.00605354830622673
0.027970071882009506
0.016662465408444405
0.012161128222942352
0.011246675625443459
0.02441086247563362
0.035524383187294006
0.03344985470175743
0.051441214978694916
0.02805154025554657
0.020304705947637558
0.019474847242236137
0.008111190050840378
0.09114140272140503
0.009242290630936623
0.009844537824392319
0.03227720782160759
0.045575715601444244
0.011990665458142757
0.013795120641589165
0.034354664385318756
0.04597915709018707
0.040239688009023666
0.07933513820171356
0.010068139992654324
0.08068763464689255
0.01560608297586441
0.008803119882941246
0.0027584347408264875
0.01470191590487957
0.007395551074296236
0.016118688508868217
0.004893388133496046
0.013337593525648117
0.00687507726252079
0.008583813905715942
0.010595576837658882
0.020083213225007057
0.0351688414812088
0.041149839758872986
0.011804497800767422
0.019940033555030823
0.09825142472982407
0.0400519035756588
0.011792500503361225
0.014865251258015633
0.09033218771219254
0.0272077526897192
0.02505217306315899
0.011458986438810825
0.011619366705417633
0.02464481070637703
0.09749850630760193
0.07110705226659775
0.03209780156612396
0.050466664135456085
0.012583032250404358
0.04608282074332237
0.024530038237571716
0.02315506525337696
0.05674709752202034
0.013983574695885181
0.04331948235630989
0.011656096205115318
0.04015309363603592
0.0459059476852417
0.008555024862289429
0.01045540813356638
0.02328232116997242
0.042682379484176636
0.027514945715665817
0.04964745417237282
0.021954625844955444
0.011476636864244938
0.005906419362872839
0.004473234061151743
0.05299560725688934
0.044299911707639694
0.013356782495975494
0.004797582048922777
0.006480440031737089
0.049985744059085846
0.0157794076949358
0.008011182770133018
0.01587594300508499
0.017311399802565575
0.02082638442516327
0.0030476683750748634
0.022639475762844086
0.0407869890332222
0.023735148832201958
0.017461856827139854
0.014304987154901028
0.02785048447549343
0.03751564770936966
0.03437438979744911
0.03410608321428299
0.029477210715413094
0.0707162469625473
0.008893412537872791
0.038615647703409195
0.04149612784385681
0.05971316620707512
0.005315728019922972
0.02697080932557583
0.04895096272230148
0.003588773077353835
0.016788316890597343
0.0287577323615551
0.02998814731836319
0.05952872335910797
0.014559143222868443
0.062494102865457535
0.02885584719479084
0.017616525292396545
0.006953077856451273
0.08186690509319305
0.004819976165890694
0.034524962306022644
0.022455323487520218
0.03612116724252701
0.010624134913086891
0.036990538239479065
0.01202903501689434
0.027943972498178482
0.024492092430591583
0.01219334825873375
0.057099681347608566
0.047601696103811264
0.02117479406297207
0.014628790318965912
0.013050619512796402
0.011969728395342827
0.05740014463663101
0.016320474445819855
0.0649980902671814
0.013414409942924976
0.09140866249799728
0.009868371300399303
0.07543566077947617
0.0077661266550421715
0.07041750848293304
0.05664088949561119
0.06156579777598381
0.02045784704387188
0.007982553914189339
0.007313048001378775
0.09288979321718216
0.008109083399176598
0.025233210995793343
0.0100973816588521
0.009442776441574097
0.10322119295597076
0.00453654071316123
0.022405141964554787
0.10067696869373322
0.027151763439178467
0.04914771020412445
0.012602376751601696
0.03269404172897339
0.01296791061758995
0.008371498435735703
0.1016298308968544
0.005938088055700064
0.008080920204520226
0.017404183745384216
0.01821982115507126
0.017551835626363754
0.016602953895926476
0.01918274350464344
0.019837914034724236
0.011910932138562202
0.006075853016227484
0.00961438100785017
0.012011864222586155
0.09112390875816345
0.010390063747763634
0.01385353785008192
0.00622916966676712
0.012226958759129047
0.017289843410253525
0.010885904543101788
0.10107547044754028
0.02744848094880581
0.011507267132401466
0.006209656596183777
0.039476338773965836
0.004204818047583103
0.16528858244419098
0.03219929710030556
0.02818966656923294
0.00938794668763876
0.004908934701234102
0.07022538781166077
0.03704331815242767
0.009946290403604507
0.015058595687150955
0.01588161289691925
0.017603153362870216
0.060622796416282654
0.05994095653295517
0.03506608307361603
0.0828370600938797
0.04622786119580269
0.009288795292377472
0.08809955418109894
0.006439971271902323
0.03523721545934677
0.027549337595701218
0.008620468899607658
0.008740256540477276
0.022800225764513016
0.0761272981762886
0.026502493768930435
0.006907482631504536
0.010548237711191177
0.019157713279128075
0.06133710592985153
0.052509602159261703
0.03676227852702141
0.01455554086714983
0.02560504712164402
0.11460655927658081
0.026027396321296692
0.007558839861303568
0.02673538587987423
0.011268584989011288
0.008399151265621185
0.020631704479455948
0.05259678512811661
0.028648074716329575
0.037918031215667725
0.022779058665037155
0.029547030106186867
0.01451858039945364
0.03074047341942787
0.020117834210395813
0.0055671073496341705
0.00820756983011961
0.03185977786779404
0.006762649863958359
0.015425562858581543
0.014466875232756138
0.08013983815908432
0.009166790172457695
0.12127100676298141
0.07432552427053452
0.011608230881392956
0.017160708084702492
0.007295246701687574
0.14782868325710297
0.009852336719632149
0.009739695116877556
0.009841276332736015
0.010315444320440292
0.014069676399230957
0.004607429262250662
0.07425738871097565
0.03580174967646599
0.016798757016658783
0.07905923575162888
0.007825959473848343
0.029683193191885948
0.01356832217425108
0.00771116279065609
0.010398036800324917
0.0071371737867593765
0.025062093511223793
0.012805666774511337
0.012176419608294964
0.028745632618665695
0.03435119614005089
0.04284210503101349
0.0361621230840683
0.02292208932340145
0.025356929749250412
0.02466582879424095
0.04379250854253769
0.05218636989593506
0.050149254500865936
0.016825981438159943
0.009164661169052124
0.009469078853726387
0.016331110149621964
0.06851008534431458
0.010446631349623203
0.011438027024269104
0.07601282745599747
0.06275934725999832
0.06299512833356857
0.016454357653856277
0.010201379656791687
0.021545950323343277
0.03387882933020592
0.05641108751296997
0.0680447593331337
0.05460584536194801
0.010390087962150574
0.017254935577511787
0.006059134844690561
0.012685900554060936
0.038441456854343414
0.07394123077392578
0.013147213496267796
0.010856933891773224
0.034518904983997345
0.048401277512311935
0.03292115777730942
0.05537163466215134
0.029970619827508926
0.012267344631254673
0.012217873707413673
0.04519157111644745
0.006916088052093983
0.009382800199091434
0.004579443950206041
0.029686611145734787
0.005198223050683737
0.0076390840113162994
0.03740835189819336
0.018158864229917526
0.049916479736566544
0.06847165524959564
0.026344580575823784
0.006353503093123436
0.009600268676877022
0.10107401758432388
0.016049440950155258
0.021546894684433937
0.006800292991101742
0.026624152436852455
0.05427053943276405
0.020873527973890305
0.035837769508361816
0.09613209217786789
0.02814568392932415
0.0316089428961277
0.052222464233636856
0.04655472934246063
0.06322783976793289
0.02248617820441723
0.00979338213801384
0.11786552518606186
0.021025704219937325
0.017343096435070038
0.03212691470980644
0.04106827825307846
0.0025716545060276985
0.011148282326757908
0.08327051997184753
0.05660233274102211
0.031213974580168724
0.01229942124336958
0.02903897874057293
0.01688116416335106
0.01082794088870287
0.022481590509414673
0.02708616480231285
0.007782613392919302
0.012835239991545677
0.11029747128486633
0.07436089962720871
0.01698012836277485
0.05722879618406296
0.014241949655115604
0.01915266364812851
0.005460210610181093
0.038124483078718185
0.0278764758259058
0.08687202632427216
0.1417512446641922
0.0176974069327116
0.02023961767554283
0.027221789583563805
0.043484024703502655
0.06691863387823105
0.07114861160516739
0.011099484749138355
0.021325163543224335
0.00383200915530324
0.0670473650097847
0.01804284378886223
0.008716500364243984
0.02036736160516739
0.08140789717435837
0.023471832275390625
0.013811665587127209
0.02519594319164753
0.012890073470771313
0.00969539675861597
0.04895256832242012
0.037715572863817215
0.04166407510638237
0.054412104189395905
0.03359413892030716
0.11602842807769775
0.007741844747215509
0.04354987293481827
0.006925238762050867
0.07713449746370316
0.058938056230545044
0.008785270154476166
0.017908571287989616
0.013740608468651772
0.035548243671655655
0.03722294047474861
0.05593067407608032
0.014694076031446457
0.010629151947796345
0.00935483630746603
0.04642777144908905
0.09167219698429108
0.020005030557513237
0.013463989831507206
0.025455132126808167
0.042798638343811035
0.0675862729549408
0.09034932404756546
0.047603387385606766
0.018829120323061943
0.06083925813436508
0.01037325244396925
0.037443701177835464
0.009343207813799381
0.005199262872338295
0.037101563066244125
0.08701293170452118
0.03418637067079544
0.015381448902189732
0.010827086865901947
0.08188679069280624
0.04586022347211838
0.048467326909303665
0.01285510789602995
0.03241940587759018
0.015808062627911568
0.006269239820539951
0.006591788958758116
0.04894642531871796
0.025447115302085876
0.01521558128297329
0.009692288003861904
0.014491734094917774
0.02774164080619812
0.04446540027856827
0.06861735135316849
0.0514712817966938
0.024054666981101036
0.012653732672333717
0.03409925848245621
0.024711361154913902
0.012452861294150352
0.03429381921887398
0.006742698606103659
0.026970122009515762
0.008679762482643127
0.04018769785761833
0.037466954439878464
0.006792400497943163
0.018681777641177177
0.05706770345568657
0.016593890264630318
0.014196167699992657
0.01656121201813221
0.032848890870809555
0.00702242786064744
0.01296591479331255
0.01963069662451744
0.04503698647022247
0.025244642049074173
0.0027366261929273605
0.03559142351150513
0.049779012799263
0.01220040675252676
0.055039387196302414
0.007906530983746052
0.07127781957387924
0.08030863851308823
0.03419670835137367
0.006268717348575592
0.01780816726386547
0.02130119875073433
