0.0009707333520054817
0.005297151859849691
0.005422163289040327
0.0004975209012627602
0.0020641216542571783
0.009641745127737522
0.0016220908146351576
0.0020972483325749636
0.0017414821777492762
0.0018327697180211544
0.0013442895142361522
0.00288768345490098
0.0012051272206008434
0.001212145434692502
0.001044721226207912
0.0018987278454005718
0.0012145997025072575
0.0010145151754841208
0.0025269482284784317
0.003912477754056454
0.0018984222551807761
0.0017748922109603882
0.004439034964889288
0.001117075327783823
0.0019633944611996412
0.0015173163264989853
0.0010591575410217047
0.0009221935761161149
0.005581454839557409
0.005897998344153166
0.0006385447923094034
0.000875822443049401
0.0012275588233023882
0.004910035524517298
0.003915170673280954
0.0019969926215708256
0.0011261310428380966
0.0015744837000966072
0.0011118125403299928
0.0014992570504546165
0.003135015955194831
0.0011815485777333379
0.003796627512201667
0.0012789673637598753
0.0022237550001591444
0.004266141913831234
0.0011515929363667965
0.0009325513965450227
0.0029519356321543455
0.0022072726860642433
0.002541510621085763
0.002094687893986702
0.002315336372703314
0.0015568987000733614
0.0008060050313360989
0.003270838875323534
0.0007927668048068881
0.003943686839193106
0.0018363447161391377
0.001138519961386919
0.002234113635495305
0.0011120607377961278
0.0020748493261635303
0.0016616572393104434
0.0013901545898988843
0.0010853015119209886
0.007448400370776653
0.002289086114615202
0.0024790149182081223
0.0014590367209166288
0.003869062289595604
0.004364146385341883
0.0014719940954819322
0.001417102525010705
0.0013194071361795068
0.0016317719127982855
0.002189156599342823
0.005297150928527117
0.0060620238073170185
0.0014959071995690465
0.0027250335551798344
0.0017939535900950432
0.0009788236347958446
0.003216581651940942
0.0020925658755004406
0.0009140596375800669
0.002099106553941965
0.0016315229004248977
0.002713920548558235
0.0103064626455307
0.0033861063420772552
0.005692478734999895
0.0028843602631241083
0.005046633537858725
0.0011939075775444508
0.0014454107731580734
0.0015892615774646401
0.0011546243913471699
0.001646083896048367
0.0022896500304341316
0.0009544187923893332
0.004578808322548866
0.002811035141348839
0.0023178341798484325
0.000750968640204519
0.0010062344372272491
0.003464163513854146
0.0013714468805119395
0.0028017298318445683
0.0006397770484909415
0.0009138660388998687
0.0019948608241975307
0.0022572765592485666
0.0007781792082823813
0.0013257162645459175
0.0015857563121244311
0.0042937034741044044
0.0014501537661999464
0.007159590721130371
0.001139895641244948
0.0034076101146638393
0.0012637418694794178
0.0015155478613451123
0.0018682769732549787
0.0031074355356395245
0.0012086036149412394
0.0030650487169623375
0.0009589414694346488
0.0012058131396770477
0.0024226016830652952
0.0011638447176665068
0.0012089925585314631
0.0016321651637554169
0.0016571450978517532
0.004155536647886038
0.00142739771399647
0.00342887663282454
0.0008106809691525996
0.0016937549225986004
0.0009355777874588966
0.0009798408718779683
0.001948555582202971
0.005763404071331024
0.0036737590562552214
0.0036203768104314804
0.0018310274463146925
0.007053036708384752
0.0013772749807685614
0.0024282110389322042
0.0014002459356561303
0.001505318214185536
0.0010491488501429558
0.002083985134959221
0.001371765392832458
0.004887124057859182
0.0008953906944952905
0.0012185763334855437
0.0009292089962400496
0.005107746925204992
0.004536412190645933
0.0008682646439410746
0.003426908515393734
0.0010132541647180915
0.0019583809189498425
0.003236065385863185
0.0011786819668486714
0.003444363595917821
0.006370265036821365
0.0025464706122875214
0.0019551925361156464
0.002320036059245467
0.0015589151298627257
0.0032435928005725145
0.001047274679876864
0.0011538694379851222
0.0019068935653194785
0.000810669269412756
0.004990990739315748
0.002414038171991706
0.0009251508745364845
0.0014859639341011643
0.002261504763737321
0.0014995700912550092
0.0010414653224870563
0.0008379612118005753
0.0047854031436145306
0.002112950896844268
0.0026645835023373365
0.0010596341453492641
0.001119427033700049
0.0007573773036710918
0.001740402658469975
0.0032973666675388813
0.0016277844551950693
0.0009452488156966865
0.0016762507148087025
0.0018395682564005256
0.003721458837389946
0.0011091588530689478
0.0037730468902736902
0.0024258559569716454
0.007370070554316044
0.0009724476258270442
0.0016109560383483768
0.0036241579800844193
0.0013239536201581359
0.0013012898853048682
0.0008419216028414667
0.005607591476291418
0.0010813678381964564
0.0013041214551776648
0.0024534540716558695
0.0016000408213585615
0.0020973607897758484
0.003046499565243721
0.0012004267191514373
0.0008792956359684467
0.0018079791916534305
0.000685729319229722
0.004506364464759827
0.003899583127349615
0.002281115623190999
0.0026737218722701073
0.0010583691764622927
0.002081873593851924
0.0016354781109839678
0.003682868555188179
0.0010458881733939052
0.006867623422294855
0.0013398411683738232
0.0011601874139159918
0.002052571624517441
0.000721885880921036
0.0015485412441194057
0.002809947356581688
0.0061675431206822395
0.0038397363387048244
0.001996914390474558
0.000821440014988184
0.0016279666451737285
0.0023587222676724195
0.0014294625725597143
0.0018656793981790543
0.0017178899142891169
0.0010548969730734825
0.0009833560325205326
0.0018495649565011263
0.0008127659093588591
0.003520985832437873
0.0009148259414359927
0.0009576382581144571
0.0008726583328098059
0.002809687750414014
0.0032762084156274796
0.0010866025695577264
0.0035377307794988155
0.007103523705154657
0.0015109173255041242
0.0023136634845286608
0.0012996392324566841
0.0018223332008346915
0.0008413452305831015
0.001865743426606059
0.0018299845978617668
0.001105712610296905
0.003396682906895876
0.002308976836502552
0.00273154373280704
0.003928569611161947
0.001456891535781324
0.0011641514720395207
0.0009427190525457263
0.0027145310305058956
0.0016902860952541232
0.00311505189165473
0.0022018656600266695
0.0031113324221223593
0.0017995790112763643
0.002034718869253993
0.002841700566932559
0.001255728187970817
0.0036237959284335375
0.003329233964905143
0.0010442532366141677
0.0022358049172908068
0.005944466218352318
0.0029480766970664263
0.004029184114187956
0.001601592404767871
0.004185729194432497
0.001097124652005732
0.0011462215334177017
0.0012058720458298922
0.0007055891328491271
0.0019156960770487785
0.0013017947785556316
0.004150924738496542
0.0014349338598549366
0.0011700957547873259
0.001264275866560638
0.0012275285553187132
0.007217086851596832
0.0019214360509067774
0.0032088698353618383
0.0010288892081007361
0.0020461739040911198
0.0012766788713634014
0.0037900337483733892
0.0011543015716597438
0.0014690146781504154
0.002514404011890292
0.0009130476391874254
0.005113894585520029
0.0008866686257533729
0.005371901672333479
0.003378609661012888
0.0013905237428843975
0.001734502729959786
0.0006820791750214994
0.0006737957010045648
0.000885254645254463
0.0016642414266243577
0.0011496044462546706
0.0013256563106551766
0.002023084554821253
0.0012270488077774644
0.0008730730623938143
0.0035908545833081007
0.0010818714508786798
0.0014766185777261853
0.0016546406550332904
0.00247127003967762
0.0026120860129594803
0.003701723413541913
0.002169038401916623
0.003726608119904995
0.0010242597199976444
0.0027391037438064814
0.002432031324133277
0.0022716650273650885
0.003573040012270212
0.004090105649083853
0.002229235367849469
0.0011430842569097877
0.0030181517358869314
0.0019429672975093126
0.0059461938217282295
0.0008738026372157037
0.0020290110260248184
0.0050751036033034325
0.0032368754036724567
0.0007593555492348969
0.0010528777493163943
0.0019398432923480868
0.0014101683627814054
0.0011201112065464258
0.0039642187766730785
0.0010849841637536883
0.002560506109148264
0.0012053219834342599
0.006455093156546354
0.0014489475870504975
0.0028796307742595673
0.0018782465485855937
0.0036947422195225954
0.001469266484491527
0.0069742873311042786
0.0037098294124007225
0.0012092050164937973
0.0014150574570521712
0.0023876498453319073
0.001365037402138114
0.0005058153183199465
0.00394221069291234
0.0015806243754923344
0.0029257028363645077
0.0018388330936431885
0.0009480437729507685
0.0033823284320533276
0.004274927079677582
0.001518505741842091
0.0018955364357680082
0.0021739541552960873
0.004740866366773844
0.00172547553665936
0.0015234287129715085
0.007033039350062609
0.0014106985181570053
0.0021261638030409813
0.000801543821580708
0.0029293664265424013
0.004717499483376741
0.00169164570979774
0.0019815820269286633
0.0013086379040032625
0.0020104474388062954
0.0013454314321279526
0.0007973889005370438
0.003646082477644086
0.0023746027145534754
0.003764270106330514
0.0010583854746073484
0.0022350167855620384
0.0022479884792119265
0.001484970562160015
0.0017269834643229842
0.0011345905950292945
0.009975427761673927
0.0009741317480802536
0.005267526023089886
0.0012802100973203778
0.0007319450960494578
0.0026563561987131834
0.0020183005835860968
0.001320563955232501
0.001137578277848661
0.002062396379187703
0.0009989500977098942
0.001562846708111465
0.0036706309765577316
0.0021217106841504574
0.003193128854036331
0.003827053355053067
0.001241190591827035
0.0009196859900839627
0.0013791879173368216
0.0016265172744169831
0.0015544077614322305
0.0015466581098735332
0.003198128892108798
0.003247736254706979
0.007466308772563934
0.002262481953948736
0.001807439955882728
0.002152147935703397
0.002618436235934496
0.003439856693148613
0.005984029732644558
0.003987297881394625
0.005010699853301048
0.0010110643925145268
0.0008370527066290379
0.0056799063459038734
0.0028253854252398014
0.0034722478594630957
0.0009735465864650905
0.0007096693734638393
0.0012592936400324106
0.0028608820866793394
0.0016486810054630041
0.0009647000697441399
0.0009505872149020433
0.00109165720641613
0.001732638687826693
0.002656486351042986
0.0010103477397933602
0.0037846334744244814
0.000845503993332386
0.00653834268450737
0.003434998681768775
0.0021930818911641836
0.002476311754435301
0.0020604273304343224
0.002114459639415145
0.0022668931633234024
0.0013718983391299844
0.0013736070832237601
0.001892432919703424
0.007487508002668619
0.00205334834754467
0.0026979511603713036
0.0007380301249213517
0.000962129735853523
0.0035534121561795473
0.0036602478940039873
0.0050140246748924255
0.0008598798303864896
0.0013928249245509505
0.0017334468429908156
0.0016543299425393343
0.0010108734713867307
0.0015871940413489938
0.0017804951639845967
0.002269942546263337
0.0009473020327277482
0.0017995665548369288
0.004969833884388208
0.004922827240079641
0.001096411724574864
0.0009746856521815062
0.0022521549835801125
0.004613142926245928
0.007329114247113466
0.002411183901131153
0.0004691376816481352
0.0012705709086731076
0.002034511649981141
0.00718751410022378
0.0024633719585835934
0.0028304920997470617
0.002062923973426223
0.0030033360235393047
0.0017812589649111032
0.0011211744276806712
0.001677969703450799
0.0013814313570037484
0.0037936170119792223
0.0005254209390841424
0.0010198266245424747
0.003373620565980673
0.000972609908785671
0.0008721728809177876
0.0023336708545684814
0.0019604889675974846
0.0030203245114535093
0.0011607087217271328
0.0017333158757537603
0.0020397412590682507
0.0011652268003672361
0.0019350433722138405
0.005634956061840057
0.0020373323932290077
0.0011563380248844624
0.0030670901760458946
0.003037618240341544
0.0035771920811384916
0.0023309653624892235
0.0016061419155448675
0.0013495611492544413
0.0054372763261199
0.0058769118040800095
0.0013696812093257904
0.0011154841631650925
0.002093736780807376
0.0016293323133140802
0.003628018544986844
0.0009411224746145308
0.0015377771342173219
0.001983840251341462
0.002227103104814887
0.0018379909452050924
0.001221004407852888
0.002235713880509138
0.0013411573600023985
0.0027704094536602497
0.004283808171749115
0.002324100583791733
0.0014017070643603802
0.005501929670572281
0.003767405403777957
0.0021142722107470036
0.0010759163415059447
0.0016742022708058357
0.003310732776299119
0.001176092540845275
0.0016313140513375401
0.0012453125091269612
0.0069153946824371815
0.005795344244688749
0.0017298199236392975
0.0010778409196063876
0.0019105782266706228
0.0020925896242260933
0.007180485408753157
0.0008998184348456562
0.0018096478888764977
0.0018573349807411432
0.005211268085986376
0.00507792504504323
0.0007454378646798432
0.0038157987874001265
0.0009146775701083243
0.003665612079203129
0.0011969530023634434
0.005914914421737194
0.0034903802443295717
