0.0005321221542544663
0.0001911051949718967
0.0004636060039047152
0.0004628012829925865
0.00088064547162503
0.0005500004044733942
0.0013729972997680306
0.0019950002897530794
0.002027562353760004
0.006947695277631283
0.0035750684328377247
0.000654501433018595
0.0017410512082278728
0.0011114181252196431
0.0003703664115164429
0.001980290049687028
0.0006006504409015179
0.0016298966947942972
0.00043210474541410804
0.0005909315077587962
0.0008741173660382628
0.0003916541754733771
0.0015179591719061136
0.00023428918211720884
0.00048639054875820875
0.0004354408592917025
0.0020703119225800037
0.0006072876276448369
0.0010599028319120407
0.0025712656788527966
0.0008339897030964494
0.0005189170478843153
0.000515114632435143
0.00039432221092283726
0.0026246511843055487
0.0038305805064737797
0.0004039256018586457
0.0006310638855211437
0.00027868099277839065
0.0005635140696540475
0.002319792751222849
0.0036083448212593794
0.000709202722646296
0.0017218539724126458
0.0019489596597850323
0.0009189662523567677
0.0005949240876361728
0.0005375784821808338
0.0002246067306259647
0.0033522837329655886
0.00015523670299444348
0.002313137287274003
0.0008256689761765301
0.001242185477167368
0.0011218416038900614
6.269259029068053e-05
0.0019375646952539682
0.004060352686792612
0.001112568425014615
0.00026045209961012006
0.0024351703468710184
0.0005273650749586523
0.0021420714911073446
0.003190933493897319
0.004646426532417536
0.008901414461433887
0.004269761499017477
0.0006870749057270586
0.004933051764965057
0.0010243678698316216
0.001400977373123169
0.0008119064732454717
0.000649886904284358
0.00101219373755157
0.0021332113537937403
0.0017627334455028176
0.0003816969401668757
0.0005631423555314541
0.0018616912420839071
0.00034634326584637165
0.002122263191267848
0.0006278486689552665
0.0010348391951993108
0.001709772739559412
0.0032443483360111713
0.003547538071870804
0.0014589183265343308
0.0004369163070805371
0.004837905988097191
0.0009584836079739034
0.0010926291579380631
0.00031580450013279915
0.00028268081950955093
0.0007884608930908144
0.0030456543900072575
0.002904017921537161
0.000713970570359379
0.0006110760732553899
0.000652040122076869
0.0004821958136744797
0.0009064993937499821
0.0004728380008600652
0.0026350964326411486
0.0027251429855823517
0.0007628270541317761
0.0017221495509147644
0.0030025478918105364
0.0002565550385043025
0.0009944565827026963
0.003186524612829089
0.004115043208003044
0.00021465856116265059
0.0008928239112719893
0.00041900225915014744
0.001705332426354289
0.0018457976402714849
0.0009583903010934591
0.00017263604968320578
0.005925668869167566
0.0008228934020735323
0.0015059082070365548
0.0006238725618459284
0.002910345559939742
0.0007253742660395801
0.0007053728331811726
0.0004972513997927308
0.00118881871458143
0.0021328844595700502
0.0005295578739605844
0.00038808787940070033
0.0005230603856034577
0.0006533534615300596
0.0004032927972730249
0.0005670874379575253
0.0005038096569478512
0.0017712394474074244
0.0008061309345066547
0.00320547167211771
0.002896204823628068
0.00044152731425128877
0.0010821453761309385
0.004530017264187336
0.002200342481955886
0.0025657094083726406
0.002570685464888811
0.00027287995908409357
0.0028733278159052134
0.0006193961016833782
0.0012980125611647964
0.001052131992764771
0.000981418532319367
0.004931299015879631
0.0014636889100074768
0.0030914749950170517
0.0018501911545172334
0.0030291147995740175
0.0009748850716277957
0.00041885965038090944
0.0010437258752062917
0.0005469255265779793
0.0013619381934404373
0.0006611215067096055
0.0008181805606000125
0.0039155264385044575
0.001419721287675202
0.0007068834966048598
0.0005290662520565093
0.0017069989116862416
0.0006187285180203617
0.000980747863650322
0.000765131670050323
0.005736207589507103
0.0022552581503987312
0.0006326016155071557
0.0005028968444094062
0.005378058645874262
0.0008731090347282588
0.0013646995648741722
0.0008872839971445501
0.0015916575212031603
0.0011293295538052917
0.0008706683292984962
0.006499286275357008
0.0013320859288796782
0.002759370021522045
0.0007394493441097438
0.0006363813881762326
0.0013736755354329944
0.0024662273935973644
0.004157837014645338
0.000349456153344363
0.0016146419802680612
0.0009618822950869799
0.000702031422406435
0.0006492423708550632
0.00140917778480798
0.0020507334265857935
0.0019309761701151729
0.002969572087749839
0.0016193450428545475
0.0011721396585926414
0.0011242340551689267
0.0004682386352214962
0.00526136439293623
0.0005335342139005661
0.000568300427403301
0.001863282173871994
0.0026309716049581766
0.000692191009875387
0.0007963576936163008
0.001983208581805229
0.0026542614214122295
0.00232293619774282
0.004579818341881037
0.0005812084418721497
0.0046578943729400635
0.0009008999913930893
0.0005081819836050272
0.0001592375192558393
0.0008487047161906958
0.000426926591899246
0.0009304914274252951
0.0002824830007739365
0.0007699457928538322
0.00039688096148893237
0.0004955220501869917
0.0006116560543887317
0.0011593535309657454
0.0020302089396864176
0.0023754769936203957
0.0006814440130256116
0.001151088043116033
0.0056718080304563046
0.0023120958358049393
0.0006807514582760632
0.0008581336587667465
0.005214650649577379
0.0015706352423876524
0.0014461990213021636
0.000661498517729342
0.0006707568536512554
0.001422683009877801
0.005628344137221575
0.004104831721633673
0.0018529255175963044
0.0029133139178156853
0.0007263868465088308
0.0026602456346154213
0.0014160575810819864
0.001336683752015233
0.0032758675515651703
0.000807236647233367
0.0025007249787449837
0.0006728771841153502
0.002317937323823571
0.0026500350795686245
0.0004938601050525904
0.0006035644910298288
0.001344029908068478
0.002463946584612131
0.0015883687883615494
0.002866022987291217
0.0012673854362219572
0.0006625174428336322
0.0003409627533983439
0.0002582285669632256
0.0030593033879995346
0.0025573226157575846
0.0007710535428486764
0.00027695237076841295
0.00037409953074529767
0.0028855514246970415
0.0009109055972658098
0.0004624654829967767
0.0009164783405140042
0.000999343697912991
0.0012022549053654075
0.00017593424126971513
0.0013069200795143843
0.0023545303847640753
0.001370170502923429
0.001008029212243855
0.0008257909794338048
0.001607738551683724
0.0021656842436641455
0.0019843471236526966
0.0019688585307449102
0.0017016453202813864
0.004082271363586187
0.0005133943632245064
0.002229184377938509
0.0023954673670232296
0.003447091206908226
0.0003068636287935078
0.0015569571405649185
0.002825816161930561
0.0002071708586299792
0.0009691473678685725
0.001660111709497869
0.0017311404226347804
0.0034364438615739346
0.0008404628024436533
0.0036076277028769255
0.0016657756641507149
0.0010169578017666936
0.00040138373151421547
0.004725970793515444
0.0002782451338134706
0.0019930393900722265
0.0012962894979864359
0.0020851842127740383
0.0006133046117611229
0.00213537085801363
0.0006944059859961271
0.001613135333172977
0.001413866993971169
0.000703891390003264
0.003296221373602748
0.0027479263953864574
0.0012223677476868033
0.0008444833219982684
0.000753379485104233
0.0006909823860041797
0.0033135663252323866
0.0009421400027349591
0.0037521766498684883
0.0007743802270852029
0.00527679268270731
0.0005696762818843126
0.004354711156338453
0.00044831898412667215
0.0040650260634720325
0.003269736422225833
0.0035540389362722635
0.001180980121716857
0.0004608127928804606
0.0004221638955641538
0.005362294614315033
0.000468117039417848
0.001456649973988533
0.0005828965222463012
0.0005451077595353127
0.005958700552582741
0.0002618831058498472
0.0012933926191180944
0.005811828654259443
0.0015674030873924494
0.0028371738735586405
0.0007275035604834557
0.0018873449880629778
0.000748604943510145
0.0004832655831705779
0.00586683489382267
0.00034279091050848365
0.00046649124124087393
0.0010046998504549265
0.0010517844930291176
0.0010132234310731292
0.0009584468207322061
0.0011073716450482607
0.0011451930040493608
0.0006875882390886545
0.00035074373590759933
0.0005550140631385148
0.0006934147677384317
0.005260354373604059
0.0005997922853566706
0.0007997299544513226
0.0003595943271648139
0.0007058316259644926
0.0009980992181226611
0.0006284159608185291
0.00583483325317502
0.0015845318557694554
0.0006642856169492006
0.00035846789251081645
0.0022788699716329575
0.00024273358576465398
0.00954169500619173
0.0018587845843285322
0.0016273186774924397
0.000541942601557821
0.0002833804755937308
0.004053935408592224
0.0021384176798164845
0.0005741743952967227
0.000869294919539243
0.0009168056421913207
0.0010161858517676592
0.003499601734802127
0.0034602410160005093
0.0020242768805474043
0.004781975410878658
0.002668618457391858
0.0005362188094295561
0.005085766315460205
0.00037176336627453566
0.002034155884757638
0.001590354135259986
0.0004976380150765181
0.000504553085193038
0.001316199777647853
0.0043946378864347935
0.0015299224760383368
0.0003987516392953694
0.0006089232629165053
0.0011059266980737448
0.0035408372059464455
0.003031247528269887
0.002122194040566683
0.0008402548264712095
0.0014781150966882706
0.006615948863327503
0.001502496306784451
0.0004363528569228947
0.0015433666994795203
0.000650507106911391
0.00048486192827112973
0.0011910165194422007
0.003036280395463109
0.0016537813935428858
0.0021889128256589174
0.0013149778824299574
0.0017056758515536785
0.0008381212246604264
0.0017745703225955367
0.0011613520327955484
0.00032137511880137026
0.00047380241448991
0.0018391850171610713
0.00039039080729708076
0.0008904790156520903
0.0008351363940164447
0.004626271780580282
0.0005291757988743484
0.0070006707683205605
0.004290625918656588
0.000670114008244127
0.0009906445629894733
0.000421136268414557
0.008533778600394726
0.0005687506636604667
0.0005622481694445014
0.0005681121838279068
0.0005954846856184304
0.0008122071158140898
0.0002659753372427076
0.004286692477762699
0.00206674518994987
0.0009697500499896705
0.00456389132887125
0.00045177299762144685
0.0017135362140834332
0.0007832651608623564
0.0004451460554264486
0.0006002525333315134
0.0004120111116208136
0.0014467717846855521
0.0007392389816232026
0.0007029141415841877
0.0016594132175669074
0.001983008347451687
0.0024731671437621117
0.0020875486079603434
0.0013232346391305327
0.0014637919375672936
0.001423896406777203
0.002528031589463353
0.0030125880148261786
0.002894990611821413
0.0009713216568343341
0.0005290528642944992
0.0005466261645779014
0.0009427539771422744
0.003954915329813957
0.000603057793341577
0.0006602886132895947
0.004388029687106609
0.0036229395773261786
0.00363655062392354
0.0009498687577433884
0.0005889000603929162
0.0012437936384230852
0.001955739688128233
0.0032564704306423664
0.003928053192794323
0.003152258461341262
0.0005997936823405325
0.0009960840689018369
0.00034977865288965404
0.0007323251920752227
0.0022191288881003857
0.004268441814929247
0.0007589556043967605
0.0006267435383051634
0.0019926896784454584
0.0027940841391682625
0.001900455798022449
0.0031964655499905348
0.0017301286570727825
0.0007081630174070597
0.0007053071749396622
0.0026087958831340075
0.0003992484125774354
0.0005416455096565187
0.0002643598127178848
0.0017137335380539298
0.00030008036992512643
0.0004409851389937103
0.0021594902500510216
0.0010482656070962548
0.0028815530240535736
0.003952696919441223
0.0015208064578473568
0.0003667717974167317
0.0005541993887163699
0.005834749434143305
0.0009264939581044018
0.0012438481207937002
0.0003925638447981328
0.0015369454631581903
0.0031329020857810974
0.0012049763463437557
0.002068824367597699
0.005549464374780655
0.0016247796593233943
0.0018247049301862717
0.0030146718490868807
0.0026874877512454987
0.003649984486401081
0.001298070652410388
0.0005653473781421781
0.006804080680012703
0.001213761162944138
0.001001173397526145
0.001854606089182198
0.002370768692344427
0.00014845516125205904
0.0006435623508878052
0.004806998185813427
0.003267510561272502
0.0018019044073298573
0.0007100147195160389
0.0016763473395258188
0.0009745072457008064
0.0006250698352232575
0.0012978058075532317
0.0015636163298040628
0.00044927073759026825
0.0007409462123177946
0.006367196328938007
0.004292667843401432
0.0009802201529964805
0.0033036747481673956
0.0008221520110964775
0.0011056351941078901
0.00031520426273345947
0.002200830727815628
0.0016092389123514295
0.0050149038434028625
0.008182943798601627
0.0010216268710792065
0.001168382354080677
0.0015714456094428897
0.002510223537683487
0.0038630447816103697
0.004107230808585882
0.000640745391137898
0.001231048139743507
0.00022121226356830448
0.0038704760372638702
0.0010415681172162294
0.0005031817127019167
0.0011757566826418042
0.004699473734945059
0.0013549699215218425
0.000797312764916569
0.0014544985024258494
0.0007441116031259298
0.00055969093227759
0.0028259088285267353
0.002177225425839424
0.0024051624350249767
0.0031410742085427046
0.0019393053371459246
0.006698030047118664
0.0004469172563403845
0.00251402473077178
0.0003997766471002251
0.004452780820429325
0.003402346046641469
0.000507151591591537
0.0010338168358430266
0.000793210812844336
0.00205211085267365
0.002148787025362253
0.0032287375070154667
0.0008482520934194326
0.0006135942530818284
0.0005400312365964055
0.002680158708244562
0.0052920058369636536
0.001154840225353837
0.000777242355979979
0.001469460898078978
0.002470657927915454
0.0039015859365463257
0.005215639714151621
0.0027480239514261484
0.0010869578691199422
0.00351209775544703
0.0005988218472339213
0.002161530777812004
0.0005393599276430905
0.0003001403820235282
0.00214177998714149
0.005023038014769554
0.001973493257537484
0.0008879324304871261
0.0006250205333344638
0.004727118648588657
0.0026473954785615206
0.002797897206619382
0.0007420931360684335
0.0018714909674599767
0.0009125597425736487
0.0003619074705056846
0.00038052743184380233
0.0028255542274564505
0.0014689980307593942
0.0008783573284745216
0.0005595114780589938
0.0008365714456886053
0.0016014552675187588
0.0025668758898973465
0.003961107227951288
0.0029713078401982784
0.0013886155793443322
0.0007304681930691004
0.001968464581295848
0.0014265248319134116
0.0007188724121078849
0.001979696098715067
0.000389239052310586
0.0015569174429401755
0.0005010609165765345
0.0023199350107461214
0.0021628732793033123
0.0003921082243323326
0.001078452100045979
0.0032943752594292164
0.0009579236502759159
0.0008195091504603624
0.0009560371981933713
0.0018962840549647808
0.00040538713801652193
0.0007484896923415363
0.001133230864070356
0.0025998721830546856
0.001457309816032648
0.00015797856030985713
0.002054603537544608
0.0028736174572259188
0.0007042988436296582
0.00317728566005826
0.0004564241971820593
0.0041146897710859776
0.004636016208678484
0.0019740902353078127
0.00036187731893733144
0.0010280207497999072
0.0012296647764742374
