0.00037616267218254507
0.00034315240918658674
0.0004214597574900836
0.0003370757622178644
0.00013466317614074796
0.00031503886566497386
0.00027473183581605554
0.0003246300620958209
0.0002438670926494524
6.702424434479326e-05
0.00010624958667904139
0.00029984692810103297
0.0001447125105187297
0.0001827040541684255
0.0005059060640633106
8.176253322744742e-05
0.00041418432374484837
0.00031276518711820245
0.0004407696833368391
0.0005712212878279388
0.0004803192859981209
0.0005485544679686427
0.0002546464966144413
0.0007363577024079859
0.0005531962960958481
0.0005292266141623259
0.00040324198198504746
0.0004981657839380205
0.0003253842587582767
0.00012741560931317508
0.0005046140286140144
0.00036576835555024445
0.00035166030284017324
0.0003968098317272961
0.00010727792687248439
8.166131738107651e-05
0.0004035451856907457
0.00028629551525227726
0.0005150663200765848
0.0003710615274030715
0.0001181455809273757
6.209592538652942e-05
0.0002551076468080282
0.00018931571685243398
0.00014014000771567225
0.00022144016111269593
0.0005870721070095897
0.0003869474458042532
0.0006098775775171816
9.768382005859166e-05
0.0007632942870259285
0.00021559679589699954
0.000375164148863405
0.0002703885838855058
0.00021147610095795244
0.0008153562666848302
0.00015970945241861045
0.00010581967944744974
0.0006746983854100108
0.0005572523805312812
0.00030342733953148127
0.00037793777300976217
0.00012007728946628049
0.00010830660175997764
9.173685975838453e-05
5.3801504691364244e-05
0.00014290431863628328
0.00022167184215504676
7.096357876434922e-05
0.00030298394267447293
0.00020901573589071631
0.000359053403371945
0.000559006177354604
0.00010751331865321845
0.00015467670164071023
8.954716031439602e-05
0.0006055353442206979
0.0004928847192786634
0.00017140993440989405
0.0009490666561760008
0.00011753755825338885
0.0003383914881851524
0.00039567583007737994
0.00010146595013793558
0.00022920877381693572
0.00015389818872790784
0.0004036948084831238
0.00039610365638509393
0.0002359676145715639
0.0002981121651828289
0.00017081342230085284
0.0005078084650449455
0.0005840682424604893
0.00029743483173660934
0.0003142267814837396
0.00012491020606830716
0.00061761774122715
0.00033911867649294436
0.0004218851972837001
0.0005444600828923285
0.0004046805261168629
0.0006452606176026165
5.346925536287017e-05
0.00035224747261963785
0.00025200084201060236
0.0003000548167619854
0.00012212718138471246
0.000482981646200642
0.0003295092028565705
0.0002758228511083871
0.00010764016769826412
0.0002966174215544015
0.00029447991983033717
0.00033614871790632606
0.00016060790221672505
0.0003186829562764615
0.00025683388230390847
0.0007863269420340657
7.675991946598515e-05
0.0005304125370457768
0.00012850308849010617
0.0005108926561661065
8.076734229689464e-05
0.0006693254690617323
0.00042018474778160453
0.00031643875990994275
0.0004057936603203416
7.111132435966283e-05
0.00023511041945312172
0.0004195844230707735
0.0004412673588376492
0.0005277772434055805
0.00034873528056778014
0.0006169950356706977
0.0004093545430805534
0.00015141369658522308
0.0005642864853143692
9.919366129906848e-05
0.00018208581604994833
0.0005295193404890597
0.00022874944261275232
6.11938230576925e-05
0.0005394098116084933
0.00014911231119185686
0.0001403866772307083
0.0008122895378619432
0.0005120395217090845
0.00021152930276002735
0.00021381117403507233
0.00031228348962031305
0.00017405531252734363
9.090261301025748e-05
0.00040856533451005816
9.488921205047518e-05
0.00022962805815041065
0.00011615375842666253
0.00020747180678881705
0.00034954387228935957
0.00038071037852205336
0.0004441836499609053
0.00020334440341684967
0.000495710875838995
0.00037059668102301657
0.00010404834756627679
0.00021371016919147223
0.0004186794685665518
0.0004092426970601082
0.0003690539742819965
0.00021420224220491946
0.0003364491567481309
0.00035649005440063775
4.836001608055085e-05
0.00010885630763368681
0.0004019479383714497
0.00039484724402427673
9.541308099869639e-05
0.0004336540587246418
0.0002639228187035769
0.0003436835831962526
0.00025580605142749846
0.000408351857913658
0.0005625643534585834
7.191954500740394e-05
7.971480954438448e-05
0.00011310476111248136
0.00040866417111828923
0.0003380030975677073
0.00023579696426168084
0.0004816603031940758
9.42449041758664e-05
0.0006143903010524809
0.00037173001328483224
0.00031633267644792795
0.00047814080608077347
0.0003416179388295859
0.0002130089415004477
0.00036204076604917645
0.00020108024182263762
9.44675412029028e-05
0.0001889831037260592
0.0006489013903774321
0.00023860155488364398
0.0005384585820138454
7.01041062711738e-05
0.00027973338728770614
0.0004373588599264622
0.0001307694910792634
0.000313839060254395
0.0002758993941824883
0.00022885692305862904
0.00040165201062336564
0.00026995621738024056
0.00010031449346570298
0.00010994689364451915
0.0002556798281148076
8.190183871192858e-05
0.0006437343545258045
0.0004584556445479393
0.0005185186164453626
0.00030784940463490784
0.0004778146685566753
0.00021342873515095562
0.000591723364777863
0.0002593738026916981
0.0005810299189761281
0.00069763622013852
0.00041970625170506537
0.0002551866928115487
0.00021519293659366667
0.00015196023741737008
0.0004555526829790324
0.0005426017451100051
6.800524715799838e-05
0.00018422180437482893
0.00043641490628942847
0.0002473031636327505
8.007536234799773e-05
0.00011854586773552
0.0003701674868352711
0.00031261620461009443
0.00025491343694739044
0.0002630332892294973
8.852984319673851e-05
0.00010435494914418086
0.0001527554268250242
0.0001299261348322034
0.0003689192235469818
0.00021924861357547343
0.00012866663746535778
0.000394611619412899
8.003783295862377e-05
0.0003189768467564136
0.00017424880934413522
0.0002451229374855757
8.691688708495349e-05
0.00022159422223921865
0.000442486722022295
0.0003133798891212791
0.0001433976722182706
0.00013039252371527255
0.00031089733238331974
0.00018163358618039638
0.00024209434923250228
0.00018351900507695973
0.000345053878845647
0.0005344395758584142
0.0003469964431133121
0.00014415165060199797
0.00026685462216846645
0.0004181779222562909
0.0004322399909142405
0.00014701492909807712
0.0002566343464422971
0.0004254018422216177
0.00035563710844144225
0.00027182596386410296
0.0004098706995137036
0.0006161444471217692
0.00011137040564790368
0.00025859716697596014
0.00020324409706518054
0.0001818354649003595
0.0003658812784124166
0.00013503940135706216
0.00037414085818454623
0.00014482438564300537
0.000444815814262256
0.0002198549045715481
0.00011241614993195981
0.0002487749152351171
0.0001835831208154559
0.00020127474272157997
9.718717774376273e-05
0.0003259594668634236
0.00032152383937500417
0.0004198650422040373
0.0008412738679908216
0.00039289507549256086
0.00039450734038837254
0.0002466357545927167
0.00015677386545576155
0.00012557028094306588
7.852489943616092e-05
0.00018376194930169731
0.00035038625355809927
0.0003424902097322047
0.00014820313663221896
0.00042178211151622236
0.0006381130078807473
0.00035701028537005186
0.0002532290236558765
0.000551137316506356
0.00028279866091907024
0.00029581034323200583
0.0003798713441938162
0.00037855745176784694
0.0002727497194427997
0.00044974693446420133
0.00011337905016262084
0.00024208643299061805
0.00034254862111993134
0.00020453370234463364
0.0004198725800961256
0.00010700929124141112
0.0004130193847231567
0.00011934278154512867
0.00038695288822054863
8.938156679505482e-05
0.0004715732065960765
0.00010949275019811466
0.0004730379150714725
9.667461563367397e-05
6.863818998681381e-05
0.0004158825904596597
0.0002773722226265818
0.00032815165468491614
0.000626620720140636
0.00010176429350394756
0.0005775270983576775
0.000510125420987606
0.0008140901918523014
0.0006468405481427908
8.679447637405246e-05
0.0007137435022741556
0.0005192051758058369
8.944738510763273e-05
0.00023049172887112945
0.00010522847151150927
0.00042667510570026934
0.00014822787488810718
0.00039407011354342103
0.00031351394136436284
5.0380327593302354e-05
0.000409256259445101
0.0003010806394740939
0.0002914386859629303
0.0002832951140590012
0.0005582195008173585
0.00018734506738837808
0.00034189230063930154
0.00022496076417155564
0.0007567870197817683
0.00041023758240044117
0.00045315458555705845
0.00031533444416709244
6.488587678177282e-05
0.0003448287898208946
0.0006500527379103005
0.00043091538827866316
0.00035523014958016574
0.00025257549714297056
0.0004363146726973355
7.453587022610009e-05
0.0003805004816967994
0.0002622657921165228
0.0003912968677468598
0.00014912817277945578
0.0008388863643631339
7.908241241239011e-05
0.00014530104817822576
0.0001839147589635104
0.0006392716313712299
0.0005930358311161399
9.612314170226455e-05
8.049725875025615e-05
0.00048252561828121543
0.0002887022856157273
0.00027629482792690396
0.0004441334749571979
7.207922317320481e-05
0.0001910006394609809
0.0006312940968200564
7.569648732896894e-05
0.00033076253021135926
0.0006686881533823907
6.196487811394036e-05
0.0004655115772038698
0.0004869287076871842
0.000255859165918082
0.0006733073387295008
0.0005609300569631159
0.00018339604139328003
7.554213516414165e-05
0.00017582555301487446
0.0009464023751206696
0.0003329140890855342
0.00048765598330646753
0.00011470227764220908
6.518360896734521e-05
0.00025645343703217804
0.0003032551903743297
0.00011244596680626273
5.333668377716094e-05
0.0003090196696575731
0.0004181812109891325
0.0003051455714739859
0.0010338189313188195
0.0005518505931831896
0.00013061882054898888
9.14510601432994e-05
0.0002372194139752537
0.0002209144877269864
0.0002074493677355349
0.0002254453720524907
0.000276129983831197
0.00023734582646284252
0.0002890565665438771
0.0004867133393418044
0.00042633884004317224
0.0005673201521858573
0.0005073052016086876
0.0002661705657374114
0.0003595298039726913
8.815319597488269e-05
0.0005308142281137407
5.170573786017485e-05
0.000142930235597305
0.00034411848173476756
0.0003406209289096296
0.0004556313215289265
8.022484689718112e-05
0.0003578966425266117
0.00029708180227316916
0.0004864993679802865
0.00038439652416855097
0.0006077637663111091
0.0005477912491187453
9.263004903914407e-05
0.00014500813267659396
0.00021255800675135106
0.00010125864355359226
0.00043521137558855116
0.000244616880081594
0.000264208298176527
0.0004356667632237077
0.0006268040742725134
0.00044011499267071486
0.00023798810434527695
0.00019734419765882194
0.00024750258307904005
0.00018913466192316264
0.00012501263699959964
0.00011325499508529902
0.00025418156292289495
0.00025618725339882076
0.00020652453531511128
0.00019772637460846454
0.0001634586660657078
0.00010399708116892725
0.000200374866835773
0.00024264534295070916
0.0005377827910706401
0.0006431062938645482
0.0005213149124756455
7.548580470029265e-05
0.0004925191169604659
0.0003931754326913506
7.554311014246196e-05
0.00011745883239200339
0.0002534389204811305
0.000348567875334993
0.00026599186821840703
0.00030623158090747893
0.0004010930424556136
0.00014365193783305585
8.634979894850403e-05
0.00016857970331329852
0.000386888743378222
0.000372309674276039
0.0006154710426926613
0.0005462646950036287
0.00034023504122160375
9.338792006019503e-05
0.00033701126812957227
0.0003172186261508614
0.0002604442124720663
0.00012716802302747965
0.00020009916624985635
0.0001299754367209971
0.0003289268061053008
0.00016118414350785315
0.000408936437452212
0.0001937531487783417
0.0008361483342014253
0.000476084096590057
0.00032669250504113734
0.0003122529305983335
0.0004865475348196924
0.000639887060970068
0.00012654541933443397
0.00019900900952052325
8.53958772495389e-05
0.0003465655609034002
0.0004785836208611727
0.00037392167723737657
0.0004404621140565723
0.00012940111628267914
0.0003499976301100105
0.0001959001674549654
0.00039309507701545954
0.0001092773673008196
9.920304000843316e-05
0.0002824054390657693
0.00014077816740609705
9.198197949444875e-05
0.00017411231237929314
0.0002866102440748364
0.00012839931878261268
0.00020456935453694314
6.967220542719588e-05
0.0002507489698473364
0.0005340684438124299
0.00011164168972754851
0.0002597912971395999
0.00044684921158477664
0.0001273918169317767
0.0002996794646605849
0.00028450312674976885
0.0005096612148918211
7.4240037065465e-05
0.00011479851673357189
0.00013742044393438846
0.000291856296826154
0.0004340203304309398
0.0003575941373128444
0.0004152895126026124
0.0004108975699637085
0.0002524846058804542
0.0003812393406406045
0.0003570345579646528
7.357256254181266e-05
6.953610136406496e-05
0.00018277665367349982
7.100866787368432e-05
0.0007617059163749218
0.0002828853903338313
0.000533871992956847
0.000190439895959571
7.976486085681245e-05
7.235544035211205e-05
6.17630357737653e-05
0.0005126199102960527
0.00021852365171071142
0.00013690888590645045
0.00014024387928657234
9.266866982216015e-05
7.861890480853617e-05
0.0003753980272449553
0.00044989361776970327
0.00028091907734051347
0.00011231907410547137
0.00026394042652100325
0.0003722512919921428
0.00020263429905753583
7.238561374833807e-05
0.0004959959187544882
0.000339910329785198
0.00021807047596666962
0.00022168656869325787
0.0003827687178272754
0.0001997474901145324
0.000343420950230211
0.00011581304715946317
9.861178114078939e-05
0.00021546795323956758
8.256771980086342e-05
0.00043307969463057816
0.00010053028381662443
0.0006300461245700717
8.822263043839484e-05
0.0003038957074750215
0.00048483943101018667
0.0002688345848582685
0.00033964309841394424
0.00018468011694494635
0.0003681526577565819
0.00034473123378120363
0.00013495120219886303
0.00031649236916564405
0.0003373929066583514
0.00013148909783922136
8.12014623079449e-05
0.0002699262695387006
0.0003123284550383687
0.00025395944248884916
7.75110165704973e-05
7.834505959181115e-05
9.20896272873506e-05
0.00022087660909164697
0.0002573193341959268
0.0003270802553743124
0.0003939571906812489
0.0002053571806754917
0.0003436779952608049
0.0005730020347982645
0.00031783836311660707
5.727483221562579e-05
0.00040988277760334313
0.00040996723691932857
0.0005173549870960414
0.00014731565897818655
0.00011497313971631229
0.00016394152771681547
0.0003238828503526747
0.00015034440730232745
0.00021920676226727664
0.0005841405945830047
0.00039759749779477715
0.00013118966307956725
0.00012058416177751496
0.0004010616976302117
0.0003621166688390076
0.0002646975335665047
0.00022532134607899934
0.00016211603360716254
8.818461355986074e-05
0.0001413247809978202
0.00016106883413158357
0.00043591350549831986
0.00022525846725329757
0.00017014016339089721
0.0002680912148207426
0.00036145313060842454
0.0005986473988741636
0.00022385582269635051
0.00036495787207968533
0.00017746594676282257
0.00017650473455432802
0.0007693638326600194
0.0001707186020212248
0.00013820860476698726
0.00024400866823270917
0.00044721871381625533
0.00021340454986784607
0.00019814139523077756
0.00032160052796825767
0.0004045544774271548
0.00017914763884618878
0.0001676619576755911
0.0002255747967865318
0.0008809580467641354
0.0002245933865197003
0.00039641253533773124
0.00040280629764311016
0.00016421118925791234
0.0008122827275656164
0.0001336327550234273
0.0001397643645759672
0.00022981820802669972
0.00044788530794903636
0.0003937611763831228
0.0002576971019152552
