0.011937647126615047
0.009591498412191868
0.007810171693563461
0.01216681208461523
0.010917546227574348
0.0061533087864518166
0.0048166909255087376
0.005999501794576645
0.00954984687268734
0.011847973801195621
0.008945249021053314
0.010635406710207462
0.007603938225656748
0.010525574907660484
0.005181024316698313
0.007734780665487051
0.00670350668951869
0.009923386387526989
0.004729602951556444
0.008382832631468773
0.008920780383050442
0.017094116657972336
0.009212897159159184
0.008155274204909801
0.006538601592183113
0.006493943743407726
0.006597896106541157
0.008758267387747765
0.00816386379301548
0.010451193898916245
0.010305495001375675
0.010347628965973854
0.00886447075754404
0.007172088138759136
0.008431678637862206
0.009024235419929028
0.01263126265257597
0.006283959839493036
0.008025267161428928
0.008492507971823215
0.010180765762925148
0.008478296920657158
0.01031622663140297
0.00892250332981348
0.010442602448165417
0.008323104120790958
0.007899126037955284
0.006236298941075802
0.008019726723432541
0.012606299482285976
0.00651013758033514
0.010417154058814049
0.0057530635967850685
0.010811708867549896
0.008228152990341187
0.00631793774664402
0.004957481287419796
0.007839900441467762
0.00852963700890541
0.010498167015612125
0.010453488677740097
0.010227053426206112
0.006351933814585209
0.009204992093145847
0.011466765776276588
0.013767391443252563
0.005533019080758095
0.007536903955042362
0.009359008632600307
0.008155271410942078
0.007166153285652399
0.010384880937635899
0.010504517704248428
0.008869344368577003
0.009766981936991215
0.009629799984395504
0.006807002238929272
0.010254127904772758
0.00597904808819294
0.005439329892396927
0.0076241325587034225
0.012415087781846523
0.006930123083293438
0.0068980795331299305
0.005220802966505289
0.0072784931398928165
0.006053822580724955
0.008573596365749836
0.013161090202629566
0.008384895510971546
0.030553417280316353
0.008038681000471115
0.005513910204172134
0.007534503936767578
0.006856548599898815
0.006077611818909645
0.009798567742109299
0.006258054170757532
0.007120020221918821
0.007883952930569649
0.010189363732933998
0.01058316882699728
0.009936765767633915
0.012414299882948399
0.009265279397368431
0.010273554362356663
0.008468152955174446
0.009409058839082718
0.0075176008976995945
0.01112376805394888
0.006764732301235199
0.010412205941975117
