8.471590263070539e-05
9.733645856613293e-05
9.552053961670026e-05
9.387908357894048e-05
0.00016270542982965708
0.0001411036791978404
8.91494782990776e-05
0.00010110226139659062
9.154104191111401e-05
0.00011061708210036159
0.00017548140021972358
0.00012563502241391689
9.130562102654949e-05
0.0001325566554442048
9.955182758858427e-05
9.590982517693192e-05
0.00015773766790516675
9.270707960240543e-05
0.00017752684652805328
0.00015660785720683634
0.00013593722542282194
0.00011234293197048828
8.505955338478088e-05
0.00022359099239110947
0.00011286228254903108
9.155488078249618e-05
0.00016199731908272952
0.0001565579732414335
