0.0005599706782959402
0.0010860072216019034
0.00041453310404904187
0.0005043151904828846
0.0010414019925519824
0.0008073729695752263
0.0003675510233733803
0.0008236083667725325
0.0006947478395886719
0.00035484382533468306
0.00011613986862357706
0.00046064372872933745
0.000578704581130296
0.0002797162742353976
0.0002596035192254931
0.0006456084083765745
0.00023292201512958854
0.0007739500142633915
0.0015690871514379978
0.00036480132257565856
0.0003172187425661832
0.0015220477944239974
0.004628605209290981
0.0008698379970155656
0.00017867893620859832
0.0008925009751692414
0.0005328567931428552
0.0006738153169862926
0.003377071814611554
0.0017208276549354196
0.00015177160094026476
0.0022207554429769516
0.0016615890199318528
0.00042757377377711236
0.0015972343971952796
0.0021509493235498667
0.001034797402098775
0.00024375467910431325
0.00026942830299958587
0.0006463822792284191
0.00047810966498218477
0.0017129231709986925
0.0033679199405014515
0.001087217009626329
0.0004981845850124955
0.005708279088139534
0.00029283948242664337
0.0008766207029111683
0.0011914409697055817
0.0005187713541090488
0.001722512417472899
0.0018914706306532025
0.0006091417744755745
0.00094235735014081
0.0009051982196979225
0.0006836535758338869
0.004483876284211874
0.0015588926617056131
0.00025477432063780725
0.0006320580723695457
0.002220776164904237
0.0026557992678135633
0.00033170991810038686
0.0004008170508313924
0.0005753199802711606
0.0004723923048004508
0.00077822309685871
0.0003721526882145554
0.0019725484307855368
0.0019347094930708408
0.0023568086326122284
0.0005497040110640228
0.000967951025813818
0.0012597563909366727
0.003960256464779377
0.0002235653664683923
0.0020731601398438215
0.0012776184594258666
0.0025630020536482334
0.00035284648765809834
0.000276941224001348
0.0028204217087477446
0.00045131141087040305
0.001904610195197165
0.0011889067245647311
0.0013396440772339702
0.0003108195378445089
0.0020815094467252493
0.0014585680328309536
0.0013868223177269101
0.003216877579689026
0.00046460586600005627
0.0010853138519451022
0.0005017617368139327
0.0026596991810947657
0.003991449251770973
0.00043756255763582885
0.0006295208586379886
0.0007628517341800034
0.00026176305254921317
0.0003808880574069917
0.0033297748304903507
0.0009993029525503516
0.0008140824502333999
0.0011847247369587421
0.002070148242637515
0.00043766017188318074
0.0004505421093199402
0.0018693943275138736
0.00032382147037424147
0.0025178450159728527
0.0010030174162238836
0.0004163305857218802
0.0020564524456858635
0.0014787601539865136
0.0023284193594008684
0.0008757032919675112
0.00306341121904552
0.0006917791906744242
0.0013709738850593567
0.0014554737135767937
0.002247611526399851
0.0020038732327520847
0.0007986542186699808
0.0005728300893679261
0.0009410022757947445
0.0006876178667880595
0.0014540611300617456
0.0006866706535220146
0.00039419130189344287
0.001027412130497396
0.00152301462367177
0.003518173936754465
0.0012575914151966572
0.0008343732915818691
0.0008575183455832303
0.0003246853011660278
0.0005343371303752065
0.0003372949140612036
0.0012320242822170258
0.001691988785751164
0.0016776840202510357
0.001399264787323773
0.0021773651242256165
0.002408161759376526
0.000566400121897459
0.0004961053491570055
0.0016676111845299602
0.001152383047156036
0.00099909957498312
0.003647742560133338
0.0009244057000614703
0.0005367842968553305
0.001781656057573855
0.00032097261282615364
0.0005813079187646508
0.0004567261494230479
0.0005945200682617724
0.0008316737948916852
0.0003779231628868729
0.0005208858055993915
0.002399696270003915
0.001284709433093667
0.0002016412327066064
0.0018739046063274145
0.0009251672308892012
0.00033623931813053787
0.00035712323733605444
0.003494540462270379
0.00040944648208096623
0.0009580963524058461
0.0021894259843975306
0.0005090503254905343
0.0012700329534709454
0.0020067361183464527
0.003609483828768134
0.0004870407283306122
0.0004378697485662997
0.0015767309814691544
0.0007137779612094164
0.0004958395729772747
0.002186104655265808
0.001987041672691703
0.00037727714516222477
0.0008015739731490612
0.0015001188730821013
0.0008001220412552357
0.0010428830282762647
0.0011912499321624637
0.0017464999109506607
0.0008053031633608043
0.0008320673368871212
0.0010290854843333364
0.0009463375899940729
0.002291274955496192
0.0021875298116356134
0.0013654233189299703
0.003816841170191765
0.0015031186630949378
0.002246778691187501
0.0004957259516231716
0.0013426372315734625
0.0012069307267665863
0.0012742115650326014
0.00024726882111281157
0.00040221205563284457
0.0011831410229206085
0.0005979389534331858
0.0005711570847779512
0.0011322969803586602
0.0013438400346785784
0.0017829930875450373
0.00045645737554877996
0.0003479164151940495
0.0012031092774122953
0.0032089895103126764
0.00363051681779325
0.0014768858673051
0.0024716053158044815
0.000285543646896258
0.0006159717449918389
0.0025377750862389803
0.00038372562266886234
0.0002998703275807202
0.004609708674252033
0.00034638744546100497
0.000489378406200558
0.001367199351079762
0.0014662952162325382
0.0003027712809853256
0.0019418715965002775
0.00019937538309022784
0.0014022343093529344
0.004447041545063257
0.005152940284460783
0.0015476042171940207
0.0008187908097170293
0.004524641670286655
0.0007017180323600769
0.003269439795985818
0.0037771647330373526
0.00029562818235717714
0.0013774668332189322
0.0003678830689750612
0.0016093265730887651
0.0005829979781992733
0.000673136964906007
0.0014562015421688557
0.0005766739486716688
0.0011894485214725137
0.0002497726527508348
0.0002912560594268143
0.0005275071016512811
0.0003130320692434907
0.00015328281733673066
0.0025117548648267984
0.001691773533821106
0.0006068858201615512
0.002299487590789795
0.0023899402003735304
0.0014236876741051674
0.0006156002054922283
0.0003239496727474034
0.001079490059055388
0.002609662711620331
0.0005476499791257083
0.0006211349973455071
0.0014293101849034429
0.0013070014538243413
0.0007371893152594566
0.00030467347824014723
0.000488759484142065
0.0007325704791583121
0.0010885868687182665
0.000538138672709465
0.0029806557577103376
0.003956856671720743
0.0014082267880439758
0.0003986525407526642
0.0010601594112813473
0.00023442298697773367
0.000652442395221442
0.000857445877045393
0.0008398627396672964
0.00030472452635876834
0.0041388943791389465
0.00031337200198322535
0.0004404890933074057
0.0003361650160513818
0.0019420491298660636
0.0014024398988112807
0.0005799673963338137
0.0006990794208832085
0.0014799509663134813
0.0004282219451852143
0.00023674342082813382
0.002000628737732768
0.000597989244852215
0.0012438790872693062
0.00028037966694682837
0.00205701170489192
0.0012727872235700488
0.0003136608866043389
0.0009896376868709922
0.0024154025595635176
0.0012911090161651373
0.003172803670167923
0.00142408418469131
0.0029765458311885595
0.0006598664913326502
0.00035869513521902263
0.0006325410795398057
0.0003874317626468837
0.0007183969137258828
0.0006273526232689619
0.0023094401694834232
0.0001301937154494226
0.0052331131882965565
0.0009251618757843971
0.0005012007895857096
0.0022452056873589754
0.0016673865029588342
0.0002098984259646386
0.00040170951979234815
0.0032207597978413105
0.0008989110356196761
0.0017920813988894224
0.0002715971495490521
0.0004855261940974742
0.0011118259280920029
0.0007048914558254182
0.0026890558656305075
0.0009794419165700674
0.0003861266886815429
0.0012342575937509537
0.00017542243585921824
0.00016614208288956434
0.00045170041266828775
0.0009933601832017303
0.00048784437240101397
0.0012494580587372184
0.0002755167952273041
0.0008379881619475782
0.0021001342684030533
0.004643401596695185
0.001863969722762704
0.0002065582957584411
0.0006772307679057121
0.0015593142015859485
0.001551551278680563
0.002843377413228154
0.0015412125503644347
0.00013736830442212522
0.0007212199852801859
0.00016522120859008282
0.0031525238882750273
0.0027999950107187033
0.0009436353575438261
0.00046226754784584045
0.0013731650542467833
0.0005504506407305598
0.0037386587355285883
0.0007597852381877601
0.00030888625769875944
0.0034471384715288877
0.002974338596686721
0.003418809035792947
0.0004670002090279013
0.00019665424770209938
0.0020490805618464947
0.0011337192263454199
0.0005852186004631221
0.002015360863879323
0.0026373397558927536
0.0018180684419348836
0.0006540167960338295
0.0029527340084314346
0.00024048353952821344
0.0012343382695689797
0.00324662821367383
0.0013814268168061972
0.0005724098300561309
0.0006030202494002879
0.004172939341515303
0.0012235011672601104
0.002809900091961026
0.0008349205600097775
0.0011945061851292849
0.00344259524717927
0.001047251746058464
0.0003754827775992453
0.0001944634859682992
0.0007254551746882498
0.0008768105180934072
0.0010354614350944757
0.0019503366202116013
0.0022587510757148266
0.0012046565534546971
0.0006734981434419751
0.00036103135789744556
0.0017064519925042987
0.002651871182024479
0.00032608394394628704
0.0004105709376744926
0.0011230244999751449
0.00013078322808723897
0.002529374323785305
0.0004878083127550781
0.0019328893395140767
0.0008198420400731266
0.0005140890134498477
0.002655576914548874
0.0023544817231595516
0.0007585958228446543
0.0010712544899433851
0.001110016368329525
0.0005399648798629642
0.0015461404109373689
0.0012166824890300632
0.00037372042424976826
0.0006353005301207304
0.000860718369949609
0.0003387902688700706
0.00048082409193739295
0.0010874952422454953
0.004196233581751585
0.0007408094243146479
0.0017147364560514688
0.0008370098657906055
0.0003464474866632372
0.00026491304743103683
0.00042576316627673805
0.0028101354837417603
0.001935848267748952
0.0010314590763300657
0.0015709541039541364
0.001406906172633171
0.0009903645841404796
0.0009123484487645328
0.0015114580746740103
0.00045419621164910495
0.002866667229682207
0.0018820869736373425
0.0022752562072128057
0.00013979515642859042
0.0008342558285221457
0.0011011422611773014
0.002128233667463064
0.0024593924172222614
0.0016012530541047454
0.001925295451655984
0.0009299027733504772
0.0014301720075309277
0.00034225007402710617
0.003351942403241992
0.0014976812526583672
0.00020974405924789608
0.0002481005503796041
0.0006295406492426991
0.0002772484440356493
0.0004551885649561882
0.00029223464662209153
0.003001966280862689
0.006204361096024513
0.0003237398050259799
0.0012917449930682778
0.0009132583509199321
0.00022504007210955024
0.004461548291146755
0.00022378569701686502
0.0014241760363802314
0.0004949417198076844
0.0008983206935226917
0.0005649705999530852
0.0005049762548878789
0.0002574645623099059
0.002888442948460579
0.0018283913377672434
0.0030334964394569397
0.0008937639649957418
0.0012619663029909134
0.0019097160547971725
0.0012149286922067404
0.001292146393097937
0.0010556542547419667
0.0016389177180826664
0.00045177366700954735
0.0008631239179521799
0.001203418942168355
0.0024769555311650038
0.0005227493238635361
0.0013227526796981692
0.0007809550734236836
0.0009463592432439327
0.0005513412179425359
0.0013217789819464087
0.0017935462528839707
0.0017469758167862892
0.0003577953320927918
0.0004874000733252615
0.0019723265431821346
0.0010915981838479638
0.001516782445833087
0.0007674467633478343
0.0005915043875575066
0.0005899135721847415
0.003796409349888563
0.004539946094155312
0.0005282537313178182
0.0005245791398920119
0.00042567626223899424
0.0011869721347466111
0.0006667058914899826
0.0015993572305887938
0.0012457885313779116
0.0010699722915887833
0.00046507728984579444
0.002026601228863001
0.0013360338052734733
0.0015249463031068444
0.0004594746569637209
0.0004010391712654382
0.0015806704759597778
0.0010147353168576956
0.0012700798688456416
0.0050802151672542095
0.0005979125271551311
0.00021628149261232466
0.000527980038896203
0.0003937694418709725
0.0009077055146917701
0.0016807375941425562
0.0018404435832053423
0.0006223619566299021
0.00017239912995137274
0.0022525195963680744
0.0021649261470884085
0.0027854307554662228
0.0005961156566627324
0.0005833164905197918
0.0006463315221481025
0.0015484149334952235
0.0014084981521591544
0.0011419442016631365
0.00026408708072267473
0.000563527166377753
0.000949513225350529
0.002639449667185545
0.0027281304355710745
0.000447999220341444
0.0005981794092804193
0.0022441339679062366
0.0002218467416241765
0.0008559205452911556
0.00034364272141829133
0.00016863959899637848
0.0002612789103295654
0.002125057391822338
0.0005734188598580658
0.00021834556537214667
0.00030978431459516287
0.0006407599430531263
0.0027254882734268904
0.0007530536968261003
0.001540563884191215
0.0008376659243367612
0.000633545801974833
0.0008282862254418433
0.0006978993187658489
0.0011960058473050594
0.0017286187503486872
0.0005878953379578888
0.0023809552658349276
0.0009978736052289605
0.0020639332942664623
0.0005483039421960711
0.0006940662860870361
0.001336208893917501
0.002923707477748394
0.0007149954908527434
0.004122571088373661
0.0007621766999363899
0.00047660537529736757
0.002017032355070114
0.0015515469713136554
0.0002242108603240922
0.0012503204634413123
0.00043188463314436376
0.0018554560374468565
0.0024581707548350096
0.00373315392062068
0.0004820243630092591
0.0013235636288300157
0.002618389204144478
0.0006113973213359714
0.0020014166366308928
0.00040523894131183624
0.002077653771266341
0.0014280210016295314
0.002101633697748184
0.0009586416999809444
0.0015543014742434025
0.004920013248920441
0.0018368276068940759
0.00032527430448681116
0.00021391111658886075
0.000706943217664957
0.0016248984029516578
0.0013293715892359614
0.00029371236450970173
0.00036443001590669155
0.0005594690446741879
0.0002803100214805454
0.00032846987596713006
0.00036528630880638957
0.0024041172582656145
0.0005570508074015379
0.00030929449712857604
0.0017605862813070416
0.0015666816616430879
0.0031397072598338127
0.0025104498490691185
0.0003408030897844583
0.0018282320816069841
0.0018951264210045338
0.0025226392317563295
0.0004454257432371378
0.0002988210180774331
0.000535598665010184
0.0020805273670703173
0.0002607070782687515
0.0010298650013282895
0.0013631227193400264
0.0006999229080975056
0.0010486481478437781
0.0007251308998093009
0.0013458848698064685
0.0005894718924537301
0.00037278837407939136
0.0023026864510029554
0.005126215051859617
0.00039043743163347244
0.0005981437861919403
0.0027445703744888306
0.0013231569901108742
0.001728719100356102
0.0017373755108565092
0.0017649868968874216
0.0008366000256501138
0.0003461234737187624
0.000547702657058835
0.0004957409109920263
0.00031736516393721104
0.00035874039167538285
0.00037096659070812166
0.0003645577817223966
0.00031152417068369687
0.0009496573475189507
0.0005603382014669478
0.0002760158386081457
0.0003411297802813351
0.000748931837733835
0.00031732788193039596
0.0005883248522877693
0.0019867534283548594
0.0010305606992915273
0.0005279523902572691
0.001954995095729828
0.00037563746445812285
0.004800922237336636
0.0020828633569180965
0.0006690258160233498
