0.0035618357360363007
0.0028997622430324554
0.005478823557496071
0.0038549413438886404
0.002892259508371353
0.003807521192356944
0.003149066586047411
0.006400781683623791
0.0044898646883666515
0.005205673165619373
0.00427659647539258
0.005223395768553019
0.004715765826404095
0.0031947290990501642
0.003506059991195798
0.002686130814254284
0.0035193348303437233
0.0038050219882279634
0.0036084679886698723
0.0044460901990532875
0.00498384702950716
0.0039606476202607155
0.0037680959794670343
0.003617948852479458
0.004063591361045837
0.003502512350678444
0.0034311600029468536
0.0030166455544531345
