0.0003151308628730476
0.000513270846568048
0.00038386686355806887
0.00033207301748916507
0.00038530025631189346
0.00028608308639377356
0.000401544151827693
0.0003650253056548536
0.0003368763718754053
0.0003907924401573837
0.001114003243856132
0.0002812301681842655
0.00038004995440132916
0.000324697612086311
0.00043516827281564474
0.00031349138589575887
0.0004474812594708055
0.00044386961963027716
0.00010728889901656657
0.00043401715811342
0.00038899987703189254
0.0001426429662387818
7.138181535992771e-05
0.00012017069821013138
0.0005835166084580123
0.00041241419967263937
0.00025536710745655
0.0002798672067001462
8.315869490616024e-05
0.00021920261497143656
0.0005444223061203957
0.0003040300798602402
0.0003169681003782898
0.0004032956203445792
0.00013182684779167175
0.00020781331113539636
0.00034623313695192337
0.0006580266635864973
0.0011852848110720515
0.0002465484431013465
0.0003063618787564337
0.0003890556690748781
8.862832328304648e-05
0.000302758562611416
0.0002194591361330822
0.00033980372245423496
0.0005918226670473814
0.00022814962721895427
0.00018066084885504097
0.0003196726902388036
0.00016748860070947558
0.0003573394496925175
0.0004284497117623687
0.00016282949945889413
0.00034269579919055104
0.0001205868975375779
5.591668377746828e-05
0.00011600971629377455
0.00037261523539200425
0.0002859596279449761
0.0003768176829908043
0.00014066747098695487
0.00039783783722668886
0.00028608605498448014
0.0002377846831222996
0.0008107083267532289
0.00025216900394298136
0.0004504284297581762
0.00011007191642420366
0.0003642796364147216
0.000113554262497928
0.00022751616779714823
0.0004548383003566414
0.00031984614906832576
8.878923836164176e-05
0.0006695538177154958
0.00012970152602065355
0.00020133366342633963
0.0004345414345152676
0.0003134405124001205
0.0004640862753149122
6.655614561168477e-05
0.00039096074760891497
0.0004570524615701288
0.00014537906099576503
0.0005375696928240359
0.0005768461851403117
0.00019172768224962056
0.00015465455362573266
0.00024055050744209439
0.0002210312959505245
0.0005607198108918965
0.0004032595898024738
0.0002607436908874661
0.00013016378215979785
5.262526246951893e-05
0.00034614550531841815
0.0002451773907523602
0.00032823506626300514
0.0005149847129359841
0.00035722064785659313
0.0002633529657032341
0.00042746125836856663
0.00032243263558484614
0.00011176447878824547
8.945669105742127e-05
0.00021382441627793014
0.00037843568134121597
0.000583056709729135
0.00042924442095682025
0.0001941592781804502
0.00036228098906576633
0.00033468109904788435
0.0002958624972961843
0.0004396128060761839
0.0003206456603948027
0.0002038344828179106
7.405829819617793e-05
0.00037306660669855773
0.00013248209143057466
0.00024485657922923565
7.873986032791436e-05
0.0004276078543625772
0.0003974434803240001
0.000492894381750375
0.0002706158848013729
0.0004180177056696266
0.00041245651664212346
0.00031316111562773585
0.00035489245783537626
0.00032052441383711994
0.0006092262337915599
6.0847065469715744e-05
0.00028735370142385364
0.0006611708668060601
0.00025661810650490224
0.0006222723750397563
0.0006264973198994994
0.00036848141462542117
0.00028347072657197714
0.0001901089126477018
0.00015004647138994187
0.0003910307423211634
9.531266550766304e-05
0.00015662885562051088
0.00028135310276411474
0.0002521437709219754
0.0005103976000100374
0.0003240310470573604
0.00011636694398475811
0.00012184659135527909
0.0005791121511720121
0.0003588394611142576
0.00019354658434167504
0.00034713742206804454
0.00032000377541407943
0.0006151435081847012
0.00022744668240193278
0.00021621608175337315
0.0005754970479756594
0.0002870483440347016
0.0004896988393738866
0.00015816203085705638
0.0005794706521555781
0.00021339334489312023
0.0003858360287267715
0.00023594182857777923
0.000260853033978492
0.00011359546624589711
0.0003444952017161995
0.000585151428822428
0.00013735763786826283
0.00045183973270468414
0.00019743683515116572
0.00015799773973412812
0.00013683926954399794
0.00034958351170644164
0.000451247877208516
0.00022922840435057878
0.0003639515198301524
0.0003510046226438135
0.00030025659361854196
0.00012375335791148245
0.0003778264217544347
0.000260865839663893
0.00014714170538354665
0.0003054835833609104
0.00024478958221152425
0.00012912068632431328
0.00012947185314260423
0.0002157484123017639
0.00040947870002128184
0.00035203108564019203
0.00023772478743921965
0.00014820380602031946
0.00012187560059828684
0.0002861034299712628
5.534249066840857e-05
0.00016682145360391587
8.931858610594645e-05
0.00037893321132287383
9.669509017840028e-05
0.00022746625472791493
0.0004952950403094292
0.0005269786342978477
0.0003025166515726596
0.0004199917893856764
0.00030292573501355946
0.0005710387486033142
0.00024957885034382343
0.00021890350035391748
0.00013737806875724345
0.0004344931512605399
0.00031316393869929016
0.00027844696887768805
0.00025522804935462773
0.00033959184656850994
0.00021148892119526863
0.00035634994856081903
0.00013475508603733033
0.00048651103861629963
0.0005822899402119219
0.0005653182743117213
0.0004992610192857683
0.0001063322342815809
0.00037976185558363795
0.0003356745291966945
0.00022205561981536448
0.00019601674284785986
0.0002952147042378783
0.0002564381284173578
0.0005811380106024444
0.00023881779634393752
7.784623448969796e-05
5.24175375176128e-05
0.0003855762188322842
0.00030888509354554117
5.27927368239034e-05
0.00047136444482021034
5.0419053877703846e-05
7.607793668285012e-05
0.0004471141437534243
0.00014235365961212665
0.0005086041637696326
0.00010991872113663703
0.00033616949804127216
0.0003141797205898911
0.00045784562826156616
0.0004350272938609123
0.00021375455253291875
0.0003863004967570305
0.00027673502336256206
0.0003155813319608569
0.000563495559617877
0.0005241097533144057
0.0002485486038494855
0.00041246021282859147
0.0005371894221752882
9.46093859965913e-05
0.00019358342979103327
0.00013033533468842506
0.00033750536385923624
0.0004545711854007095
0.00037485870416276157
8.992446964839473e-05
0.0003175786987412721
0.0003008422499988228
0.00017432327149435878
0.0003468312497716397
0.0004105936677660793
0.0002944855659734458
0.00032114205532707274
0.000704256584867835
0.00013818383740726858
0.0004996346542611718
0.00012169479305157438
0.00013587628200184554
0.00019268575124442577
0.00040106941014528275
0.00029274914413690567
0.0003583106736186892
0.00015881859872024506
0.00018552551046013832
0.0003810976922977716
0.000445357320131734
0.0003119919274467975
0.00042657938320189714
0.00039120769361034036
0.00037493050331249833
0.00037080806214362383
0.00013752451923210174
0.00035812132409773767
0.00027785656857304275
0.0003264469560235739
0.00026350628468208015
0.000678471231367439
0.00021849175391253084
0.0004148125881329179
0.00011691484542097896
0.00043124143849126995
0.0002753046865109354
0.0002582895685918629
0.0007707601180300117
0.0002897060476243496
5.0290975195821375e-05
0.00026100120157934725
0.00013081239012535661
0.00030156204593367875
6.958019366720691e-05
0.00030401578987948596
0.0005094072548672557
0.00015401314885821193
0.000377746851881966
0.000208956582355313
0.00035487450077198446
0.00010936752369161695
0.00042752549052238464
0.00011353042646078393
0.00032717251451686025
0.00036109695793129504
0.00017670722445473075
0.0001997254294110462
0.0005862488760612905
0.000344599480740726
9.02020838111639e-05
0.00023883509857114404
0.00014928836026228964
0.000457889138488099
0.00032869624556042254
0.0001668986224103719
0.0003990937548223883
0.00025620657834224403
0.0001556550123495981
0.00043284596176818013
0.0002043030399363488
0.000907888519577682
0.0006015092367306352
0.0003117834567092359
0.0003417101688683033
0.00040276662912219763
0.0002744549128692597
0.00041066473932005465
0.00032814766746014357
0.0003406345203984529
6.73400645609945e-05
0.0001460436178604141
0.0003972478152718395
0.00034223534748889506
0.0001797898148652166
0.00025040609762072563
8.280036854557693e-05
0.0002528744225855917
0.0009579029283486307
0.000270659860689193
0.0004863363574258983
0.00010047131945611909
0.0003328909515403211
0.00031326228054240346
0.00036089925561100245
0.00016339455032721162
0.0004852291604038328
8.685506327310577e-05
0.0003814257215708494
0.0006357983802445233
7.02023899066262e-05
7.025009108474478e-05
7.246258610393852e-05
0.0006198782939463854
0.0007534910691902041
0.0005396084161475301
0.0003294584166724235
0.0006507534417323768
0.0003935550048481673
5.7103858125628904e-05
0.00014085338625591248
0.00065178785007447
0.00019386739586479962
0.00046817248221486807
0.00016462846542708576
0.00018291783635504544
0.0003133165300823748
0.00044617766980081797
0.00036460417322814465
8.572825754527003e-05
0.000257271429290995
0.00027385851717554033
0.0004001310153398663
0.00017606269102543592
0.0003786131856031716
0.00019782497838605195
0.0006073671393096447
0.0005871099419891834
0.00044933229219168425
0.00015711819287389517
0.00018388620810583234
0.0003205080865882337
0.0001285695325350389
0.0003393298829905689
0.0005788388079963624
0.00032541793189011514
0.0005061768461018801
5.7188743085134774e-05
0.0006793900392949581
0.0003719201486092061
9.442064765607938e-05
0.00039581494638696313
0.00013720724382437766
0.00022918458853382617
9.971547115128487e-05
0.0003619783965405077
0.0004202976997476071
0.00024326101993210614
0.00035486716660670936
0.00039086915785446763
0.0002966535394079983
0.00023343137581832707
0.0003340975963510573
0.00016324866737704724
0.0001260789722437039
0.0006890065269544721
0.0003517884179018438
0.00023724397760815918
0.00035102167748846114
0.0003114324645139277
0.00025730227935127914
0.000317217200063169
0.00039180117892101407
0.00018108985386788845
0.00016008957754820585
0.0006912226090207696
0.0005047681625001132
0.0003186517860740423
0.00026312630507163703
0.00023654279357288033
0.0001755320990923792
0.00011286789958830923
0.0004815393767785281
0.0003929843078367412
0.00034288608003407717
0.00016386846255045384
0.00041986879659816623
6.394734373316169e-05
9.611677523935214e-05
0.00015453033847734332
0.0006073558470234275
0.0004354682459961623
0.000282773602521047
0.00032840712810866535
0.00010430292604723945
0.00016353587852790952
0.0003530152316670865
0.0003323557320982218
0.00021217380708549172
0.0005089930491521955
7.013855793047696e-05
0.00014647729403804988
0.0008451997418887913
0.00040808983612805605
0.0004210573388263583
0.00035102598485536873
0.00039194620330818
0.00037449071533046663
9.727697033667937e-05
0.0002606055059004575
0.0005005878047086298
0.00022124768292997032
0.00034573260927572846
0.0005816585617139935
7.125578849809244e-05
0.0006198257324285805
0.0002220862079411745
0.0003094746498391032
0.00037592832813970745
0.00014831226144451648
0.0004641317646019161
0.0004658128600567579
0.0003630891442298889
0.00013810013479087502
0.0003892109089065343
0.0003546924563124776
0.00015585382061544806
0.00020607073383871466
0.0002323810913367197
0.00017355827731080353
0.00026179265114478767
0.00029750168323516846
0.00030914583476260304
0.00038285538903437555
0.0006970990798436105
8.05332965683192e-05
0.00029409435228444636
0.000556694227270782
0.00035900252987630665
0.00027235865127295256
0.000241823960095644
0.00023048915318213403
0.0003397174004931003
0.00010176838259212673
0.00047298087156377733
0.0003800138656515628
0.00015217153122648597
0.00011134186206618324
0.0004964643158018589
0.0002570662763901055
0.00044379205792210996
0.00030077260453253984
5.379750291467644e-05
9.210374264512211e-05
0.0002106500614900142
0.0002255515573779121
0.0005980974528938532
0.00041103007970377803
0.00047410023398697376
0.000376405892893672
0.00018113006080966443
0.00010344685142626986
0.0005529142217710614
0.00028500979533419013
0.000311829790007323
0.0006030400982126594
0.0004909229464828968
0.00036393481423147023
0.0001345810160273686
0.0003491072275210172
0.000311857060296461
9.340161341242492e-05
0.0003028932842426002
0.0008794736349955201
0.0005961859133094549
0.0004138582444284111
0.000333890289766714
7.782728789607063e-05
0.00011309256660751998
0.0002435002534184605
0.0008264330099336803
0.00032749027013778687
0.00015596876619383693
7.456360617652535e-05
0.0004806452780030668
0.0003090091631747782
0.0003513995325192809
0.0003854867536574602
0.00028439846937544644
0.0005753061268478632
0.00045207812217995524
0.0002887851442210376
0.00022454846475739032
0.0003398378612473607
9.78046446107328e-05
0.0010594082996249199
0.00037075189175084233
0.0001280597789445892
0.0003963845956604928
0.0002819793007802218
0.0006771574262529612
0.0007914988091215491
0.00030969877843745053
9.20678794500418e-05
0.0002387662389082834
0.00037809688365086913
0.0004660513368435204
0.0005826753913424909
8.970361523097381e-05
0.0005295603768900037
0.0002369609719607979
0.00038025088724680245
0.0003199792408850044
0.00041189987678080797
0.0006221457733772695
0.0002268884127261117
0.0004033794975839555
0.0003563211939763278
0.00016353101818822324
0.000496825436130166
9.553003474138677e-05
0.00031846456113271415
0.00041875604074448347
9.815159864956513e-05
0.00026429537683725357
0.00024073696113191545
0.00011397412890801206
0.00012477378186304122
0.0006182246725074947
0.0002840859233401716
0.00034588921698741615
0.0005355350440368056
0.00033221402554772794
0.00028187260613776743
0.00011343970254529268
0.00025961638311855495
4.727612395072356e-05
0.0003886849444825202
0.0003069352242164314
0.00026128956233151257
0.0005128761404193938
0.00036958017153665423
0.0004342543543316424
8.859010995365679e-05
0.00016864098142832518
0.0001535365590825677
0.00043000790174119174
0.00016079659690149128
6.5783598984126e-05
0.0001918518537422642
0.0004921797662973404
0.0005426656571216881
0.0001924673852045089
0.0003226676781196147
0.00023105194850359112
0.0006070425151847303
0.0010797729482874274
0.0005365230608731508
0.00028229664894752204
0.0006201522191986442
0.00038977948133833706
0.00010900761117227376
0.00031314464285969734
0.0004683314764406532
0.00034175283508375287
0.00011662473116302863
5.249947207630612e-05
9.856411634245887e-05
0.0005722853820770979
0.00013256852980703115
0.00014267808001022786
8.934232027968392e-05
0.0003211846633348614
0.0005868523148819804
0.0003975055296905339
0.0003586995881050825
0.00078590027987957
0.00047351542161777616
0.00019077463366556913
0.000501577858813107
0.00039414374623447657
0.00035978853702545166
0.0002373403694946319
0.0004548669094219804
0.0003976193256676197
0.0001898566697491333
0.00010874987492570654
0.0004135953786317259
0.0004650526971090585
0.00021926243789494038
7.119507063180208e-05
0.00016375452105421573
0.0003488388319965452
0.00019188577425666153
0.0002738972252700478
0.0005080380360595882
0.0003620351490098983
0.00041671202052384615
0.00038550514727830887
0.00022837564756628126
0.00039791371091268957
0.00037726559094153345
0.0005840035155415535
0.00031759057310409844
0.00033430589246563613
0.0008157982956618071
0.0005239527090452611
0.00020803192455787212
0.0004952854360453784
0.0003827819018624723
0.00011729986727004871
0.00031440300517715514
0.0005182664026506245
0.00015027147310320288
0.00029783372883684933
0.00010087319242302328
0.00034644012339413166
0.0003183779481332749
