0.0007536617340520024
0.0004453687579371035
0.003649500897154212
0.0016889771213755012
0.0007842296618036926
0.00032158722751773894
0.0004035077872686088
0.0007874243310652673
0.001421423046849668
0.0003648949204944074
0.002400511410087347
0.00043985090451315045
0.00016495266754645854
0.000214677449548617
0.000605459266807884
0.0013065190287306905
0.0014368505217134953
0.0015003378503024578
0.0003377236716914922
0.0004924708628095686
0.0005374152096919715
0.00021351237955968827
0.003338744631037116
0.00229296600446105
0.003085100557655096
0.0014883176190778613
0.00046428924542851746
0.0009087452781386673
0.0007384593482129276
0.0006150450208224356
0.00321746664121747
0.0024919817224144936
0.0006930343224667013
0.0003328080347273499
0.0005826072883792222
0.000971578061580658
0.0026961485855281353
0.000493264349643141
0.00042706934618763626
0.0006821613060310483
0.0011523228604346514
0.0010090969735756516
0.0005345206591300666
0.00031823027529753745
0.00030729142599739134
0.0020571460481733084
0.0003904267796315253
0.0024938040878623724
0.0004757893620990217
0.0011857309145852923
0.0017180885188281536
0.0009916593553498387
0.0008592709782533348
0.0025675599463284016
0.00035740758175961673
0.0008291998528875411
0.0006632174481637776
0.001171192736364901
0.0008716977317817509
0.002460717223584652
0.0018336751963943243
0.0019235680811107159
0.00023232628882396966
0.0008566702017560601
0.0011321246856823564
0.0023304717615246773
0.00035938044311478734
0.0006441844161599874
0.00027547209174372256
0.0007526164990849793
0.003814211580902338
0.002485143020749092
0.001256852876394987
0.0007192139746621251
0.0031109447591006756
0.0008252095431089401
0.0017075384967029095
0.0005714598810300231
0.0004387940280139446
0.00046350053162314
0.0003989334509242326
0.0034793696831911802
0.001312447595410049
0.0005122263100929558
0.0018232351867482066
0.0010987238492816687
0.00023104940191842616
0.0001921248040162027
0.0005541223217733204
0.002609696937724948
0.0021819768007844687
0.002531785983592272
0.0018584115896373987
0.0004386897198855877
0.0007780263549648225
0.0035212652292102575
0.0013746494660153985
0.0015479574212804437
0.0026643758174031973
0.0017999154515564442
0.004310356453061104
0.0008736110758036375
0.0006017256528139114
0.0003920497838407755
0.0009175111190415919
0.00041878604679368436
0.003057105466723442
0.001567220431752503
0.0014879810623824596
0.0003583085781428963
0.0017211911035701632
0.0005417821812443435
0.0004022957000415772
0.0003142821660730988
0.0019159173825755715
0.0004017105093225837
0.0005348633276298642
0.0008610293152742088
0.002035516547039151
0.0006777540547773242
0.00037945518852211535
0.0017206385964527726
0.0008052830235101283
0.000724653247743845
0.0012501843739300966
0.002219771035015583
0.0015872499207034707
0.0003132948186248541
0.0018100985325872898
0.0029755847062915564
0.00040978434844873846
0.0002648403460625559
0.002453424036502838
0.0004810027312487364
0.0007780837477184832
0.0002683994243852794
0.0030895425006747246
0.0029887305572628975
0.0011572891380637884
0.0020972201600670815
0.0020010857842862606
0.0004471990396268666
0.001955202780663967
0.0010337093845009804
0.0061704604886472225
0.0004250495112501085
0.00040368238114751875
0.0035967491567134857
0.00018871684733312577
0.0008993683732114732
0.002241286216303706
0.005872250534594059
0.00029083158005960286
0.0026818220503628254
0.00032342816120944917
0.0005709548131562769
0.0008544794982299209
0.001268850639462471
0.002589751733466983
0.000992506742477417
0.002213944448158145
0.00011787033872678876
0.0005827723653055727
0.002080818172544241
0.0006280344678089023
0.0012326381402090192
0.0003466462658252567
0.0005560463760048151
0.0005686474032700062
0.0004798034788109362
0.0024024001322686672
0.0023470136802643538
0.0013659914257004857
0.0012058165157213807
0.0012944960035383701
0.0003472715907264501
0.0004326668567955494
0.001034976332448423
0.00034309516195207834
0.0008119973354041576
0.0006133627030067146
0.0022362081799656153
0.0015561154577881098
0.002521673683077097
0.000534837250597775
0.0008330611162818968
0.0004065680841449648
0.0015434625092893839
0.000535390165168792
0.001649562269449234
0.0008861100650392473
0.0015292606549337506
0.0006769193569198251
0.0017612650990486145
0.001936121960170567
0.002738322364166379
0.00025514670414850116
0.00021043719607405365
0.0011173790553584695
0.0003359345719218254
0.0002729598490986973
0.0007681432762183249
0.002224671421572566
0.0013222993584349751
0.0008467776351608336
0.0064985244534909725
0.0016370363300666213
0.0005648558726534247
0.0008547299657948315
0.0008974449010565877
0.0008445474086329341
0.003919468726962805
0.000713940360583365
0.0016260560369119048
0.0016235135262832046
0.0013562703970819712
0.00034794441307894886
0.002134963171556592
0.0038847026880830526
0.0005291510024107993
0.000261501845670864
0.0008270774851553142
0.0016863517230376601
0.0004251772479619831
0.00032974095665849745
0.005043727345764637
0.0008544170414097607
0.0024891579523682594
0.0006215013563632965
0.001621344476006925
0.0021797160152345896
0.0011550954077392817
0.004858915228396654
0.0025283396244049072
0.0009344697464257479
0.0016798247816041112
0.00046365027083083987
0.001018321723677218
0.0005807725829072297
0.0013317454140633345
0.001850648084655404
0.0013041358906775713
0.000569826050195843
0.0012036338448524475
0.0009202770888805389
0.002878498984500766
0.0012432433431968093
0.000599945429712534
0.0035474454052746296
0.0032190915662795305
0.0018999642925336957
0.0005912085762247443
0.0011424846015870571
0.0020271765533834696
0.0014344312949106097
0.00043734072824008763
0.0022535522002726793
0.002359352307394147
0.00019379357399884611
0.000666566367726773
0.0004270290082786232
0.0015565021894872189
0.005493101663887501
0.0003157779574394226
0.0005815901677124202
0.0006164611550047994
0.0005219855811446905
0.002304269466549158
0.0006636554026044905
0.00046824858873151243
0.00041873016743920743
0.001968665048480034
0.0012916194973513484
0.0002006955910474062
0.00041089527076110244
0.0004390428075566888
0.0009685457334853709
0.0005185384652577341
0.000797369284555316
0.0013030332047492266
0.0009459033608436584
0.0008989862399175763
0.00022830789384897798
0.001234323251992464
0.001096756779588759
0.001018671435303986
0.0014402571832761168
0.003029800485819578
0.002453253837302327
0.007264258340001106
0.00035894985194317997
0.0005793446907773614
0.0009413881925866008
0.0023764173965901136
0.000622384890448302
0.0013431329280138016
0.0004790305392816663
0.0002175607660319656
0.001240624813362956
0.0026205522008240223
0.001007635029964149
0.0018819337710738182
0.00029526915750466287
0.0021563684567809105
0.000402381963795051
0.001723143388517201
0.0027709973510354757
0.0028282059356570244
0.0004397193843033165
0.0011140487622469664
0.0005053661880083382
0.0037186513654887676
0.002015490550547838
0.0035139136016368866
0.0015832061180844903
0.00229040440171957
0.0007229276816360652
0.0010654720244929194
0.0018954657716676593
0.00192853098269552
0.002105879597365856
0.001885323552414775
0.0035578447859734297
0.001232110895216465
0.00046721354010514915
0.000380011391825974
0.0009668166749179363
0.002075448865070939
0.000413506175391376
0.0006201599026098847
0.0006425366154871881
0.0007860646583139896
0.0005551806534640491
0.00035263007157482207
0.000972574925981462
0.0007419874891638756
0.0014127613976597786
0.0019041537307202816
0.002043565036728978
0.0005011115572415292
0.007626926526427269
0.000609720591455698
0.0010736559052020311
0.0011154584353789687
0.002711620880290866
0.0008142782608047128
0.0002934633521363139
0.001492145354859531
0.000493548926897347
0.0002768673002719879
0.0021098917350172997
0.0001849135005613789
0.001533439033664763
0.0007104428368620574
0.00036874457146041095
0.001547912834212184
0.00016660841356497258
0.0014760226476937532
0.0003033965185750276
0.0007676708628423512
0.0030102329328656197
0.00024856149684637785
0.0025810711085796356
0.00045692650019191206
0.0013336894335225224
0.00021628102695103735
0.00026665430050343275
0.001277372008189559
0.0005699590547010303
0.00023829808924347162
0.0029533521737903357
0.0009418840054422617
0.0010006038937717676
0.0007644718862138689
0.0004157435323577374
0.0027282622177153826
0.0005424671107903123
0.00015483984316233546
0.0022464049980044365
0.0003470971714705229
0.0030480963177978992
0.00045155154657550156
0.0008695205324329436
0.0008589918725192547
0.0022706356830894947
0.002272577490657568
0.0012434064410626888
0.0012011588551104069
0.002835950581356883
0.0006262744427658617
0.0003527010849211365
0.0014881225069984794
0.00449857022613287
0.0007693461957387626
0.0004888372495770454
0.0013453647261485457
0.0004225641896482557
0.001042097806930542
0.0002345297543797642
0.0009981829207390547
0.003976977895945311
0.0016691212076693773
0.0012086823116987944
0.0024419373366981745
0.0012409449554979801
0.0016996049089357257
0.003572536865249276
0.001990737859159708
0.002506521763280034
0.0003284562553744763
0.003715651808306575
0.0019505296368151903
0.0006057891878299415
0.0005131236976012588
0.001689452095888555
0.0014009193982928991
0.0012844187440350652
0.0030395009089261293
0.0017379935598000884
0.0016110159922391176
0.0021502559538930655
0.0025713201612234116
0.00031245718128047884
0.00281214970164001
0.003963985946029425
0.005090431310236454
0.003964080009609461
0.005039935000240803
0.0021152535919100046
0.002993311733007431
0.0003817377728410065
0.0002117648400599137
0.0013740105787292123
0.005918798968195915
0.002288693794980645
0.0009572462877258658
0.0036141127347946167
0.000734606699552387
0.00029083824483677745
0.002135442104190588
0.00025141870719380677
0.0008940083207562566
0.0008232826949097216
0.003654804779216647
0.0002971682697534561
0.0013730116188526154
0.00030689648701809347
0.0008467845036648214
0.001018366077914834
0.0018501355079934
0.0006615378661081195
0.0012077813735231757
0.00214352342300117
0.00017167185433208942
0.0006848399643786252
0.0036202101036906242
0.0007823953055776656
0.0006532454863190651
0.00040850520599633455
0.00082028639735654
0.002055704826489091
0.0003353167849127203
0.0008489692118018866
0.0004613487108144909
0.0008773878216743469
0.0010101660154759884
0.00013936200411990285
0.0030771021265536547
0.0007480211788788438
0.0021089157089591026
0.002011635107919574
0.0018731823656708002
0.0004698393458966166
0.004579606931656599
0.0016600248636677861
0.0006659969803877175
0.0003989430842921138
0.0021414151415228844
0.0004965345142409205
0.0005992040387354791
0.0007311262306757271
0.0010589001467451453
0.002956110518425703
0.0006964903441257775
0.0024625412188470364
0.0015400691190734506
0.000221462978515774
0.003906469326466322
0.0009754908969625831
0.0052637639455497265
0.0007925782701931894
0.0005619355360977352
0.0013595300260931253
0.0036641855258494616
0.001393951359204948
0.0005375251057557762
0.0006318691303022206
0.0010811761021614075
0.0027657696045935154
0.002173472661525011
0.002919740043580532
0.0004990199231542647
0.0008020360837690532
0.0004300069995224476
0.0021457041148096323
0.0016188945155590773
0.0001992092584259808
0.0004976537311449647
0.001349499449133873
0.0006759793614037335
0.0023561406414955854
0.00036814785562455654
0.0006634719902649522
0.00047908691340126097
0.0008970859926193953
0.0021260795183479786
0.0012085355119779706
0.0010431277332827449
0.0019935474265366793
0.00043268108856864274
0.0006832701037637889
0.0020502677652984858
0.00040268898010253906
0.0008040072862058878
0.0003875410766340792
0.00024298271455336362
0.0003756712831091136
0.0002658552839420736
0.000454510300187394
0.00046794384252279997
0.000561006017960608
0.0010808623628690839
0.0011469813762232661
0.00026542352861724794
0.0009836729150265455
0.0031257953960448503
0.0021583486814051867
0.0005952987121418118
0.0005897021619603038
0.0008273599087260664
0.000738635950256139
0.00018948853539768606
0.0016599490772932768
0.001794995041564107
0.0004825782380066812
0.002713349647819996
0.0018482799641788006
0.0004547181015368551
0.001418824540451169
0.0007681432762183249
0.0001770271483110264
0.0004802412004210055
0.001923315110616386
0.002722947858273983
0.0009080417803488672
0.0026223864406347275
0.0006712715257890522
0.0006552905542775989
0.0022635022178292274
0.0003299557720310986
0.0005486419540829957
0.0010795140406116843
0.002350087044760585
0.0008822458330541849
0.00592059688642621
0.0036416121292859316
0.00037375674583017826
0.0014549866318702698
0.0008244019118137658
0.0010696558747440577
0.0007796955178491771
0.0031671931501477957
0.0009430481004528701
0.0006326748407445848
0.0005419161170721054
0.004703555256128311
0.002250657184049487
0.0015047516208142042
0.0030040442943573
0.0006177104078233242
0.0003493299591355026
0.002504188334569335
0.004554605111479759
0.0019051078706979752
0.004371212795376778
0.00038722375757060945
0.00025421808823011816
0.0008276421576738358
0.0003470258379820734
0.0003109778626821935
0.003849390661343932
0.0007374797132797539
0.00037129689007997513
0.0004063560045324266
0.0011333405273035169
0.0009312265319749713
0.0007360195741057396
0.00011541650746949017
0.0005164053873158991
0.001984297065064311
0.001656913897022605
0.0016298984410241246
0.0010659497929736972
0.001610957900993526
0.0032438826747238636
0.0007983752293512225
0.0002735229500103742
0.0025996696203947067
0.0048041264526546
0.001758680329658091
0.000739116920158267
0.0030043486040085554
0.0009977762820199132
0.0010214049834758043
0.0006616516620852053
0.0004384159983601421
0.0007210539188235998
0.0006058200960978866
0.0003947288205381483
0.0011262035695835948
0.00188099080696702
0.000951336813159287
0.0006760299438610673
0.0012543656630441546
0.00046308524906635284
0.0011403008829802275
0.001108364318497479
0.0032916434574872255
0.0023716192226856947
0.0012055325787514448
0.0006129205576144159
0.0003589221742004156
0.0002470236213412136
0.0009584093932062387
0.0002265212096972391
0.0004629475297406316
0.0005182690802030265
0.0036732014268636703
0.0005612675449810922
0.00045619733282364905
0.002886584959924221
0.00024345115525647998
0.0010054893791675568
0.0005770869902335107
0.002019905485212803
0.001047049998305738
0.0004932684823870659
0.0006807873724028468
0.0010600212262943387
0.0005400091758929193
0.003379528410732746
0.0002952001232188195
0.00049863092135638
0.0008605809998698533
0.00048662020708434284
0.002055930672213435
0.001153689925558865
0.002431002678349614
0.0015041462611407042
0.001058964873664081
0.0005304297083057463
0.00421122694388032
0.00026150463963858783
0.002054432639852166
0.0008150911889970303
0.00159098778385669
0.004659511614590883
0.0006689538131467998
0.0007817583391442895
0.0007970192236825824
0.0005974337691441178
0.002238755812868476
