0.013572189956903458
0.0066381837241351604
0.009442104026675224
0.016832489520311356
0.02080123871564865
0.006833450403064489
0.0059120627120137215
0.006808340549468994
0.010823307558894157
0.01621273159980774
0.005923259072005749
0.00982187781482935
0.004871409852057695
0.013979020528495312
0.006812870502471924
0.005448044743388891
0.007308190688490868
0.009480389766395092
0.0072343493811786175
0.008691874332726002
0.008233846165239811
0.01423763670027256
0.009762950241565704
0.007475911173969507
0.005130099598318338
0.007796640042215586
0.004792346153408289
0.01114830281585455
0.0078355697914958
0.009543304331600666
0.010235968045890331
0.007410489488393068
0.007947337813675404
0.009030557237565517
0.012705153785645962
0.010382991284132004
0.009234664030373096
0.007543642073869705
0.009436571039259434
0.010256963782012463
0.010105260647833347
0.009883655235171318
0.01154695637524128
0.011866213753819466
0.010984598658978939
0.011646644212305546
0.008927111513912678
0.009851692244410515
0.006947604939341545
0.011906672269105911
0.0060791801661252975
0.010793235152959824
0.008163824677467346
0.01355497632175684
0.00801880843937397
0.005002586171030998
0.008176319301128387
0.008103443309664726
0.006286021322011948
0.012955588288605213
0.011235645972192287
0.011883322149515152
0.0077624754048883915
0.013279534876346588
0.015965647995471954
0.019557882100343704
0.009287206456065178
0.010396900586783886
0.008871510624885559
0.01068481057882309
0.009432969614863396
0.011030498892068863
0.01099691167473793
0.006203559692949057
0.012515242211520672
0.011926823295652866
0.004795931279659271
0.007888346910476685
0.004877062980085611
0.0058213090524077415
0.008418222889304161
0.01053728349506855
0.009765193797647953
0.008478065021336079
0.0067936936393380165
0.005993387661874294
0.007465561386197805
0.010717760771512985
0.020186960697174072
0.011073860339820385
0.044988397508859634
0.010802816599607468
0.00605038134381175
0.010034899227321148
0.007723131217062473
0.006513889413326979
0.011195970699191093
0.004822966642677784
0.008947000838816166
0.007281384896486998
0.013876587152481079
0.015979785472154617
0.00777656864374876
0.015887267887592316
0.00706719234585762
0.011251975782215595
0.0140770198777318
0.00959751009941101
0.0059923212975263596
0.015758788213133812
0.008938559330999851
0.012195868417620659
