8.53639212436974e-05
0.00014190506772138178
0.00019206086290068924
0.00011561800783965737
0.0002936520613729954
0.00031090964330360293
0.00027287856210023165
0.00011787589028244838
0.00011357541370671242
0.00022214537602849305
4.2984749597962946e-05
0.00017642501916270703
0.00031625834526494145
0.0001816640724427998
0.00017089700850192457
0.00011481741967145354
0.00022147099662106484
0.00014751999697182328
0.00021649511472787708
0.0002617867721710354
0.0001481461658840999
0.00016608985606580973
0.00021011974604334682
4.654755684896372e-05
7.427307718899101e-05
0.00011280741455266252
9.405910532223061e-05
0.00014137793914414942
0.00010987619316438213
0.00013012155250180513
0.0001835911098169163
4.2290965211577713e-05
0.00014065278810448945
0.0003618692862801254
0.00017260031017940491
0.00015443976735696197
3.562598067219369e-05
0.000169072111020796
0.00017845892580226064
9.542731277178973e-05
0.00012450636131688952
0.0002034118224401027
0.00017988390754908323
0.0002716977323871106
0.00041550115565769374
8.728625834919512e-05
0.00010561006638454273
7.745977200102061e-05
0.0003553314891178161
0.000129995183669962
0.000189978105481714
0.00014549490879289806
0.00010540221410337836
0.0001435549493180588
0.0004100667720194906
0.00014414911856874824
0.00011106262536486611
0.00012075260747224092
0.00012122809130232781
0.00013207299343775958
0.00010102574742631987
4.12683621107135e-05
0.0002801474474836141
0.00015761354006826878
0.00023211528605315834
7.351981184910983e-05
0.0002454778295941651
0.0001217449753312394
0.0002454758796375245
0.00017865380505099893
9.079757001018152e-05
4.993390757590532e-05
0.00015156203880906105
0.0001783227635314688
5.725473602069542e-05
0.00016853194392751902
7.664388976991177e-05
0.0001155965292127803
0.00014343697694130242
0.00016137943021021783
0.00018711575830820948
3.625720273703337e-05
0.00012787898594979197
0.00021982654288876802
0.00011770170385716483
0.00013095108442939818
0.0002123065642081201
0.00032195387757383287
0.00014537363313138485
3.9926035242388025e-05
9.776005754247308e-05
0.000148896622704342
5.994391176500358e-05
0.00017026992281898856
7.611336332047358e-05
6.953307456569746e-05
9.099355520447716e-05
0.00010171478061238304
4.545079718809575e-05
8.102750143734738e-05
2.8127615223638713e-05
0.0001432950230082497
8.849924051901326e-05
0.0004845060466323048
0.00017552240751683712
0.00022315559908747673
0.00015461051953025162
0.00015142517804633826
0.0001262167643290013
0.000197394605493173
7.45487559470348e-05
0.00018096572603099048
0.00017622692394070327
0.0001607621379662305
0.00012016636173939332
0.00022802675084676594
0.00014434775221161544
0.00019640839309431612
7.862171332817525e-05
0.00014605026808567345
0.00015005411114543676
0.00015817480743862689
0.00021473909146152437
0.00013900906196795404
0.00010128370195161551
0.00011097484093625098
0.00017040473176166415
0.000160550422151573
7.409449608530849e-05
0.00044620822882279754
0.0002240594185423106
0.00021332825417630374
7.514724711654708e-05
0.00014778469630982727
0.0001218846082338132
0.00017392080917488784
4.58028371213004e-05
8.103262371150777e-05
0.0001984159607673064
0.00029169832123443484
0.00017678221047390252
0.0001604126300662756
0.00010282596485922113
0.00019270458142273128
0.0001723016903270036
0.00014577120600733906
0.0002702177152968943
4.297129635233432e-05
0.00026366274687461555
0.00021144089987501502
0.00018446214380674064
2.8493515856098384e-05
0.00022334356617648154
9.160478657577187e-05
0.0002873967168852687
0.00016773372772149742
0.00011775987513829023
4.8658799641998485e-05
0.00010099054634338245
0.00010595206549623981
7.261311111506075e-05
0.0002010755706578493
0.0003073712287005037
4.582586552714929e-05
0.00016389033407904208
0.0001036276007653214
0.00017818159540183842
0.00021862713037990034
0.00018797341908793896
0.00020605683675967157
8.935188816394657e-05
0.00019054717267863452
0.0002792437153402716
7.071805885061622e-05
7.043470395728946e-05
0.0003767910529859364
0.00014847917191218585
0.00022080616327002645
0.00031616073101758957
0.0001725296606309712
0.00017764951917342842
0.00020371009304653853
0.00013403747288975865
0.00014459810336120427
0.00013225158909335732
0.00016326573677361012
0.00019248219905421138
0.00011078626994276419
0.00019192796025890857
7.016159361228347e-05
0.0002574195386841893
0.00020555085211526603
0.00021748851577285677
5.8200632338412106e-05
6.263406248763204e-05
5.0793249101843685e-05
0.00022196921054273844
0.0003181775682605803
0.00018900643044617027
0.00022345551406033337
0.00045781812514178455
0.00016051388229243457
0.00013958195631857961
6.62180464132689e-05
0.00010921793000306934
2.476780537108425e-05
5.7781133364187554e-05
0.0002107902691932395
0.0001515090698376298
0.0002109603228745982
0.0001548287400510162
2.6607693143887445e-05
0.00022350331710185856
0.00020530473557300866
0.0001180418039439246
0.00014875843771733344
0.00020494271302595735
0.00017972048954106867
3.439150168560445e-05
0.000168378246598877
0.00029699152219109237
0.00020929652964696288
0.00020815976313315332
0.0003971284895669669
0.00027903536101803184
2.9372749850153923e-05
8.729028195375577e-05
0.00010703726002248004
0.0002723967772908509
5.832379247294739e-05
5.35550425411202e-05
0.00012807984603568912
0.00010265708988299593
6.604227382922545e-05
0.00020935482461936772
3.332878986839205e-05
0.0001815396681195125
0.00014059408567845821
0.00027197998133488
9.867297194432467e-05
0.00022292326320894063
0.0001281336444662884
0.00016673449135851115
0.00016734165546949953
0.0001822640624595806
2.811847116390709e-05
4.824940697290003e-05
0.00018273043679073453
4.010320481029339e-05
4.011313649243675e-05
0.00010060621571028605
0.00019736432295758277
9.447453339817002e-05
0.00011571057257242501
0.00018217283650301397
0.00036813493352383375
0.00015197318862192333
0.00011033004557248205
0.00024130812380462885
0.00012167934619355947
0.00018292605818714947
3.533139533828944e-05
6.099230085965246e-05
0.00015438658010680228
0.00020849752763751894
0.00016507276450283825
0.0001050593054969795
0.00016723120643291622
0.00021905888570472598
0.00015164079377427697
0.00022376114793587476
9.968518861569464e-05
0.0001124860136769712
0.0004562139802146703
0.00018034427193924785
0.00030541655723936856
0.00010496081813471392
0.00021773083426523954
0.00018054535030387342
0.00018686961266212165
0.00010708269837778062
0.0002352788287680596
0.00021826189185958356
0.000133504654513672
0.00010553924948908389
0.00014415026817005128
8.857786451699212e-05
3.702771573443897e-05
5.788676207885146e-05
3.228093555662781e-05
0.00038073986070230603
0.00020671120728366077
9.619310731068254e-05
4.91169084853027e-05
0.0001752041862346232
8.093254291452467e-05
0.00018749131413642317
0.00016534968744963408
0.00011281493789283559
4.570425517158583e-05
8.328981493832543e-05
5.135189348948188e-05
0.0005093165673315525
6.944941560504958e-05
0.00034893190604634583
0.0001230582856805995
4.1375154978595674e-05
4.0436290873913094e-05
0.0001202007188112475
0.00012906912888865918
0.00023707647051196545
0.0001337682333542034
0.00011265058856224641
4.877193714492023e-05
0.00020624259195756167
0.0001579237577971071
0.00021189983817748725
0.00019840254390146583
3.092464248766191e-05
0.0002132256340701133
6.464580656029284e-05
0.0002399464719928801
6.917470454936847e-05
7.231436029542238e-05
0.00015142020129133016
0.00025235110661014915
6.993475108174607e-05
0.00013347930507734418
0.00017164385644719005
0.00014578638365492225
0.00018523323524277657
0.00018934196850750595
0.00018240298959426582
0.00020591185602825135
9.584677900420502e-05
0.00022870804241392761
5.760626299888827e-05
8.844098192639649e-05
4.693590381066315e-05
0.0001626599841983989
2.3298942323890515e-05
0.00020625066827051342
0.00018592555716168135
0.0002193788532167673
7.367245416389778e-05
0.00014440737140830606
0.00023937449441291392
0.00013156715431250632
0.00014998196274973452
0.00016753107775002718
9.110855899052694e-05
0.00033848779276013374
0.0001357843866571784
0.00020090753969270736
0.00022652055486105382
0.00015552269178442657
0.0003385446034371853
7.673582877032459e-05
0.00022116699256002903
0.00010395361459814012
0.0002749868726823479
0.00026831941795535386
7.642346463399008e-05
0.00019956714822910726
9.163461800199002e-05
0.00032950242166407406
0.00016831890388857573
0.00016906701785046607
0.00012919670552946627
0.00019444360805209726
4.599052408593707e-05
0.0001659609260968864
0.0002475889341440052
0.0002776188193820417
0.0002531692443881184
4.839491521124728e-05
0.00017927026783581823
0.0004372842377051711
8.670811803312972e-05
0.0002520453999750316
0.00011122177238576114
0.00015427600010298193
0.00012476857227738947
0.00012530869571492076
0.0002471718762535602
0.0002968901244457811
0.0001914780877996236
0.00012293463805690408
4.390885078464635e-05
0.00020391166617628187
0.00016039152978919446
0.00010415198630653322
0.0002268013049615547
0.0001752232201397419
0.0001781764003681019
0.00027252896688878536
0.0001744854962453246
0.00016294853412546217
0.00024100023438222706
8.648378570796922e-05
4.753749453811906e-05
0.00010749404464149848
7.412856939481571e-05
0.00023082249390427023
8.894692291505635e-05
0.0001641584822209552
9.702573152026162e-05
0.00012431555660441518
9.658608178142458e-05
0.00016172905452549458
4.169967724010348e-05
5.734604928875342e-05
0.00018203059153165668
0.0002744849771261215
7.096611079759896e-05
0.0001165650537586771
9.3943475803826e-05
6.212296284502372e-05
0.00011839393846457824
0.00010656964150257409
4.5049626351101324e-05
0.00012570816033985466
0.0001940578658832237
3.377178654773161e-05
3.7876721762586385e-05
3.49826441379264e-05
4.0084873035084456e-05
3.740423926501535e-05
5.880945172975771e-05
3.20877879858017e-05
0.00015573407290503383
0.000227665645070374
0.0001002545832307078
0.00022227171575650573
4.012753925053403e-05
0.0001983316760743037
5.1859915402019396e-05
0.00029541191179305315
0.0002074700896628201
8.363778033526614e-05
0.000253411999437958
0.0001321716554230079
8.418757352046669e-05
4.326680937083438e-05
0.00018266972620040178
5.6291271903319284e-05
0.00018722415552474558
9.558878082316369e-05
0.00013318202400114387
9.282391692977399e-05
0.000349278881913051
6.70065128360875e-05
7.385187200270593e-05
0.00027746567502617836
0.00015690225700382143
3.2811749406391755e-05
0.00015215048915706575
0.0002214441919932142
0.00018681400979403406
6.90549859427847e-05
5.824293475598097e-05
0.00017692784604150802
9.576733282301575e-05
0.0001608042948646471
0.00024657868198119104
0.00013260946434456855
0.0002543932350818068
3.651759834610857e-05
0.00012497269199229777
0.00012773436901625246
9.40198588068597e-05
5.327101098373532e-05
0.00017482459952589124
3.425960676395334e-05
0.00010199154348811135
0.00019746368343476206
0.00015468947822228074
0.00010571315215202048
0.00020648380450438708
0.0002046793670160696
0.000330280076013878
0.0001399485772708431
6.5977408667095e-05
0.0001519692741567269
5.334509114618413e-05
0.00010259558621328324
0.0002448896411806345
0.000219850437133573
7.303072925424203e-05
4.4289528887020424e-05
8.995770622277632e-05
0.00016423322085756809
6.156342715257779e-05
0.00013620314712170511
0.00012342177797108889
0.00017649286019150168
0.0002013928024098277
0.0002375804033363238
4.472975342650898e-05
4.0104587242240086e-05
0.00011185523180756718
0.00014896788343321532
0.00016410597891081125
0.00015084158803801984
0.00011456175707280636
0.0001578103838255629
0.0002713944704737514
0.00017169817874673754
0.00013276330719236284
0.00014961761189624667
0.00012926124327350408
0.00012569816317409277
0.00010924583330051973
0.00022266936139203608
0.00013581740495283157
0.00028446275973692536
0.00012694858014583588
0.0001889123668661341
0.00022723681468050927
0.00020345636585261673
0.00010382876644143835
6.747576844645664e-05
0.00016281595162581652
0.00012159287871327251
0.0001437286991858855
0.00027286875410936773
0.00021755333000328392
0.00025189490406773984
0.00016432696429546922
0.00028180525987409055
0.00016637647058814764
4.046593312523328e-05
9.81271150521934e-05
0.00045097284601069987
9.263295942218974e-05
0.00010450703848619014
7.766643830109388e-05
0.00018613689462654293
0.00012446842447388917
0.00015935375995468348
0.00011925800936296582
0.00020716502331197262
0.00011566873581614345
0.00018435156380292028
0.000137270923005417
3.7718797102570534e-05
9.294255869463086e-05
0.00015732823521830142
8.370840805582702e-05
0.00011290875409031287
0.00031112469150684774
0.0001927145494846627
0.00012905504263471812
3.6151028325548396e-05
9.055747068487108e-05
0.00026803274522535503
0.00015489663928747177
0.00012295458873268217
0.00014895963249728084
0.00019759536371566355
0.00020316227164585143
6.75963019602932e-05
7.078307680785656e-05
0.00018049230857286602
2.6912053726846352e-05
0.00023845945543143898
0.0003759394458029419
0.00016554241301491857
0.00012584334763232619
0.00011470389290479943
0.00019290954514872283
3.970079342252575e-05
0.0001076299449778162
0.000212119470234029
0.0001317530986852944
0.00015473717940039933
7.02202451066114e-05
5.656631401507184e-05
4.741936209029518e-05
0.0002639759914018214
0.0002269016986247152
7.13669796823524e-05
3.971198748331517e-05
7.503488450311124e-05
2.537804721214343e-05
0.00017322823987342417
0.00028541372739709914
7.455273589584976e-05
0.0001373594714095816
0.0002195191045757383
0.00014412887685466558
7.625156285939738e-05
0.00024285273684654385
0.00011631721281446517
0.00013248225150164217
0.00018536353309173137
0.00014080715482123196
0.0003144300717394799
0.000129618143546395
3.9813843613956124e-05
0.00012398877879604697
6.699741061311215e-05
0.00014478644880000502
0.00014956985251046717
0.00015604104555677623
0.0002235145802842453
0.0002892935590352863
7.645899313502014e-05
4.546489071799442e-05
0.0001895214372780174
9.214811871061102e-05
4.5871016482124105e-05
0.00014932295016478747
0.0001522177190054208
0.00012132788833696395
0.0002046910231001675
0.0001428147661499679
0.00024766766000539064
0.00022683963470626622
0.0001105969276977703
0.0002057939418591559
0.00017347959510516375
0.00015330765745602548
0.000178890026290901
0.00015274561883416027
0.00029805293888784945
0.00011012435425072908
4.6708359150215983e-05
0.00014799258497077972
0.00015312385221477598
0.00028061025659553707
0.0002568784693721682
0.0002796088228933513
0.0001909393904497847
0.0002184307377319783
0.00024655114975757897
0.0001711702352622524
4.0293074562214315e-05
0.00014271787949837744
0.0002033176424447447
0.0001945004187291488
0.0004686228930950165
0.00017743984062690288
0.00013882691564504057
5.308793697622605e-05
0.00018673930026125163
0.0002135379909304902
0.0001591164618730545
4.72985120723024e-05
0.00018213456496596336
4.77644098282326e-05
0.00022589266882278025
0.00011651503155007958
0.0001758783619152382
0.000111919674964156
0.00018514251860324293
0.00014879542868584394
5.5283380788750947e-05
0.00016930355923250318
5.598100688075647e-05
0.0002450826286803931
3.602069045882672e-05
0.0003569502732716501
4.739948417409323e-05
0.00015983209596015513
0.0001600906834937632
3.708195799845271e-05
0.0001792565017240122
0.00018849823391065001
0.0002052591589745134
0.0002481125411577523
0.00018695021572057158
