0.00017100307741202414
0.0002842676767613739
0.0003847409680020064
0.0002316087920917198
0.0005882509285584092
0.0006228217389434576
0.0005466369329951704
0.00023613183293491602
0.00022751701180823147
0.0004450069973245263
8.610809163656086e-05
0.0003534188726916909
0.000633536372333765
0.0003639138594735414
0.00034234501072205603
0.00023000504006631672
0.00044365605572238564
0.00029551563784480095
0.00043368825572542846
0.000524417613632977
0.0002967699838336557
0.00033271522261202335
0.0004209169710520655
9.32451948756352e-05
0.00014878562069498003
0.00022597853967454284
0.00018842147255782038
0.0002832117024809122
0.00022010665270499885
0.00026066263671964407
0.0003677741624414921
8.471828186884522e-05
0.0002817590720951557
0.0007249052869156003
0.00034575711470097303
0.0003093774721492082
7.13668268872425e-05
0.0003386893367860466
0.0003574932343326509
0.00019116229668725282
0.0002494141517672688
0.00040747947059571743
0.00036034779623150826
0.0005442714900709689
0.0008323419606313109
0.00017485395073890686
0.00021156064758542925
0.00015516928397119045
0.000711808621417731
0.0002604094916023314
0.00038056873017922044
0.00029145891312509775
0.00021114425908308476
0.000287572736851871
0.0008214556728489697
0.00028876299620606005
0.00022248334425967187
0.0002418945514364168
0.00024284704704768956
0.00026457180501893163
0.0002023772249231115
8.266977965831757e-05
0.0005611981614492834
0.0003157352621201426
0.00046497894800268114
0.00014727665984537452
0.0004917471087537706
0.00024388247402384877
0.0004917432088404894
0.0003578836331143975
0.00018188789545092732
0.00010002881026593968
0.00030361273093149066
0.0003572204732336104
0.00011469407036202028
0.00033760725636966527
0.00015353490016423166
0.00023156576207838953
0.00028733641374856234
0.00032327917870134115
0.0003748348099179566
7.263130828505382e-05
0.0002561702858656645
0.00044036185136064887
0.00023578290711157024
0.0002623243781272322
0.0004252976505085826
0.0006449457723647356
0.0002912159834522754
7.998079672688618e-05
0.00019583530956879258
0.00029827331309206784
0.00012008109479211271
0.0003410888311918825
0.00015247213013935834
0.00013929033593740314
0.00018228049157187343
0.00020375750318635255
9.104813943849877e-05
0.00016231625340878963
5.634591798298061e-05
0.00028705206932500005
0.00017728381499182433
0.0009705742122605443
0.0003516107390169054
0.00044703070307150483
0.0003097195294685662
0.00030333857284858823
0.0002528404875192791
0.00039542565355077386
0.00014933786587789655
0.00036251492565497756
0.00035302204196341336
0.00032204261515289545
0.00024072016822174191
0.0004567886935546994
0.0002891609037760645
0.0003934500564355403
0.00015749692101962864
0.00029257143614813685
0.0003005920152645558
0.0003168596012983471
0.00043017053394578397
0.0002784663229249418
0.0002028939634328708
0.00022230748436413705
0.0003413588856346905
0.00032161848503164947
0.00014842789096292108
0.0008938551181927323
0.00044884125236421824
0.0004273443191777915
0.00015053678362164646
0.0002960458805318922
0.00024416219093836844
0.00034840236185118556
9.175335435429588e-05
0.00016232651250902563
0.00039747165283188224
0.0005843371618539095
0.0003541343903634697
0.0003213424643035978
0.00020598346600309014
0.0003860304714180529
0.00034515891456976533
0.0002920124097727239
0.0005413066828623414
8.608114148955792e-05
0.0005281756166368723
0.00042356352787464857
0.00036951902438886464
5.7078901591012254e-05
0.00044740724842995405
0.00018350491882301867
0.0005757200415246189
0.00033600826282054186
0.00023589942429680377
9.747448348207399e-05
0.00020230670634191483
0.00021224573720246553
0.0001454603479942307
0.0004027994582429528
0.0006157335010357201
9.17994839255698e-05
0.0003283090773038566
0.0002075893135042861
0.0003569376713130623
0.00043795915553346276
0.00037655289634130895
0.00041277805576100945
0.00017899186059366912
0.00038170869811438024
0.0005593877867795527
0.0001416641316609457
0.0001410965051036328
0.0007547969580627978
0.0002974370727315545
0.00044232423533685505
0.0006333408528007567
0.00034561558277346194
0.00035587180173024535
0.00040807700133882463
0.00026850710855796933
0.00028966242098249495
0.00026492957840673625
0.00032705787452869117
0.00038558500818908215
0.00022192973119672388
0.0003844747261609882
0.0001405493967467919
0.0005156690604053438
0.00041176442755386233
0.0004356782592367381
0.000116588911623694
0.00012547007645480335
0.00010175026545766741
0.00044465408427640796
0.0006373809883370996
0.0003786222659982741
0.0004476314934436232
0.0009171123383566737
0.0003215452888980508
0.0002796139451675117
0.00013264959852676839
0.00021878800180274993
4.961546801496297e-05
0.00011574856762308627
0.00042226017103530467
0.00030350664746947587
0.00042260083137080073
0.0003101566690020263
5.330117346602492e-05
0.00044772724504582584
0.00041127140866592526
0.00023646419867873192
0.00029799650656059384
0.0004105461994186044
0.0003600204363465309
6.889388896524906e-05
0.0003372993669472635
0.0005949406186118722
0.0004192678607068956
0.0004169906605966389
0.0007955373730510473
0.0005589703796431422
5.884020356461406e-05
0.00017486199794802815
0.00021441963326651603
0.0005456717917695642
0.00011683563207043335
0.0001072827581083402
0.0002565726463217288
0.00020564516307786107
0.0001322974858339876
0.00041938465437851846
6.676503835478798e-05
0.00036366464337334037
0.00028164146351628006
0.0005448368610814214
0.0001976640778593719
0.00044656527461484075
0.0002566804178059101
0.00033400655956938863
0.00033522286685183644
0.00036511578946374357
5.63276007596869e-05
9.665438119554892e-05
0.0003660500224214047
8.033571066334844e-05
8.035560313146561e-05
0.00020153680816292763
0.000395365001168102
0.00018925366748590022
0.00023179421259555966
0.00036493304651230574
0.000737456779461354
0.0003044363693334162
0.00022101581271272153
0.00048339428030885756
0.0002437510120216757
0.00036644190549850464
7.077670306898654e-05
0.00012218125630170107
0.0003092709230259061
0.0004176672955509275
0.0003306777507532388
0.0002104573359247297
0.0003350015904288739
0.000438824063166976
0.0003037705027963966
0.0004482437507249415
0.00019969178538303822
0.00022533470473717898
0.0009138988680206239
0.0003612700093071908
0.0006118178134784102
0.00021026005560997874
0.00043616368202492595
0.00036167280632071197
0.0003743417328223586
0.00021451065549626946
0.000471316248876974
0.00043722751433961093
0.0002674397546797991
0.0002114187809638679
0.00028876529540866613
0.00017744132492225617
7.417481538141146e-05
0.00011596015974646434
6.466595368692651e-05
0.0007627073209732771
0.00041408889228478074
0.00019269635959062725
9.83921781880781e-05
0.0003509732778184116
0.00016212603077292442
0.00037558714393526316
0.0003312324988655746
0.00022599361545871943
9.155587031273171e-05
0.00016684817092027515
0.00010286935867043212
0.0010202752891927958
0.00013912275608163327
0.0006989888497628272
0.00024651334388181567
8.28837146400474e-05
8.100295963231474e-05
0.00024078898422885686
0.0002585544134490192
0.00047491732402704656
0.00026796775637194514
0.00022566437837667763
9.770112228579819e-05
0.0004131501482333988
0.00031635668710805476
0.00042448288877494633
0.0003974447899963707
6.19489946984686e-05
0.00042713875882327557
0.00012950004020240158
0.0004806665820069611
0.00013857244630344212
0.00014486187137663364
0.000303328619338572
0.0005055158399045467
0.0001400949840899557
0.0002673889684956521
0.0003438411222305149
0.0002920428232755512
0.0003710637101903558
0.00037929441896267235
0.00036539408029057086
0.00041248759953305125
0.00019200258248019964
0.0004581534885801375
0.0001153982593677938
0.00017716710863169283
9.40231402637437e-05
0.0003258444194216281
4.6673005272168666e-05
0.00041316632996313274
0.00037245056591928005
0.0004394650168251246
0.0001475824392400682
0.00028928034589625895
0.00047952079330570996
0.00026355849695391953
0.00030044748564250767
0.00033560232259333134
0.0001825108629418537
0.0006780669209547341
0.00027200658223591745
0.00040246284333989024
0.0004537714703474194
0.0003115468134637922
0.0006781807169318199
0.00015371906920336187
0.0004430470580700785
0.00020824240345973521
0.0005508603644557297
0.0005375039763748646
0.0001530933368485421
0.00039977775304578245
0.00018356468353886157
0.0006600672495551407
0.0003371805069036782
0.00033867915044538677
0.00025880997418425977
0.000389514141716063
9.21293321880512e-05
0.0003324569552205503
0.0004959761281497777
0.0005561327561736107
0.0005071547348052263
9.694586333353072e-05
0.0003591185377445072
0.0008759783813729882
0.00017369580746162683
0.0005049034371040761
0.00022280214761849493
0.0003090494137722999
0.0002499394176993519
0.0002510214108042419
0.0004951406735926867
0.0005947374738752842
0.00038357352605089545
0.0002462656411807984
8.795926987659186e-05
0.00040848078788258135
0.00032130020554177463
0.00020863977260887623
0.0004543338727671653
0.0003510114038363099
0.00035692728124558926
0.0005459366366267204
0.0003495335695333779
0.0003264224505983293
0.00048277751193381846
0.0001732464152155444
9.52282571233809e-05
0.00021533467224799097
0.00014849613944534212
0.0004623892018571496
0.00017818063497543335
0.00032884624670259655
0.00019436430011410266
0.0002490319311618805
0.00019348357454873621
0.00032397956238128245
8.353379962500185e-05
0.00011487699521239847
0.00036464809090830386
0.0005498549435287714
0.00014216103591024876
0.00023350593983195722
0.00018818984972313046
0.00012444621825125068
0.000237169602769427
0.00021348288282752037
9.024450264405459e-05
0.0002518216206226498
0.0003887414059136063
6.765245780115947e-05
7.587556319776922e-05
7.007808017078787e-05
8.029898890526965e-05
7.492907752748579e-05
0.00011780851491494104
6.427903281291947e-05
0.0003119702741969377
0.0004560653178486973
0.0002008324081543833
0.00044526008423417807
8.038445957936347e-05
0.0003973028215114027
0.00010388703958597034
0.0005917762755416334
0.00041560910176485777
0.00016754522221162915
0.0005076410598121583
0.0002647694491315633
0.0001686465839156881
8.66731206770055e-05
0.0003659284266177565
0.00011276403529336676
0.0003750519535969943
0.00019148575665894896
0.0002667934459168464
0.0001859471231000498
0.0006996839074417949
0.00013422906340565532
0.00014794185699429363
0.0005558259435929358
0.0003143103967886418
6.572929123649374e-05
0.0003047915524803102
0.00044360235915519297
0.0003742303524632007
0.0001383326161885634
0.0001166736547020264
0.0003544261562637985
0.00019184344273526222
0.00032212704536505044
0.0004939523641951382
0.000265646493062377
0.0005096066743135452
7.315293623832986e-05
0.000250348326517269
0.00025588058633729815
0.00018834286311175674
0.00010671377822291106
0.0003502128820400685
6.86296698404476e-05
0.00020431193115655333
0.00039556404226459563
0.0003098777087870985
0.00021176713926251978
0.00041363335913047194
0.0004100186633877456
0.0006616250611841679
0.0002803483803290874
0.00013216753723099828
0.00030442854040302336
0.00010686217865440995
0.00020552196656353772
0.0004905688692815602
0.0004404097271617502
0.00014629692304879427
8.872185571817681e-05
0.00018020544666796923
0.000328995956806466
0.0001233253424288705
0.0002728454419411719
0.0002472414926160127
0.0003535547584760934
0.0004034349403809756
0.0004759268194902688
8.960372360888869e-05
8.033848280319944e-05
0.00022407110373023897
0.0002984160673804581
0.0003287410654593259
0.00030216953018680215
0.00022949288540985435
0.00031612958991900086
0.000543663976714015
0.0003439499414525926
0.00026595467352308333
0.0002997176197823137
0.0002589392533991486
0.00025180159718729556
0.0002188438957091421
0.00044605665607377887
0.00027207270613871515
0.0005698426975868642
0.00025430647656321526
0.00037843381869606674
0.00045520628918893635
0.0004075687029398978
0.00020799229969270527
0.00013516908802557737
0.00032615684904158115
0.00024357780057471246
0.00028792081866413355
0.0005466173170134425
0.0004358080914244056
0.0005046019796282053
0.0003291837638244033
0.0005645191413350403
0.0003332893829792738
8.106233872240409e-05
0.00019657061784528196
0.0009033997193910182
0.00018556458235252649
0.00020935102656949311
0.0001555832859594375
0.00037287393934093416
0.00024933816166594625
0.00031922131893225014
0.00023890052398201078
0.0004149979795329273
0.0002317104081157595
0.00036929751513525844
0.00027498442796058953
7.555920456070453e-05
0.00018618478497955948
0.00031516372109763324
0.00016768671048339456
0.0002261815534438938
0.0006232525338418782
0.00038605043664574623
0.00025852618273347616
7.241861749207601e-05
0.0001814069109968841
0.0005369296995922923
0.0003102927003055811
0.0002463056007400155
0.0002983995364047587
0.000395827810280025
0.00040697958320379257
0.00013541054795496166
0.0001417943713022396
0.00036156654823571444
5.391087688622065e-05
0.0004776877467520535
0.0007530910079367459
0.00033161856117658317
0.0002520924317650497
0.00022977760818321258
0.0003864410682581365
7.952959276735783e-05
0.00021560690947808325
0.0004249228513799608
0.00026393099687993526
0.000309973256662488
0.00014066688891034573
0.0001133150071837008
9.49916138779372e-05
0.0005288030952215195
0.00045453498023562133
0.00014296405424829572
7.955201726872474e-05
0.00015031169459689409
5.0837919843615964e-05
0.0003470150113571435
0.0005717476597055793
0.0001493458403274417
0.0002751618158072233
0.00043974598520435393
0.0002887224545702338
0.00015274898032657802
0.00048648848314769566
0.0002330094575881958
0.0002653916599228978
0.00037132471334189177
0.0002820683002937585
0.0006298739463090897
0.00025965418899431825
7.975605694809929e-05
0.00024837732780724764
0.00013421082985587418
0.00029003972304053605
0.0002996219554916024
0.000312585209030658
0.00044774982961826026
0.00057951983762905
0.00015316451026592404
9.10763701540418e-05
0.0003796539385803044
0.0001845933438744396
9.188993135467172e-05
0.00029912733589299023
0.0003049262159038335
0.00024304696125909686
0.0004100420046597719
0.0002860899840015918
0.0004961338709108531
0.00045441064867191017
0.0002215504355262965
0.0004122513928450644
0.00034751853672787547
0.00030710961436852813
0.00035835683229379356
0.0003059837326873094
0.0005970668862573802
0.00022060377523303032
9.356731607113034e-05
0.0002964623272418976
0.00030674139270558953
0.0005621252348646522
0.0005145851755514741
0.0005601191660389304
0.0003824944142252207
0.00043756572995334864
0.0004938972415402532
0.0003428923664614558
8.071606134762987e-05
0.0002858959196601063
0.0004072908195666969
0.00038962793769314885
0.0009387567406520247
0.00035545177524909377
0.0002781014482025057
0.00010634704085532576
0.0003740806714631617
0.0004277644620742649
0.00031874593696556985
9.474952094024047e-05
0.00036485635791905224
9.568282257532701e-05
0.00045251366100274026
0.0002334057353436947
0.0003523237828630954
0.00022420020832214504
0.00037088198587298393
0.0002980706049129367
0.00011074500798713416
0.00033915298990905285
0.00011214250844204798
0.0004909554263576865
7.215751975309104e-05
0.0007150514284148812
9.495179256191477e-05
0.00032017953344620764
0.0003206975234206766
7.428347453242168e-05
0.0003590909473132342
0.00037760421400889754
0.0004111801099497825
0.0004970250301994383
0.00037450320087373257
