0.0039140633307397366
0.002526859287172556
0.003632110310718417
0.005454402882605791
0.003859245916828513
0.007696753367781639
0.0030501713044941425
0.004485397599637508
0.0028964343946427107
0.004506515339016914
0.0029217025730758905
0.0032602990977466106
0.004206215497106314
0.005423772148787975
0.00391471479088068
0.007035145070403814
0.004924435168504715
0.002744431374594569
0.003334663575515151
0.0030281171202659607
0.005681859329342842
0.003190227784216404
0.006873459555208683
0.003838318632915616
0.003351625520735979
0.00443684309720993
0.007214682642370462
0.005773372948169708
