7.006523082964122e-05
4.523303869063966e-05
6.501802272396162e-05
9.763868729351088e-05
6.908395153004676e-05
0.00013777875574305654
5.4600790463155136e-05
8.029262244235724e-05
5.184876499697566e-05
8.067065209615976e-05
5.2301085815997794e-05
5.836226773681119e-05
7.529501453973353e-05
9.709036385174841e-05
7.007689418969676e-05
0.0001259353884961456
8.815179171506315e-05
4.9127775127999485e-05
5.9693458752008155e-05
5.420600064098835e-05
0.00010171035683015361
5.710792902391404e-05
0.00012304107076488435
6.87093343003653e-05
5.9997091739205644e-05
7.942345837363973e-05
0.0001291492662858218
0.0001033485314110294
