4.0524239011574537e-05
5.984052404528484e-05
0.00010905613453360274
7.718474807916209e-05
6.9486050051637e-05
5.0033428124152124e-05
5.312495704856701e-05
6.203976954566315e-05
3.7190315197221935e-05
5.185590634937398e-05
2.621304156491533e-05
0.00018755086057353765
0.0001771095849107951
6.758703966625035e-05
4.274440652807243e-05
4.963391984347254e-05
9.473505633650348e-05
4.590858952724375e-05
5.52596065972466e-05
4.433255162439309e-05
4.120653829886578e-05
3.3434644137742e-05
7.72800631239079e-05
2.4015191229409538e-05
4.389652167446911e-05
3.9458096580347046e-05
7.006273517617956e-05
5.103725925437175e-05
4.2145347833866253e-05
4.80411690659821e-05
6.297809159150347e-05
0.00010949850548058748
6.356200174195692e-05
9.04035332496278e-05
4.083828753209673e-05
5.4668715165462345e-05
4.46359372290317e-05
4.991591413272545e-05
5.0674738304223865e-05
2.455952562741004e-05
0.00010935146565316245
6.249821308301762e-05
7.342507888097316e-05
6.454643880715594e-05
5.909335595788434e-05
3.5408746043685824e-05
5.2108047384535894e-05
5.378567220759578e-05
5.12565384269692e-05
2.7945950932917185e-05
7.149750308599323e-05
5.072560816188343e-05
3.982171256211586e-05
6.378540274454281e-05
5.422901449492201e-05
4.873317084275186e-05
4.044831803184934e-05
5.2134553698124364e-05
0.00012455227260943502
6.450383807532489e-05
4.652310235542245e-05
3.484179251245223e-05
0.00013704231241717935
5.876105205970816e-05
6.0429578297771513e-05
3.408354314160533e-05
5.381161463446915e-05
5.321578646544367e-05
3.119653047178872e-05
4.808592711924575e-05
5.2596835303120315e-05
5.259933095658198e-05
5.8932371757691726e-05
7.258888217620552e-05
6.908967043273151e-05
5.548126500798389e-05
4.8407579015474766e-05
0.00010477714386070147
3.675878542708233e-05
7.595289207529277e-05
0.00013371404202189296
8.384788816329092e-05
4.42835662397556e-05
0.00010153781477129087
6.699670484522358e-05
4.287505362299271e-05
4.500470822677016e-05
5.128687189426273e-05
5.056186273577623e-05
4.2841522372327745e-05
3.804836524068378e-05
7.046513928798959e-05
7.656675734324381e-05
4.002101195510477e-05
7.930270658107474e-05
6.925384514033794e-05
5.682064511347562e-05
0.00013657400268130004
3.896081761922687e-05
2.6372019419795834e-05
6.403738370863721e-05
7.422493945341557e-05
0.00010606847354210913
0.0002044095890596509
7.084379467414692e-05
4.1055009205592796e-05
9.29620728129521e-05
4.776833884534426e-05
0.00010360501619288698
8.05246745585464e-05
4.190341132925823e-05
3.4600961953401566e-05
0.0002189077640650794
4.692635775427334e-05
7.419860048685223e-05
5.3460484195966274e-05
5.111328937346116e-05
2.90688421955565e-05
0.00015152285050135106
5.075985609437339e-05
5.759375198977068e-05
6.49776411592029e-05
5.8400215493747965e-05
0.000134834015625529
5.3537314670393243e-05
0.00014354383165482432
4.510349390329793e-05
2.9804406949551776e-05
3.763923450605944e-05
8.161528239725158e-05
5.6290431530214846e-05
4.4402884668670595e-05
3.68271503248252e-05
3.9664246287429705e-05
6.77294738125056e-05
5.394007166614756e-05
0.00010464610386407003
4.33334571425803e-05
6.553591811098158e-05
4.7562723921146244e-05
9.563095954945311e-05
5.547315959120169e-05
5.908118691877462e-05
6.8308538175188e-05
5.0959180953213945e-05
3.346626181155443e-05
4.094289033673704e-05
4.181422991678119e-05
4.998010990675539e-05
0.00010059335181722417
7.538739737356082e-05
9.60675606620498e-05
5.265121581032872e-05
3.386136086191982e-05
0.00016659854736644775
4.149477172177285e-05
4.389541572891176e-05
4.3509877286851406e-05
7.90946651250124e-05
6.553319690283388e-05
5.135576066095382e-05
0.0001228416513185948
5.809693902847357e-05
4.172368426225148e-05
4.42012315033935e-05
6.484412006102502e-05
0.00014978669059928507
5.980118294246495e-05
3.950418613385409e-05
5.624793629976921e-05
5.1785737014142796e-05
7.846987864468247e-05
0.0001455796736991033
7.382454350590706e-05
5.6732125813141465e-05
0.0001369278907077387
4.99720626976341e-05
7.373157859547064e-05
0.00024943024618551135
3.5368379030842334e-05
6.867548654554412e-05
6.624279194511473e-05
5.055766087025404e-05
0.00013177043001633137
3.48567045875825e-05
3.837527037831023e-05
6.131186819402501e-05
6.123664206825197e-05
4.420902405399829e-05
0.00017856687190942466
0.00010380910680396482
5.831279850099236e-05
3.2603686122456565e-05
3.8711674278602004e-05
2.708127249206882e-05
4.3043717596447095e-05
5.032975968788378e-05
6.0183399909874424e-05
5.0055190513376147e-05
5.757977851317264e-05
9.433005470782518e-05
5.2936291467631236e-05
4.995462950319052e-05
6.653719174209982e-05
7.366431236732751e-05
5.2056959248147905e-05
3.592784560169093e-05
4.563656693790108e-05
8.659339800942689e-05
6.597703031729907e-05
6.954496348043904e-05
7.15634596417658e-05
4.2238712921971455e-05
8.13287915661931e-05
5.400680311140604e-05
5.44784234079998e-05
3.9490245399065316e-05
5.400095687946305e-05
6.554272113135085e-05
4.6514418500009924e-05
5.533177682082169e-05
5.114705709274858e-05
6.417644181055948e-05
3.5922977986047044e-05
6.785750883864239e-05
7.397343870252371e-05
6.460203439928591e-05
8.839239308144897e-05
0.00024953283718787134
0.0001210553091368638
0.0001166776564787142
4.7066503611858934e-05
0.00010684831067919731
6.669582217000425e-05
5.598544157692231e-05
4.084598185727373e-05
9.277038770960644e-05
5.1392416935414076e-05
3.8930516893742606e-05
3.733678022399545e-05
7.103014650056139e-05
3.74377123080194e-05
0.0001233833172591403
9.66427760431543e-05
3.160685082548298e-05
3.711465251399204e-05
8.171761146513745e-05
5.00347487104591e-05
5.0749742513289675e-05
4.178836024948396e-05
3.634322274592705e-05
3.9215421566041186e-05
4.145151251577772e-05
3.772090349229984e-05
5.9749603678938e-05
5.310424603521824e-05
7.203433779068291e-05
5.143645466887392e-05
5.522797800949775e-05
4.160276148468256e-05
5.435747152660042e-05
7.875228038756177e-05
3.638052658061497e-05
4.7155466745607555e-05
4.2928622860927135e-05
5.665305434376933e-05
4.203633943689056e-05
5.8895759138977155e-05
3.139851105515845e-05
3.9774997276254e-05
7.861909398343414e-05
5.3714178648078814e-05
8.169708598870784e-05
5.192358366912231e-05
4.437855750438757e-05
6.0062939155614004e-05
4.514804822974838e-05
5.8696878113551065e-05
5.4232939874054864e-05
8.207662176573649e-05
0.0002527173492126167
3.964196002925746e-05
4.4473523303167894e-05
8.386263652937487e-05
3.826475949608721e-05
5.6516732001909986e-05
5.247140506980941e-05
9.121785842580721e-05
5.40039582119789e-05
3.987551826867275e-05
0.00014262611512094736
6.107895751483738e-05
3.784331420320086e-05
4.440767952473834e-05
4.6776782255619764e-05
3.7246431020321324e-05
6.925001798663288e-05
6.228271377040073e-05
4.3520922190509737e-05
5.344337841961533e-05
0.00021500536240637302
5.654256892739795e-05
0.0002081064012600109
8.202585740946233e-05
9.32396505959332e-05
0.00010000389738706872
5.474004501593299e-05
6.112905248301104e-05
6.066109926905483e-05
4.918559352518059e-05
8.665514906169847e-05
7.055979949655011e-05
5.528533074539155e-05
0.00020292942645028234
5.884379061171785e-05
5.3116898925509304e-05
5.389380385167897e-05
6.699611549265683e-05
0.00012137529847677797
4.3296775402268395e-05
4.611147960531525e-05
0.00010224479774478823
4.280632856534794e-05
0.00010299399582436308
4.422002530191094e-05
4.360904495115392e-05
7.31835316400975e-05
7.350253872573376e-05
7.995298074092716e-05
4.446072125574574e-05
4.9784874136094004e-05
4.595579594024457e-05
3.920086965081282e-05
9.435877291252837e-05
4.56356028735172e-05
5.051175321568735e-05
0.0002608954964671284
4.1083392716245726e-05
4.5169086661189795e-05
5.331403372110799e-05
0.0001280338765354827
6.839595880592242e-05
5.7434870541328564e-05
6.007146293995902e-05
0.0002353954769205302
3.75354356947355e-05
5.101874194224365e-05
0.0001841034973040223
5.933475404162891e-05
4.861088018515147e-05
5.300793418427929e-05
6.38947167317383e-05
4.7447301767533645e-05
4.3327352614142e-05
4.627640373655595e-05
4.8685742513043806e-05
0.0001409828255418688
7.240795093821362e-05
5.46876217413228e-05
6.562974158441648e-05
9.332221816293895e-05
6.515326094813645e-05
0.0001256286632269621
7.993108010850847e-05
3.587944956962019e-05
6.589284748770297e-05
6.559957546414807e-05
6.796761590521783e-05
4.482980148168281e-05
4.940490907756612e-05
6.2320199504029e-05
4.964032632415183e-05
5.9690508351195604e-05
0.0001515102485427633
3.339875183883123e-05
6.015476901666261e-05
3.075927816098556e-05
5.7136992836603895e-05
3.857290357700549e-05
3.896154521498829e-05
7.246541645145044e-05
5.243467603577301e-05
5.6893080909503624e-05
5.2051131206098944e-05
5.896492803003639e-05
5.0538088544271886e-05
4.315143087296747e-05
0.0001277134579140693
4.3846484913956374e-05
3.78185577574186e-05
4.9032441893359646e-05
0.00018307601567357779
0.00010204951104242355
4.495583561947569e-05
7.115050539141521e-05
6.438040145440027e-05
2.6766581868287176e-05
4.381550752441399e-05
8.66200789459981e-05
6.972306437091902e-05
0.00015898820129223168
4.271363650332205e-05
5.085911107016727e-05
7.940099749248475e-05
7.39312163204886e-05
0.00012985352077521384
5.798622441943735e-05
6.625080277444795e-05
7.017070311121643e-05
9.271121234633029e-05
8.765093662077561e-05
4.8414724005851895e-05
4.6235341869760305e-05
5.6104850955307484e-05
6.112881965236738e-05
4.679034827859141e-05
5.039683310315013e-05
4.202923446428031e-05
5.9333360695745796e-05
3.853668022202328e-05
3.5597578971646726e-05
6.695806223433465e-05
4.043523222208023e-05
3.1459800084121525e-05
5.792680531158112e-05
9.843976295087487e-05
5.712691927328706e-05
4.3872016249224544e-05
2.681691330508329e-05
6.979234603932127e-05
3.8970745663391426e-05
6.371226481860504e-05
3.849389395327307e-05
6.20584178250283e-05
2.6691826860769652e-05
3.706068673636764e-05
4.0522038034396246e-05
5.476978185470216e-05
3.081274917349219e-05
3.91388384741731e-05
4.6094490244286135e-05
5.367984704207629e-05
8.052319753915071e-05
3.664239193312824e-05
4.4154341594548896e-05
9.481167217018083e-05
4.664576772483997e-05
6.96886345394887e-05
5.986469113850035e-05
6.251197191886604e-05
0.00018984285998158157
4.8189300287049264e-05
8.626258204458281e-05
4.722295852843672e-05
3.6612447729567066e-05
6.167415267555043e-05
5.22932386957109e-05
2.797369052132126e-05
1.6430389223387465e-05
2.2156682462082244e-05
4.7102552343858406e-05
5.08705124957487e-05
5.1969320338685066e-05
0.00013974873581901193
4.871594501310028e-05
5.6699489505263045e-05
0.00010609285527607426
4.034463199786842e-05
7.897346222307533e-05
5.321059870766476e-05
6.38947676634416e-05
3.0228946343413554e-05
5.9729722124757245e-05
5.253506969893351e-05
5.880358366994187e-05
4.85560558445286e-05
5.0813625421142206e-05
4.09202475566417e-05
5.9548328863456845e-05
7.460765482392162e-05
4.021172208013013e-05
4.9069371016230434e-05
7.068989361869171e-05
3.402633956284262e-05
5.7206867495551705e-05
6.663466774625704e-05
6.225933611858636e-05
6.24222302576527e-05
4.769337101606652e-05
5.891560067539103e-05
8.714657451491803e-05
3.3598138543311507e-05
4.849939432460815e-05
5.84109548071865e-05
5.152581798029132e-05
9.068477083928883e-05
3.9057711546774954e-05
0.000241681351326406
3.714784907060675e-05
5.0075170292984694e-05
0.00017204982577823102
4.235936648910865e-05
0.00011203347821719944
3.281211684225127e-05
7.046674727462232e-05
4.522124436334707e-05
4.4460211938712746e-05
3.691486926982179e-05
3.789675611187704e-05
2.8381658921716735e-05
8.292359416373074e-05
7.593087502755225e-05
6.387253233697265e-05
5.1649680244736373e-05
4.879661719314754e-05
8.289235847769305e-05
3.219223071937449e-05
3.77060059690848e-05
8.964531298261136e-05
3.923021722584963e-05
7.573409675387666e-05
6.866404146421701e-05
4.6732438931940123e-05
6.77044881740585e-05
3.188291520928033e-05
8.173401874955744e-05
4.501891089603305e-05
5.927684105699882e-05
3.114329228992574e-05
4.560750676319003e-05
0.00010685520101105794
6.592014688067138e-05
7.663995347684249e-05
9.57688971539028e-05
0.00013779774599242955
8.678163430886343e-05
8.726687519811094e-05
7.841277692932636e-05
3.9681832276983187e-05
3.0651804991066456e-05
0.0001400324545102194
4.501733201323077e-05
7.248773908941075e-05
6.1716404161416e-05
2.919441249105148e-05
6.604729423997924e-05
0.00020385246898513287
5.425615017884411e-05
4.76085115224123e-05
0.00017383960948791355
7.65375152695924e-05
4.863890717388131e-05
0.00010167463187826797
3.9039721741573885e-05
5.846684143762104e-05
7.320674922084436e-05
4.742500459542498e-05
7.588056178065017e-05
0.00012665825488511473
3.0909981433069333e-05
2.5056730009964667e-05
4.229124533594586e-05
2.7994869014946744e-05
3.5745299101108685e-05
9.677260823082179e-05
6.761332042515278e-05
4.5000640966463834e-05
6.940851744730026e-05
5.5987788073252887e-05
7.681822899030522e-05
3.6546476621879265e-05
3.583175566745922e-05
4.171100226812996e-05
4.7151592298178e-05
2.970794594148174e-05
9.218510967912152e-05
3.257423304603435e-05
5.1562754379119724e-05
4.539914152701385e-05
5.361019793781452e-05
3.764641587622464e-05
3.123442002106458e-05
4.3444444600027055e-05
8.36826948216185e-05
4.9818932893685997e-05
5.822753519169055e-05
4.74392763862852e-05
2.9647892006323673e-05
4.664769585360773e-05
4.86922035634052e-05
5.2216535550542176e-05
9.685294207883999e-05
4.483735392568633e-05
6.105508509790525e-05
6.400317215593532e-05
0.00014898605877533555
8.517958485754207e-05
0.00015913390961941332
3.807574830716476e-05
2.8103548174840398e-05
5.48298739886377e-05
8.152665395755321e-05
4.4555345084518194e-05
4.9183989176526666e-05
4.7607180022168905e-05
8.21696812636219e-05
4.944394822814502e-05
4.7032277507241815e-05
6.676583143416792e-05
6.0992733779130504e-05
5.9458165196701884e-05
6.438825948862359e-05
4.626733061741106e-05
5.766113463323563e-05
6.23035739408806e-05
6.467219645855948e-05
4.447083119885065e-05
4.7264096792787313e-05
9.438186680199578e-05
0.00019996757328044623
9.479754226049408e-05
3.7335394154069945e-05
4.58877366327215e-05
4.86396202177275e-05
2.868622868845705e-05
7.274292875081301e-05
3.678877328638919e-05
6.537621811730787e-05
5.0765840569511056e-05
5.529209374799393e-05
0.00018881527648773044
2.6117375455214642e-05
9.276619675802067e-05
4.126748171984218e-05
5.2581799536710605e-05
4.0080281905829906e-05
5.946477540419437e-05
0.00018825543520506471
5.7418219512328506e-05
3.983317583333701e-05
6.489027146017179e-05
9.953558765118942e-05
7.294156966963783e-05
9.279731602873653e-05
3.463713073870167e-05
3.927342186216265e-05
3.660673974081874e-05
5.639666414936073e-05
5.698552558897063e-05
3.810824637184851e-05
4.087581328349188e-05
3.111551268375479e-05
3.080811438849196e-05
0.00022806717606727034
4.890820127911866e-05
9.960875468095765e-05
6.056978600099683e-05
5.207170033827424e-05
7.062080112518743e-05
0.0001077088454621844
0.00010583630501059815
7.026905223028734e-05
5.3494808526011184e-05
4.2538580601103604e-05
3.785660373978317e-05
0.00014214501425158232
6.114489951869473e-05
8.88889844645746e-05
5.531267379410565e-05
9.316376235801727e-05
7.140346133382991e-05
5.58794527023565e-05
