0.0010606476571410894
0.0015662160003557801
0.0028543444350361824
0.0020201692823320627
0.0018186700763180852
0.0013095332542434335
0.0013904484221711755
0.0016237772069871426
0.0009733883780427277
0.0013572332682088017
0.0006860783323645592
0.00490880012512207
0.004635518882423639
0.0017689669039100409
0.0011187564814463258
0.0012990768300369382
0.0024795164354145527
0.001201573177240789
0.0014463189290836453
0.0011603232705965638
0.0010785056510940194
0.0008750904817134142
0.002022664062678814
0.0006285536219365895
0.0011489109601825476
0.0010327433701604605
0.0018337636720389128
0.001335806678980589
0.0011030772002413869
0.0012573895510286093
0.001648336066864431
0.002865922637283802
0.001663618953898549
0.002366146771237254
0.001068867277354002
0.0014308533864095807
0.0011682638432830572
0.0013064575614407659
0.0013263183645904064
0.0006428005872294307
0.0028620741795748472
0.0016357762506231666
0.0019217669032514095
0.0016893846914172173
0.001546660321764648
0.0009267590357922018
0.001363832619972527
0.0014077413361519575
0.0013415459543466568
0.0007314340327866375
0.0018713161116465926
0.001327649806626141
0.0010422603227198124
0.0016694659134373069
0.0014193450333550572
0.0012755014467984438
0.0010586605640128255
0.0013645263388752937
0.003259927500039339
0.0016882697818800807
0.0012176568852737546
0.0009119200403802097
0.0035868315026164055
0.0015379628166556358
0.0015816334635019302
0.0008920743130147457
0.001408420386724174
0.0013928256230428815
0.0008165119797922671
0.0012585610384121537
0.0013766257325187325
0.0013766910415142775
0.0015424467856064439
0.0018998809391632676
0.0018082954920828342
0.0014521203702315688
0.0012669796124100685
0.00274234963580966
0.0009620938217267394
0.0019879278261214495
0.003499720012769103
0.002194564789533615
0.0011590411886572838
0.0026575662195682526
0.0017535160295665264
0.0011221759486943483
0.0011779157212004066
0.0013423399068415165
0.0013233640929684043
0.001121298293583095
0.0009958462323993444
0.0018442957662045956
0.0020039945375174284
0.0010474766604602337
0.002075602998957038
0.0018125923816114664
0.00148717628326267
0.003574574366211891
0.0010197280207648873
0.0006902392487972975
0.0016760611906647682
0.0019427017541602254
0.002776147797703743
0.0053500463254749775
0.0018542064353823662
0.0010745396139100194
0.0024331118911504745
0.001250248751603067
0.002711671404540539
0.0021075857803225517
0.0010967450216412544
0.0009056167327798903
0.0057295095175504684
0.00122821144759655
0.0019420124590396881
0.0013992302119731903
0.0013377966824918985
0.0007608236628584564
0.003965832758694887
0.0013285462046042085
0.0015074108960106969
0.0017006706912070513
0.0015285186236724257
0.0035290331579744816
0.001401241053827107
0.0037569967098534107
0.0011805013054981828
0.0007800757302902639
0.0009851380018517375
0.002136130351573229
0.0014732988784089684
0.0011621641460806131
0.0009638831834308803
0.0010381389874964952
0.001772694755345583
0.001411782461218536
0.0027389200404286385
0.001134173828177154
0.001715282560326159
0.0012448671041056514
0.0025029650423675776
0.0014519082615152001
0.0015463418094441295
0.0017878507496789098
0.001333763124421239
0.000875918020028621
0.0010716051328927279
0.0010944107780233026
0.001308137783780694
0.0026328465901315212
0.0019731270149350166
0.0025143923703581095
0.0013780490262433887
0.0008862590766511858
0.004360411781817675
0.0010860495967790484
0.0011488820891827345
0.0011387913255020976
0.002070157788693905
0.001715211314149201
0.001344142947345972
0.0032151550985872746
0.0015205808449536562
0.0010920409113168716
0.0011568862246349454
0.0016971760196611285
0.003920392133295536
0.0015651863068342209
0.0010339496657252312
0.001472186646424234
0.00135539670009166
0.002053805161267519
0.0038102809339761734
0.0019322220468893647
0.0014848593855276704
0.0035838366020470858
0.001307927188463509
0.00192978885024786
0.006528379861265421
0.0009257024503313005
0.001797455013729632
0.0017337837489321828
0.0013232540804892778
0.0034488495439291
0.0009123103227466345
0.0010044024093076587
0.0016047257231548429
0.0016027569072321057
0.0011570901842787862
0.004673660732805729
0.002717013005167246
0.0015262305969372392
0.0008533417130820453
0.0010132071329280734
0.0007088026613928378
0.0011265904176980257
0.0013172891922295094
0.0015751902246847749
0.0013101028744131327
0.0015070451190695167
0.002468916354700923
0.0013855104334652424
0.0013074708404019475
0.001741489046253264
0.001928028417751193
0.0013624954735860229
0.0009403454605489969
0.0011944534489884973
0.0022664235439151525
0.0017268278170377016
0.0018202118808403611
0.0018730424344539642
0.001105520874261856
0.002128632040694356
0.0014135290402919054
0.0014258729061111808
0.0010335848201066256
0.0014133760705590248
0.0017154605593532324
0.0012174296425655484
0.0014482078840956092
0.0013386805076152086
0.0016797006828710437
0.0009402181021869183
0.001776045886799693
0.0019361191662028432
0.0016908397665247321
0.0023135088849812746
0.006531064864248037
0.0031684008426964283
0.003053823718801141
0.001231879461556673
0.002796558663249016
0.0017456408822908998
0.0014653162797912955
0.0010690686758607626
0.002428094856441021
0.0013451023260131478
0.0010189348831772804
0.000977221759967506
0.0018590838881209493
0.0009798634564504027
0.0032293321564793587
0.0025294474326074123
0.0008272513514384627
0.0009714080370031297
0.0021388086024671793
0.001309567829594016
0.001328281476162374
0.001093733706511557
0.0009512171964161098
0.001026391750201583
0.0010849173413589597
0.0009872755035758018
0.0015638363547623158
0.0013899062760174274
0.0018853667424991727
0.0013462549541145563
0.001445491099730134
0.0010888760443776846
0.001422707224264741
0.0020611966028809547
0.0009521935717202723
0.0012342078844085336
0.001123578054830432
0.001482789870351553
0.0011002240935340524
0.0015414885710924864
0.0008217984577640891
0.001041037612594664
0.002057710662484169
0.0014058701926842332
0.00213827146217227
0.0013590046437457204
0.0011615273542702198
0.001572037348523736
0.0011816674377769232
0.0015362831763923168
0.0014194478280842304
0.002148205181583762
0.006614413112401962
0.0010375556303188205
0.0011640129378065467
0.0021949508227407932
0.0010015099542215466
0.0014792218571528792
0.001373342820443213
0.002387460321187973
0.001413454650901258
0.0010436685988679528
0.003732976969331503
0.0015986297512426972
0.000990479369647801
0.0011622896417975426
0.001224296516738832
0.0009748570737428963
0.0018124922644346952
0.0016301358118653297
0.0011390803847461939
0.001398782478645444
0.005627371370792389
0.001479898113757372
0.005446803756058216
0.0021468764171004295
0.0024403769057244062
0.0026174187660217285
0.0014327203389257193
0.001599940937012434
0.0015876931138336658
0.0012873427476733923
0.002268039621412754
0.0018467734334990382
0.0014469921588897705
0.00531130563467741
0.0015401283744722605
0.001390237477608025
0.0014105715090408921
0.0017535005463287234
0.0031767759937793016
0.0011332137510180473
0.0012068834621459246
0.002676070202142
0.0011203772155568004
0.0026956789661198854
0.0011573780793696642
0.0011413868051022291
0.001915444852784276
0.0019237941596657038
0.002092622686177492
0.0011636778945103288
0.0013030278496444225
0.0012028086930513382
0.001026010955683887
0.0024696679320186377
0.0011944283032789826
0.001322052557952702
0.0068284617736935616
0.001075282460078597
0.0011822180822491646
0.0013953971210867167
0.0033510520588606596
0.0017901388928294182
0.001503252424299717
0.0015722604002803564
0.006161045283079147
0.0009824212174862623
0.0013353220419958234
0.0048185717314481735
0.0015529784141108394
0.001272300723940134
0.0013873855350539088
0.0016723270528018475
0.0012418461265042424
0.0011340139899402857
0.0012112000258639455
0.0012742601102218032
0.003689967095851898
0.0018951453967019916
0.001431348267942667
0.0017177382251247764
0.0024425380397588015
0.001705267233774066
0.0032881000079214573
0.0020920494571328163
0.000939078803639859
0.0017246244242414832
0.001716948696412146
0.0017789277480915189
0.001173337921500206
0.0012930829543620348
0.0016311169601976871
0.0012992445845156908
0.001562289660796523
0.003965503070503473
0.0008741510682739317
0.001574440859258175
0.0008050677715800703
0.0014954560901969671
0.0010095750913023949
0.0010197469964623451
0.0018966494826599956
0.001372381579130888
0.0014890721067786217
0.0013623429695144296
0.001543298945762217
0.0013227418530732393
0.0011294096475467086
0.003342665731906891
0.0011476014042273164
0.0009898314019665122
0.0012833343353122473
0.004791679326444864
0.002670958871021867
0.0011766365496441722
0.0018622339703142643
0.0016850389074534178
0.0007005662191659212
0.0011467905715107918
0.0022671218030154705
0.001824873499572277
0.004161224700510502
0.001117951120249927
0.0013311440125107765
0.0020781755447387695
0.001935014151968062
0.0033986777998507023
0.001517683151178062
0.001733993412926793
0.0018365895375609398
0.0024265460669994354
0.0022941026836633682
0.0012671666918322444
0.0012101252796128392
0.0014684416819363832
0.0015999347670003772
0.0012246515834704041
0.0013190447352826595
0.0011000381782650948
0.0015529419761151075
0.0010086270049214363
0.0009317013900727034
0.001752504613250494
0.0010583180701360106
0.0008234026026912034
0.001516127958893776
0.0025764803867787123
0.0014951924094930291
0.001148269628174603
0.0007018835749477148
0.0018266866682097316
0.001019987859763205
0.0016675518127158284
0.0010075070895254612
0.001624265336431563
0.0006986096268519759
0.0009699955699034035
0.001060590031556785
0.0014334986917674541
0.0008064672583714128
0.0010243873111903667
0.0012064387556165457
0.001404971582815051
0.002107547130435705
0.0009590474073775113
0.0011556589743122458
0.0024815218057483435
0.0012208675034344196
0.0018239723285660148
0.0015668486012145877
0.0016361362067982554
0.00496878894045949
0.0012612666469067335
0.0022577650379389524
0.0012359743705019355
0.0009582637576386333
0.0016142078675329685
0.0013686796883121133
0.0007321600569412112
0.000430035317549482
0.0005799105274491012
0.0012328230077400804
0.001331442384980619
0.0013602017425000668
0.003657666966319084
0.001275050570257008
0.0014840052463114262
0.0027767859864979982
0.0010559468064457178
0.0020669857040047646
0.0013926898827776313
0.0016723283333703876
0.0007911872817203403
0.0015633159782737494
0.0013750091893598437
0.001539075979962945
0.0012708657886832952
0.0013299535494297743
0.001071012462489307
0.0015585683286190033
0.0019527185941115022
0.0010524680837988853
0.0012843008153140545
0.0018501783488318324
0.0008905770955607295
0.0014972848584875464
0.0017440402880311012
0.0016295240493491292
0.001633787527680397
0.001248286571353674
0.0015420078998431563
0.0022809018846601248
0.0008793697343207896
0.001269382773898542
0.001528799650259316
0.0013485938543453813
0.0023735077120363712
0.0010222640121355653
0.0063255662098526955
0.0009722768445499241
0.0013106258120387793
0.004503089003264904
0.0011086787562817335
0.0029322709888219833
0.0008587970514781773
0.001844337908551097
0.0011835831683129072
0.0011636645067483187
0.0009661790682002902
0.0009918780997395515
0.0007428379030898213
0.002170372987166047
0.001987351570278406
0.0016717464895918965
0.001351835671812296
0.0012771619949489832
0.0021695555187761784
0.0008425726555287838
0.0009868856286630034
0.0023463016841560602
0.0010267790639773011
0.001982201123610139
0.0017971553606912494
0.0012231359723955393
0.001772040966898203
0.0008344769012182951
0.0021392381750047207
0.001178287435323
0.0015514626866206527
0.0008151185465976596
0.001193692907691002
0.0027967391069978476
0.0017253390979021788
0.0020059102680534124
0.0025065753143280745
0.003606603480875492
0.0022713502403348684
0.002284050453454256
0.002052310621365905
0.0010385991772636771
0.0008022547699511051
0.003665092634037137
0.0011782461078837514
0.001897233771160245
0.0016153138130903244
0.0007641102420166135
0.0017286669462919235
0.005335464607924223
0.0014200552832335234
0.0012460654834285378
0.004549933131784201
0.002003229223191738
0.0012730342568829656
0.002661147154867649
0.0010217931121587753
0.0015302624087780714
0.0019160525407642126
0.001241262536495924
0.0019860346801579
0.0033150475937873125
0.0008090120973065495
0.0006558139575645328
0.001106895855627954
0.0007327143684960902
0.0009355677175335586
0.0025328455958515406
0.0017696548020467162
0.0011778093175962567
0.001816640724427998
0.0014653777470812201
0.0020105764269828796
0.0009565370273776352
0.0009378304821439087
0.001091709011234343
0.0012341064866632223
0.0007775510312058032
0.002412776229903102
0.0008525708690285683
0.0013495605671778321
0.0011882393155246973
0.001403148635290563
0.0009853258961811662
0.0008175037219189107
0.0011370787397027016
0.0021902411244809628
0.0013039192417636514
0.0015239990316331387
0.0012416361132636666
0.0007759792497381568
0.0012209179112687707
0.001274429145269096
0.0013666721060872078
0.0025349482893943787
0.0011735355947166681
0.001598004950210452
0.0016751657240092754
0.003899437142536044
0.0022294195368885994
0.004165038466453552
0.000996562885120511
0.0007355588604696095
0.001435071462765336
0.0021338106598705053
0.001166154514066875
0.0012873007217422128
0.0012460306752473116
0.0021506408229470253
0.0012941047316417098
0.0012309836456552148
0.0017474732594564557
0.001596373040229082
0.0015562084736302495
0.001685244613327086
0.0012109625386074185
0.0015091744717210531
0.00163068191614002
0.001692676218226552
0.0011639425065368414
0.0012370510958135128
0.002470272360369563
0.005233784671872854
0.0024811518378555775
0.0009771855548024178
0.0012010274222120643
0.0012730528833344579
0.0007508094422519207
0.0019039128674194217
0.0009628787520341575
0.001711102668195963
0.0013287027832120657
0.0014471692265942693
0.004941893741488457
0.0006835744134150445
0.00242798519320786
0.0010801006574183702
0.0013762322487309575
0.0010490278946235776
0.0015563814667984843
0.004927240777760744
0.0015028166817501187
0.0010425603250041604
0.0016983839450404048
0.002605161629617214
0.0019091119756922126
0.0024287996347993612
0.0009065634221769869
0.0010279098059982061
0.0009581142803654075
0.001476079341955483
0.0014914916828274727
0.0009974135318771005
0.0010698494734242558
0.0008143914747051895
0.0008063458953984082
0.005969240330159664
0.0012800825061276555
0.0026070766616612673
0.0015853031072765589
0.0013628812739625573
0.0018483700696378946
0.002819081535562873
0.0027700713835656643
0.001839163713157177
0.0014001285890117288
0.0011133693624287844
0.0009908272186294198
0.003720385255292058
0.0016003557248041034
0.0023265061900019646
0.0014477078802883625
0.002438390627503395
0.001868854626081884
0.0014625422190874815
