9.244537795893848e-05
0.00021261018991935998
0.00011434296175139025
7.982597890077159e-05
5.802994201076217e-05
8.795767644187436e-05
9.91043052636087e-05
0.00010207753075519577
0.00016440587933175266
0.00020185562607366592
0.00022904470097273588
0.00016816577408462763
0.000121829412819352
0.0001483568485127762
0.00037824115133844316
0.0001423848734702915
0.00014211008965503424
0.00016644844436086714
9.911161760101095e-05
9.489948570262641e-05
0.00030844900174997747
0.0001350480888504535
0.00016803281323518604
0.00021182380442041904
0.00018487243505660444
0.0001413745922036469
0.0001230876805493608
0.00010825234494404867
0.00017329865659121424
0.00017841209773905575
0.00019219126261305064
0.0001720480213407427
0.00020068891171831638
0.0001783753396011889
0.00012969721865374595
0.00017481182294432074
0.00012792731286026537
0.0002017688238993287
0.00015594733122270554
0.0001197165111079812
0.00010746590851340443
0.00032784664654172957
0.00017318899335805327
0.00010166037100134417
0.00011105357407359406
0.00028381263837218285
3.427980846026912e-05
0.00015096631250344217
0.00016497673641424626
0.0001934445754159242
8.362433436559513e-05
0.00018670634017325938
0.0005956056411378086
0.00014665452181361616
4.412222551763989e-05
0.0001404062786605209
0.00013767230848316103
0.00015851148054935038
6.164191290736198e-05
0.00015305765555240214
6.747385486960411e-05
0.00018377973174210638
6.622722139582038e-05
0.00013130616571288556
0.00013336552365217358
0.00013370485976338387
0.00017556991952005774
0.00018377561355009675
0.00025040810578502715
0.00011331873247399926
0.00015899736899882555
0.00011850726878037676
0.0001466434623580426
8.436079951934516e-05
3.884804391418584e-05
0.00020639561989810318
0.00019350672664586455
0.00014051678590476513
0.00011138874106109142
0.00011896179057657719
0.00016024270735215396
0.00044516840716823936
0.00023082830011844635
6.105478678364307e-05
0.00018515749252401292
0.00011852270836243406
4.891522985417396e-05
4.393696508486755e-05
0.00010180261597270146
2.5258035748265684e-05
0.00022262717538978904
8.107317989924923e-05
0.00045831326860934496
0.00014571189240086824
0.00023023398534860462
0.0003110949764959514
0.00013790019147563726
0.00018549627566244453
8.108303154585883e-05
0.0001833971618907526
0.00017291164840571582
0.00025496858870610595
0.00016827914805617183
0.0001443350629415363
0.00015108373190741986
0.00014631338126491755
0.00023185879399534315
6.65883781039156e-05
0.00021688405831810087
9.951968968380243e-05
0.00011722923954948783
0.0001520994701422751
0.00022012963017914444
0.00021009956253692508
9.254309406969696e-05
0.0003310489119030535
0.00016034615691751242
0.0001664302690187469
0.0002130973880412057
0.0005938112735748291
0.00018623533833306283
6.447039049817249e-05
5.0784841732820496e-05
0.00017077695520129055
5.928428436163813e-05
3.264199403929524e-05
9.813853830564767e-05
0.00017595116514712572
0.00021895872487220913
0.00021674169693142176
0.0002212694234913215
0.0001757404243107885
0.00020162748114671558
8.477939263684675e-05
5.741804125136696e-05
0.00023212919768411666
0.00014619503053836524
0.00013670732732862234
0.00011255643039476126
0.00014650548109784722
9.205329843098298e-05
0.00029257507412694395
0.00011584101594053209
0.0002068189496640116
0.00013344522449187934
0.00021218338224571198
4.551928213913925e-05
5.9173096815356985e-05
7.080225623212755e-05
0.00013664823200087994
9.739437518874183e-05
0.00016785033221822232
0.00010527354606892914
0.00014042784459888935
3.464218389126472e-05
0.00021698541240766644
0.0004224005970172584
0.00019244289433117956
0.0001406940573360771
0.00026500390958972275
0.00018237705808132887
0.00013771811791229993
0.00016322413284797221
0.0001432112039765343
0.00021690255380235612
0.0002521788119338453
0.00014029473823029548
3.533135895850137e-05
9.775115904631093e-05
0.00017115806986112148
0.00011449669545982033
0.00017071134061552584
0.00023614891688339412
0.00026644053286872804
0.00014024277334101498
0.00011738445027731359
0.0003812497016042471
0.0002234913845313713
0.00020387524273246527
0.0002360794460400939
0.00019980502838734537
0.00018795875075738877
0.00014763257058802992
0.00017145226593129337
4.755052214022726e-05
0.00019496961613185704
0.00039118988206610084
0.00011263265332672745
0.00012198959302622825
0.00017135356029029936
0.00041053848690353334
0.00024566135834902525
0.00021471739455591887
0.00011527817696332932
0.0001296193659072742
7.453211583197117e-05
9.885474719339982e-05
4.7579284000676125e-05
0.00017491979815531522
5.7819823268800974e-05
0.00020593484805431217
0.0001383226626785472
4.1294333641417325e-05
0.00019249394244980067
0.00015544198686257005
0.00013974968169350177
0.00020289624808356166
0.00017718359595164657
0.00020433128520380706
0.000160491734277457
0.00016505990060977638
0.0001430003612767905
8.187297498807311e-05
5.889331441721879e-05
5.202997999731451e-05
5.625376434181817e-05
0.00011985728633590043
7.847200322430581e-05
0.00016073111328296363
0.00019674317445605993
0.00020412074809428304
4.755285772262141e-05
9.867454355116934e-05
0.00021596475562546402
0.00016206678992602974
0.0002939595724456012
0.00015177851309999824
0.00014514323265757412
0.00021198279864620417
0.00011871169408550486
0.00016571358719374985
9.148941899184138e-05
8.212155080400407e-05
4.492099105846137e-05
0.00016413787670899183
0.00017916140495799482
0.0002917800156865269
8.731642446946353e-05
0.00017104740254580975
0.00016736866382416338
0.00014379933418240398
0.00026093897758983076
0.00017091519839596003
9.827233589021489e-05
7.57687448640354e-05
0.00017401500372216105
9.319464879808947e-05
0.00016313300875481218
0.0002132974041160196
0.00011929174797842279
0.00012419575068634003
4.6058263251325116e-05
0.00017014310287777334
0.0001009329644148238
0.00013527143164537847
0.0002490557380951941
0.0002239618042949587
0.00010194975038757548
0.0001625217410037294
0.00012040965521009639
0.00014366200775839388
0.0002692571433726698
0.00011899194214493036
0.00025707748136483133
6.412297807401046e-05
0.00010403976193629205
0.00013390652020461857
0.00012137560406699777
0.00027225527446717024
0.00017622039013076574
0.00013281543215271086
2.319391569471918e-05
0.00014591259241569787
0.0001106378113036044
0.00014122157881502062
0.00012933682592120022
0.00023891963064670563
0.00021065650798846036
7.371347601292655e-05
0.000126646293210797
0.00011980180715909228
0.00019023191998712718
0.00014799126074649394
0.00013937031326349825
0.00017746961384546012
8.893862832337618e-05
0.00021467497572302818
0.0002217026922153309
0.00018347392324358225
0.0002024001005338505
0.00018402848218102008
9.854800009634346e-05
0.00011422904208302498
0.0001736648118821904
7.247945904964581e-05
0.00016653299098834395
0.0002528789627831429
0.00022305839229375124
0.00020480337843764573
0.00019314757082611322
0.00015321257524192333
0.0002093594812322408
0.0001606760051799938
0.00018891347281169146
0.0001722847082419321
0.00017348010442219675
0.0001294269022764638
9.455881809117272e-05
0.00020344041695352644
0.00022394365805666894
7.303118763957173e-05
9.919171134242788e-05
0.0002218778245151043
0.00013178853259887546
0.0001530767185613513
0.00014992845535743982
7.715349784120917e-05
0.00017393346934113652
0.00010984349501086399
0.00013166842109058052
2.9662216547876596e-05
0.00022413463739212602
0.0003184904344379902
0.00015208328841254115
0.00015065804473124444
0.00012127845548093319
0.0002093887305818498
0.00012851992505602539
0.00010546627891017124
0.00014900857058819383
0.0001349740196019411
0.0002233399573015049
0.00019873979908879846
0.000125833714264445
8.924060966819525e-05
0.00018490341608412564
7.372791151283309e-05
0.00010420085891382769
0.00014252765686251223
0.00011775716848205775
0.0002035726502072066
0.00020130185293965042
8.231649553636089e-05
0.0001488741545472294
8.631401578895748e-05
0.00016778292774688452
0.00019518614863045514
0.00019193478510715067
0.0001372363039990887
0.0001252966612810269
0.00024407959426753223
0.0002283604262629524
0.0003008343046531081
6.448504427680746e-05
8.414408512180671e-05
4.13822490372695e-05
0.00019365533080417663
0.00015913606330286711
0.00010863674833672121
0.00020668342767748982
4.858312968281098e-05
0.00012115132994949818
0.00010929458949249238
0.00020381930517032743
5.353889719117433e-05
0.00013783416943624616
0.0002151921798940748
6.865426257718354e-05
0.00016501735080964863
0.00012532483378890902
0.00014760550402570516
0.0001102637907024473
2.710441367526073e-05
0.0002410861779935658
0.0001808252854971215
0.00024852523347362876
0.00026196721591986716
0.00012377134407870471
0.00015688063285779208
0.00013813893019687384
0.00019587084534578025
0.00022169250587467104
0.00017904266132973135
0.00018304756667930633
0.0001351465907646343
0.00016093329759314656
7.752166129648685e-05
0.00014803091471549124
0.0002558979031164199
6.55149997328408e-05
7.509691204177216e-05
0.0001501855585956946
2.492656494723633e-05
0.0003069541708100587
2.8684753488050774e-05
8.040916145546362e-05
0.00024291922454722226
0.00016837872681207955
0.000119697222544346
0.00016248195606749505
0.00011662201723083854
0.00019159492512699217
4.9358201067661867e-05
0.00012975458230357617
0.0001120099113904871
0.00029179343255236745
0.00013007708184886724
5.474327554111369e-05
6.503059557871893e-05
9.386947931488976e-05
0.00016990123549476266
0.00018998926680069417
0.0001306144258705899
0.00023810657148715109
6.030241274856962e-05
0.00031609609141014516
9.721108654048294e-05
0.00022190848540049046
0.00018843996804207563
0.0001390373072354123
0.00021809905592817813
0.00011266842193435878
0.0001694897364359349
0.00021188588289078325
0.00018220026686321944
0.00020164229499641806
0.00017471676983404905
0.00021962773462291807
0.00017236554413102567
0.00014075338549446315
0.0001659923291299492
0.00018033166998066008
0.00011451557656982914
0.00016437987505923957
0.00012877181870862842
4.188475577393547e-05
0.00018741274834610522
3.396204556338489e-05
0.00019992679881397635
3.4653301554499194e-05
0.00017321664199698716
0.00019227195298299193
0.00013398764713201672
0.00016204890562221408
0.0001279313291888684
0.0001496606128057465
0.0002577628765720874
9.371507621835917e-05
0.00016925645468290895
9.632495493860915e-05
0.00012566846271511167
0.00018146427464671433
0.00032726634526625276
0.00017694146663416177
0.0001416626910213381
9.901001612888649e-05
0.00010549784201430157
0.00023676706769037992
0.00015837453247513622
0.00020649471844080836
0.00011954349611187354
5.1230439567007124e-05
0.00022609053121414036
0.00017255338025279343
0.0001458654151065275
0.00023084225540515035
0.00018761519459076226
5.3229377954266965e-05
0.00020701040921267122
0.00012302711547818035
0.00018649127741809934
0.00022003801132086664
0.00021387115702964365
0.00017749569087754935
0.00023420032812282443
0.00011250058014411479
0.00010190590546699241
0.00014754915900994092
0.00013195867359172553
0.0001306174963247031
9.80044569587335e-05
3.332299456815235e-05
0.0003954737039748579
0.00023282738402485847
0.00020959244284313172
0.0002849346201401204
0.00019182905089110136
5.877007788512856e-05
0.00021253226441331208
0.00015942002937663347
0.0001268574851565063
0.00010726038453867659
0.00014444089902099222
7.09367377567105e-05
0.00012621951464097947
0.00021807910525240004
0.00021749839652329683
0.00014814865426160395
0.00021979327721055597
5.5357199016725644e-05
5.629059160128236e-05
0.00022013465058989823
0.0001658099063206464
0.00022451375843957067
0.0001640409609535709
5.320838317857124e-05
0.00022948099649511278
0.0002722793724387884
8.254517160821706e-05
0.0002008217852562666
0.00012718401558231562
0.00014816090697422624
0.00020962364214938134
0.00012687139678746462
0.00013293209485709667
6.597793981200084e-05
0.0001601181284058839
0.00012981120380572975
0.00012766335566993803
0.00023282258189283311
0.00025180637021549046
0.00014771035057492554
0.00010919573105638847
0.0001922017108881846
0.00010926087998086587
0.00013681856216862798
0.0001280338183278218
0.00016138805949594826
0.00021347019355744123
7.848936365917325e-05
0.0004399457830004394
0.00011177283886354417
0.00027873649378307164
0.00022871632245369256
0.0002423075638944283
0.00013655723887495697
0.00010556513007031754
0.0001770489034242928
0.00011509796604514122
4.319251820561476e-05
0.00024386015138588846
0.0002848461444955319
0.00010785253834910691
0.0002468470192980021
0.00025114501477219164
0.00016795673582237214
0.00028026127256453037
0.00018478713172953576
0.0001211666312883608
0.00018403466674499214
0.0001213957802974619
6.643671804340556e-05
0.00014896791253704578
0.00019371474627405405
2.7114592739962973e-05
2.9049540898995474e-05
0.00019234420324210078
9.693959873402491e-05
0.00022572241141460836
0.00020601195865310729
8.397675264859572e-05
3.6640118196373805e-05
0.00011661360622383654
0.0001274625101359561
0.00016284403682220727
0.00015066277410369366
0.00015070837980601937
0.00011490295582916588
9.930902888299897e-05
0.0002517356479074806
0.00010975608165608719
0.00010390451643615961
0.0001904746168293059
0.00018048395577352494
0.00017633591778576374
0.00018338106747251004
0.00029230371001176536
0.00020586159371305257
9.567427332513034e-05
0.0001490248105255887
0.0001668377371970564
0.0002207836660090834
0.00011002178507624194
0.00016835919814184308
0.00011015474592568353
0.0001695082610240206
0.00021741367527283728
0.00015849048213567585
0.00012384363799355924
0.00014548968465533108
0.00031891302205622196
0.00019559460633900017
0.00013076628965791315
0.00024168680829461664
0.0002526484604459256
0.00017300584295298904
0.0001591640611877665
4.846171214012429e-05
0.00012120955943828449
0.00014143710723146796
9.81787743512541e-05
0.00030110287480056286
0.0002057986712316051
0.00011536674719536677
0.00017594167729839683
0.00012627542309928685
0.0001277532137464732
6.086931534809992e-05
0.00023732382396701723
0.00017306598601862788
0.00012886422337032855
0.00018292477761860937
0.00018101074965670705
0.0001129161028075032
0.00012586073717102408
0.00013670918997377157
0.00027743494138121605
0.0002884967252612114
0.0001525323314126581
5.975824024062604e-05
0.00011134190572192892
0.0001507764682173729
0.00019132242596242577
7.01969038345851e-05
0.00022567871201317757
8.270722173620015e-05
0.00011389146675355732
0.00021832960192114115
0.0001493285526521504
0.0002753381268121302
0.0001870577980298549
0.0003189649432897568
0.00010295691026840359
0.00010068629489978775
0.00013481624773703516
0.00013989084982313216
0.00017250869132112712
0.0001527639979030937
0.00011819278734037653
3.444601679802872e-05
0.00015014555538073182
0.0001476623147027567
0.00017672184912953526
0.00021037693659309298
0.0001556350471219048
0.000156042369781062
0.00010628029849613085
0.0001288444473175332
0.0001788617082638666
7.554793410236016e-05
4.796985740540549e-05
0.00020471618336159736
9.104530181502923e-05
0.0002791500883176923
0.00017293445125687867
0.00018964297487400472
0.00023125747975427657
0.00011219558655284345
0.00021604464564006776
0.00017436548660043627
0.000206899392651394
5.616358248516917e-05
0.0001515236945124343
0.00041399721521884203
9.647791739553213e-05
6.667232082691044e-05
0.000213130988413468
0.00028736688545905054
0.0001788624213077128
0.00016289949417114258
9.052203677129e-05
0.00018982305482495576
