0.015943322330713272
0.010855821892619133
0.01216872502118349
0.030238064005970955
0.023436246439814568
0.008952653966844082
0.0103678023442626
0.009470457211136818
0.01766207255423069
0.016222471371293068
0.01169356144964695
0.009319450706243515
0.0080274548381567
0.01690858043730259
0.008992701768875122
0.0109718581661582
0.007752266246825457
0.012175516225397587
0.006899251602590084
0.014670243486762047
0.009345801547169685
0.019217994064092636
0.013885274529457092
0.0091105867177248
0.007774761412292719
0.010997486300766468
0.00793997012078762
0.009874464944005013
0.009855051524937153
0.011067379266023636
0.013939455151557922
0.011380267329514027
0.01052477303892374
0.009098267182707787
0.018024541437625885
0.011291350238025188
0.010569628328084946
0.011514450423419476
0.01102402899414301
0.01294778473675251
0.009625760838389397
0.013742967508733273
0.01833939366042614
0.017487581819295883
0.015924695879220963
0.013670123182237148
0.013750698417425156
0.011080983094871044
0.008452953770756721
0.01883155107498169
0.009169735945761204
0.015288729220628738
0.010546389035880566
0.01789786107838154
0.010467836633324623
0.012617872096598148
0.021128933876752853
0.008878889493644238
0.009725768119096756
0.012337127700448036
0.017646152526140213
0.014339836314320564
0.009596176445484161
0.01568547822535038
0.02045172080397606
0.020375240594148636
0.009077993221580982
0.014929400756955147
0.011247541755437851
0.017296582460403442
0.0116335554048419
0.014714674092829227
0.01167258620262146
0.0070354267954826355
0.017977533861994743
0.012882041744887829
0.006186158396303654
0.013455830514431
0.007435903884470463
0.010746687650680542
0.012736757285892963
0.013928255997598171
0.0135201970115304
0.009297190234065056
0.010862041264772415
0.00914842076599598
0.008132968097925186
0.01630750671029091
0.016909711062908173
0.013136745430529118
0.050646811723709106
0.013725761324167252
0.007630106993019581
0.009378605522215366
0.013058805838227272
0.009569005109369755
0.012655939906835556
0.008965210989117622
0.011604305356740952
0.009981373324990273
0.017469145357608795
0.01830643229186535
0.012992451898753643
0.01819053664803505
0.007742016576230526
0.013892519287765026
0.013472153805196285
0.013103406876325607
0.00707818940281868
0.021608427166938782
0.010786795988678932
0.0131854098290205
