0.00017183009185828269
0.0003951828693971038
0.00021253158047329634
0.00014837416529189795
0.00010786142956931144
0.00016348871577065438
0.00018420717970002443
0.00018973357509821653
0.0003055845445487648
0.0003751931362785399
0.00042573001701384783
0.00031257313094101846
0.00022644679120276123
0.00027575387503020465
0.000703044468536973
0.00026465364499017596
0.00026414290186949074
0.0003093810810241848
0.00018422077118884772
0.00017639159341342747
0.0005733204307034612
0.00025101660867221653
0.0003123259812127799
0.00039372118772007525
0.000343626132234931
0.0002627758076414466
0.00022878556046634912
0.00020121083070989698
0.00032211371581070125
0.00033161818282678723
0.00035722978645935655
0.000319789134664461
0.00037302455166354775
0.0003315498470328748
0.00024107085482683033
0.00032492628088220954
0.00023778107424732298
0.00037503178464248776
0.0002898624516092241
0.00022251950576901436
0.00019974906172137707
0.0006093751871958375
0.00032190990168601274
0.00018895819084718823
0.00020641752053052187
0.0005275282892398536
6.371657218551263e-05
0.00028060414479114115
0.0003066456119995564
0.0003595593443606049
0.00015543424524366856
0.000347034860169515
0.0011070643085986376
0.000272589735686779
8.201087621273473e-05
0.0002609759976621717
0.0002558942942414433
0.0002946284948848188
0.00011457507207524031
0.00028449136880226433
0.00012541502655949444
0.00034159512142650783
0.0001230978814419359
0.00024406143347732723
0.0002478891983628273
0.00024851993657648563
0.00032633537193760276
0.0003415874671190977
0.00046543864300474524
0.00021062782616354525
0.0002955316158477217
0.0002202718605985865
0.0002725691592786461
0.0001568031293572858
7.220764382509515e-05
0.00038363170460797846
0.00035967485746368766
0.0002611813833937049
0.00020704050257336348
0.00022111668658908457
0.00029784635989926755
0.000827443553134799
0.00042904523434117436
0.00011348377302056178
0.00034415596746839583
0.00022030055697541684
9.091972606256604e-05
8.166652696672827e-05
0.00018922258459497243
4.694762174040079e-05
0.0004138016374781728
0.00015069235814735293
0.000851876160595566
0.0002708376559894532
0.0004279405693523586
0.0005782385123893619
0.0002563178713899106
0.0003447856870479882
0.00015071067900862545
0.00034088402753695846
0.0003213943855371326
0.0004739152791444212
0.00031278387177735567
0.0002682784979697317
0.0002808223944157362
0.00027195565053261817
0.0004309606447350234
0.00012376916129142046
0.0004031267890240997
0.00018497926066629589
0.0002178963623009622
0.0002827103598974645
0.000409159401897341
0.0003905163030140102
0.00017201172886416316
0.0006153273279778659
0.0002980386489070952
0.000309347320580855
0.00039608843508176506
0.001103729009628296
0.000346159387845546
0.00011983242438873276
9.439481073059142e-05
0.00031742657301947474
0.0001101929010474123
6.067233334761113e-05
0.00018241208454128355
0.0003270439920015633
0.00040698301745578647
0.0004028621769975871
0.00041127795702777803
0.00032665228354744613
0.0003747690934687853
0.0001575811766088009
0.00010672407370293513
0.0004314632387831807
0.0002717356546781957
0.0002541006833780557
0.0002092109207296744
0.0002723126963246614
0.00017110133194364607
0.0005438152002170682
0.00021531604579649866
0.0003844185557682067
0.0002480373368598521
0.00039438955718651414
8.46076145535335e-05
0.00010998623474733904
0.00013160158414393663
0.000253990845521912
0.00018102889589499682
0.0003119868051726371
0.00019567407434806228
0.00026101607363671064
6.439012940973043e-05
0.00040331517811864614
0.0007851245463825762
0.0003576975141186267
0.00026151089696213603
0.000492568127810955
0.0003389879420865327
0.0002559794520493597
0.00030338799115270376
0.0002661895705386996
0.0004031611606478691
0.00046872987877577543
0.00026076866197399795
6.567111267941073e-05
0.00018169205577578396
0.00031813496025279164
0.00021281732188072056
0.00031730462796986103
0.0004389347741380334
0.0004952384042553604
0.0002606720954645425
0.00021818485402036458
0.0007086365367285907
0.0004154079651925713
0.0003789470356423408
0.00043880564044229686
0.00037138164043426514
0.00034936273004859686
0.000274407648248598
0.0003186817921232432
8.838311623549089e-05
0.0003623939701355994
0.0007271125796250999
0.00020935259817633778
0.00022674452338833362
0.00031849832157604396
0.0007630761829204857
0.00045661572949029505
0.00039909957558847964
0.0002142698795069009
0.00024092615058179945
0.00013853434938937426
0.000183743322850205
8.843657997203991e-05
0.0003251269808970392
0.00010747087799245492
0.00038277526618912816
0.0002571031218394637
7.675461529288441e-05
0.00035779239260591567
0.00028892315458506346
0.00025975555763579905
0.0003771273768506944
0.00032933472539298236
0.00037979468470439315
0.00029830922721885145
0.00030680018244311213
0.00026579765835776925
0.00015217895270325243
0.0001094661929528229
9.670917643234134e-05
0.0001045600074576214
0.00022278116375673562
0.00014585749886464328
0.000298754166578874
0.00036569053190760314
0.0003794033546000719
8.838745998218656e-05
0.00018340836686547846
0.0004014180740341544
0.00030123681062832475
0.0005463886191137135
0.0002821137895807624
0.00026978066307492554
0.0003940167080145329
0.0002206518256571144
0.00030801520915701985
0.00017005323024932295
0.0001526409905636683
8.34955571917817e-05
0.00030508640338666737
0.00033301091752946377
0.0005423374241217971
0.00016229681205004454
0.0003179292834829539
0.00031109151314012706
0.000267282739514485
0.0004850125405937433
0.00031768353073857725
0.00018266077677253634
0.00014083289715927094
0.0003234452160540968
0.00017322278290521353
0.00030321863596327603
0.00039646020741201937
0.00022172999160829931
0.0002308451512362808
8.560942660551518e-05
0.0003162484208587557
0.0001876061432994902
0.0002514317457098514
0.0004629249160643667
0.00041628233157098293
0.00018949605873785913
0.0003020824515260756
0.00022380785958375782
0.000267027469817549
0.0005004737176932395
0.000221172726014629
0.0004778351285494864
0.00011918668315047398
0.0001933808089233935
0.0002488947648089379
0.00022560328943654895
0.000506046402733773
0.0003275444032624364
0.00024686672259122133
4.3111002014484257e-05
0.00027121067978441715
0.00020564474107231945
0.0002624914050102234
0.00024040098651312292
0.00044408475514501333
0.0003915515262633562
0.00013701272837352008
0.00023540003166999668
0.00022267804888542742
0.00035358790773898363
0.00027507435879670084
0.0002590504300314933
0.0003298663650639355
0.00016531202709302306
0.00039902073331177235
0.0004120832891203463
0.00034102669451385736
0.0003762051637750119
0.0003420574648771435
0.00018317316425964236
0.00021231983555480838
0.00032279430888593197
0.00013471904094330966
0.0003095382417086512
0.0004700312565546483
0.0004146031569689512
0.0003806721942964941
0.00035900730290450156
0.00028477932210080326
0.00038914071046747267
0.00029865175019949675
0.00035113730700686574
0.000320229068165645
0.0003224509709980339
0.00024056840629782528
0.00017575839592609555
0.0003781388222705573
0.0004162486002314836
0.00013574454351328313
0.0001843696372816339
0.0004124088154640049
0.00024495800607837737
0.0002845267881639302
0.00027867505559697747
0.00014340676716528833
0.0003232936724089086
0.0002041683328570798
0.00024473475059494376
5.5133761634351686e-05
0.00041660357965156436
0.0005919846007600427
0.0002826802956406027
0.000280031148577109
0.00022542271472048014
0.00038919507642276585
0.0002388825814705342
0.0001960323133971542
0.0002769652346614748
0.0002508789475541562
0.0004151265020482242
0.0003694016777444631
0.00023388965928461403
0.00016587332356721163
0.00034368372871540487
0.00013703956210520118
0.0001936802436830476
0.0002649190428201109
0.00021887762704864144
0.0003783846041187644
0.0003741638211067766
0.00015300333325285465
0.0002767154073808342
0.0001604336139280349
0.00031186151318252087
0.00036279644700698555
0.00035675306571647525
0.0002550838980823755
0.00023289144155569375
0.00045367568964138627
0.0004244581505190581
0.0005591668304987252
0.00011985965102212504
0.00015640031779184937
7.691802602494135e-05
0.0003599510819185525
0.00029578941757790744
0.0002019253297476098
0.0003841666621156037
9.030244837049395e-05
0.00022518643527291715
0.00020314806897658855
0.0003788430767599493
9.951383253792301e-05
0.000256195169640705
0.0003999820619355887
0.000127609062474221
0.00030672107823193073
0.00023294381389860064
0.0002743573277257383
0.00020494953787419945
5.037952359998599e-05
0.0004481117648538202
0.0003361036069691181
0.00046193887828849256
0.00048692376003600657
0.00023005629191175103
0.00029159721452742815
0.0002567616174928844
0.0003640690993051976
0.000412064342526719
0.00033279022318311036
0.00034023422631435096
0.00025119970086961985
0.0002991299843415618
0.0001440910855308175
0.0002751480496954173
0.0004756426205858588
0.0001217740573338233
0.0001395841536577791
0.00027915294049307704
4.6331511839525774e-05
0.0005705419462174177
5.331693319021724e-05
0.000149458137457259
0.0004515188920777291
0.00031296894303523004
0.00022248364984989166
0.00030200849869288504
0.00021676770120393485
0.00035612136707641184
9.174308797810227e-05
0.00024117746215779334
0.0002081950951833278
0.000542362337000668
0.00024177689920179546
0.00010175243369303644
0.00012087368668289855
0.00017447709979023784
0.00031579885398969054
0.00035313688567839563
0.00024277566990349442
0.000442573509644717
0.00011208531213924289
0.0005875342176295817
0.00018068822100758553
0.00041246580076403916
0.00035025717807002366
0.0002584314497653395
0.0004053851298522204
0.00020941907132510096
0.0003150340053252876
0.0003938365844078362
0.00033865933073684573
0.00037479662569239736
0.0003247495915275067
0.00040822650771588087
0.0003203793312422931
0.0002616211713757366
0.0003085333155468106
0.00033518613781780005
0.00021285242110025138
0.0003055362030863762
0.0002393507893430069
7.785204070387408e-05
0.00034834787948057055
6.312593905022368e-05
0.00037160798092372715
6.441079312935472e-05
0.0003219612699467689
0.0003573797584977001
0.00024904555175453424
0.00030120357405394316
0.00023778855393175036
0.0002781772054731846
0.00047910906141623855
0.000174190106918104
0.0003146003873553127
0.0001790411479305476
0.00023358252656180412
0.0003372913342900574
0.000608296599239111
0.0003288846928626299
0.0002633113181218505
0.00018403191643301398
0.00019609097216743976
0.0004400837351568043
0.0002943739527836442
0.00038381590275093913
0.00022219792299438268
9.522305481368676e-05
0.0004202390555292368
0.0003207284607924521
0.000271122989943251
0.0004290711658541113
0.00034872416290454566
9.893852256936952e-05
0.00038477443740703166
0.0002286730014020577
0.0003466351190581918
0.00040898911538533866
0.00039752665907144547
0.000329914822941646
0.00043531288974918425
0.00020910710736643523
0.00018941456801258028
0.00027425261214375496
0.00024527424830012023
0.00024278138880617917
0.00018216286844108254
6.1938124417793e-05
0.0007350749801844358
0.00043276097858324647
0.00038957371725700796
0.0005296137533150613
0.0003565565275494009
0.00010923713125521317
0.0003950380196329206
0.00029631724464707077
0.0002357925841351971
0.000199367044842802
0.00026847521075978875
0.00013185155694372952
0.00023460677766706795
0.00040534805157221854
0.00040426867781206965
0.0002753669105004519
0.0004085342225152999
0.00010289354395354167
0.00010462845966685563
0.0004091687442269176
0.0003081942268181592
0.00041730827069841325
0.0003049062506761402
9.889950160868466e-05
0.00042654096614569426
0.0005060911644250154
0.00015342838014476
0.0003732715267688036
0.0002363995008636266
0.0002753896696958691
0.0003896317211911082
0.00023581842833664268
0.00024708357523195446
0.00012263453390914947
0.0002976148098241538
0.0002412827016087249
0.00023729047097731382
0.00043275204370729625
0.0004680375859607011
0.0002745522069744766
0.00020296432194299996
0.0003572491987142712
0.0002030854084296152
0.00025430743698962033
0.0002379790530540049
0.0002999752468895167
0.00039678136818110943
0.0001458897750126198
0.0008177361451089382
0.0002077544340863824
0.000518093176651746
0.0004251196514815092
0.00045038198004476726
0.00025382169405929744
0.00019621604587882757
0.00032908437424339354
0.00021393492352217436
8.028280717553571e-05
0.00045326779945753515
0.0005294493166729808
0.00020046769350301474
0.00045881952974013984
0.00046680832747370005
0.00031218459480442107
0.0005209273076616228
0.0003434675745666027
0.00022521486971527338
0.0003420689608901739
0.00022564078972209245
0.00012348727614153177
0.00027688968111760914
0.0003600615309551358
5.0398441089782864e-05
5.3994968766346574e-05
0.0003575140726752579
0.00018018358969129622
0.000419554824475199
0.0003829186025541276
0.00015608928515575826
6.810372724430636e-05
0.00021675207244697958
0.00023691714159213006
0.00030268149566836655
0.0002800399379339069
0.0002801247173920274
0.00021357244986575097
0.000184587697731331
0.00046790612395852804
0.00020400584617163986
0.00019312942458782345
0.000354039017111063
0.0003354691725689918
0.00032775913132354617
0.00034085410879924893
0.000543310830835253
0.00038263911847025156
0.00017783170915208757
0.0002769954444374889
0.0003101046895608306
0.0004103750688955188
0.0002044997236225754
0.0003129326505586505
0.00020474685879889876
0.0003150684351567179
0.00040411119698546827
0.0002945894666481763
0.000230190678848885
0.00027042461442761123
0.0005927701131440699
0.0003635556495282799
0.00024305794795509428
0.00044922815868631005
0.0004696028190664947
0.00032156947418116033
0.0002958414552267641
9.007676271721721e-05
0.00022529465786647052
0.00026289201923646033
0.00018248688138555735
0.0005596660193987191
0.00038252215017564595
0.00021443450532387942
0.00032702635508030653
0.0002347106928937137
0.000237457497860305
0.00011313903087284416
0.00044111860916018486
0.00032168126199394464
0.0002395225310465321
0.00034000599407590926
0.00033644834184087813
0.0002098794502671808
0.00023393990704789758
0.00025410414673388004
0.0005156739498488605
0.0005362347001209855
0.0002835149352904409
0.00011107385216746479
0.0002069534530164674
0.00028025126084685326
0.0003556148731149733
0.00013047640095464885
0.00041947359568439424
0.00015372959023807198
0.00021169237152207643
0.00040581365465186536
0.00027756000054068863
0.0005117765394970775
0.00034768812474794686
0.0005928666214458644
0.00019136808987241238
0.00018714765610639006
0.00025058569735847414
0.00026001795777119696
0.0003206453984603286
0.0002839455264620483
0.00021968732471577823
6.402550934581086e-05
0.0002790785802062601
0.0002744629455264658
0.00032847648253664374
0.00039103187737055123
0.000289282004814595
0.00029003911186009645
0.00019754534878302366
0.00023948578746058047
0.0003324538702145219
0.00014042247494217008
8.916254591895267e-05
0.0003805101150646806
0.00016922774375416338
0.0005188619252294302
0.0003214367607142776
0.0003524932253640145
0.00042984297033399343
0.00020854020840488374
0.00040156656177714467
0.0003240966470912099
0.0003845680912490934
0.00010439239122206345
0.0002816401538439095
0.0007695049862377346
0.00017932546325027943
0.000123925186926499
0.0003961508919019252
0.0005341346259228885
0.0003324552089907229
0.0003027845814358443
0.00016825513739604503
0.0003528279485180974
