0.0007043358637019992
0.00047958290087990463
0.0005375836626626551
0.001335841603577137
0.0010353544494137168
0.00039550571818836033
0.00045802342356182635
0.00041838097968138754
0.0007802658947184682
0.00071666797157377
0.0005165921174921095
0.0004117098869755864
0.00035463276435621083
0.0007469785632565618
0.0003972749400418252
0.00048470907495357096
0.00034247562871314585
0.0005378836649470031
0.00030479158158414066
0.0006480944575741887
0.00041287398198619485
0.0008490026229992509
0.0006134164868853986
0.00040248280856758356
0.0003434694081079215
0.0004858412721659988
0.0003507678920868784
0.0004362290201243013
0.0004353713884484023
0.0004889289848506451
0.0006158100441098213
0.0005027515580877662
0.0004649579932447523
0.0004019385378342122
0.000796278880443424
0.0004988234140910208
0.0004669395857490599
0.0005086794262751937
0.0004870138654951006
0.0005720005719922483
0.0004252418875694275
0.0006071297102607787
0.0008101882413029671
0.0007725573377683759
0.0007035129819996655
0.0006039116415195167
0.0006074712728150189
0.0004895299789495766
0.00037343022995628417
0.0008319305488839746
0.00040509586688131094
0.0006754175992682576
0.0004659129190258682
0.0007906824466772377
0.0004624426946975291
0.0005574258393608034
0.0009334231144748628
0.0003922469913959503
0.0004296599654480815
0.0005450232420116663
0.0007795626297593117
0.0006334978970699012
0.00042393492185510695
0.0006929449737071991
0.0009035055409185588
0.0009001268772408366
0.00040104289655573666
0.0006595433806069195
0.0004968880675733089
0.0007641194970346987
0.0005139412241987884
0.0006500572781078517
0.000515665509738028
0.00031080745975486934
0.0007942022057250142
0.000569096184335649
0.0002732889261096716
0.0005944447475485504
0.0003284995327703655
0.00047476161853410304
0.0005626779166050255
0.0006153152789920568
0.0005972883081994951
0.0004107264685444534
0.0004798576410394162
0.0004041542124468833
0.00035929406294599175
0.0007204246358014643
0.0007470285054296255
0.0005803483654744923
0.002237448701635003
0.0006063695764169097
0.0003370789345353842
0.0004143232072237879
0.000576905207708478
0.0004227345634717494
0.0005591075750999153
0.00039606046630069613
0.0005126490141265094
0.0004409519606269896
0.0007717428961768746
0.0008087321184575558
0.0005739738116972148
0.0008036121143959463
0.00034202280221506953
0.0006137365708127618
0.0005951658822596073
0.0005788755370303988
0.0003126965893898159
0.00095460593001917
0.0004765335179399699
0.0005824982072226703
