0.0002452945918776095
0.0004286033217795193
0.00030703097581863403
0.00036388670559972525
0.00019399046141188592
0.00021802682022098452
0.00022460111358668655
0.001451878808438778
0.0002251435216749087
0.0001251406647497788
0.00031261236290447414
0.00024291349109262228
0.00019703256839420646
0.0007548093562945724
0.00020608982595149428
0.0003112704725936055
0.0004763025208376348
0.00026120420079678297
0.00027203711215406656
0.0002169514336856082
0.00025328720221295953
0.0002615545236039907
0.0001763318432494998
5.439207234303467e-05
4.460865966393612e-05
0.0002662960614543408
0.0004415346775203943
0.00027444481384009123
0.0002417728101136163
0.00041341708856634796
0.00022628506121691316
0.000376448588212952
0.00039179588202387094
0.00026577047538012266
0.00045542375301010907
0.00041035012691281736
0.00028679994284175336
0.00017550344637129456
0.0002970539790112525
0.00027796992799267173
0.00020258860604371876
0.0008366482215933502
0.0006161753553897142
0.00048182246973738074
0.0003877542039845139
0.00026378995971754193
0.00018990100943483412
0.0002022263506660238
0.00031031653634272516
0.0004061582440044731
0.0005105161108076572
0.0002963476872537285
0.00024124867923092097
0.00024954217951744795
0.000499111833050847
0.0003374517254997045
0.00024295412003993988
0.00037326515302993357
0.00022691837511956692
0.00035311977262608707
0.0001717052364256233
0.00033661015913821757
0.00014205175102688372
0.0003401222638785839
0.00036095260293222964
0.00035487598506733775
0.0002032142656389624
0.00023302435874938965
0.00028464148635976017
0.00030077184783294797
0.00018687575357034802
0.0002253850834676996
0.0002118013653671369
0.00023192579101305455
5.186818816582672e-05
0.00035802257480099797
0.0002408587752142921
6.913644028827548e-05
0.0002721330092754215
0.00048726279055699706
0.00024250641581602395
0.00024361231771763414
0.0004783920885529369
0.00024785951245576143
0.000322029460221529
0.0003154933510813862
0.0003764071734622121
0.0002270808763569221
0.000282308115856722
0.000244410039158538
0.000486330856801942
0.00029016839107498527
0.0002921816485468298
4.8878446250455454e-05
0.0002712686837185174
0.0005568622727878392
0.00032719160662963986
0.0003159292973577976
0.000198745823581703
0.00017277854203712195
0.00039695866871625185
0.00029061816167086363
0.0002756610338110477
0.00022397881548386067
0.00012747556320391595
0.0002741492644418031
0.0002896208025049418
0.0004944224492646754
0.00019812154641840607
0.00019168959988746792
0.0004711140936706215
5.941548079135828e-05
0.0002516327367629856
0.0006251567392610013
0.00020055989443790168
0.0002450600150041282
6.457871495513245e-05
0.00023381321807391942
0.00020990462508052588
0.000641600985545665
0.0002261338522657752
0.000357885321136564
6.110931281000376e-05
0.00024613909772597253
0.00019444679492153227
0.0003324091958347708
0.00032184977317228913
0.00019014421559404582
0.00018532811373006552
0.0004405225918162614
0.0002540160494390875
0.00039149794611148536
0.00019195658387616277
0.0008904749993234873
0.00023473866167478263
0.0003185908426530659
0.0003102241607848555
0.00029663980240002275
0.00031339796259999275
0.0004232745268382132
0.00019804135081358254
0.00021543835464399308
0.0001657396205700934
0.0002465200377628207
0.0002852490288205445
0.0003111973055638373
0.00012193777365610003
0.0001804393104976043
0.0003625671088229865
0.000325039989547804
0.0002327055553905666
0.00019104919920209795
0.0003032734675798565
0.0002689753600861877
0.00028509084950201213
0.0009367813472636044
0.00025911862030625343
3.6819161323364824e-05
0.0002466552541591227
0.00032943402766250074
0.00042035363730974495
0.0002218026202172041
0.000233425191254355
0.00014867856225464493
0.00019776161934714764
0.0002030127216130495
0.00017905852291733027
0.0003715493076015264
0.0003261963720433414
0.00015336899377871305
0.0002420349483145401
0.00024123613547999412
0.00038132950430735946
0.0005074528744444251
0.00032751180697232485
0.00027913754456676543
0.00032122182892635465
0.00015251594595611095
0.00035320190363563597
0.00045718540786765516
0.00035953367478214204
8.956163219409063e-05
0.00021981367899570614
0.00016708980547264218
0.0004847252566833049
0.0003717908984981477
0.0008227001526392996
0.00019923104264307767
0.0010046801762655377
0.00031769106863066554
0.0003617886104620993
0.0005065260920673609
0.00024295570619869977
0.0004641599953174591
0.00013895354641135782
0.0005039527313783765
0.00021129235392436385
0.0002051002229563892
0.00019394252740312368
0.0009775969665497541
0.00023964351566974074
0.0002180398441851139
0.00033333947067148983
0.00041242080624215305
0.000252044788794592
0.0002829628938343376
0.0003015537513419986
0.0002508005709387362
0.00038034957833588123
0.00024253770243376493
0.0004544164112303406
0.0002966754254885018
0.00040881853783503175
0.0002776652399916202
0.00028922047931700945
0.00023270753445103765
0.00031020023743622005
0.0003167983377352357
0.00021974674018565565
0.00022164121037349105
0.00027680848143063486
0.00020620414579752833
0.00021686693071387708
0.0002722415956668556
0.00027310854056850076
0.00021608978568110615
0.0001811875990824774
0.00025503610959276557
0.00026958127273246646
6.119583122199401e-05
0.0002286979870405048
0.00035019192728213966
0.0002929327602032572
0.0003274598275311291
0.0002505999291315675
0.00024242453218903393
0.0004421768826432526
0.00023122619313653558
0.00018467874906491488
0.00023643168970011175
0.0003616626199800521
0.0003627752885222435
0.00017854897305369377
0.00032084379927255213
4.921427898807451e-05
0.00017707068764138967
0.0003593160363379866
0.00021742336684837937
0.0003641399962361902
0.0004433290450833738
0.0005110112251713872
0.000243886184762232
0.00019251812773291022
0.00029102645930834115
0.0004922673688270152
0.00019226735457777977
0.0002480508992448449
0.00027157357544638216
0.00030240011983551085
0.00023929766030050814
0.0002208196819992736
0.0002178659924538806
0.0002476857043802738
0.00027862575370818377
0.0008625853224657476
0.0002635286655277014
0.00025150360306724906
0.0005895383073948324
0.00025179825024679303
0.0004728018247988075
0.00027596697327680886
0.00025039154570549726
0.00028884265339002013
0.0002523027069400996
0.00040179979987442493
0.0002626412024255842
0.00021404930157586932
0.00040520826587453485
0.00022081464703660458
0.0002667316293809563
0.00047550699673593044
0.00021186776575632393
6.262461101869121e-05
0.00013580163067672402
5.2705738198710606e-05
0.0003070604579988867
0.00019514125597197562
0.0002935486554633826
0.0001770930684870109
0.0002952977374661714
0.0002585492329671979
0.0003004196914844215
0.00020018710347358137
0.00018184672808274627
0.00015857670223340392
0.00017403012316208333
0.00026314446586184204
0.0003005919570568949
0.00023312280245590955
0.0009317411459051073
0.0002129734930349514
0.00023155378585215658
0.00019444272038526833
0.00031259970273822546
0.00010423997446196154
8.257840818259865e-05
0.00025919295148923993
0.00021889527852181345
0.00012977852020412683
0.00038296054117381573
0.00035692928940989077
0.0003352734784130007
0.00029725805507041514
0.00018404309230390936
0.0002608605136629194
0.00024395216314587742
0.0001937373890541494
0.0002131057408405468
0.00029256148263812065
0.0002217617875430733
0.00039551424561068416
0.0009993364801630378
0.0004327401693444699
4.5954053348395973e-05
0.00021431867207866162
0.0001462726795580238
0.00022267004533205181
0.000245161383645609
0.00037201191298663616
0.00022436556173488498
0.00018303736578673124
0.00014047960576135665
0.0003063539625145495
0.00020869133004453033
9.126072109211236e-05
0.00021127269428689033
0.00028038726304657757
0.0002279068430652842
0.0001846175582613796
0.0001880716299638152
0.00031908490927889943
0.0002924100845120847
0.00021120392193552107
0.0005755056627094746
0.00016027866513468325
0.0005351095460355282
0.000736704736482352
0.00037945175427012146
0.00019287312170490623
0.00034650295856408775
0.0001869764382718131
0.0002429796295473352
0.000546376162674278
0.00023003712703939527
0.0001786138309398666
0.00032763308263383806
0.00029632350197061896
0.00027680027415044606
4.161989636486396e-05
0.0006429699715226889
0.00028802879387512803
4.2892323108389974e-05
0.00037896656431257725
0.00026450798031874
5.9578364016488194e-05
0.00026503283879719675
0.00022171612363308668
0.00019551200966816396
0.0002215160639025271
0.0002625964698381722
6.027648123563267e-05
7.318146526813507e-05
0.0002710417320486158
0.00046430082875303924
0.0016217934899032116
0.0003841340949293226
0.0006980461766943336
0.00029296104912646115
0.0002278430765727535
3.352541534695774e-05
0.00020610381034202874
0.0009171455167233944
0.00021121941972523928
0.0002842372050508857
0.0002318862680112943
0.0002895213838201016
0.000263091700617224
0.0002913219213951379
0.0001838523312471807
0.00029661893495358527
0.00020504798158071935
0.000157956121256575
0.0002394475304754451
0.00013491878053173423
0.0007426610682159662
0.00026217655977234244
0.0003097427834291011
0.00030853605130687356
0.0002059718972304836
0.0005202756728976965
0.00017902629042509943
0.00026359898038208485
0.00025812804233282804
0.0002718962205108255
0.00022428107331506908
0.00020105041039641947
0.0003728316514752805
0.0003044390759896487
0.00020706353825517
0.0001666824973654002
0.00018236375763081014
0.0002907009911723435
3.150781776639633e-05
0.0008288966491818428
0.00035041154478676617
0.0003121866029687226
4.961677404935472e-05
0.0004616416117642075
0.00020112399943172932
0.00017681140161585063
0.0003949465462937951
0.00026367715327069163
0.00025480941985733807
0.0002498973917681724
0.0005477097583934665
0.00010404484783066437
0.0002442284603603184
0.00025032967096194625
0.00020424614194780588
0.0004086247063241899
0.001096540130674839
0.00033602467738091946
0.00019788203644566238
0.0002436086506349966
0.00020445424888748676
0.00029595213709399104
0.0003703423426486552
0.0005957214161753654
0.00023490424791816622
0.0006362818530760705
0.00048104097368195653
0.0002935777301900089
4.2012063204310834e-05
0.0003258234937675297
0.0003893482789862901
0.00017509216559119523
0.0003884801990352571
0.00039974640822038054
0.00023539246467407793
0.0003035034751519561
0.00017030839808285236
0.000619801168795675
0.00024654369917698205
0.0001966259878827259
0.00031688937451690435
8.370512659894302e-05
0.00023481108655687422
0.0002545854076743126
3.757848753593862e-05
0.0003609050181694329
0.00032382860081270337
0.0005003353580832481
0.00023494529887102544
0.00019639183301478624
0.0003168171097058803
0.00018938342691399157
4.410501423990354e-05
0.00043835846008732915
0.0003921629977412522
0.0002408539439784363
0.00012495009286794811
0.0002636665303725749
0.00027591362595558167
0.00015186142991296947
0.00021362486586440355
0.0004035372694488615
0.00031614492763765156
0.0003769629984162748
0.00020557177776936442
0.00017963451682589948
0.00028650887543335557
0.00023304492060560733
0.0002399543154751882
0.00023730445536784828
0.00034446566132828593
0.00022764847381040454
0.0002818332286551595
0.00043585567618720233
0.00014310964616015553
0.00022391144011635333
0.00023890416196081787
0.0003099609457422048
0.00021801621187478304
0.00018601072952151299
0.00038723950274288654
0.000209971476579085
0.00024655848392285407
0.00039930001366883516
0.00024081036099232733
0.00024603347992524505
0.0005226680659689009
0.0002613025426398963
0.0003567009116522968
0.0005028508021496236
0.0003829854540526867
0.0003206791589036584
0.00020419814973138273
0.0003274277551099658
0.0009883870370686054
0.0003378604305908084
0.00027731037698686123
0.00018748710863292217
0.00022394975530914962
0.00028907021624036133
0.0002735028392635286
0.0002270249096909538
0.00022144793183542788
0.0005570425419136882
0.0002615099656395614
0.00036265183007344604
0.0002086848980979994
0.0002594029647298157
0.0004958230420015752
0.0005511482595466077
0.00032497046049684286
0.00026328657986596227
0.0002583611640147865
4.3612177250906825e-05
0.0002469880855642259
0.00017727639351505786
0.00019531312864273787
0.00028015757561661303
0.0005332975997589529
4.065666507813148e-05
0.00022452528355643153
0.0002826373965945095
0.00017387369007337838
5.318627881933935e-05
0.0004167981678619981
0.0003013793902937323
0.0006667284178547561
0.0004320330044720322
0.0007625320577062666
0.00018039594579022378
0.000715003116056323
0.0003397160326130688
0.00025736293173395097
0.0002143950405297801
0.000591700489167124
0.0002410997694823891
4.7896948672132567e-05
0.00037867718492634594
0.0006524956552311778
0.00027562608011066914
0.0003465153567958623
0.0001848846150096506
0.00022682969574816525
0.0004053411539644003
0.0002337009209441021
0.00015970179811120033
0.0003391731297597289
0.0003307032457087189
0.0009086303180083632
0.0005741944187320769
0.0002746349782682955
0.0002599947329144925
0.0003597194154281169
0.00017313654825557023
0.00023591454373672605
0.00020998796389903873
0.0002193269901908934
0.00027320272056385875
0.00029329038807190955
0.0002954638912342489
0.00029288764926604927
0.000236670661251992
0.0001944630639627576
0.00030222084023989737
0.00020335345470812172
5.004343620385043e-05
0.00021391772315837443
0.0003814836381934583
0.00025878651649691164
0.00024015367671381682
0.0007893643924035132
0.0003220057697035372
0.00016079357010312378
0.0001986922579817474
0.00023308841628022492
0.00021578949235845357
0.0003391166392248124
0.0001660412672208622
0.00019780610455200076
0.00030250087729655206
5.710753976018168e-05
0.0002700485638342798
0.0001736418780637905
0.00027618432068265975
5.9952708397759125e-05
0.0002445996506139636
0.0001995754282688722
0.0005703179631382227
0.0002773646847344935
0.00020299508469179273
0.00023868221614975482
0.0001813857234083116
0.00020715197024401277
0.0002764434611890465
0.00024220978957600892
0.0009313324699178338
0.0004219196271151304
0.0002520684793125838
0.00011075712245656177
0.00022295804228633642
0.00011435092164902017
0.00030131329549476504
0.0002249028766527772
0.00022897846065461636
0.00035211959038861096
0.0002125851606251672
0.0002458728267811239
0.00036567909410223365
0.00017826224211603403
0.0002996796974912286
0.00019019558385480195
0.0005468016606755555
0.00022467576491180807
0.0010697488905861974
0.00032223432208411396
0.0005058739334344864
0.0003058253787457943
0.00035960579407401383
0.00022254252689890563
0.0002468154998496175
0.00017528350872453302
0.00023703431361354887
0.00024901662254706025
0.0002355550677748397
0.0011012087343260646
0.0002957994001917541
0.00010513720189919695
0.0002883865963667631
0.0002334565215278417
0.00020407546253409237
0.00035926062264479697
0.00026062497636303306
6.930321251275018e-05
4.2920990381389856e-05
0.00017290454707108438
8.562425500713289e-05
0.00017102112178690732
0.00032245475449599326
0.0002628551155794412
3.561706398613751e-05
0.00021833815844729543
0.00023350800620391965
0.0003364583826623857
0.0003893864923156798
0.0002189325459767133
0.00020949769532307982
0.0004784493939951062
4.5088028855388984e-05
0.0002467027516104281
0.0005615857080556452
0.0002742071228567511
0.00035484161344356835
0.0002663348277565092
0.00018552453548181802
0.0003458500432316214
0.00019461993360891938
0.0004000274057034403
7.721592555753887e-05
