0.0028514922596514225
0.0048454441130161285
0.0037066100630909204
0.0030092240776866674
0.003502219682559371
0.005228902213275433
0.0023646149784326553
0.0041084568947553635
0.005787503439933062
0.004746537655591965
0.002518423367291689
0.0026455752085894346
0.007773729041218758
0.003810969414189458
0.005087774712592363
0.0038534561172127724
0.003303739009425044
0.00403629569336772
0.002533521968871355
0.0034757715184241533
0.005636770743876696
0.0032566594891250134
0.0034181817900389433
0.002811016049236059
0.004994572605937719
0.0024232338182628155
0.004908332601189613
0.0026172338984906673
