0.013091810047626495
0.008770900778472424
0.008890989236533642
0.017911667004227638
0.015180612914264202
0.004897237755358219
0.004056830890476704
0.0053350599482655525
0.015895137563347816
0.013829674571752548
0.004512613173574209
0.006443386431783438
0.004430445842444897
0.013679062016308308
0.005313723813742399
0.005492375697940588
0.006130820605903864
0.010104244574904442
0.007501374930143356
0.010710305534303188
0.010707384906709194
0.013801476918160915
0.010190443135797977
0.006874102167785168
0.005208727438002825
0.005882859695702791
0.004545809235423803
0.01087179034948349
0.005933509208261967
0.010826033540070057
0.01271284930408001
0.00798550620675087
0.00807738397270441
0.007350921630859375
0.012133389711380005
0.01110492367297411
0.008195347152650356
0.007074104156345129
0.007608051877468824
0.00997375138103962
0.011457541957497597
0.010304146446287632
0.011343109421432018
0.01076730526983738
0.009377389214932919
0.012854145839810371
0.00829907227307558
0.00702684698626399
0.00640727486461401
0.017079638317227364
0.0066885086707770824
0.01157117635011673
0.006636280566453934
0.012366161681711674
0.008419153280556202
0.0067365774884819984
0.00409747613593936
0.007089246530085802
0.005655533634126186
0.011277728714048862
0.014264391735196114
0.010979486629366875
0.006127013824880123
0.01164287980645895
0.015157703310251236
0.013781175017356873
0.006856726016849279
0.011517945677042007
0.009100794792175293
0.010653188452124596
0.009688707999885082
0.014840591698884964
0.010488143190741539
0.0074492935091257095
0.012272119522094727
0.011115211993455887
0.005459796637296677
0.007738908287137747
0.007136011496186256
0.004436023999005556
0.008783168159425259
0.0115668261423707
0.007926421239972115
0.007746254559606314
0.004109927918761969
0.006462882738560438
0.00821742694824934
0.010228251107037067
0.014284745790064335
0.010593579150736332
0.024951638653874397
0.00809504371136427
0.005843450780957937
0.008646315895020962
0.008486810140311718
0.006242827046662569
0.009536254219710827
0.006144278682768345
0.008162778802216053
0.007515962701290846
0.01681407541036606
0.013103967532515526
0.008736572228372097
0.013814618811011314
0.006904193200170994
0.010085093788802624
0.011779372580349445
0.008958646096289158
0.004299997817724943
0.021195143461227417
0.006918502505868673
0.00992374587804079
