0.0006513316184282303
0.000436361733591184
0.0004423362552188337
0.0008911246550269425
0.0007552517927251756
0.00024364283308386803
0.00020183168817311525
0.0002654249547049403
0.0007908001425676048
0.0006880411528982222
0.00022450734104495496
0.000320565392030403
0.00022041943157091737
0.0006805480225011706
0.00026436345069669187
0.0002732515858951956
0.0003050148952752352
0.0005026970175094903
0.0003732014447450638
0.0005328491679392755
0.0005327038816176355
0.0006866382900625467
0.00050698546692729
0.0003419939603190869
0.0002591397787909955
0.00029267859645187855
0.000226158881559968
0.0005408832221291959
0.00029519846430048347
0.0005386067787185311
0.0006324779242277145
0.0003972875128965825
0.0004018585314042866
0.00036571623058989644
0.0006036491831764579
0.0005524818552657962
0.000407727318815887
0.0003519442689139396
0.00037850873195566237
0.0004962048260495067
0.0005700250039808452
0.0005126423202455044
0.0005643318872898817
0.0005356849869713187
0.0004665351880248636
0.0006395075470209122
0.0004128877480980009
0.0003495931741781533
0.00031876881257630885
0.0008497303351759911
0.0003327604790683836
0.0005756784230470657
0.0003301620890852064
0.0006152298301458359
0.00041886192047968507
0.00033515196992084384
0.00020385383686516434
0.00035269762156531215
0.0002813688770402223
0.0005610791267827153
0.0007096687913872302
0.0005462412373162806
0.0003048255166504532
0.0005792457377538085
0.000754112028516829
0.0006856282707303762
0.00034112948924303055
0.0005730301490984857
0.00045277431490831077
0.0005300075863488019
0.00048202360630966723
0.0007383353658951819
0.0005217964062467217
0.00037061035982333124
0.0006105510983616114
0.0005529937334358692
0.0002716307353693992
0.0003850189968943596
0.00035502423997968435
0.00022069695114623755
0.0004369720409158617
0.0005754620069637895
0.00039434796781279147
0.00038538448279723525
0.00020447332644835114
0.00032153536449186504
0.00040882581379264593
0.0005088664474897087
0.0007106814300641418
0.0005270419060252607
0.001241370802745223
0.0004027371178381145
0.00029071795870549977
0.00043016349081881344
0.0004222279239911586
0.00031058734748512506
0.0004744388861581683
0.0003056844579987228
0.0004061069921590388
0.00037392720696516335
0.0008365183020941913
0.0006519364542327821
0.0004346538335084915
0.0006872921367175877
0.00034349103225395083
0.0005017442163079977
0.0005860364180989563
0.0004457022587303072
0.0002139295102097094
0.0010544811375439167
0.00034420291194692254
0.0004937170306220651
