0.0001355456333840266
0.00013173077604733407
0.00014481616381090134
0.00012804102152585983
0.00014998088590800762
0.00012040397996315733
0.00010981821833411232
0.00020022457465529442
0.00013239092368166894
0.00010571483289822936
0.00013965849939268082
0.0001317940914304927
0.00014339479093905538
0.00013286156172398478
0.00013737134577240795
0.00017117909737862647
0.00014856629422865808
0.0001291217777179554
0.0001439980696886778
0.00014712393749505281
0.00014406284026335925
0.00013270761701278389
0.00014905694115441293
0.00014472818293143064
0.00010916921746684238
0.00014536846720147878
0.00013705332821700722
0.00013287787442095578
0.0001447655668016523
0.00013032768038101494
0.000142097138450481
0.00013293061056174338
0.00014123156142886728
0.00013617458171211183
9.801571286516264e-05
0.00031388725619763136
0.0001341545139439404
0.00012958950537722558
0.0001408110256306827
0.00013258398394100368
0.00013603059051092714
0.00015160409384407103
0.0001368427328998223
0.00022679578978568316
0.00012151733972132206
0.0001352386607322842
0.00013900107296649367
0.00013790861703455448
0.00013216168736107647
0.00012304369010962546
0.00013186239812057465
0.000231559548410587
0.00014019175432622433
0.0001318277936661616
0.00014901331451255828
0.00013423131895251572
0.00015608897956553847
0.0001430204720236361
0.00013897009193897247
0.00011898767843376845
0.0001412575220456347
0.00013392380787990987
0.00011032477050321177
0.00013927614782005548
0.00013770941586699337
0.00012491844245232642
0.0001419232867192477
0.00012786185834556818
0.00014510918117593974
0.0001445575908292085
0.0001401653717039153
0.00013921342906542122
0.0002462113043293357
0.00013051184942014515
0.0001583552802912891
0.00013889026013202965
0.00013993903121445328
0.0001449186820536852
0.00013312132796272635
0.00013976666377857327
0.000139461291837506
0.00010849416139535606
0.00013146107085049152
0.00015634296869393438
0.00023990012414287776
0.0001354420091956854
0.00012803400750271976
0.00012736354256048799
0.00013527687406167388
0.00011170133075211197
0.00014012071187607944
0.0001353743573417887
0.00012893944222014397
0.00014294795983005315
0.00013615417992696166
0.00012884297757409513
0.0001458806509617716
0.00022635636560153216
0.0001428177347406745
0.0001393530983477831
0.0001396712614223361
9.96106318780221e-05
0.00012267434794921428
0.00014280549657996744
0.0001375626598019153
0.0001455160672776401
0.00013885312364436686
0.00011332663416396827
0.00013582580140791833
0.000163169126608409
0.00012884898751508445
0.00012999511091038585
0.00012704225082416087
0.00013835489517077804
0.00014320362242870033
0.00013514625607058406
0.000116850329504814
0.0001358327135676518
0.000147480153827928
0.000128060913993977
0.0001416936720488593
0.00011100217670900747
0.00016954378224909306
0.00016063764633145183
0.00015112054825294763
0.0001315012777922675
0.00014295850996859372
0.0001706444745650515
0.0001297228445764631
0.00013762015441898257
0.00012689424329437315
0.00013403582852333784
0.00014107409515418112
0.00013277151447255164
9.91261113085784e-05
0.00013770125224255025
0.00013654434587806463
0.00013289484195411205
0.00013338391727302223
0.00014150983770377934
0.00010956000915030017
0.00013975476031191647
9.845403837971389e-05
0.0001119669177569449
0.00013930564455222338
0.00013333758397493511
9.422480798093602e-05
0.00013944464444648474
0.00012740297825075686
0.00012203510414110497
0.0001350118691334501
0.00013187012518756092
0.00013696319365408272
0.00012320898531470448
0.00011226352216908708
0.00012935778067912906
0.00013144011609256268
0.00013583022519014776
0.00012899500143248588
0.00013452551502268761
0.0001265197352040559
0.00014036001812200993
0.00022605191043112427
0.0001340953167527914
0.0001586482540005818
0.00013111720909364522
0.00012106527719879523
0.00012282872921787202
0.00013097198097966611
0.00012997470912523568
0.00013252206554170698
0.00013234373182058334
0.00013756778207607567
0.00011674484994728118
0.00013343470345716923
0.00012538257578853518
0.00011440866364864632
0.00011654895934043452
0.00013467512326315045
0.00011792211444117129
0.00014304392971098423
0.00022397746215574443
0.00013523278175853193
0.00014676597493235022
0.00013583875261247158
0.0001177801750600338
0.0001381963666062802
0.00014608552737627178
0.00011400855146348476
0.00010920561908278614
0.00011849368456751108
0.00013341379235498607
0.00012244023673702031
0.0001094174076570198
0.00014077195373829454
0.00011867683497257531
0.00015302086831070483
0.00013803735782857984
0.00014090035983826965
9.913725079968572e-05
0.00012291978055145591
0.00014709317474626005
0.00013996240159031004
0.00014932038902770728
0.00014729017857462168
0.00013435674190986902
0.00013844890054315329
0.00014013881445862353
0.00012361007975414395
0.00015666650142520666
0.00013140311057213694
0.00014146843750495464
0.00013578811194747686
0.00014258018927648664
0.00012329591845627874
0.00013301627768669277
0.00015522583271376789
0.0001339851733064279
0.00013329794455785304
8.080052793957293e-05
0.00013616099022328854
0.00017905676213558763
0.0001393308339174837
0.00011874693154823035
0.00013989217404741794
0.00013229995965957642
0.00014286050281953067
0.0001341805182164535
0.00013830015086568892
0.00013583639520220459
0.00013874366413801908
0.00013236716040410101
0.00015111446555238217
0.00011554714728845283
0.0001316305570071563
0.000132872854010202
0.00012901864829473197
0.0001359938905807212
0.0001340597664238885
0.0001257566618733108
0.00010111468145623803
0.0001386808871757239
0.00013100795331411064
0.0001274673268198967
0.0001511885493528098
0.00013546440459322184
0.00013101140211801976
0.0001295492984354496
0.00023016953491605818
0.0001393627026118338
0.0001223299332195893
0.00011277676094323397
0.000139036332257092
0.00013608178414870054
0.00011599266872508451
0.00013757722626905888
0.00014202050806488842
0.000141871118103154
0.00014546368038281798
0.00013967226550448686
0.00013209566532168537
0.00020715412392746657
0.00013408252561930567
0.00018904184980783612
0.00011197885760338977
0.00013123851385898888
0.00012521228927653283
0.00013262844004202634
0.0001052372608683072
0.0001427443785360083
0.00017028054571710527
0.00013107438280712813
0.0001228137844009325
0.00013816048158332705
0.00013665002188645303
0.00013696640962734818
0.00010954432946164161
0.00010551788727752864
0.0001434831938240677
0.00013996436609886587
0.00013491229037754238
0.0001387788652209565
9.98132090899162e-05
0.0001428657997166738
0.00011606650514295325
0.00015068308857735246
0.00011466343130450696
0.0001355764252366498
0.00013771839439868927
0.00016286683967337012
0.0001470676506869495
0.00013767641212325543
0.00014049952733330429
9.432017395738512e-05
0.0001373539853375405
0.00013236312952358276
0.00012007896293653175
0.00013179036614019424
0.0001366161450278014
0.00012899667490273714
0.0001370520330965519
0.00012582383351400495
0.00013038348697591573
0.0002680967445485294
0.00014429421571549028
8.969135524239391e-05
0.000132315035443753
0.00014335426385514438
0.00010344970360165462
0.00017367786495015025
0.0001228495966643095
0.00013007795496378094
0.00013254836085252464
0.00013244443107396364
0.00010476315947016701
0.0001310946827288717
0.00015878709382377565
0.00014133610238786787
0.00013416419096756727
0.00014544859004672617
0.00012524225166998804
0.00014558997645508498
0.00014495980576612055
0.00013796286657452583
0.00013164166011847556
6.231310544535518e-05
0.00013627826410811394
0.00013508765550795943
0.0001298227725783363
0.0001308406936004758
0.00014788603584747761
0.00013166849385015666
0.000134087516926229
0.00014537265815306455
0.00013502538786269724
0.00012711950694210827
0.00011242113396292552
0.00013360580487642437
0.00014139422273728997
0.00013487707474268973
0.00010246117017231882
0.00013949313142802566
0.00013268584734760225
0.00015820341650396585
0.0001681506255408749
0.0001287381601287052
0.00014505861327052116
0.00013350624067243189
0.00013451777340378612
0.0001351196551695466
0.00013888081593904644
0.00022796372650191188
0.00013034502626396716
0.00011216346319997683
0.00012773879279848188
0.0001247275504283607
0.0001357358123641461
0.00012502232857514173
0.0001338466099696234
0.00014602426381316036
0.0001271294750040397
0.0001357518049189821
0.00013369484804570675
0.00012963911285623908
0.00011203852045582607
0.00021195696899667382
0.00014065465074963868
0.00014048244338482618
0.00012194165901746601
0.00012567522935569286
0.00012699494254775345
0.00013243411376606673
0.000139470532303676
0.00012753710325341672
0.00014112988719716668
0.00013071318971924484
0.00012719733058474958
0.00013680136180482805
0.00012959580635651946
0.00013138557551428676
0.00010879486944759265
0.00013341476733330637
0.0001399187749484554
0.00013811634562443942
0.0001407865493092686
0.00014654330152552575
0.00014332021237351
0.0001416125742252916
0.0001978855871129781
0.0001259093260159716
0.00013319517893251032
0.00014815300528425723
0.0001526927517261356
0.0002571610966697335
0.00010614586062729359
0.00014949686010368168
0.00014722872583661228
0.0001366533397231251
0.00014440696395467967
0.00014286368968896568
0.0001253531954716891
0.00013461515482049435
0.00012915946717839688
0.0001365740317851305
0.00014327402459457517
0.0001419266773154959
0.00010401797771919519
0.00011273862764937803
0.00014283688506111503
0.00019320918363519013
0.00015278434148058295
0.00012236136535648257
0.0001290327636525035
0.00020582196884788573
0.0001246125320903957
0.00014034549531061202
0.0001005465310299769
0.00013569927250500768
0.00012866414908785373
0.00013449120160657912
0.000115418471978046
0.00011096653179265559
0.00013509691052604467
0.00014113774523139
0.00013225755537860096
0.00013456364104058594
0.000109998116386123
0.0001247950567631051
0.00020351844432298094
0.00014045811258256435
0.00014731366536580026
0.00013647355081047863
0.0001429909170838073
0.00014072321937419474
0.00013091864821035415
0.00012892487575300038
0.0001546803250676021
0.00011445829295553267
0.00012196086026960984
0.00013421385665424168
0.00013603607658296824
0.00013922389189247042
0.00012160219921497628
0.00013196488725952804
0.00011322069622110575
0.00016765508917160332
0.00013412882981356233
0.00014191567606758326
0.0001308968785451725
0.00013943885278422385
7.642349373782054e-05
0.0001449214032618329
0.00014373376325238496
0.00013618438970297575
0.00013228508760221303
0.00010441223275847733
0.0001375891297357157
0.00013558137288782746
0.00012152095587225631
0.00013181331451050937
0.00011875235941261053
0.00011641487071756274
0.00013594272604677826
0.00012284552212804556
0.00011577424447750673
0.00013550381117966026
0.0001438097096979618
0.00010899818880716339
0.00013169515295885503
0.00011150603677378967
0.00015997147420421243
0.000136986214783974
0.0001310084480792284
0.0001348208315903321
0.00016625795979052782
0.00013681795098818839
0.00012801712728105485
0.0001314115070272237
0.0001394521677866578
0.00011723366333171725
0.00014763331273570657
0.00011412665480747819
0.00013805033813696355
0.00013198985834605992
0.00015179386537056416
0.00015905193868093193
0.00013004295760765672
0.00014282824122346938
0.00014467556320596486
0.0001411981793353334
0.00014426815323531628
0.0001515701151220128
0.00013076556206215173
0.00013385115016717464
0.00027169319218955934
0.00012860019342042506
0.00013118058268446475
0.00014247222861740738
0.0001292932138312608
0.00013777553976979107
0.00011336178431520239
0.00013359998411033303
0.00013384304475039244
0.00013128841237630695
7.613893103552982e-05
0.0001467253896407783
0.00013354606926441193
0.00013690836203750223
0.00013360164302866906
0.00017268690862692893
0.000138652409077622
0.00013257893442641944
0.0001316213165409863
0.00013499485794454813
0.00011824509419966489
0.00013493742153514177
0.0001325098128290847
0.00010892444697674364
0.00014252988330554217
0.00013342300371732563
0.0001293081877520308
0.00011139906564494595
0.000135185313411057
0.00011426264973124489
0.0001388761738780886
0.00014258480223361403
0.00013832685363013297
0.00014902089606039226
0.000123960169730708
0.00031453583505935967
0.0001348229416180402
0.00013531329750549048
0.00013405040954239666
0.00012692446762230247
0.00012707764108199626
0.00010701011342462152
0.00014914217172190547
0.0001493484596721828
0.0001489312999183312
0.0001442665234208107
9.846016473602504e-05
0.0001456983882235363
0.00014895650383550674
0.00013464341463986784
0.0001311117084696889
0.00013002082414459437
0.00012731469178106636
0.0001462000363972038
0.00013340574514586478
0.00013333708920981735
0.00010109222057508305
0.0001374030252918601
0.00014016591012477875
0.00011561466089915484
0.00013692934589926153
0.00013276745448820293
0.00013758210116066039
0.00012852258805651218
0.00013251742348074913
0.0001338973524980247
0.00013052347640041262
0.000279357802355662
0.00013877003220841289
0.00013164227129891515
0.00012380066618788987
0.00013126034173183143
0.0001376401341985911
0.000135017471620813
0.00010994459444191307
0.00013527412374969572
0.00012807946768589318
0.00013150068116374314
0.00014809380809310824
0.00013091297296341509
0.00013800550368614495
0.00013444447540678084
0.0001402884954586625
0.00013801976456306875
0.00012011534272460267
0.00013138500798959285
0.0001478710473747924
0.00014723352796863765
0.00010065438982564956
0.00013675725494977087
0.00012722740939352661
0.00013221237168181688
0.0001340428862022236
0.00013699106057174504
0.00014201708836480975
0.00013204329297877848
0.00010920502245426178
0.00012781946861650795
0.00012886621698271483
0.0001470493880333379
0.00013327255146577954
0.00018195468874182552
0.00014005890989210457
0.00013314066745806485
0.0001369498495478183
0.00013161245442461222
0.0001376853761030361
0.00013662052515428513
0.0001403166534146294
0.00012571107072290033
0.00013727613259106874
0.0001307044003624469
0.0001322708703810349
0.00013553103781305254
0.00013106495316606015
0.00010148041474167258
0.0001377462613163516
0.000133915149490349
0.00014074462524149567
0.00012747987057082355
9.026301268022507e-05
0.0001189068061648868
0.00012447837798390538
0.00013608310837298632
9.577331366017461e-05
0.0001965271367225796
0.00013300050341058522
0.00011966119927819818
0.0001376081199850887
0.0001410519180353731
0.00014438679500017315
0.00010957604536088184
0.0001452070864615962
0.00012215050810482353
0.00013541002408601344
0.00011514147627167404
0.00012527310173027217
0.00011706597433658317
0.000138880277518183
0.00013694637164007872
0.00013259990373626351
0.0001480601349612698
0.00014379377535078675
0.0001111176170525141
0.00014588667545467615
0.0001670548808760941
0.00013625549036078155
0.00015379724209196866
0.00014663540059700608
0.00013146651326678693
0.00014602162991650403
0.0001302578893955797
0.00013248718460090458
0.00010258702241117135
0.00014720812032464892
0.00013466752716340125
0.00014168444613460451
0.00014176973490975797
0.0001355247077299282
0.00012552121188491583
0.0002363968815188855
0.00013152278552297503
0.00013879562902729958
0.0001413465797668323
0.0001240590790985152
0.0001464956731069833
0.00015352971968241036
0.00012274101027287543
0.00013908391701988876
0.0001697014959063381
0.00013465614756569266
9.896833216771483e-05
0.00014521654520649463
0.0001306662888964638
0.0001209835463669151
0.00013889491674490273
0.0001341014140052721
0.00013676367234438658
