0.003984161652624607
0.0037159333005547523
0.004029740113765001
0.0038369973190128803
0.004044949542731047
0.004002616740763187
0.0040026260539889336
0.0038245159666985273
0.00368070718832314
0.005545604042708874
0.003260763129219413
0.0033248590771108866
0.004291300196200609
0.003367488505318761
0.003644457785412669
0.0036339368671178818
0.0034848481882363558
0.003696983912959695
0.0037642766255885363
0.004101895727217197
0.004273782018572092
0.0039762225933372974
0.0038381910417228937
0.003795926459133625
0.004536063876003027
0.004689278081059456
0.003420855151489377
0.0037903457414358854
0.004357097204774618
0.003978655207902193
0.004447816871106625
0.0036097834818065166
0.004202093929052353
0.004051359836012125
0.004177211318165064
0.0031978890765458345
0.0031158316414803267
0.003795636584982276
0.0034203799441456795
0.0040449947118759155
0.002997829345986247
0.0036688619293272495
0.004855959210544825
0.004093111492693424
0.0043302313424646854
0.0030882381834089756
0.004357051104307175
0.0044176927767694
0.0038073942996561527
0.0034949139226228
0.0036974376998841763
0.0034275632351636887
0.0034862987231463194
0.003719304921105504
0.0034392380621284246
0.0037927611265331507
0.0036560199223458767
0.00359720760025084
0.0036119865253567696
0.0036807290744036436
0.005500595085322857
0.0038695100229233503
0.0031983049120754004
0.005626155994832516
0.00400279788300395
0.0036770824808627367
0.0037679218221455812
0.003957854118198156
0.004683596082031727
0.003292863955721259
0.007166395895183086
0.0046982187777757645
0.003802642924711108
0.0038716939743608236
0.0032755739521235228
0.003809241345152259
0.0036507700569927692
0.004387298133224249
0.004866593051701784
0.003104979172348976
0.0032898499630391598
0.003940040711313486
0.005494329147040844
0.003432710189372301
0.0034186411648988724
0.00337406387552619
0.0032821663189679384
0.0033110131043940783
0.004203991498798132
0.003824943909421563
0.004004578106105328
0.003405551193282008
0.003722831141203642
0.0035918629728257656
0.005344248376786709
0.003421783447265625
0.003933103755116463
0.004233859945088625
0.0034830172080546618
0.005747855640947819
0.00400630384683609
0.003685216885060072
0.004302198067307472
0.0038683549501001835
0.0037556258030235767
0.0032306036446243525
0.003425909671932459
0.003655778244137764
0.004043553955852985
0.003873807843774557
0.00434485450387001
0.004218897316604853
0.0035581369884312153
0.0037022314500063658
0.0034539883490651846
0.004007719457149506
0.0048503088764846325
0.0032748570665717125
0.004027290735393763
0.0038889991119503975
0.003500823862850666
0.003281008917838335
0.0038955332711338997
0.003538812743499875
0.004013789817690849
0.0038055262994021177
0.0032708016224205494
0.003786241402849555
0.0034154595341533422
0.003107588505372405
0.005473247263580561
0.004484850447624922
0.004622704815119505
0.00375125533901155
0.004085134249180555
0.004108761437237263
0.0040740338154137135
0.003802891355007887
0.003811619710177183
0.003729266347363591
0.003662364324554801
0.0033028055913746357
0.0037286351434886456
0.003576414193958044
0.003784028347581625
0.003920868970453739
0.004207892343401909
0.004132709465920925
0.003411460667848587
0.004022604785859585
0.0038901627995073795
0.0034203350078314543
0.003929603844881058
0.003376564010977745
0.0032543560955673456
0.003336466383188963
0.003451681463047862
0.002948588924482465
0.0037461582105606794
0.0033500760328024626
0.0031615307088941336
0.003599682357162237
0.00394816230982542
0.003419755958020687
0.0033568136859685183
0.003507759887725115
0.0036539097782224417
0.0032482801470905542
0.00370556628331542
0.0038252738304436207
0.003408830612897873
0.003404197981581092
0.004422866739332676
0.0032311202958226204
0.0031780297867953777
0.004459934309124947
0.0031866966746747494
0.0038766462821513414
0.0038646545726805925
0.00489440793171525
0.004253658931702375
0.003369811922311783
0.003733950201421976
0.004354807548224926
0.0036733949091285467
0.004163716919720173
0.0034475282300263643
0.00389300798997283
0.005449104588478804
0.006531972438097
0.0036715061869472265
0.0032818587496876717
