0.0006905606715008616
0.0006440695724450052
0.0006984606152400374
0.0006650531431660056
0.0007010967819951475
0.0006937594152987003
0.000693760986905545
0.0006628897972404957
0.0006379639380611479
0.0009611999266780913
0.000565176538657397
0.0005762860528193414
0.0007437958847731352
0.0005836748750880361
0.0006316810031421483
0.0006298574153333902
0.000604016415309161
0.0006407851469703019
0.0006524487398564816
0.0007109670550562441
0.0007407595403492451
0.0006891845841892064
0.000665260071400553
0.0006579345208592713
0.0007862198981456459
0.0008127759792841971
0.0005929247126914561
0.0006569672259502113
0.0007552002207376063
0.0006896062404848635
0.0007709243800491095
0.0006256710039451718
0.000728334067389369
0.0007022078498266637
0.0007240212871693075
0.0005542787839658558
0.0005400560912676156
0.000657884287647903
0.0005928423488512635
0.0007011046400293708
0.0005196031415835023
0.0006359108374454081
0.0008416662458330393
0.0007094445172697306
0.0007505436660721898
0.0005352734006009996
0.0007551922462880611
0.0007657030364498496
0.0006599221960641444
0.0006057610735297203
0.000640863785520196
0.0005940874107182026
0.0006042678141966462
0.0006446539773605764
0.0005961109418421984
0.0006573858554475009
0.0006336849764920771
0.0006234912434592843
0.0006260528462007642
0.0006379677215591073
0.0009533987031318247
0.000670688459649682
0.0005543509032577276
0.0009751617326401174
0.0006937907892279327
0.0006373357027769089
0.0006530805840156972
0.0006860008579678833
0.0008117911638692021
0.0005707404343411326
0.0012421261053532362
0.0008143256418406963
0.0006590986740775406
0.0006710670422762632
0.0005677436711266637
0.0006602423381991684
0.0006327750743366778
0.0007604348938912153
0.0008435093332082033
0.0005381750524975359
0.0005702180787920952
0.0006829132908023894
0.0009523126063868403
0.0005949795013293624
0.0005925410077907145
0.0005848145810887218
0.000568886287510395
0.0005738862091675401
0.000728662998881191
0.0006629640120081604
0.000694099348038435
0.0005902721313759685
0.0006452651578001678
0.0006225649267435074
0.0009262996609322727
0.0005930855986662209
0.0006817109533585608
0.0007338399882428348
0.0006036990671418607
0.0009962554322555661
0.0006943984772078693
0.0006387456087395549
0.0007456847815774381
0.0006704882835038006
0.0006509493105113506
0.0005599490832537413
0.0005938007961958647
0.0006336431251838803
0.000700854929164052
0.0006714334012940526
0.0007530782604590058
0.0007312465459108353
0.0006167193059809506
0.0006416946998797357
0.0005986675969325006
0.0006946438224986196
0.0008406869019381702
0.0005676193977706134
0.0006980360485613346
0.0006740664830431342
0.0006067854119464755
0.0005686856457032263
0.0006751990295015275
0.0006133699207566679
0.0006956959841772914
0.0006595983868464828
0.0005669164820574224
0.0006562558119185269
0.0005919894902035594
0.0005386273260228336
0.0009486585622653365
0.000777343288064003
0.000801237067207694
0.0006501917960122228
0.0007080618524923921
0.00071215711068362
0.0007061378564685583
0.0006591416895389557
0.0006606545648537576
0.0006463805329985917
0.0006347846356220543
0.0005724636139348149
0.0006462711608037353
0.0006198871997185051
0.0006558722234331071
0.0006795903318561614
0.0007293390808627009
0.0007163078989833593
0.0005912964115850627
0.000697223877068609
0.0006742681725881994
0.0005928345490247011
0.0006811043131165206
0.0005852478789165616
0.0005640660529024899
0.0005782979424111545
0.0005982677103020251
0.000511068501509726
0.0006493083783425391
0.0005806568078696728
0.0005479769315570593
0.0006239202339202166
0.0006843209848739207
0.0005927341990172863
0.0005818246281705797
0.0006079876329749823
0.0006333192577585578
0.0005630129016935825
0.0006422727019526064
0.0006630211719311774
0.0005908405291847885
0.0005900376127101481
0.0007665998418815434
0.0005600386648438871
0.0005508366739377379
0.0007730246288701892
0.0005523388390429318
0.0006719253724440932
0.0006698468932881951
0.0008483304409310222
0.0007372716790996492
0.0005840775556862354
0.0006471923552453518
0.0007548033609054983
0.0006366965244524181
0.0007216823287308216
0.0005975478561595082
0.0006747613078914583
0.0009444740135222673
0.0011321636848151684
0.0006363691645674407
0.0005688329692929983
