6.250640581129119e-05
0.0002772847074083984
0.00010741711594164371
0.00025816421839408576
0.00029724909109063447
8.528822218067944e-05
0.0004814322746824473
0.0003109828685410321
0.0003031583910342306
0.00018015102250501513
5.83213877689559e-05
0.00019908063404727727
0.00035414245212450624
0.00011587163317017257
0.0004843055794481188
0.00039908234612084925
0.00016115776088554412
0.00037744472501799464
9.35343123273924e-05
0.00037298514507710934
0.00020511707407422364
0.00011655998241622001
0.0006554783903993666
8.716244337847456e-05
0.0002113080263370648
7.42648626328446e-05
0.0001091377780539915
0.00038884239620529115
9.49831519392319e-05
0.00023996653908398002
0.00013790978118777275
0.00014697504229843616
0.00024621959892101586
0.00028796392143703997
9.538673475617543e-05
0.0002139941934728995
0.00011227760842302814
0.00021931782248429954
0.0004044899542350322
0.00011135842214571312
0.0002716378658078611
6.63601458654739e-05
0.00013916357420384884
0.00025276324595324695
0.000306634814478457
0.00027456553652882576
6.386420136550441e-05
0.00011386245751054958
0.0001989003794733435
0.00018497774726711214
0.0002923850843217224
0.00036216789158061147
0.0004967011045664549
0.000293445133138448
0.00015610596165060997
0.000458822789369151
0.0003728245501406491
7.993020699359477e-05
0.0003135516890324652
0.00021549873054027557
0.00029603534494526684
0.0003344033320900053
0.0006845445022918284
0.00035167820169590414
0.00018145909416489303
9.545841749059036e-05
0.00029389915289357305
0.00029988697497174144
0.0002583403547760099
0.00011554078082554042
0.0004006456001661718
0.0004128355358261615
0.0003436577972024679
7.63721764087677e-05
0.00014955487858969718
0.00010151159949600697
0.00038662535371258855
0.0001633439533179626
4.674758019973524e-05
0.0002418199583189562
8.365594840142876e-05
0.00026588357286527753
4.6347809984581545e-05
0.00017555220983922482
0.00015898194396868348
9.84836951829493e-05
7.67084420658648e-05
0.00011067473678849638
0.00024081776791717857
7.961702795000747e-05
0.00017722292977850884
0.00012273949687369168
0.00019841600442305207
0.0004385534848552197
0.0008566874894313514
8.644090848974884e-05
8.454824273940176e-05
0.0003182649379596114
0.00025076570454984903
0.00025333420489914715
0.00042781306547112763
0.0002572925586719066
0.0002702142228372395
0.00026158246328122914
0.00025185206322930753
7.433841528836638e-05
0.00035337754525244236
0.0005068923346698284
0.00031608689459972084
7.762532914057374e-05
0.0004363261687103659
0.0002977400436066091
0.00011659492884064093
0.0006860775756649673
0.0002657353470567614
9.708658762974665e-05
0.00017241050954908133
0.00029554410139098763
0.00013386709906626493
0.00020482235413510352
0.00019681686535477638
6.299863161984831e-05
0.0003458547289483249
0.00020366602984722704
0.00010256993846269324
0.00034569273702800274
7.578540680697188e-05
0.00044373166747391224
0.0004414816212374717
9.01129242265597e-05
0.0003661848895717412
0.00018724368419498205
0.0005639273440465331
0.00022379710571840405
0.00010444991494296119
0.00027742181555368006
0.00029157084645703435
0.00012517115101218224
0.0002333847078261897
0.00016473556752316654
0.00026863435050472617
0.00019017508020624518
0.00045193926780484617
0.0003157539467792958
0.00031098222825676203
0.0001921273214975372
0.00025963428197428584
0.0004618908278644085
0.000262507819570601
0.00026102870469912887
0.00031425728229805827
0.00024715688778087497
8.295970474136993e-05
0.00014724605716764927
0.0006003184826113284
9.453095844946802e-05
0.0001493895542807877
0.00032679608557373285
0.00022436887957155704
0.00019013213750440627
0.0004208625468891114
0.00040224051917903125
0.00020854585454799235
0.0004151421890128404
0.00025371555238962173
8.108008478302509e-05
0.00037760307895950973
0.0003966190852224827
0.00014880626986268908
0.00011721525515895337
7.433539576595649e-05
0.00029938205261714756
0.00024001426936592907
0.0004286422044970095
0.0003014167014043778
0.00011057109804823995
6.886987102916464e-05
0.00034983991645276546
0.00016714740195311606
0.00015537046419922262
7.000762707320973e-05
0.00033084198366850615
0.00011515025107655674
0.0001749473303789273
0.00022124075621832162
0.0002727493119891733
0.0003827754990197718
0.00037488763337023556
0.00033560447627678514
0.0003337722737342119
0.00025207485305145383
0.00014688224473502487
0.00043561274651438
0.00044272965169511735
0.00036648233071900904
0.0003751396434381604
9.84536818577908e-05
0.0003099264285992831
0.00022135202016215771
0.00016147813585121185
0.00026478187646716833
0.0003606756799854338
0.0002183517353842035
0.00032740316237322986
0.0001421217602910474
0.00010447590466355905
9.960593160940334e-05
0.0003350689075887203
0.00017299759201705456
0.0003555519215296954
0.0004334399418439716
0.0001979464723262936
0.0004462581709958613
0.00031181180384010077
0.00021739867224823684
0.00026970283943228424
8.20794448372908e-05
9.358991519547999e-05
0.0002672744158189744
0.000252036057645455
0.00037961130146868527
0.0004412958223838359
0.00013521402433980256
0.00032856184407137334
0.00010108165588462725
7.853485294617712e-05
0.0005950329941697419
0.0003674179897643626
0.0002819049987010658
9.058417344931513e-05
0.00024222827050834894
0.00017438891518395394
0.0003077565925195813
0.00032008765265345573
0.0004867923853453249
0.00017457385547459126
0.0002168963837902993
0.00030035554664209485
0.00013429798127617687
0.0001456815516576171
0.00020113105711061507
0.0002486075391061604
7.78863686718978e-05
0.0002297403698321432
0.0002147807099390775
0.0001538041833555326
0.00017678677977528423
0.0004562150570563972
0.0004906091489829123
0.00011032880138373002
0.00026075445930473506
0.00021300907246768475
0.00010830993414856493
0.00021581313922069967
0.00017112762725446373
6.182143988553435e-05
0.00022995163453742862
0.00025431072572246194
0.0002576875558588654
0.00013693749497178942
0.00019902552594430745
0.00014904802083037794
0.00020890517043881118
0.00042796501656994224
0.00021690419816877693
0.00021938983991276473
0.0002946637978311628
0.00013967472477816045
0.0003151657001581043
0.0007297677220776677
0.00015966931823641062
8.539814007235691e-05
6.400399433914572e-05
0.00016930900164879858
0.0003241254889871925
0.0001539000659249723
0.00020106630108784884
0.00015031245129648596
0.00039978447603061795
0.0002537005057092756
0.0002593020617496222
0.0002742215001489967
0.00027532069361768663
0.00020482874242588878
0.00028465536888688803
0.00040176327456720173
0.0001046636316459626
0.000554187863599509
0.0003409477649256587
0.0006938216974958777
0.0001558840012876317
0.00010700739949243143
8.346867252839729e-05
0.00013811112148687243
0.00010470958659425378
0.00025226801517419517
0.00010203033889411017
0.00024021705030463636
0.00020407288684509695
0.00018039694987237453
0.00013519679487217218
0.00012948962103109807
0.0002699611068237573
0.0002109211345668882
0.00012968850205652416
7.481117063434795e-05
0.00021972031390760094
0.00017467289580963552
0.00026550295297056437
0.00010421016486361623
0.00011643883772194386
0.0002806432021316141
0.00027025121380575
0.0008126263855956495
0.00016343762399628758
0.0002748128608800471
7.441352499881759e-05
0.00036854116478934884
0.00023140783014241606
0.00013574928743764758
6.989347457420081e-05
0.00023413340386468917
0.0002897518570534885
0.0002213719708379358
0.0002669614041224122
0.0001565615675644949
0.0009960569441318512
0.00033928584889508784
0.00046263079275377095
0.00037564930971711874
0.0002578991698101163
0.0004201370757073164
7.159131928347051e-05
0.00024669492268003523
0.0003997613675892353
0.00015407652244903147
0.0004459260089788586
0.00039014749927446246
6.609563570236787e-05
0.0003977201122324914
0.00011364935198798776
0.00036656338488683105
7.693933002883568e-05
8.939494000514969e-05
0.0003897647256962955
0.00016465371300000697
0.00010142640530830249
0.00031127152033150196
0.00011709886894095689
0.00019186433928553015
0.00021304025722201914
0.00023781636264175177
0.00042273287544958293
0.0002758132468443364
5.820591468364e-05
0.0003413993108551949
0.00028329913038760424
0.0001008470353554003
0.0002011861652135849
0.00047031286521814764
0.00022735119273420423
0.0002907862071879208
0.00013799633597955108
0.00024304704857058823
0.0001503398088971153
6.622591172344983e-05
0.0001451189600629732
0.00014205786283127964
0.00011866234854096547
0.00023797531321179122
0.00040192031883634627
0.00030772521859034896
0.0003379916597623378
0.0001157822334789671
0.0009038391872309148
0.0006050283554941416
8.044415881158784e-05
0.0002605312329251319
0.0002938407997135073
0.0002802852832246572
0.000357957964297384
0.00026914378395304084
8.011615864234045e-05
0.0002716431044973433
7.014271977823228e-05
0.00013766148185823113
0.00028541855863295496
0.00010854763968382031
0.00011777333565987647
0.0004980890080332756
0.0001694380771368742
0.0006111005786806345
0.00021925687906332314
0.0002230649843113497
0.00031593910534866154
0.0003263107209932059
9.920202865032479e-05
0.00023205962497740984
7.950615690788254e-05
8.163902384694666e-05
0.00029829138657078147
0.00011440116941230372
0.00010682838910724968
0.00013194551866035908
0.00019382830942049623
5.350663559511304e-05
8.337776671396568e-05
0.00026219867868348956
9.044229955179617e-05
6.776569352950901e-05
5.925830555497669e-05
0.0002618698636069894
0.00015980241005308926
8.03067086962983e-05
0.00031172428862191737
0.0005926431622356176
0.0004720631695818156
0.00011001970415236428
0.0003727138973772526
0.00012865688768215477
0.00010608191223582253
0.0002507217286620289
7.80506306909956e-05
0.0002382262027822435
0.0003204829408787191
9.268896246794611e-05
0.00036571879172697663
0.00019550630531739444
0.00024836414377205074
0.0001817928859964013
0.0002621773455757648
0.00011044779239455238
0.000288812123471871
6.676778139080852e-05
0.0004824773350264877
0.00010069116251543164
0.00015849439660087228
9.805496665649116e-05
0.0004282325098756701
0.00022745384194422513
0.00021470706269610673
0.0004330452356953174
0.0004546007257886231
0.0004830117686651647
6.240593211259693e-05
0.0002540266723372042
9.267905988963321e-05
7.12250912329182e-05
8.515916852047667e-05
0.0002495905209798366
8.395632903557271e-05
0.00018398500105831772
0.000531660916749388
9.919984586304054e-05
0.0001842818019213155
0.0003304801939520985
9.640227654017508e-05
0.00012128971866331995
9.693008178146556e-05
0.00027363127446733415
8.67683338583447e-05
0.00021427060710266232
5.994677485432476e-05
0.00013043762010056525
0.00033427015296183527
0.0007969147409312427
0.00025377250858582556
0.0002488973259460181
0.00011037696822313592
0.00020051360479556024
0.0003150300763081759
0.0002530429046601057
0.00020021868112962693
0.00022397020075004548
0.0006705285632051528
0.00032656456460244954
0.00030232599237933755
0.00012526125647127628
0.00029523615376092494
0.000387580570532009
0.0001809280802262947
0.0003625305544119328
8.652702672407031e-05
0.000277935090707615
0.00019508769037202
9.805443551158533e-05
6.325166032183915e-05
0.00034308084286749363
0.00018637374159879982
0.00039225039654411376
0.0004806939687114209
0.00028628366999328136
0.00017692000255919993
0.0002446117578074336
9.986198710976169e-05
0.00014812685549259186
0.00031476971344091
0.0003286314895376563
0.00011396906484151259
0.00019029183022212237
8.031721517909318e-05
0.00021562434267252684
0.00019116932526230812
0.0001348797231912613
0.0003390917554497719
0.00012459189747460186
0.00013278076949063689
0.0003178939805366099
0.00020749038958456367
0.00016201585822273046
9.768308518687263e-05
0.00022952904691919684
0.00029415194876492023
0.00010227070742985234
0.00035660446155816317
9.772639168659225e-05
0.0002993637463077903
0.00042730741552077234
0.00016447430243715644
0.00026662505115382373
0.00040020528831519186
0.00010093046876136214
9.002083970699459e-05
0.00033350568264722824
0.00034985231468454003
0.0003985421790275723
0.00011139586422359571
0.0005061245756223798
0.000292841752525419
0.00014146178727969527
7.99396148067899e-05
0.00028987551922909915
6.252893945202231e-05
0.0003518831799738109
0.0002250435936730355
0.0005878359079360962
9.471337398281321e-05
0.0003584536025300622
0.0003493701806291938
9.914189286064357e-05
0.00013095804024487734
6.211629079189152e-05
5.704619252355769e-05
0.0002865979040507227
0.0003999725740868598
0.0002471100597176701
0.00010725879110395908
0.00011770108540076762
9.647675324231386e-05
0.0002722066128626466
0.0003802108985837549
0.0004189768515061587
7.621890836162493e-05
7.762606401229277e-05
7.672744686715305e-05
0.00013958009367343038
0.00036572967655956745
9.272105671698228e-05
0.00031802314333617687
0.00018832240311894566
0.00013077804760541767
9.616269380785525e-05
0.00035839452175423503
0.0001283010933548212
0.0005055604269728065
0.00011928742605959997
0.00027533137472346425
0.00028144626412540674
0.00019868281378876418
0.00023877483909018338
0.00033783901017159224
0.00042589966324158013
6.736807699780911e-05
0.0003623698721639812
0.0004409124085213989
0.000269674084847793
5.492362834047526e-05
0.0003674914187286049
7.366236241068691e-05
8.632914978079498e-05
0.0003098946181125939
0.0003584252262953669
6.18717895122245e-05
9.63153870543465e-05
0.0001036298053804785
9.843006409937516e-05
0.00020678233704529703
5.521917773876339e-05
0.00018499048019293696
0.00031120702624320984
0.0003456000704318285
0.0002982129226438701
0.00013316106924321502
0.0002305150410393253
0.0001370992249576375
0.00027238429174758494
6.536830915138125e-05
0.00026474022888578475
0.0002643282350618392
0.0002154131216229871
0.00015019801503513008
0.00019621651154011488
0.00022730660566594452
0.00013485303497873247
0.0003025664191227406
0.0001000954071059823
0.00023688700457569212
0.00018103671027347445
6.896553531987593e-05
0.0006736742798238993
0.00020259624579921365
0.0001429916446795687
0.00028633486363105476
9.242147643817589e-05
0.00014318147441372275
0.00045649154344573617
8.51773947943002e-05
0.0004936975310556591
5.9521760704228655e-05
0.0001034172237268649
0.0001669811608735472
0.00010278628906235099
0.00018777663353830576
0.00045244136708788574
0.0002381072408752516
5.8188736147712916e-05
0.00032529010786674917
0.00022533879382535815
0.00039219745667651296
0.00033092524972744286
0.00042848658631555736
0.00025431683752685785
0.0003796643577516079
0.00023343607608694583
0.00011011987953679636
0.00010627277515595779
0.00027588638477027416
0.0004012699064332992
0.00011022007674910128
0.00019623932894319296
0.00035644916351884604
6.534179556183517e-05
8.326641545863822e-05
0.0003834536764770746
0.0002176121633965522
0.0002627639041747898
0.0003320655960123986
0.00045151705853641033
8.358017657883465e-05
0.0002454552741255611
7.356694550253451e-05
0.000304784276522696
0.00010379611194366589
7.074701716192067e-05
0.00014671160897705704
5.251245966064744e-05
0.00014282684423960745
6.110133836045861e-05
0.00034341830178163946
0.0004053415614180267
0.00010846106306416914
0.000328065303619951
0.00030562543543055654
0.0003363382420502603
0.0004353756085038185
0.00023135766969062388
0.00012556712317746133
0.0003064309130422771
0.0002988589694723487
0.00023057105136103928
0.00042560813017189503
0.0002132003428414464
0.000557485269382596
0.0002121580037055537
0.00020690556266345084
0.0006297433283179998
0.00011786431423388422
7.518483471358195e-05
0.0004951870068907738
0.0003914900007657707
0.000340030703227967
0.000442236167145893
0.00019544322276487947
0.00018793644267134368
0.00017834921891335398
0.00026126406737603247
0.0001755077828420326
0.0002762391231954098
0.0004916572943329811
6.531432154588401e-05
0.0001814707211451605
8.224866905948147e-05
0.0001809343957575038
0.00022648305457551032
7.252738578245044e-05
0.00041766715003177524
7.002019265200943e-05
7.998910587048158e-05
0.00034633936593309045
0.00021628873946610838
0.00033267229446209967
0.00010217098315479234
0.00018923022435046732
8.09085468063131e-05
0.00016974769823718816
0.0005027719889767468
0.00011720672773662955
0.0004107868007849902
6.23582600383088e-05
0.0004181762342341244
0.0004907806869596243
0.00016282169963233173
0.0005506350426003337
0.00015219676424749196
0.00014656191342510283
0.0005228392546996474
0.00017307377129327506
0.00014626435586251318
0.00030114376568235457
0.00017190292419400066
0.00010767994535854086
0.0007930136052891612
0.00010471390123711899
0.0002518193796277046
0.00014727417146787047
0.00015037806588225067
8.123867883114144e-05
0.0003116558655165136
0.00042464013677090406
0.0005526588065549731
0.00020480954844970256
0.0001733230019453913
0.00038598288665525615
0.00011184066534042358
0.00028140077483840287
0.00023124204017221928
0.0002472232736181468
0.0003491267270874232
0.0009445750038139522
0.0003414596721995622
8.955656085163355e-05
0.00010706744797062129
0.0004112090973649174
0.0002535762032493949
0.0004611302283592522
0.0002359519130550325
4.7594956413377076e-05
0.0007402842747978866
0.00021087443747092038
0.00019750373030547053
0.00032213915255852044
0.00022113959130365402
0.0001951410959009081
0.0001725390466162935
0.0001463724038330838
0.00020155622041784227
7.143455877667293e-05
0.00032308188383467495
0.0002476925728842616
6.986278458498418e-05
9.928977669915184e-05
0.0004002378263976425
7.965716940816492e-05
0.00023553661594633013
6.837734690634534e-05
0.0005500835250131786
6.73093309160322e-05
0.0001292885426664725
6.88506115693599e-05
0.00033254033769480884
0.0003295295173302293
0.000149357074405998
0.00042651427793316543
7.969680154928938e-05
0.0003477376012597233
8.601701847510412e-05
0.00034350735950283706
0.00035193076473660767
0.0002730001288000494
0.00022214246564544737
0.00025670340983197093
0.00016964308451861143
0.00040680746315047145
0.0002157314302166924
0.00037289466126821935
0.0002777467016130686
0.000304593238979578
0.00045694090658798814
7.178910891525447e-05
0.00013077157200314105
0.0004799329908564687
6.003640010021627e-05
9.724256960907951e-05
0.00027854106156155467
0.0001446328533347696
0.00019987621635664254
0.0003821086429525167
0.00020287532242946327
0.0002795564359985292
7.403548079309985e-05
0.0001350286474917084
9.427957411389798e-05
0.0004648833710234612
0.00019040929328184575
0.0005550128407776356
0.00016822079487610608
0.00033179778256453574
0.00026447931304574013
0.00014759392070118338
6.839665729785338e-05
7.352383545367047e-05
0.00014440722588915378
0.00043153722072020173
0.0003829383640550077
0.00029147727764211595
0.00030937042902223766
0.00013243126159068197
0.0003543719358276576
0.0002674599818419665
0.0004155341302976012
0.0010019319597631693
0.00021674645540770143
0.0004760830197483301
0.00025204941630363464
0.00024159155145753175
0.0002473222848493606
9.76071460172534e-05
0.00012710632290691137
0.00017921693506650627
0.00023200688883662224
7.069695857353508e-05
0.00028161719092167914
0.0001447562244720757
4.505300967139192e-05
0.0002501203853171319
7.882434147177264e-05
0.00028831930831074715
0.000357250333763659
0.00019081466598436236
0.0004932339070364833
0.00026461455854587257
0.00011355298920534551
9.178757318295538e-05
0.00038332416443154216
0.0003329818428028375
0.0003862744488287717
0.00021471164654940367
0.0002865593123715371
0.0002419691445538774
0.00029061667737551033
0.0001435924496036023
0.0003182446234859526
0.00010842741176020354
0.00029417057521641254
0.0001685764582362026
0.00013352750102058053
9.640650387154892e-05
7.513557648053393e-05
0.00042794900946319103
0.00038886634865775704
0.00022947107208892703
0.0002304904191987589
7.422984344884753e-05
0.00015452639490831643
0.0005694690626114607
0.00011033153714379296
0.00013874383876100183
0.00041177039383910596
0.00017693437985144556
0.00017577687685843557
7.976253982633352e-05
8.38410051073879e-05
0.00018230581190437078
0.0001727962662698701
0.00034917148877866566
8.15176754258573e-05
0.0003450686053838581
0.0004103141836822033
0.0003169892879668623
0.0004066073161084205
0.00010653872595867142
9.840599523158744e-05
0.0003879267314914614
0.00035369949182495475
0.0001903254451462999
0.00029943042318336666
0.0005876095965504646
5.403650357038714e-05
0.000479560112580657
0.0005613733665086329
0.0002017327497014776
8.240936585934833e-05
0.0002496283268555999
0.0002033565688179806
8.555725798942149e-05
5.2831604989478365e-05
0.0001002783392323181
0.0009152812999673188
0.0003849688800983131
0.000361472659278661
0.0003591855929698795
0.00022305517632048577
0.000175820488948375
8.376560435863212e-05
0.00048188961227424443
0.00015974175767041743
0.0003421319415792823
0.00021559208107646555
7.08713341737166e-05
0.00022707613243255764
8.138659177348018e-05
0.00027724524261429906
7.443811045959592e-05
0.00047709845239296556
0.00025913032004609704
0.00040259287925437093
0.00029492206522263587
0.0002658297016751021
6.123504863353446e-05
0.0003777327365241945
0.00016407053044531494
0.0001610015460755676
0.0006657835328951478
0.0002701254852581769
0.00020961271366104484
7.592766633024439e-05
0.00021584698697552085
0.00036102422745898366
0.000370356923667714
0.0003931991523131728
0.00021577841835096478
0.00011746702512027696
0.0004172672634012997
0.0001595347566762939
0.00025843235198408365
0.00016863920609466732
0.0002499769034329802
0.0004232714418321848
0.0003829081542789936
0.0004531646554823965
0.0001794391282601282
0.00023750377295073122
0.00024534674594178796
0.00032008683774620295
8.967366011347622e-05
0.00012543374032247812
0.0005540415877476335
0.0005007965955883265
0.00024251840659417212
0.00043852953240275383
0.0002281175839016214
8.031888137338683e-05
0.0003094089624937624
6.768372986698523e-05
7.889913104008883e-05
8.242220064857975e-05
0.00018608545360621065
0.0003120101464446634
0.00039359560469165444
0.00024088330974336714
0.0002781188813969493
0.00011610160436248407
9.503967157797888e-05
0.00026771516422741115
0.00010460323392180726
0.0003424951864872128
0.0002931778726633638
0.00044790946412831545
0.00016992929158732295
0.0001316038687946275
0.00010519974603084847
0.00016836378199514002
0.00043747047311626375
0.0002787093981169164
0.00015628637629561126
0.00035680882865563035
0.000307941110804677
0.00012521856115199625
6.11856157775037e-05
6.84074402670376e-05
8.376222831429914e-05
8.220711606554687e-05
0.0003720708773471415
0.00015737961803097278
0.0006533570121973753
0.00015957726282067597
0.0002702903875615448
0.0002786590775940567
0.0001018521943478845
0.000140096279210411
0.00019297997641842812
0.0001002008793875575
0.00042713203583844006
0.00015874466043896973
0.00015970697859302163
8.33038502605632e-05
0.00010969063441734761
0.00010577060311334208
7.242567517096177e-05
0.00024549488443881273
0.00036049660411663353
0.0003383053990546614
0.0003301436372566968
0.00016667407180648297
0.00039511456270702183
0.0002349943242734298
0.0004230507183820009
0.00026342360069975257
0.0002541086287237704
0.00035433800076134503
0.00020767739624716341
0.0003381095884833485
0.00022772957163397223
0.00017591654614079744
5.893600609852001e-05
0.00021970632951706648
0.00016304162272717804
0.0003827629843726754
7.872882270021364e-05
0.0002098155819112435
0.0004057248879689723
0.0002453574852552265
0.00015889114001765847
0.000379157077986747
0.000236649124417454
0.0001688388001639396
0.00024112503160722554
0.0002542488800827414
0.0002497904351912439
0.00015382899437099695
8.229089871747419e-05
9.572157432558015e-05
0.0004072953306604177
0.00022261640697252005
0.0002773520245682448
0.000366583582945168
0.00048106859321705997
8.143057493725792e-05
0.0004408398817759007
0.0003097321605309844
0.00020791651331819594
0.00034261291148141026
0.00011213397374376655
0.0004377755685709417
0.00016275476082228124
0.0003484846674837172
7.074439781717956e-05
0.00013963411038275808
0.0003463680623099208
0.00017337303142994642
0.0002776093315333128
0.00029301794711500406
8.641759632155299e-05
0.0002431582543067634
0.0001939910143846646
0.00012406242603901774
0.0004092059680260718
0.00038507915451191366
0.0002791949373204261
0.00025005347561091185
0.0003135149599984288
0.0003236049960833043
0.0002048179303528741
0.0003513797710184008
7.607707811985165e-05
0.00033177551813423634
9.663967648521066e-05
0.00033442681888118386
6.701249367324635e-05
5.918144233874045e-05
0.00022776509285904467
8.002848335308954e-05
0.00013247592141851783
0.00010144554835278541
0.00014864734839648008
0.0002841154346242547
0.00022013044508639723
0.00042379405931569636
7.108287536539137e-05
8.859096124069765e-05
0.00010511197615414858
7.077002373989671e-05
0.00021673529408872128
0.00038824317744001746
0.00023982494894880801
0.00015480681031476706
0.0001967746065929532
0.0004226319142617285
0.00019024746143259108
0.00011058303789468482
0.0009299935190938413
0.0002882612170651555
0.00027310848236083984
0.000122326091513969
0.00018203056242782623
0.00014433087198995054
8.721410267753527e-05
0.00030976810376159847
0.0005545024760067463
9.822372521739453e-05
0.0001143371409852989
0.00018565301434136927
0.0003280396049376577
6.488440703833476e-05
0.00022541677753906697
0.00023289324599318206
0.0002705069782678038
0.00023197651898954064
0.00014363715308718383
0.00034040844184346497
0.0002499989641364664
0.0002231919497717172
0.0003878932911902666
0.00017842939996626228
6.745173595845699e-05
0.00018046949116978794
0.0004044090455863625
0.00011690832616295666
0.0004874130245298147
8.789540879661217e-05
0.0003096592263318598
8.315750164911151e-05
0.0001453305158065632
0.0001434185542166233
0.00014427449787035584
0.0005143980379216373
0.0003967480733990669
0.0002561912115197629
0.00016093772137537599
0.00013419342576526105
0.0003224899701308459
0.0002536157553549856
0.00022956597968004644
0.00020069484889972955
0.0003085685893893242
0.00028946215752512217
0.0001124855552916415
0.0002364624961046502
8.874274499248713e-05
6.637084879912436e-05
0.000411101384088397
0.00022793345851823688
0.00038382664206437767
0.00030057993717491627
0.0002399415971012786
0.00015777230146341026
0.00017507298616692424
0.00033621155307628214
7.328840001719072e-05
0.00024434231454506516
0.00021271462901495397
0.00022026532678864896
