2.1366935470723547e-05
9.478587890043855e-05
3.671903323265724e-05
8.824980614008382e-05
0.0001016104215523228
2.9154580261092633e-05
0.00016457085439469665
0.00010630512406351045
0.00010363043838879094
6.158209725981578e-05
1.9936347598559223e-05
6.805291923228651e-05
0.00012105861969757825
3.960909089073539e-05
0.0001655530504649505
0.0001364206982543692
5.5089516536099836e-05
0.00012902417802251875
3.19733917422127e-05
0.00012749973393511027
7.011638808762655e-05
3.984439172199927e-05
0.00022406606876756996
2.9795255613862537e-05
7.223268039524555e-05
2.538640001148451e-05
3.730721437023021e-05
0.0001329203078057617
3.246865526307374e-05
8.202918979804963e-05
4.7142519179033116e-05
5.0241353164892644e-05
8.416670607402921e-05
9.843641601037234e-05
3.2606614695396274e-05
7.31509062461555e-05
3.8380523619707674e-05
7.497071783291176e-05
0.00013826919894199818
3.806631139013916e-05
9.285558917326853e-05
2.2684283976559527e-05
4.75711131002754e-05
8.640356099931523e-05
0.00010481879871804267
9.3856368039269e-05
2.183107972086873e-05
3.892228050972335e-05
6.7991299147252e-05
6.323204434011132e-05
9.994773427024484e-05
0.00012380200496409088
0.0001697902916930616
0.0001003100915113464
5.336262984201312e-05
0.00015684212849009782
0.00012744482955895364
2.7323018002789468e-05
0.0001071832375600934
7.366521458607167e-05
0.00010119552462128922
0.0001143110785051249
0.00023400191275868565
0.00012021625298075378
6.202924123499542e-05
3.2631120120640844e-05
0.00010046529496321455
0.00010251214553136379
8.83100219652988e-05
3.949599340558052e-05
0.0001369550736853853
0.00014112202916294336
0.0001174745848402381
2.6106754376087338e-05
5.112323196954094e-05
3.470031515462324e-05
0.00013216244406066835
5.583683378063142e-05
1.5980003809090704e-05
8.266275108326226e-05
2.8596610718523152e-05
9.08885631361045e-05
1.584334677318111e-05
6.001005749567412e-05
5.434574268292636e-05
3.366526652825996e-05
2.6221703592455015e-05
3.7832603993592784e-05
8.232016989495605e-05
2.7215961381443776e-05
6.058116923668422e-05
4.1956773202400655e-05
6.782572017982602e-05
0.00014991335046943277
0.0002928465837612748
2.9548609745688736e-05
2.890162795665674e-05
0.00010879439651034772
8.572073420509696e-05
8.65987385623157e-05
0.00014624188770540059
8.79518483998254e-05
9.236893674824387e-05
8.941828855313361e-05
8.609209180576727e-05
2.5411542083020322e-05
0.00012079715088475496
0.00017327402019873261
0.00010804986231960356
2.653512819961179e-05
0.00014915196516085416
0.00010177824879065156
3.985633884440176e-05
0.00023452597088180482
9.083789336727932e-05
3.318768722238019e-05
5.893610796192661e-05
0.00010102759551955387
4.5760585635434836e-05
7.001564517850056e-05
6.727907748427242e-05
2.153519744751975e-05
0.00011822558008134365
6.962037150515243e-05
3.506209031911567e-05
0.0001181702027679421
2.590617623354774e-05
0.0001516834308858961
0.00015091428940650076
3.080383612541482e-05
0.00012517515278887004
6.400662095984444e-05
0.00019277063256595284
7.650189218111336e-05
3.570473563740961e-05
9.483275061938912e-05
9.966939251171425e-05
4.278800042811781e-05
7.977928180480376e-05
5.631253952742554e-05
9.18288787943311e-05
6.500868039438501e-05
0.0001544890837976709
0.0001079360517906025
0.00010630490578478202
6.56760239508003e-05
8.875232742866501e-05
0.00015789088502060622
8.973461081041023e-05
8.922899723984301e-05
0.00010742443555500358
8.448711014352739e-05
2.8358608687995e-05
5.0333994295215234e-05
0.00020521043916232884
3.231408118153922e-05
5.1066719606751576e-05
0.00011171065125381574
7.669734623050317e-05
6.499399751191959e-05
0.00014386595285031945
0.00013750026118941605
7.128847209969535e-05
0.00014191052468959242
8.672909461893141e-05
2.77160870609805e-05
0.00012907831114716828
0.00013557866623159498
5.08673329022713e-05
4.0068389353109524e-05
2.541051071602851e-05
0.00010233954526484013
8.204550249502063e-05
0.0001465253153583035
0.00010303506132913753
3.7797177355969325e-05
2.3542197595816106e-05
0.00011958785762544721
5.713698919862509e-05
5.311120912665501e-05
2.393112299614586e-05
0.00011309367982903495
3.936249413527548e-05
5.980328569421545e-05
7.562804239569232e-05
9.323551785200834e-05
0.00013084642705507576
0.00012815007357858121
0.0001147216753452085
0.00011409536091377959
8.616824925411493e-05
5.0209629989694804e-05
0.00014890808961354196
0.0001513409079052508
0.00012527682702057064
0.00012823622091673315
3.3655007428023964e-05
0.00010594399645924568
7.566607382614166e-05
5.519903061212972e-05
9.051195956999436e-05
0.00012329191667959094
7.464046939276159e-05
0.00011191816884092987
4.858232568949461e-05
3.571361958165653e-05
3.404888775548898e-05
0.00011453859769972041
5.9136797062819824e-05
0.00012154042633483186
0.0001481653453083709
6.766521983081475e-05
0.00015254708705469966
0.00010658848623279482
7.431468111462891e-05
9.21941245906055e-05
2.8057704184902832e-05
3.1992396543500945e-05
9.13640033104457e-05
8.615498518338427e-05
0.00012976478319615126
0.00015085077029652894
4.622101550921798e-05
0.00011231425014557317
3.455334444879554e-05
2.684603532543406e-05
0.0002034036733675748
0.00012559667811729014
9.636526374379173e-05
3.096492582699284e-05
8.280233305413276e-05
5.9612400946207345e-05
0.00010520226351218298
0.00010941746586468071
0.000166403129696846
5.967561810393818e-05
7.414298306684941e-05
0.00010267232573824003
4.590787648339756e-05
4.979918958269991e-05
6.875382678117603e-05
8.498299575876445e-05
2.6624360543792136e-05
7.853351416997612e-05
7.34197674319148e-05
5.2575796871678904e-05
6.0432077589211985e-05
0.00015595070726703852
0.00016770783986430615
3.771435149246827e-05
8.913524652598426e-05
7.281416037585586e-05
3.702423055074178e-05
7.377268775599077e-05
5.849757508258335e-05
2.1132789697730914e-05
7.86057353252545e-05
8.693254494573921e-05
8.80868683452718e-05
4.6810157073196024e-05
6.803408177802339e-05
5.094996959087439e-05
7.141129754018039e-05
0.00014629382349085063
7.414565334329382e-05
7.499533239752054e-05
0.00010072667646454647
4.7745841584401205e-05
0.00010773496615001932
0.0002494608343113214
5.4580712458118796e-05
2.9192153306212276e-05
2.1878866391489282e-05
5.787590271211229e-05
0.00011079774412792176
5.26085750607308e-05
6.873168604215607e-05
5.1382197852944955e-05
0.00013666070299223065
8.672395051689819e-05
8.863876428222284e-05
9.373876673635095e-05
9.411451173946261e-05
7.001782796578482e-05
9.730543388286605e-05
0.00013733713421970606
3.577778988983482e-05
0.00018944132898468524
0.00011654820264084265
0.0002371731970924884
5.3286756156012416e-05
3.6578974686563015e-05
2.853259320545476e-05
4.7211346100084484e-05
3.579350232030265e-05
8.623427856946364e-05
3.4877637517638505e-05
8.211482054321095e-05
6.975945143494755e-05
6.166616367409006e-05
4.6215125621529296e-05
4.4264208554523066e-05
9.2282411060296e-05
7.210042531369254e-05
4.433219146449119e-05
2.5573146558599547e-05
7.510829891543835e-05
5.970947313471697e-05
9.075845446204767e-05
3.562277925084345e-05
3.980298060923815e-05
9.593393770046532e-05
9.238158236257732e-05
0.00027778491494245827
5.5868855270091444e-05
9.394091466674581e-05
2.5437217118451372e-05
0.00012598061584867537
7.910351268947124e-05
4.6403987653320655e-05
2.3892102035460994e-05
8.003521361388266e-05
9.904760372592136e-05
7.567289867438376e-05
9.125700307777151e-05
5.351837171474472e-05
0.0003404880699235946
0.0001159800958703272
0.00015814384096302092
0.00012841043644584715
8.815920591587201e-05
0.00014361795911099762
2.447248698445037e-05
8.432919275946915e-05
0.00013665280130226165
5.266889274935238e-05
0.0001524335384601727
0.00013336644042283297
2.2593863832298666e-05
0.00013595503696706146
3.8849433622090146e-05
0.00012530454841908067
2.630062954267487e-05
3.055840352317318e-05
0.0001332355896010995
5.628455619444139e-05
3.4671189496293664e-05
0.00010640379332471639
4.002860441687517e-05
6.558612949447706e-05
7.282481965376064e-05
8.129417983582243e-05
0.00014450529124587774
9.428288467461243e-05
1.9896873709512874e-05
0.00011670255480566993
9.684182441560552e-05
3.44731415680144e-05
6.877266423543915e-05
0.00016076983592938632
7.771680975565687e-05
9.94011788861826e-05
4.717210686067119e-05
8.308221731567755e-05
5.139155109645799e-05
2.2638396330876276e-05
4.960687874699943e-05
4.856048326473683e-05
4.0563056245446205e-05
8.134851668728516e-05
0.0001373908162349835
0.00010519153875065967
0.00011553769581951201
3.957852823077701e-05
0.0003089647216256708
0.0002068204339593649
2.7498705094330944e-05
8.905894355848432e-05
0.00010044534428743646
9.581158519722521e-05
0.00012236289330758154
9.200302156386897e-05
2.7386582587496378e-05
9.285737905884162e-05
2.397730349912308e-05
4.705764149548486e-05
9.756632061908022e-05
3.710548480739817e-05
4.0259161323774606e-05
0.00017026472778525203
5.79200241190847e-05
0.0002088961482513696
7.494987949030474e-05
7.625162834301591e-05
0.00010799934534588829
0.0001115447303163819
3.391081918380223e-05
7.932632433949038e-05
2.7178062737220898e-05
2.7907153707928956e-05
0.00010196671792073175
3.9106431358959526e-05
3.651778388302773e-05
4.510371945798397e-05
6.625748210353777e-05
1.8290491425432265e-05
2.8501517590484582e-05
8.962893480202183e-05
3.09164279315155e-05
2.3164750018622726e-05
2.0256618881830946e-05
8.951653580879793e-05
5.4626209021080285e-05
2.7451720598037355e-05
0.0001065585674950853
0.0002025867288466543
0.00016136816702783108
3.7608690035995096e-05
0.00012740700913127512
4.397954762680456e-05
3.626261241151951e-05
8.570570207666606e-05
2.6680510927690193e-05
8.143427839968354e-05
0.00010955258767353371
3.168441980960779e-05
0.00012501582386903465
6.683108222205192e-05
8.489979518344626e-05
6.214334280230105e-05
8.962164429249242e-05
3.775502409553155e-05
9.872636292129755e-05
2.2823627659818158e-05
0.00016492808936163783
3.441985973040573e-05
5.417908323579468e-05
3.351871055201627e-05
0.00014638526772614568
7.775190169923007e-05
7.339459261856973e-05
0.0001480304345022887
0.0001553988695377484
0.00016511078865732998
2.1332591131795198e-05
8.683544729137793e-05
3.1681032851338387e-05
2.434729685774073e-05
2.9110464311088435e-05
8.531901403330266e-05
2.8699290851363912e-05
6.289268640102819e-05
0.0001817408192437142
3.391007339814678e-05
6.299414235400036e-05
0.00011297001037746668
3.2953765185084194e-05
4.146118590142578e-05
3.31341871060431e-05
9.353700443170965e-05
2.966053580166772e-05
7.32453991076909e-05
2.0491963368840516e-05
4.4588268792722374e-05
0.00011426555283833295
0.00027241409406997263
8.674856508150697e-05
8.508205064572394e-05
3.7730816984549165e-05
6.854275852674618e-05
0.00010768860374810174
8.649915980640799e-05
6.844194285804406e-05
7.656106754438952e-05
0.000229210767429322
0.00011163150338688865
0.00010334589023841545
4.281879955669865e-05
0.00010092232696479186
0.00013248897448647767
6.184772064443678e-05
0.00012392597272992134
2.9578048270195723e-05
9.500820306129754e-05
6.668798596365377e-05
3.3518532291054726e-05
2.1621690393658355e-05
0.00011727736273314804
6.370924529619515e-05
0.00013408529048319906
0.0001643184805288911
9.78620519163087e-05
6.047761780791916e-05
8.361709478776902e-05
3.4136417525587603e-05
5.0635084335226566e-05
0.00010759960423456505
0.00011233805707888678
3.895872214343399e-05
6.50485890218988e-05
2.7455311283119954e-05
7.370815001195297e-05
6.534854765050113e-05
4.610673931892961e-05
0.00011591375368880108
4.258998887962662e-05
4.538923894870095e-05
0.00010866759112104774
7.092767191352323e-05
5.5382843129336834e-05
3.339158865856007e-05
7.84612784627825e-05
0.0001005517115117982
3.495980490697548e-05
0.00012190022243885323
3.340639523230493e-05
0.00010233328794129193
0.00014606904005631804
5.622322714771144e-05
9.114202839555219e-05
0.00013680454867426306
3.4501663321862e-05
3.077236033277586e-05
0.00011400422954466194
0.00011959209950873628
0.00013623604900203645
3.807910979958251e-05
0.00017301157640758902
0.00010010383994085714
4.835672370973043e-05
2.7326233976054937e-05
9.908986976370215e-05
2.1374638890847564e-05
0.00012028632045257837
7.692798681091517e-05
0.00020094343926757574
3.2376436138292775e-05
0.00012253232125658542
0.0001194272845168598
3.389026096556336e-05
4.476616595638916e-05
2.1233581719570793e-05
1.9500439520925283e-05
9.796946687856689e-05
0.0001367250079056248
8.447110303677619e-05
3.6664911021944135e-05
4.023446308565326e-05
3.297922376077622e-05
9.305000276071951e-05
0.0001299697469221428
0.00014322134666144848
2.6054362024297006e-05
2.653537922014948e-05
2.6228199203615077e-05
4.7713492676848546e-05
0.0001250195491593331
3.169538831571117e-05
0.0001087117416318506
6.437536649173126e-05
4.470463682082482e-05
3.2871867006178945e-05
0.00012251212319824845
4.385792635730468e-05
0.00017281871987506747
4.077672929270193e-05
9.411816427018493e-05
9.620845230529085e-05
6.791692430851981e-05
8.162182348314673e-05
0.0001154855199274607
0.00014558780821971595
2.302882967342157e-05
0.00012387105380184948
0.00015071971574798226
9.218429477186874e-05
1.877487011370249e-05
0.00012562178017105907
2.5180443117278628e-05
2.9510407330235466e-05
0.00010593311890261248
0.00012252262968104333
2.1150000975467265e-05
3.292406108812429e-05
3.5424392990535125e-05
3.364693475305103e-05
7.068563718348742e-05
1.8875900423154235e-05
6.32363953627646e-05
0.00010638174717314541
0.00011813853052444756
0.00010193989874096587
4.5519238483393565e-05
7.879832992330194e-05
4.6865443437127396e-05
9.311074245488271e-05
2.2345237084664404e-05
9.049772779690102e-05
9.035689436132088e-05
7.363595068454742e-05
5.1343082304811105e-05
6.707385909976438e-05
7.770156662445515e-05
4.609761526808143e-05
0.00010342807945562527
3.4216209314763546e-05
8.097648969851434e-05
6.188485713209957e-05
2.3574899387313053e-05
0.00023028608120512217
6.925468187546358e-05
4.8879683163249865e-05
9.787955059437081e-05
3.1592982850270346e-05
4.894457379123196e-05
0.00015604522195644677
2.9116696168784983e-05
0.00016876356676220894
2.03466770472005e-05
3.535172436386347e-05
5.7080163969658315e-05
3.5136046790285036e-05
6.418880366254598e-05
0.0001546607236377895
8.139361307257786e-05
1.989100201171823e-05
0.0001111958481487818
7.702889706706628e-05
0.00013406718790065497
0.00011312214337522164
0.00014647211355622858
8.693463314557448e-05
0.00012978292943444103
7.979683869052678e-05
3.764293433050625e-05
3.6327855923445895e-05
9.430788486497477e-05
0.0001371684775222093
3.767718590097502e-05
6.708165892632678e-05
0.00012184713705210015
2.233617487945594e-05
2.846345341822598e-05
0.00013107825361657888
7.438765896949917e-05
8.982214785646647e-05
0.00011351196008035913
0.00015434475790243596
2.857070830941666e-05
8.39054337120615e-05
2.5147826818283647e-05
0.00010418621968710795
3.548124368535355e-05
2.418387339275796e-05
5.01513022754807e-05
1.7950645997188985e-05
4.882334906142205e-05
2.0886633137706667e-05
0.00011739272304112092
0.00013856031000614166
3.707588984980248e-05
0.0001121445166063495
0.00010447375825606287
0.00011497249943204224
0.00014882703544571996
7.908637053333223e-05
4.2923355067614466e-05
0.00010474910232005641
0.00010216073860647157
7.881747296778485e-05
0.0001454881567042321
7.287954213097692e-05
0.0001905685057863593
7.252323121065274e-05
7.072775770211592e-05
0.00021526891214307398
4.0290258766617626e-05
2.5700879632495344e-05
0.00016927272372413427
0.00013382534962147474
0.00011623471800703555
0.00015117222210392356
6.680951628368348e-05
6.424343155231327e-05
6.096617289585993e-05
8.930944750318304e-05
5.999486893415451e-05
9.442846203455701e-05
0.000168066137121059
2.232678343716543e-05
6.203321390785277e-05
2.8115551685914397e-05
6.184988160384819e-05
7.742005254840478e-05
2.4792467229417525e-05
0.00014277364243753254
2.3935419449117035e-05
2.7343152396497317e-05
0.000118391246360261
7.39352690288797e-05
0.0001137193467002362
3.492571340757422e-05
6.46856933599338e-05
2.7657450118567795e-05
5.802586383651942e-05
0.000171865540323779
4.0065471694106236e-05
0.00014042168913874775
2.131629480572883e-05
0.00014294766879174858
0.00016776648408267647
5.565831088460982e-05
0.0001882268552435562
5.2026323828613386e-05
5.010013046558015e-05
0.0001787252549547702
5.9162837715120986e-05
4.999841621611267e-05
0.00010294176172465086
5.876259820070118e-05
3.6808876757277176e-05
0.0002710805565584451
3.579497570171952e-05
8.608091593487188e-05
5.034360583522357e-05
5.140462963026948e-05
2.777030022116378e-05
0.0001065351752913557
0.00014515726070385426
0.00018891863874159753
7.001126505201682e-05
5.924803190282546e-05
0.00013194282655604184
3.823115912382491e-05
9.619290358386934e-05
7.904684025561437e-05
8.450980385532603e-05
0.00011934406211366877
0.0003228896821383387
0.00011672318942146376
3.061364986933768e-05
3.6599503800971434e-05
0.00014056604413781315
8.668145892443135e-05
0.000157630885951221
8.065684232860804e-05
1.626966695766896e-05
0.0002530557685531676
7.208446186268702e-05
6.751387263648212e-05
0.00011011874448740855
7.55934597691521e-05
6.670624134130776e-05
5.898004746995866e-05
5.003534897696227e-05
6.889916403451934e-05
2.441889955662191e-05
0.00011044100392609835
8.467022416880354e-05
2.3881611923570745e-05
3.39408143190667e-05
0.00013681568088941276
2.7229683837504126e-05
8.05148811195977e-05
2.3373835574602708e-05
0.00018803832062985748
2.3008748030406423e-05
4.4195472582941875e-05
2.3535614673164673e-05
0.00011367424303898588
0.00011264503700658679
5.105561649543233e-05
0.0001457979087717831
2.7243231670581736e-05
0.00011886921129189432
2.9403709049802274e-05
0.00011742316564777866
0.00012030258221784607
9.332125773653388e-05
7.593628106405959e-05
8.77504498930648e-05
5.799010250484571e-05
0.0001390614197589457
7.374475535470992e-05
0.00012746879656333476
9.49438035604544e-05
0.00010412091796752065
0.0001561988319735974
2.454009882058017e-05
4.4702424929710105e-05
0.0001640583504922688
2.0522598788375035e-05
3.324100543977693e-05
9.521534957457334e-05
4.94407067890279e-05
6.832487270003185e-05
0.0001306184713030234
6.935007695574313e-05
9.556244185660034e-05
2.530798883526586e-05
4.615764555637725e-05
3.222814848413691e-05
0.00015891384100541472
6.508873775601387e-05
0.000189723345101811
5.750391574110836e-05
0.00011342040670569986
9.040853910846636e-05
5.045290890848264e-05
2.3380436687148176e-05
2.513308936613612e-05
4.9363581638317555e-05
0.0001475149329053238
0.0001309021026827395
9.96374074020423e-05
0.00010575393389444798
4.526976408669725e-05
0.00012113706907257438
9.142743510892615e-05
0.0001420445041731
0.00034249635064043105
7.40917312214151e-05
0.00016274228983093053
8.615954720880836e-05
8.258468005806208e-05
8.45436443341896e-05
3.336563167977147e-05
4.3449508666526526e-05
6.126279185991734e-05
7.930829451652244e-05
2.4166762159438804e-05
9.626687824493274e-05
4.9482881877338514e-05
1.5400737538584508e-05
8.550014172215015e-05
2.6944993805955164e-05
9.855790267465636e-05
0.00012212101137265563
6.5227308368776e-05
0.0001686050818534568
9.045477054314688e-05
3.881649172399193e-05
3.1376290280604735e-05
0.00013103397213853896
0.00011382516095181927
0.00013204249262344092
7.339615694945678e-05
9.795627556741238e-05
8.271374827018008e-05
9.934322588378564e-05
4.908506161882542e-05
0.00010878745524678379
3.7064386560814455e-05
0.00010055807797471061
5.7625493354862556e-05
4.564450136967935e-05
3.295520946267061e-05
2.568404124758672e-05
0.00014628835197072476
0.00013292850053403527
7.844145875424147e-05
7.878991164034232e-05
2.5374429242219776e-05
5.282267738948576e-05
0.00019466500089038163
3.771528645302169e-05
4.74276312161237e-05
0.0001407579256920144
6.048253271728754e-05
6.0086855228291824e-05
2.726570346567314e-05
2.8659869713010266e-05
6.231867882888764e-05
5.906797377974726e-05
0.0001193593634525314
2.7865671654581092e-05
0.0001179568498628214
0.00014026013377588242
0.00010835833381861448
0.00013899299665354192
3.641876537585631e-05
3.3638705644989386e-05
0.00013260729610919952
0.00012090719974366948
6.50600777589716e-05
0.00010235608351649716
0.00020086608128622174
1.8471619114279747e-05
0.00016393089026678354
0.00019189759041182697
6.895950355101377e-05
2.817048334691208e-05
8.533193613402545e-05
6.951458635739982e-05
2.9246546546346508e-05
1.805974170565605e-05
3.4278742532478645e-05
0.00031287604360841215
0.00013159619993530214
0.0001235643430845812
0.0001227825414389372
7.624827412655577e-05
6.0101763665443286e-05
2.863409463316202e-05
0.000164727185619995
5.460547617985867e-05
0.00011695299326675013
7.369711966020986e-05
2.4226370442193e-05
7.762278255540878e-05
2.7820862669614144e-05
9.477238927502185e-05
2.5445622668485157e-05
0.00016308939666487277
8.858005458023399e-05
0.00013762072194367647
0.00010081496293423697
9.0870147687383e-05
2.0932340703438967e-05
0.00012912262172903866
5.608520586974919e-05
5.503611464519054e-05
0.0002275887381983921
9.233860328095034e-05
7.165315764723346e-05
2.5954805096262135e-05
7.378425652859733e-05
0.00012341105320956558
0.00012660131324082613
0.00013440960901789367
7.376082066912204e-05
4.015445301774889e-05
0.0001426369562977925
5.453471385408193e-05
8.83414686541073e-05
5.764694287790917e-05
8.545109449187294e-05
0.0001446893875254318
0.00013089177082292736
0.00015490797522943467
6.13387455814518e-05
8.118732512230054e-05
8.386833360418677e-05
0.00010941718937829137
3.0653682188130915e-05
4.2877760279225186e-05
0.00018939132860396057
0.00017119027324952185
8.29015116323717e-05
0.0001499051577411592
7.797878788551316e-05
2.7455880626803264e-05
0.00010576710337772965
2.313673212483991e-05
2.6970559702022e-05
2.817487074935343e-05
6.361069972626865e-05
0.00010665628360584378
0.00013454513100441545
8.234257256845012e-05
9.507103095529601e-05
3.9687700336799026e-05
3.2487976568518206e-05
9.151466656476259e-05
3.5757144360104576e-05
0.00011707716475939378
0.00010021873458754271
0.000153111555846408
5.8087938668904826e-05
4.498693306231871e-05
3.5961053072242066e-05
5.7552791986381635e-05
0.0001495431351941079
9.52728878473863e-05
5.342430085875094e-05
0.00012197008618386462
0.00010526533878874034
4.28042039857246e-05
2.0915442291880026e-05
2.338412195967976e-05
2.8632941393880174e-05
2.8101347197662108e-05
0.00012718720245175064
5.3798012231709436e-05
0.00022334091772790998
5.454924394143745e-05
9.239497012458742e-05
9.525568748358637e-05
3.4816741390386596e-05
4.7889945562928915e-05
6.596749153686687e-05
3.4252261684741825e-05
0.00014600908616557717
5.426463030744344e-05
5.4593587265117094e-05
2.8476250008679926e-05
3.749620009330101e-05
3.6156194255454466e-05
2.475769906595815e-05
8.391897426918149e-05
0.0001232306967722252
0.00011564494343474507
0.00011285496293567121
5.6975190091179684e-05
0.0001350643578916788
8.032950427150354e-05
0.00014461393584497273
9.004765888676047e-05
8.686346700415015e-05
0.00012112546392017975
7.099159847712144e-05
0.0001155780119006522
7.784615445416421e-05
6.0134600062156096e-05
2.0146444512647577e-05
7.510351861128584e-05
5.573348607867956e-05
0.00013084214879199862
2.6912341127172112e-05
7.172250479925424e-05
0.0001386913500027731
8.387200796278194e-05
5.431470344774425e-05
0.00012960951426066458
8.089518087217584e-05
5.7715169532457367e-05
8.24252056190744e-05
8.691140828887001e-05
8.538734982721508e-05
5.258428063825704e-05
2.8129987185820937e-05
3.27210764226038e-05
0.0001392281847074628
7.6098287536297e-05
9.480889275437221e-05
0.00012531144602689892
0.00016444653738290071
2.7835898436023854e-05
0.00015069491928443313
0.00010587758879410103
7.107333658495918e-05
0.00011711740808095783
3.833142181974836e-05
0.0001496474287705496
5.563542799791321e-05
0.00011912458285223693
2.4182978449971415e-05
4.773195905727334e-05
0.00011840105435112491
5.92651340411976e-05
9.489685180597007e-05
0.00010016407031798735
2.9540640753111802e-05
8.312023419421166e-05
6.631309952354059e-05
4.2408995795995e-05
0.00013988130376674235
0.00013163390394765884
9.543886699248105e-05
8.547726611141115e-05
0.00010717067925725132
0.00011061981786042452
7.001413177931681e-05
0.00012011423677904531
2.60058804997243e-05
0.00011341279605403543
3.303491394035518e-05
0.00011431911116233096
2.2907279344508424e-05
2.0230343579896726e-05
7.785829802742228e-05
2.7356612918083556e-05
4.5285032683750615e-05
3.467773422016762e-05
5.0813006964745e-05
9.712087194202468e-05
7.524849934270605e-05
0.00014486804138869047
2.4298682546941563e-05
3.0283574233180843e-05
3.593105066101998e-05
2.4191738702938892e-05
7.408791134366766e-05
0.0001327154750470072
8.198079012800008e-05
5.2918530855095014e-05
6.726463470840827e-05
0.00014447077410295606
6.503341865027323e-05
3.780125916819088e-05
0.0003179052146151662
9.853804658632725e-05
9.335829963674769e-05
4.181545591563918e-05
6.222458614502102e-05
4.933747914037667e-05
2.9812916181981564e-05
0.00010588987061055377
0.0001895488821901381
3.3576401619939134e-05
3.908454527845606e-05
6.346287409542128e-05
0.00011213572724955156
2.217982182628475e-05
7.705555617576465e-05
7.961127994349226e-05
9.246901026926935e-05
7.9297911725007e-05
4.9100341129815206e-05
0.00011636384442681447
8.545863238396123e-05
7.629502943018451e-05
0.00013259587285574526
6.0993581428192556e-05
2.3057427824824117e-05
6.16909601376392e-05
0.0001382415503030643
3.9963470044313e-05
0.0001666152966208756
3.0045810490264557e-05
0.00010585265408735722
2.8426222343114205e-05
4.96791944897268e-05
4.902561704511754e-05
4.931820876663551e-05
0.00017583974113222212
0.00013562275853473693
8.75753685249947e-05
5.501429768628441e-05
4.587213697959669e-05
0.00011023866682080552
8.669498492963612e-05
7.847390224924311e-05
6.860471330583096e-05
0.00010547983401920646
9.894857066683471e-05
3.845160608761944e-05
8.083137799985707e-05
3.033546090591699e-05
2.2687941964250058e-05
0.00014052922779228538
7.791585085215047e-05
0.0001312057429458946
0.00010274902888340876
8.20206623757258e-05
5.39322427357547e-05
5.984623930999078e-05
0.00011492919293232262
2.5052609998965636e-05
8.352498844033107e-05
7.271350477822125e-05
7.529460708610713e-05
