0.003750296076759696
0.0009708761936053634
0.0022381998132914305
0.0013258049730211496
0.0004888677503913641
0.001889239763841033
0.00024244071391876787
0.000800134614109993
0.0008319622720591724
0.0015883775195106864
0.003382420400157571
0.0016379270236939192
0.0012418599799275398
0.002525927731767297
0.00038680509896948934
0.0004731501394417137
0.0015354809584096074
0.001028292695991695
0.0032336011063307524
0.0008202717872336507
0.0009843292646110058
0.001228812732733786
0.001092938706278801
0.002810494741424918
0.0011349983979016542
0.004770820494741201
0.0058197700418531895
0.0006352850468829274
0.002599623752757907
0.0013801351888105273
0.002110188128426671
0.0030494611710309982
0.0025598362553864717
0.0030215145088732243
0.0028773273807018995
0.0004842634662054479
0.004419185221195221
0.0015532225370407104
0.0007350649684667587
0.0017402281519025564
0.0015281416708603501
0.004974461626261473
0.0019088465487584472
0.0013454101281240582
0.0002828744181897491
0.0005139876739121974
0.0037280037067830563
0.0037576546892523766
0.001585669000633061
0.0021832752972841263
0.0017469290178269148
0.0013959102798253298
0.0008204480982385576
0.0006532598636113107
0.002982561942189932
0.002276951214298606
0.0017315058503299952
0.004371732473373413
0.0007864382932893932
0.0020867385901510715
0.0018956423737108707
0.0009411643259227276
0.0006071664392948151
0.0011059307726100087
0.0021913242526352406
0.0037982093635946512
0.000879505299963057
0.000856599654071033
0.0008492333581671119
0.004523313604295254
0.001104027614928782
0.0015443755546584725
0.000460509181721136
0.003684522584080696
0.0016144370893016458
0.002685218583792448
0.0009158148313872516
0.0013528193812817335
0.007459694053977728
0.0020638802088797092
0.002924693748354912
0.0013465145602822304
0.003683049464598298
0.0016551606822758913
0.002195570385083556
0.0035431564319878817
0.0016788694774731994
0.0035423694644123316
0.001675133127719164
0.004324344918131828
0.0036325121764093637
0.0017043069237843156
0.001466420479118824
0.0019471646519377828
0.00029234649264253676
0.003746895119547844
0.003429182106629014
0.0006222044466994703
0.001111092627979815
0.0007758234860375524
0.00123483722563833
0.001284847385250032
0.0017749008256942034
0.0014640761073678732
0.0025362931191921234
0.0016692213248461485
0.0007833861163817346
0.00032457037013955414
0.0005108113400638103
0.005346974357962608
0.0007030341075733304
0.0005509164184331894
0.004010441713035107
9.761885303305462e-05
0.0012289138976484537
0.0029251612722873688
0.00280378176830709
0.0004402411577757448
0.0026014710310846567
0.0008811866864562035
0.0009336115326732397
0.003855401650071144
0.0013664646539837122
0.0019858453888446093
0.0016398865263909101
0.0006415010429918766
0.0018459000857546926
0.00037889237864874303
0.0012213432928547263
0.0016030152328312397
0.001207350054755807
0.004379016347229481
0.0002894924837164581
0.0014346552779898047
0.0019939609337598085
0.0006922704051248729
0.0010199453681707382
0.0022132634185254574
0.0004764772311318666
0.004162941128015518
0.0014464558335021138
0.0017491334583610296
0.002563746180385351
0.0014271331019699574
0.0012293438194319606
0.0018419323023408651
0.0013631274923682213
0.0018546056235209107
0.0015250577125698328
0.001241154270246625
0.0008023165282793343
0.001952465856447816
0.0037228097207844257
0.0016797523712739348
0.0007509039714932442
0.004383633844554424
0.0011661985190585256
0.001501181977801025
0.001718593412078917
0.001960842404514551
0.000693808076903224
0.0013801041059195995
0.0006486381171271205
0.0004046785179525614
0.0009533014963380992
0.0015539801679551601
0.0014065373688936234
0.0008645366178825498
0.0038985246792435646
0.007695483043789864
0.0029499572701752186
0.002119734650477767
0.0014417573111131787
0.00032461792579852045
0.0013330690562725067
0.001892937463708222
0.003115585306659341
0.0009462778689339757
0.0023854707833379507
0.0012324796989560127
0.004768370650708675
0.0004793024272657931
0.0021395967341959476
0.001134602352976799
0.0017239449080079794
0.0006556441658176482
0.00042241354822181165
0.00039751260192133486
0.0012858345871791244
0.0012245894176885486
0.0013163265539333224
0.0011543486034497619
0.000810441852081567
0.0018142933258786798
0.0010703295702114701
0.0005448348820209503
0.002300265012308955
0.0008835892658680677
0.0014752289280295372
0.0017397929914295673
0.0008004732080735266
0.000734444591216743
0.0022836443968117237
0.00033250494743697345
0.0036762566305696964
0.0037941443733870983
0.003166722832247615
0.0007911553257144988
0.0017986954189836979
0.0009664801182225347
0.0014050378231331706
0.0028131064027547836
0.00040767466998659074
0.0005401120870374143
0.0018652634462341666
0.0006369976908899844
0.0027589325327426195
0.0039138272404670715
0.0010350679513067007
0.0011123818112537265
0.001523791579529643
0.0010803763289004564
0.0017316127195954323
0.000787983532063663
0.0025809621438384056
0.002579721622169018
0.00022274702496360987
0.0014575441600754857
0.0014642608584836125
0.0015810831682756543
0.001317704445682466
0.002153851790353656
0.00046072571421973407
0.00074070441769436
0.00036212048144079745
0.0014040784444659948
0.0009717361535876989
0.001461250358261168
0.0023166805040091276
0.0021834969520568848
0.0017421392258256674
0.0011260983301326632
0.0024834515061229467
0.001913056243211031
0.0010227230377495289
0.003501754254102707
0.0010928191477432847
0.0006253920728340745
0.00022358422575052828
0.002738276496529579
0.0010057236067950726
0.0011935231741517782
0.0017064970452338457
0.0006724378908984363
0.00104636384639889
0.0046574510633945465
0.001772097428329289
0.0006024008616805077
0.0015033900272101164
0.002483614254742861
0.0006368152680806816
0.002814761595800519
0.001779090496711433
0.0008251258404925466
0.0013047613902017474
0.002019680803641677
0.0010088593699038029
0.0029202750883996487
0.0008706034859642386
0.00016632903134450316
0.0011797297047451138
0.003889386309310794
0.004023748449981213
0.0013096265029162169
0.0017285323701798916
0.001367090968415141
0.000775067659560591
0.0021690044086426497
0.0010932206641882658
0.0011304202489554882
0.000613653042819351
0.0009428020566701889
0.001212581992149353
0.0038769328966736794
0.0011677960865199566
0.0008921960834413767
0.0015189965488389134
0.00035409608972258866
0.00044133581104688346
0.0008710771799087524
0.001396353472955525
0.00626042066141963
0.003467631759122014
0.00117953447625041
0.00503185298293829
0.001608134713023901
0.0015606092056259513
0.0020241807214915752
0.0011515752412378788
0.0023199378047138453
0.0019053900614380836
0.002719427924603224
0.0009841376449912786
0.000641300983261317
0.003076949156820774
0.004193520173430443
0.0023186421021819115
0.0033127316273748875
0.002319132210686803
0.008316763676702976
0.0023157659452408552
0.0014966982416808605
0.000672623107675463
0.0002199906448367983
0.0016061561182141304
0.0004766405327245593
0.005806714296340942
0.0015873303636908531
0.001004864345304668
0.0011169339995831251
0.0036254164297133684
0.0005301851779222488
0.0004152390465606004
0.0020459406077861786
0.0011679369490593672
0.000851583550684154
0.0006838954868726432
0.000589056231547147
0.0008583897142671049
0.0012903676833957434
0.0004393826238811016
0.0024537253193557262
0.0033984004985541105
0.0021716030314564705
0.0016305478056892753
0.0013675125082954764
0.0009011959191411734
0.001793749281205237
0.004572165664285421
0.0009341101977042854
0.00350148044526577
0.0009807541500777006
0.00214864918962121
0.006821918301284313
0.0004963002284057438
0.0016293117078021169
0.0032553847413510084
0.0010858305031433702
0.0027594310231506824
0.0007887669489718974
0.0024861509446054697
0.0014594986569136381
0.00047858720063231885
0.0013481401838362217
0.003762007225304842
0.0006432904046960175
0.0009011887013912201
0.0031768386252224445
0.001521309488452971
0.0006230063736438751
0.0009210251737385988
0.001666553784161806
0.001960120629519224
0.0010425059590488672
0.0017305337823927402
0.004227479919791222
0.0030062056612223387
0.0006890872027724981
0.002934875199571252
0.0006478497525677085
0.0018771934555843472
0.0012486896011978388
0.0010372346732765436
0.002200310118496418
0.0002802030649036169
0.000554134720005095
0.004738736432045698
0.0014472480397671461
0.001206440618261695
0.0010452417191118002
0.0018613140564411879
0.0014436686178669333
0.0034125305246561766
0.0004006753151770681
0.0019730401691049337
0.0012987356167286634
0.0007393403211608529
0.0016448021633550525
0.0022903871722519398
0.001631076098419726
0.0021249819546937943
0.0002833596372511238
0.0010869582183659077
0.0009541924227960408
0.000604925793595612
0.0008673171396367252
0.003506053937599063
0.0013869525864720345
0.0037526218220591545
0.003578141564503312
0.0006950481329113245
0.001645880751311779
0.002174989553168416
0.0030508176423609257
0.001421755994670093
0.004602550063282251
0.0029797940514981747
0.0008713728166185319
0.004722279962152243
0.004464318044483662
0.003517268691211939
0.00199285545386374
0.0010782143799588084
0.004294306505471468
0.0004758459108415991
0.00044682383304461837
0.00047237626858986914
0.00421846192330122
0.0010197637602686882
0.002085949294269085
0.004535093437880278
0.0010850337566807866
0.00279915239661932
0.0006873197853565216
0.0024961617309600115
0.003374846186488867
0.0013215335784479976
0.001258248696103692
0.0018560477765277028
0.002202307339757681
0.001014026696793735
0.002566831884905696
0.001869733678176999
0.0029793500434607267
0.0010672735515981913
0.0029471958987414837
0.0009393765940330923
0.009303995408117771
0.0012391026830300689
0.001227095490321517
0.0011879763333126903
0.0009712189785204828
0.0010056450264528394
0.0004104807449039072
0.008187179453670979
0.0009650573483668268
0.0027277152985334396
0.005579265300184488
0.0021849332842975855
0.0015171156264841557
0.004831148777157068
0.0027667423710227013
0.0006631823489442468
0.0038545920979231596
0.0009275872725993395
0.0006247617420740426
0.0030062291771173477
0.003100479021668434
0.002515731379389763
0.0013880332699045539
0.0026720105670392513
0.0031472130212932825
0.004242725670337677
0.0028063578065484762
0.0010103288805112243
0.0004152533074375242
0.0009754887432791293
0.0026142906863242388
0.0037241741083562374
0.001342622097581625
0.001990005373954773
0.0015592320123687387
0.0007805948844179511
0.002213820582255721
0.0007529154536314309
0.0021931312512606382
0.0014634201070293784
0.001132866949774325
0.00045080878771841526
0.001610009465366602
0.0009367361199110746
0.0011756379390135407
0.0040594651363790035
0.0007569799781776965
0.001916653593070805
0.0015331499744206667
0.0038875495083630085
0.0013800691813230515
0.0010204440914094448
0.0015191403217613697
0.0021193900611251593
0.001903786906041205
0.0010596505599096417
0.0007446157978847623
0.0025413725525140762
0.0022185551933944225
0.001078244298696518
0.0008514045039191842
0.002199706854298711
0.0024727676063776016
0.005236795637756586
0.0011873292969539762
0.0009301179670728743
0.0012733335606753826
0.0009760590619407594
0.003011504653841257
0.001694339094683528
0.002523450879380107
0.0012915385887026787
0.0017696985742077231
0.0013393473345786333
0.0010392103577032685
0.0015108867082744837
0.00442609004676342
0.00089099450269714
0.0021569766104221344
0.0008389758877456188
0.0006139831966720521
0.0024958730209618807
0.00155309634283185
0.0014156796969473362
0.005126825999468565
0.0029324411880224943
0.001115816761739552
0.0004434212751220912
0.00038563887937925756
0.0018382214475423098
0.0005497044185176492
0.0004658100369852036
0.0018076356500387192
0.0034469778183847666
0.001441505504772067
0.005061105825006962
0.0011579451384022832
0.0032098079100251198
0.0002383477840339765
0.0036486689932644367
0.0010556475026533008
0.0006623401422984898
0.0048734815791249275
0.0021750209853053093
0.0058336807414889336
0.003606170415878296
0.0017848876304924488
0.00041008435073308647
0.0007911747670732439
0.0024761606473475695
0.001927437842823565
0.0031400087755173445
0.0008494099602103233
0.0023238772992044687
0.0006603986257687211
0.0035965589340776205
0.0028249425813555717
0.0018957090796902776
0.0018086977070197463
0.0015030351933091879
0.002047523856163025
0.0014171968214213848
0.0011907622683793306
0.004879616666585207
0.0049642762169241905
0.001346284756436944
0.0013909199042245746
0.001218474586494267
0.005404158029705286
0.001628118916414678
0.00039116654079407454
0.0007090979488566518
0.000654559931717813
0.0028689135797321796
0.0007605467108078301
0.003780218306928873
0.0029527144506573677
0.0004642840940505266
0.000848582771141082
0.00549777876585722
0.0007587565341964364
0.004903882276266813
0.0033141474705189466
0.0011256288271397352
0.0007675336091779172
0.0031256587244570255
0.004042258486151695
0.004560074303299189
0.003266990417614579
0.001084479270502925
0.003483155742287636
0.0008454709895886481
0.0012216950999572873
0.00047299001016654074
0.0012872222578153014
0.0024474472738802433
0.0011890071909874678
0.003700415836647153
0.001908972393721342
0.004516688175499439
0.0008306772215291858
0.0016330295475199819
0.001661117421463132
0.003469096729531884
0.0013767224736511707
0.0008856276399455965
0.004253646824508905
0.0017069914611056447
0.0020643167663365602
0.001044029020704329
0.0006904522888362408
0.0049364217557013035
0.00028405655757524073
0.001217532786540687
0.0016109286807477474
0.0009410476195625961
0.003779267892241478
0.003736613318324089
0.0012489822693169117
0.001528679160401225
0.0005377439083531499
0.00424897251650691
0.002646971493959427
0.002190366154536605
0.004659786354750395
0.0013605545973405242
0.000897942460142076
0.001583556178957224
0.007855643518269062
0.0008050593896768987
0.0010404725326225162
0.0016497633187100291
0.001035347580909729
0.000390998728107661
0.0019253403879702091
0.00030124193290248513
0.0013548297574743629
0.007300864439457655
0.0018903326708823442
0.0011584912426769733
0.0004622630076482892
0.002026811707764864
0.001738423597998917
0.0005136476829648018
0.0035907926503568888
0.0030334917828440666
0.0014337627217173576
0.0012969783274456859
0.0004627544549293816
0.002122033853083849
0.0007641552365384996
0.006190938875079155
0.002094782656058669
0.0034589222632348537
0.0015385594451799989
0.0030059360433369875
0.0047018202021718025
0.0017717910232022405
0.0030451067723333836
0.0026242034509778023
0.0029892120510339737
0.0014295977307483554
0.0005585029721260071
0.003529515117406845
0.0005243833875283599
0.0009554188582114875
0.0008465124992653728
0.0007166369468905032
0.0008409510483033955
0.004104269668459892
0.0005640993476845324
0.001329626189544797
0.000582394131924957
0.0007073807646520436
0.001963037298992276
0.00028388548525981605
0.0011015876661986113
0.0016572823515161872
0.0010165056446567178
0.001502243452705443
0.002980669727548957
0.0015051303198561072
0.0007043186342343688
0.0009912826353684068
0.0007882859790697694
0.0015960942255333066
0.0017100233817473054
0.0008032603072933853
0.001311283907853067
0.0012230133870616555
0.0016782218590378761
0.0012833926593884826
0.004899015184491873
0.0018479111604392529
0.003253035945817828
0.0009087470243684947
0.0014206677442416549
0.002384912222623825
0.00035541760735213757
0.004031534306704998
0.004059309139847755
0.000493796484079212
0.0012503834441304207
0.001268985215574503
0.00261748768389225
0.0010940887732431293
0.002398352837190032
0.002298918552696705
0.00023112572671379894
0.0031870920211076736
0.0004909963463433087
0.0035105429124087095
0.00028636070783250034
0.00044208631152287126
0.0006331459153443575
0.0004932029987685382
0.0015088759828358889
0.001318576862104237
0.0003520689206197858
0.002294194418936968
0.0013728797202929854
0.0007848299574106932
0.0013206657022237778
0.0018385867588222027
0.00031689941533841193
0.0037605364341288805
0.0006790488259866834
0.002702007070183754
0.0015711694722995162
0.002706473460420966
0.0012841307325288653
0.00046675620251335204
0.0005103439325466752
0.0015988695668056607
0.002184442477300763
0.0016579562798142433
0.0018066277261823416
0.0006460077129304409
0.002965321997180581
0.0015597417950630188
0.0009847062174230814
0.00026161831920035183
0.0010724340099841356
0.0023786816745996475
0.0025977538898587227
0.0007524807006120682
0.0007905447855591774
0.0005660818424075842
0.0022276421077549458
0.005347839556634426
0.00039552213274873793
0.0011942337732762098
0.0008929467294365168
0.000756788591388613
0.001554469228722155
0.0011433541076257825
0.0010634425561875105
0.0016398897860199213
0.0013829338131472468
0.002928159898146987
0.0026166087482124567
0.0007783930632285774
0.002947138622403145
0.0018534658011049032
0.0008353293524123728
0.0018733099568635225
0.0023712364491075277
0.003055399749428034
0.0003138227912131697
0.0037647364661097527
0.0018084965413436294
0.003521608654409647
0.001484743203036487
0.0012035364052280784
0.0019624934066087008
0.0004608181188814342
0.0052955010905861855
0.0017614495009183884
0.00422188825905323
0.0009474840480834246
0.0023633060045540333
0.0015567051013931632
0.0009709492442198098
0.0009335019276477396
0.001845235819928348
0.0003008615458384156
0.0009804326109588146
0.0004179453244432807
0.0010928374249488115
0.0006648522685281932
0.00031668448355048895
0.00473950756713748
0.0035997985396534204
0.0017746809171512723
0.0037612144369632006
0.0016281785210594535
0.0006682732491753995
0.0017477659275755286
0.0013672668719664216
0.0006723711849190295
0.0011138427071273327
0.0010084140812978148
0.004921148996800184
0.0009514122502878308
0.001961472211405635
0.0005536768585443497
0.0013747740304097533
0.00034087273525074124
0.0012054296676069498
0.001974727725610137
0.0007572473841719329
0.003745734691619873
0.0035138442181050777
0.0034928976092487574
0.0023777943570166826
0.001992797013372183
0.002350760856643319
0.0009780871914699674
0.00045502197463065386
0.002948920475319028
0.0005718688480556011
0.000742712989449501
0.0006397275137715042
0.00023605063324794173
0.001029794686473906
0.0005020081880502403
0.0005111309001222253
0.0006926673231646419
0.0011982818832620978
0.004525936208665371
0.001975762890651822
0.0016298334812745452
0.0008835974731482565
0.005747966002672911
0.001715209917165339
0.0031847492791712284
0.014910753816366196
0.0019073375733569264
0.00309371342882514
0.0006259495276026428
0.0029105134308338165
0.0011596821714192629
0.00239912373945117
0.0012189034605398774
0.001270024455152452
0.004076390061527491
0.0008277459419332445
0.0018801135011017323
0.0006402154685929418
0.0008421950624324381
0.00032882290543057024
0.0007578579825349152
0.0018644463270902634
0.0012169219553470612
0.0006276735803112388
0.0020107203163206577
0.0013336045667529106
0.001776316319592297
0.0010059259366244078
0.0033398361410945654
0.005662881303578615
0.0006760099204257131
0.0015001748688519
0.000708923616912216
0.001498802681453526
0.004724147263914347
0.0014603834133595228
0.0006663004751317203
0.0019093946320936084
0.0018320304807275534
0.0012928283540531993
0.000817063613794744
0.0007709218771196902
0.0049450937658548355
0.005574076436460018
0.0012662182562053204
0.0010673108045011759
0.0005536964163184166
0.0028258375823497772
0.001199869904667139
0.0006328178569674492
0.00047094374895095825
0.0007475579623132944
0.003066633827984333
0.004425286315381527
0.0011098005343228579
0.0013182469410821795
0.0014423717511817813
0.001615254208445549
0.0003891782253049314
0.0049582310020923615
0.0028758570551872253
0.0002123992599081248
0.0012283343821763992
0.004182672128081322
0.0006328393355943263
0.001502299914136529
0.004419001284986734
0.006280597764998674
0.001564793405123055
0.0002198557776864618
0.0007936991751194
0.0009303436381742358
0.0007216231897473335
0.001296338508836925
0.0016792694805189967
0.003666412550956011
0.0013912253780290484
0.0009650510037317872
0.0014965372392907739
0.0013030857080593705
0.004484405275434256
0.000705367187038064
0.002628085669130087
0.0017530953045934439
0.0041340733878314495
0.0008190308581106365
0.0009015937685035169
0.0007336769485846162
0.0021720000077039003
0.001938885310664773
0.004331787582486868
0.0005099704139865935
0.0015866536414250731
0.0017904723063111305
0.0014321694616228342
0.0007401208276860416
0.00063978141406551
0.002626566682010889
0.0013174538034945726
0.0003303400590084493
0.0006371823255904019
0.0014452501200139523
0.0014176181284710765
0.002091816160827875
0.0007317184354178607
0.0017156442627310753
0.002341044368222356
0.0011158869601786137
0.0007112091989256442
0.00045200687600299716
0.0013629626482725143
0.0010764052858576179
0.0012922347523272038
0.0013650784967467189
0.0006624991074204445
0.0004473139997571707
0.004481927957385778
0.004853468853980303
0.00025770245702005923
0.0002859327069018036
0.0021531328093260527
0.0007126323180273175
0.0008124024025164545
0.004104183986783028
0.001035597757436335
0.004519074689596891
0.004636708647012711
0.0029566276352852583
0.003497564932331443
0.0006938227452337742
0.0009355680667795241
0.0013366668717935681
0.0005506922607310116
0.0025055070873349905
0.0014749570982530713
0.0007568162982352078
0.0035048238933086395
0.0006211943691596389
0.0015708217397332191
0.0015015010721981525
0.001378114684484899
0.0029608169570565224
0.0019011336844414473
0.0013596867211163044
0.0035284552723169327
0.0013689870247617364
0.001157088903710246
0.0009914216352626681
0.0012741341488435864
0.0011863770196214318
0.004474289249628782
0.00507243862375617
0.003760519903153181
0.0017609349451959133
0.0005027058650739491
0.0017366282409057021
0.0009713660692796111
0.0014443007530644536
0.0010371407261118293
0.000531631289049983
0.002813000464811921
0.0019601399544626474
0.0024983275216072798
0.0027973013930022717
0.0005289027467370033
0.0013756644912064075
0.0024370469618588686
0.0036638511810451746
0.001500665326602757
0.002374817617237568
0.0033017233945429325
0.0010813595727086067
0.0005780033534392715
0.0010569639271125197
0.0007965457625687122
0.002598580438643694
0.0006404461455531418
0.0018919231370091438
0.0005266788066364825
0.0014633664395660162
0.000742616830393672
0.0002720959309954196
0.0011546008754521608
0.0019206958822906017
0.0007854417199268937
0.0021854809019714594
0.00406383303925395
0.00046693652984686196
0.002055857563391328
0.0007429206743836403
0.004249430727213621
0.0013412667904049158
0.000519098830409348
0.0025255843065679073
0.0011348697589710355
0.0005978510598652065
0.0012030465295538306
0.0013036421732977033
0.000924738880712539
0.0012299868976697326
0.0006956898723728955
0.0013207878218963742
0.0039025393780320883
0.0029417723417282104
0.0008769379346631467
0.0017391860019415617
0.001279908698052168
0.0013314116513356566
0.0003378273395355791
0.002719959942623973
0.0013781734742224216
0.0008354302262887359
0.002123513724654913
0.0009367570164613426
0.0014298000605776906
0.0013097255723550916
0.0010442029451951385
0.0015169582329690456
0.0044424948282539845
0.004843918140977621
0.0009777521481737494
0.0030438590329140425
0.0016305350000038743
0.001024985802359879
0.003806439694017172
0.0010787060018628836
0.0015398997347801924
0.004162606783211231
0.0011468856828287244
0.000693514768499881
0.0020207390189170837
0.002279788488522172
0.000726332189515233
0.0009989964310079813
0.0024662227369844913
0.0007125699776224792
0.00309903547167778
0.0011002336395904422
0.0033217475283890963
0.0017853983445093036
0.00405086250975728
0.005148682743310928
0.0013228522147983313
0.004851271864026785
0.003547821193933487
0.005389747675508261
0.001509202760644257
0.0016005381476134062
0.0014646659838035703
0.0020384930539876223
0.004587575793266296
0.003046302357688546
0.0032083902042359114
0.004389530047774315
0.0016761018196120858
0.0009357990347780287
0.0008947637397795916
0.0014945019502192736
0.002025757683441043
0.0006994616123847663
0.002248042030259967
0.0022030710242688656
0.0002461241965647787
0.0017596452962607145
0.0024148595985025167
0.0014443777035921812
0.00150239747017622
0.0009328489541076124
0.0032683201134204865
0.00104358175303787
0.00029325918876565993
0.003898060414940119
0.003911694977432489
0.0008230244275182486
0.0012392958160489798
0.0032730181701481342
0.0011516036465764046
0.0015648496337234974
0.0014327372191473842
0.0018931543454527855
0.0017309898976236582
0.0012454239185899496
0.0005425637355074286
0.0015370994806289673
0.0005420780507847667
0.0008830165024846792
0.004417554009705782
0.0008287667296826839
0.0006349809118546546
0.004561759065836668
0.0008535533561371267
0.004287539049983025
0.000641518912743777
0.003508016699925065
0.0019449155079200864
0.001254251692444086
0.003040759591385722
0.0002743168151937425
0.000935173302423209
0.0013047104002907872
0.0012397202663123608
0.002130339154973626
0.001229419489391148
0.0019117710180580616
0.0011778875486925244
0.0014732974814251065
0.00043082796037197113
0.0017599011771380901
0.003558791009709239
0.0011560614220798016
0.0036276790779083967
0.0026831438299268484
0.0005160077125765383
0.0006891080993227661
0.0005678997258655727
0.0011133926454931498
0.001965159550309181
0.0019098393386229873
0.0020251094829291105
0.0014535854570567608
0.003981604240834713
0.002061632229015231
0.0008713622810319066
0.0015399327967315912
