0.0011769363190978765
0.0013668220490217209
0.0008612996316514909
0.0015170362312346697
0.001184574794024229
0.001776037272065878
0.0012830622727051377
0.0022477663587778807
0.001897598383948207
0.0013574148761108518
0.0014128112234175205
0.0014377463376149535
0.0020992883946746588
0.0012837422545999289
0.0028562257066369057
0.0014410039875656366
0.0016229139873757958
0.0012299306690692902
0.0013984580291435122
0.0025956069584935904
0.0009736154461279511
0.0010849008103832603
0.003193494165316224
0.0013418253511190414
0.0013500888599082828
0.0011983494041487575
0.0016138114733621478
0.0012680182699114084
0.001471316791139543
0.0013104407116770744
0.0013947635889053345
0.0018561267061159015
0.0017163160955533385
0.0017230069497600198
0.0011486215516924858
0.001710840268060565
0.0013841884210705757
0.0016557193594053388
0.0010975354816764593
0.002520256210118532
0.0015797190135344863
0.0007798302103765309
0.001081068068742752
0.0010262562427669764
0.0011206144699826837
0.0013615925563499331
0.0011059234384447336
0.0012784535065293312
0.0014896445209160447
0.0017179116839542985
0.002491441322490573
0.0014197828713804483
0.0012152291601523757
0.0013749382924288511
0.001837737625464797
0.0023346098605543375
0.0017034492921084166
0.0008003622642718256
0.001778265694156289
0.0018686605617403984
0.0011960567208006978
0.0011068666353821754
0.004448954947292805
0.004208994098007679
0.0021323568653315306
0.0008343026856891811
0.0025123266968876123
0.0013401726027950644
0.0012146909721195698
0.0014438825892284513
0.0012428261106833816
0.0025187907740473747
0.0012497877469286323
0.0014181957812979817
0.0012206003302708268
0.0006465107435360551
0.0015090515371412039
0.0016421414911746979
0.0017891310853883624
0.0016458595637232065
0.0007977557252161205
0.0019115363247692585
0.0007632461492903531
0.0010674905497580767
0.002010464435443282
0.0008777797920629382
0.0011875031050294638
0.0011021465761587024
0.0013714018277823925
0.0015173518331721425
0.00147148163523525
0.0013182334369048476
0.0014427192509174347
0.0023941469844430685
0.002052622614428401
0.0007871409179642797
0.001259172917343676
0.002182920230552554
0.0010707858018577099
0.0015505669871345162
0.0018291787710040808
0.0012180464109405875
0.0014413082972168922
0.0014132324140518904
0.0017050312599167228
0.0017234889091923833
0.0030359639786183834
0.0018869828199967742
0.0027348408475518227
0.0009283272665925324
0.0015842358116060495
0.002150615444406867
0.000966074236202985
0.00490848021581769
0.0013103222008794546
0.0007487990078516304
0.0012077909195795655
0.001590130035765469
0.0011248014634475112
0.0011835225159302354
0.001390833524055779
0.0010815075365826488
0.0016848788363859057
0.0016511236317455769
0.0020820321515202522
0.001472469069994986
0.0008131424547173083
0.0016600540839135647
0.0011623748578131199
0.0012555092107504606
0.0020803005900233984
0.001080797053873539
0.0017280614702031016
0.001259530195966363
0.001060292823240161
0.0011573636438697577
0.001746571040712297
0.001125531503930688
0.001099135261029005
0.0020345752127468586
0.0013801263412460685
0.0016775489784777164
0.0017628232017159462
0.0014632546808570623
0.0018916281405836344
0.0014446419663727283
0.0016469282563775778
0.002298953477293253
0.003221833147108555
0.0013565627159550786
0.0010901050409302115
0.001269293949007988
0.0008892266778275371
0.0008970300550572574
0.0032641326542943716
0.0007205422152765095
0.0016435657162219286
0.0028771492652595043
0.0015922206221148372
0.001432205899618566
0.0016081462381407619
0.0020771364215761423
0.0011993559310212731
0.001131153665482998
0.001454188022762537
0.0014791723806411028
0.0020209646318107843
0.0019462262280285358
0.0019206847064197063
0.003525061532855034
0.000840508786495775
0.0016074161976575851
0.003218170488253236
0.0025147893466055393
0.0016224862774834037
0.0013133303727954626
0.0015253766905516386
0.0012666643597185612
0.0014315402368083596
0.001811701338738203
0.0019544244278222322
0.0027280845679342747
0.0018985493807122111
0.001508694957010448
0.0014892031904309988
0.0017717487644404173
0.0013273217482492328
0.0014025226701050997
0.0017229674849659204
0.0011256731813773513
0.002073340117931366
0.0012623389484360814
0.0016706457827240229
0.0013827636139467359
0.0014801293145865202
0.0015469096833840013
0.0013985272962599993
0.0016549518331885338
0.0013455665903165936
0.0011396141489967704
0.001285854959860444
0.0015306967543438077
0.0017299504252150655
0.0016861240146681666
0.0010464123915880919
0.0013059062184765935
0.0006181882927194238
0.001397918094880879
0.0011330757988616824
0.001576394191943109
0.0016659745015203953
0.0015919393626973033
0.004436679650098085
0.001350586535409093
0.001673616818152368
0.0024184698704630136
0.0016322610899806023
0.0012534764828160405
0.0009918005671352148
0.0011912115151062608
0.0013616490177810192
0.0011494067730382085
0.001180838793516159
0.0018731896998360753
0.0008824963588267565
0.0017327482346445322
0.001902317046187818
0.0014060531975701451
0.0017449556617066264
0.0013607463333755732
0.0014885009732097387
0.001239997218362987
0.0011912778718397021
0.002304232446476817
0.002262402791529894
0.0010418064193800092
0.001098048989661038
0.0020939544774591923
0.0012119837338104844
0.0009110656683333218
0.0015373139176517725
0.0026461032684892416
0.0013616806827485561
0.0013295307289808989
0.0010131160961464047
0.0017802524380385876
0.0014024361735209823
0.001697668107226491
0.001734117977321148
0.0016146020498126745
0.001737702521495521
0.0011028638109564781
0.0011051225010305643
0.001667798263952136
0.0014168181223794818
0.0009462927118875086
0.0012929028598591685
0.0018474893877282739
0.0016774625983089209
0.001160436891950667
0.0011818595230579376
0.0016888300888240337
0.001871237182058394
0.0032581714913249016
0.0016028864774852991
0.0016443018103018403
0.0011615515686571598
0.001284504309296608
0.0014608046039938927
0.0020589479245245457
0.0012705931439995766
0.001105578150600195
0.0007881532073952258
0.0016282183350995183
0.00166204827837646
0.0014512676279991865
0.0014199387514963746
0.0021840387489646673
0.001442550914362073
0.0015573215205222368
0.0009778657695278525
0.001432096236385405
0.0016045146621763706
0.001743385219015181
0.0018274883041158319
0.001322695054113865
0.0013012615963816643
0.0015896456316113472
0.0015641776844859123
0.002316046040505171
0.0012567953672260046
0.0015387502498924732
0.0007127916323952377
0.0010319920256733894
0.0005752751603722572
0.002148744650185108
0.0016713381046429276
0.0014022075338289142
0.0012645067181438208
0.0014096476370468736
0.001333164400421083
0.0019309073686599731
0.0021629510447382927
0.001534848241135478
0.001963874092325568
0.0008286400698125362
0.001677430933341384
0.0013364322949200869
0.0014298120513558388
0.003936546389013529
0.0013699738774448633
0.0017386109102517366
0.0010117805795744061
0.0026684568729251623
0.0014931012410670519
0.0016266488237306476
0.0015059603611007333
0.0011998447589576244
0.0011012901086360216
0.001572158420458436
0.0010213415371254086
0.0013971131993457675
0.0022830383386462927
0.0008528206963092089
0.0010383282788097858
0.001337441150099039
0.004781867377460003
0.0025320204440504313
0.0012966826325282454
0.0021362481638789177
0.0010642417473718524
0.001686244853772223
0.001262397039681673
0.0025132806040346622
0.0014628834323957562
0.0014476972864940763
0.0014799206983298063
0.0024416891392320395
0.000786137708928436
0.0018441160209476948
0.0010804308112710714
0.0033620628528296947
0.001525278901681304
0.0016687673050910234
0.00477220444008708
0.00119268789421767
0.0015103446785360575
0.0014016025234013796
0.002245370764285326
0.0026297387667000294
0.0014265946811065078
0.0012020102003589272
0.0016844121273607016
0.0022524590604007244
0.0016395833808928728
0.0020271085668355227
0.0033589203376322985
0.0013676811940968037
0.0009077173890545964
0.0012431273935362697
0.001719216932542622
0.001853651599958539
0.0016244015423581004
0.0019964026287198067
0.0014393430901691318
0.0008631213568150997
0.0024782787077128887
0.0018054596148431301
0.00217252504080534
0.0009915644768625498
0.0010797985596582294
0.003057965077459812
0.0018817055970430374
0.00116625742521137
0.0021576338913291693
0.0017705857753753662
0.0021885631140321493
0.0012113736011087894
0.0016333123203366995
0.0017864807741716504
0.0015833465149626136
0.0018302069511264563
0.0016758497804403305
0.0017438273644074798
0.0010020958725363016
0.0010960472282022238
0.0013401438482105732
0.0011617719428613782
0.0019863101188093424
0.0018971352837979794
0.0019360597943887115
0.0017548922915011644
0.0009140422916971147
0.0018750049639493227
0.0018223798833787441
0.0020074250642210245
0.0017272841650992632
0.002030195901170373
0.001115074148401618
0.001347311306744814
0.0015374900540336967
0.001390916877426207
0.002857762621715665
0.0012741293758153915
0.0017266717040911317
0.0008255905704572797
0.0008191362721845508
0.0013972234446555376
0.0008357480401173234
0.00211458676494658
0.0006273255567066371
0.0017073313938453794
0.002178067807108164
0.001087311771698296
0.002066177548840642
0.0018438870320096612
0.001126681687310338
0.0011736551532521844
0.001655127853155136
0.0009374278015457094
0.0016988751012831926
0.0010895271552726626
0.0011443182593211532
0.003268215572461486
0.0030080717988312244
0.0010294904932379723
0.0014248436782509089
0.0018314521294087172
0.0012842394644394517
0.0019109229324385524
0.001824163249693811
0.0017949938774108887
0.001798221142962575
0.0009320963290520012
0.002108872402459383
0.0011100448900833726
0.0008708187961019576
0.002724730409681797
0.00191807362716645
0.0011683142511174083
0.002498221816495061
0.001679475186392665
0.0010059128981083632
0.001597383408807218
0.002447448205202818
0.0017847222043201327
0.0017302456544712186
0.0010212607448920608
0.0012218469055369496
0.0014208845095708966
0.0016563821118324995
0.0012510239612311125
0.001834291499108076
0.0008774630259722471
0.0008707247325219214
0.0014384826645255089
0.0015083643374964595
0.0014688262017443776
0.0013075150782242417
0.0018644294468685985
0.0013370811939239502
0.0018620501505210996
0.0012527082581073046
0.001339596463367343
0.0011329228291288018
0.0025012600235641003
0.0010016311425715685
0.001270101754926145
0.0013717057881876826
0.0018873886438086629
0.0011659138835966587
0.0013422438642010093
0.001730926800519228
0.002031960990279913
0.0029602814465761185
0.0018220731290057302
0.000898605037946254
0.0011914257192984223
0.0018496259581297636
0.0018076100386679173
0.0011164566967636347
0.0011191671947017312
0.001042420626617968
0.0015696552582085133
0.0011502486886456609
0.0017636095872148871
0.001355184125714004
0.0011825062101706862
0.0009850177448242903
0.0015099096344783902
0.0013189639430493116
0.0014447186840698123
0.0016520764911547303
0.0014492637710645795
0.0014845397090539336
0.0010098714847117662
0.0018616229062899947
0.0023137314710766077
0.0015150521649047732
0.0014500655233860016
0.0016831397078931332
0.0015966384671628475
0.001330196624621749
0.0022119106724858284
0.0015869794879108667
0.0013032592833042145
0.0014507273444905877
0.002135328482836485
0.0020295330323278904
0.0014849890721961856
0.0012402983848005533
0.0013858340680599213
0.0018069806974381208
0.0008909559692256153
0.0014921926194801927
0.0011600455036386847
0.0016533039743080735
0.0010735185351222754
0.0019803245086222887
0.0016665010480210185
0.001715608173981309
0.0012136383447796106
0.0017831309232860804
0.0016625256976112723
0.0016707535833120346
0.0011164359748363495
0.001196861150674522
0.0016367100179195404
0.0012028204509988427
0.0015955738490447402
0.0014918255619704723
0.001260805525816977
0.0011367262341082096
0.0011826015543192625
0.0022209249436855316
0.001605302095413208
0.0017476384527981281
0.001966850133612752
0.0019220643443986773
0.0007871404523029923
0.0014136420795693994
0.0013229456963017583
0.0012643032241612673
0.0021386907901614904
0.0014492784393951297
0.0012941326713189483
0.0013095110189169645
0.0017195683903992176
0.0012409486807882786
0.001580474548973143
0.0019111820729449391
0.0014723035274073482
0.0011564003070816398
0.0015526205534115434
0.0010838350281119347
0.0015086872735992074
0.0012068426003679633
0.0013867750531062484
0.0019992999732494354
0.0011305575026199222
0.0016834150301292539
0.0016780567821115255
0.0017700579483062029
0.0010531775187700987
0.0017929098103195429
0.0010738366981968284
0.00144015287514776
0.001857419149018824
0.0019881415646523237
0.0010608852608129382
0.002033255295827985
0.0012017976259812713
0.000805910094641149
0.0013515345053747296
0.00177595519926399
0.002719042357057333
0.0018840713892132044
0.0013465944211930037
0.0008980461861938238
0.0010589894372969866
0.0014573988737538457
0.0019252439960837364
0.0009374420624226332
0.0018720012158155441
0.0018644226947799325
0.0007060665520839393
0.0014715041033923626
0.0009061138844117522
0.002758398186415434
0.0011959584662690759
0.0016456866869702935
0.005044915247708559
0.0017661007586866617
0.0015714509645476937
0.001181675586849451
0.0015595065196976066
0.001256840885616839
0.0012614685110747814
0.001449525123462081
0.0012920948211103678
0.00126292509958148
0.0010881995549425483
0.0017273101257160306
0.0011334061855450273
0.0015264361863955855
0.0020962394773960114
0.0014315121807157993
0.0012036901898682117
0.00074677390512079
0.0029624023009091616
0.0017461581155657768
0.0011628628708422184
0.0017780050402507186
0.0009688418358564377
0.0012269563740119338
0.0012275532353669405
0.005377091001719236
0.0015526001807302237
0.001551232417114079
0.002180583542212844
0.0018343869596719742
0.0012476702686399221
0.001049355836585164
0.001993487123399973
0.0020424784161150455
0.0016617309302091599
0.001135881058871746
0.0016425455687567592
0.0017657941207289696
0.0019673083443194628
0.002531321020796895
0.0012371811317279935
0.000770046841353178
0.00120860047172755
0.0031892608385533094
0.0011805245885625482
0.0012684877729043365
0.0017505157738924026
0.00196113926358521
0.0016471415292471647
0.0017522379057481885
0.0013782309833914042
0.001209581969305873
0.0021059901919215918
0.0008778678020462394
0.0010435667354613543
0.0011907959124073386
0.0023426152765750885
0.001745987799949944
0.0013359695440158248
0.0017038533696904778
0.001494228490628302
0.0013868198730051517
0.0011546690948307514
0.001244675717316568
0.0007845088257454336
0.0016189184971153736
0.001138370018452406
0.0024810130707919598
0.0014625852927565575
0.0006438954151235521
0.002414138987660408
0.0019942244980484247
0.0013414531713351607
0.0014463257975876331
0.001746089314110577
0.0018361202673986554
0.0016953505109995604
0.0012752957409247756
0.0028305104933679104
0.001046788296662271
0.00197968608699739
0.0017398081254214048
0.0012928741052746773
0.002375776180997491
0.002092496259137988
0.001391245168633759
0.0008480902761220932
0.0019089868292212486
0.0018536158604547381
0.0010895240120589733
0.0015805178554728627
0.0016600684029981494
0.001833876594901085
0.0009262242238037288
0.0019397675059735775
0.0018699774518609047
0.0018454581731930375
0.0017152543878182769
0.0013023641658946872
0.0023048287257552147
0.0014764360385015607
0.0018283877288922668
0.0017361757345497608
0.0012456582626327872
0.0024329512380063534
0.0010497444309294224
0.0016530518187209964
0.0021709969732910395
0.0011481338879093528
0.0017129668267443776
0.0013610584428533912
0.0011376416077837348
0.001282397424802184
0.0016133125172927976
0.0025918863248080015
0.0014353608712553978
0.0013828750234097242
0.0018491008086130023
0.002354549476876855
0.0011219318257644773
0.004813608713448048
0.001834129448980093
0.00384537223726511
0.0009496506536379457
0.001501705264672637
0.0016160524683073163
0.001033309381455183
0.0025661825202405453
0.0027674802113324404
0.0017380743520334363
0.0027343977708369493
0.0015576072037220001
0.0024406099691987038
0.0018050321377813816
0.0012862511212006211
0.0008163976017385721
0.003127794712781906
0.002276022220030427
0.0017896739300340414
0.0011007441207766533
0.0013033696450293064
0.001709411502815783
0.0010536289773881435
0.0014405996771529317
0.0023313648998737335
0.0013204602291807532
0.001310404040850699
0.0020931989420205355
0.001625341596081853
0.0010939801577478647
0.0016210157191380858
0.002971432637423277
0.0012599257752299309
0.0014441820094361901
0.0020384532399475574
0.0007798399310559034
0.002093417337164283
0.001408152049407363
0.0010600675595924258
0.0016781846061348915
0.0013584576081484556
0.0014645431656390429
0.0012899996945634484
0.002009023679420352
0.0010045652743428946
0.0011002972023561597
0.0018118994776159525
0.0007625283324159682
0.001012981403619051
0.002032957272604108
0.0017482682596892118
0.0012908214703202248
0.0011147726327180862
0.0016525783576071262
0.0009517492144368589
0.0015568876406177878
0.0011199454311281443
0.0018699958454817533
0.0018014319939538836
0.0010121655650436878
0.002728154417127371
0.001613306230865419
0.0009954610140994191
0.0012558030430227518
0.0015127998776733875
0.0016717545222491026
0.0016014925204217434
0.0014586951583623886
0.004248627927154303
0.002713134279474616
0.0014907168224453926
0.0021787153091281652
0.001003325218334794
0.0017287639202550054
0.0015074240509420633
0.002279443433508277
0.0017018128419294953
0.0013144807890057564
0.000978335039690137
0.001498345285654068
0.0008012164034880698
0.0008376174955628812
0.0016560066724196076
0.0014402818633243442
0.0020941609982401133
0.0007343153120018542
0.0017656955169513822
0.001699441927485168
0.001324706245213747
0.0013719011330977082
0.0014578091213479638
0.0023078795056790113
0.0014282562769949436
0.0022073795553296804
0.0009869467467069626
0.0018734933109954
0.001258322736248374
0.001043465337716043
0.0010152721079066396
0.0006526194047182798
0.001034283428452909
0.0015931401867419481
0.0022526485845446587
0.0037635043263435364
0.001529182307422161
0.002011245582252741
0.0014393337769433856
0.0023389190901070833
0.0015560047468170524
0.001870400388725102
0.0011409643338993192
0.002078621182590723
0.0015092168468981981
0.001149966148659587
0.0013549689901992679
0.0013478037435561419
0.0010661594569683075
0.0013401898322626948
0.003714278107509017
0.0013289556372910738
0.0019335674587637186
0.0016398372827097774
0.001956263091415167
0.00223193084821105
0.0013023633509874344
0.0024288136046379805
0.002171215834096074
0.0028513194993138313
0.0015010751085355878
0.0016905118245631456
0.0013398936716839671
0.000851865392178297
0.0015588868409395218
0.0018709666328504682
0.001766524976119399
0.0009825073648244143
0.0017073011258617043
0.0017283365596085787
0.0023857606574892998
0.0015403243014588952
0.0011773711303249002
0.0015111234970390797
0.00120057025924325
0.001694033737294376
0.0009416704997420311
0.0023116194643080235
0.0016476839082315564
0.0012951302342116833
0.0013552488526329398
0.002905382076278329
0.0012215734459459782
0.0012302054092288017
0.0014032239560037851
0.0013511405559256673
0.0020524137653410435
0.0012613814324140549
0.0019909359980374575
0.0009163987706415355
0.001403091591782868
0.001005925121717155
0.0012898477725684643
0.0018942226888611913
0.0014818322379142046
0.00148053839802742
0.0025443900376558304
0.0024382637348026037
0.0017147151520475745
0.0012934348778799176
0.001953184138983488
0.0019235312938690186
0.0007255885866470635
0.0014661636669188738
0.002604312961921096
0.0011178035056218505
0.0010359208099544048
0.0021127855870872736
0.0014391898876056075
0.00346583453938365
0.0019822048489004374
0.0013583513209596276
0.0015277444617822766
0.0008095100056380033
0.0008707387605682015
0.0006932991673238575
0.0010882440255954862
0.0009877446573227644
0.0021367170847952366
0.0014564256416633725
0.0017305106157436967
0.0012144941138103604
0.0014681370230391622
0.0023298468440771103
0.0007855652365833521
0.0026500558014959097
0.002283553360030055
0.0024128223303705454
0.0012373140780255198
0.0011823909590020776
0.0010237935930490494
0.0009038264397531748
0.0028363445308059454
0.001059150556102395
0.0015195629093796015
0.0014930471079424024
0.0008380820509046316
0.0012286670971661806
0.001428732881322503
0.0008976089302450418
0.0015921768499538302
0.001579701085574925
0.0015384491998702288
0.004786513280123472
0.0026795356534421444
0.001601323252543807
0.0022775582037866116
0.001987950876355171
0.0021393531933426857
0.0017631800146773458
0.002582093933597207
0.001645694370381534
0.0008745287195779383
0.0012543529737740755
0.001265666214749217
0.00138949160464108
0.0024355407804250717
0.0018570052925497293
0.0014086682349443436
0.0033255398739129305
0.0013103265082463622
0.0009578816243447363
0.0022177628707140684
0.0013002022169530392
0.002964268671348691
0.0013188176089897752
0.0011176945408806205
0.0018393720965832472
0.001563851605169475
0.0014063504058867693
0.0016632911283522844
0.002357330871745944
0.0017991308122873306
0.0018050356302410364
0.0013009175891056657
0.001247865497134626
0.0006053310353308916
0.0010703124571591616
0.001613486441783607
0.0011237561702728271
0.001716378377750516
0.0013020657934248447
0.0013480378547683358
0.0009739684173837304
0.0011532317148521543
0.0013634237693622708
0.000902775558643043
0.0010149192530661821
0.0013311487855389714
0.0011169881327077746
0.00394126633182168
0.0019130049040541053
0.0014666956849396229
0.0025368272326886654
0.001235132571309805
0.0016720799030736089
0.0018797903321683407
0.001226792111992836
0.0006924321060068905
0.0012538860319182277
0.0008406405686400831
0.0015129942912608385
0.002634590258821845
0.0012923456961289048
0.0014760252088308334
0.004672934301197529
0.002305247588083148
0.0009940199088305235
0.0013615642674267292
0.001033184351399541
0.0020405719988048077
0.0037927068769931793
0.000863027642481029
0.002582770539447665
0.0032283703330904245
0.00242428807541728
0.0007440044428221881
0.0031693940982222557
0.001000061398372054
0.000986770959571004
0.00132250867318362
0.0012436662800610065
0.0010591684840619564
0.0014835757901892066
0.001773981610313058
0.001530022593215108
0.0013165778946131468
0.0017604940803721547
0.002852171426638961
0.0023679721634835005
0.0019359557190909982
0.0020989279728382826
0.0021123948972672224
0.0011642520548775792
0.0033451106864959
0.0009661564254201949
0.0026852753944694996
0.001293565146625042
0.0016647445736452937
0.0006879487773403525
0.0016746741021052003
0.00206048134714365
0.001429712399840355
0.0013512099394574761
0.0017810184508562088
0.0016184498090296984
0.001975172432139516
0.001543752383440733
0.0016564466059207916
0.002725576050579548
0.0017796603497117758
0.0013645078288391232
0.001974010607227683
0.0039416649378836155
0.0015150342369452119
0.0025031068362295628
0.0031340322457253933
0.00226885755546391
0.001941606984473765
0.00277862511575222
0.0012859272537752986
0.0019662140402942896
0.0034547518007457256
0.0016437669983133674
0.0015274976613000035
0.00112447002902627
0.0019168934086337686
0.0006174725131131709
0.0007851165137253702
0.0013829610543325543
0.001536563504487276
0.0019455277360975742
0.0010502907680347562
0.0015090530505403876
0.0010781621094793081
0.0018342609982937574
0.0017931247130036354
0.0020106129813939333
0.0017934308853000402
0.0015352085465565324
0.00154458312317729
0.002133990405127406
0.0028466193471103907
0.001184808206744492
0.002481189789250493
0.0007894428563304245
0.0019742674194276333
0.0007372896070592105
0.0016969129210337996
0.0015090883243829012
0.0009498373256064951
0.0016394193517044187
0.001232301932759583
0.0011711427941918373
0.002292379504069686
0.001939916517585516
0.0012262961827218533
0.0015868495684117079
0.0023620310239493847
0.0008463543490506709
0.0013423616765066981
0.001204881351441145
0.0014049523742869496
0.0016059246845543385
0.0016985064139589667
0.0020084490533918142
0.0016619310481473804
0.0017807630356401205
0.003063930431380868
0.0011114164954051375
0.0012254451867192984
0.0017136413371190429
0.0017027106368914247
0.0028004187624901533
0.0009574287105351686
0.0012362574925646186
0.0011832438176497817
0.0010556741617619991
0.0016514974413439631
0.0021530629601329565
0.0014782109064981341
0.001291130087338388
0.0013267589965835214
0.0018023730954155326
0.0007793217664584517
0.0010839237365871668
0.0015193516155704856
0.0023796602617949247
0.002079640282317996
0.0011767529649659991
0.0025797029957175255
0.0035600815899670124
0.001861809752881527
0.0018155251163989305
0.0011355518363416195
0.0006371054914779961
0.0015336335636675358
0.0018547733779996634
0.0007167733856476843
0.0020391144789755344
0.002046065405011177
0.001637582085095346
0.0013762289891019464
0.0019880912732332945
0.0015322385588660836
0.0017059931997209787
0.001965845003724098
0.0021744663827121258
0.0020420753862708807
0.0029055767226964235
0.001999952830374241
0.002312176628038287
0.0019952617585659027
0.0010173707269132137
0.0013402588665485382
0.0019605422858148813
0.002083780709654093
0.0020595132373273373
0.0027050431817770004
0.0013182149268686771
0.0009420099086128175
0.0012896812986582518
0.0016773475799709558
0.001136831589974463
0.0013378350995481014
0.0017257049912586808
0.0011193221434950829
0.001485099783167243
0.0024007605388760567
0.0017951716436073184
0.0018547078361734748
0.0012389370240271091
0.0009890837827697396
