0.0006720372475683689
0.0004897201433777809
0.0005032531335018575
0.0005720125045627356
0.0005747380782850087
0.0005160588771104813
0.0004913960001431406
0.0005379687645472586
0.0005770307034254074
0.0004635350778698921
0.0005768631817772985
0.0005684231291525066
0.00056888023391366
0.000734536093659699
0.0004505183605942875
0.0006937989383004606
0.0006882131565362215
0.0005529135232791305
0.0007629939937032759
0.0005471722106449306
0.0005340143688954413
0.0006710448069497943
0.000573013792745769
0.0006245095282793045
0.0007044154917821288
0.0003900839074049145
0.0006507717771455646
0.0005670064711011946
0.0004680524580180645
0.00038702672463841736
0.00044392963172867894
0.0005830716108903289
0.0005656564608216286
0.00047127596917562187
0.0005271669360809028
0.00048168541979976
0.0007848131353966892
0.0004945006803609431
0.0008275348227471113
0.0005114784580655396
0.0006066777277737856
0.0005276728188619018
0.0005801102379336953
0.0010153817711398005
0.0004986740532331169
0.0006614800659008324
0.0004723781021311879
0.0004679003614000976
0.00047556732897646725
0.000646816857624799
0.0005063045537099242
0.0006411249050870538
0.0005241918843239546
0.000522348505910486
0.0007271844078786671
0.0005198509315960109
0.0007080339710228145
0.0005525504820980132
0.0005545963067561388
0.0005636143032461405
0.0005159389693289995
0.0005547846085391939
0.0006105723441578448
0.0011590588837862015
0.0006788564496673644
0.0004941431689076126
0.0003980813780799508
0.0005891018081456423
0.0007214712677523494
0.0006541191833093762
0.0008891463512554765
0.00036124486359767616
0.0006547454395331442
0.0006689119036309421
0.0008588872151449323
0.00046177912736311555
0.0006745033315382898
0.0005686127697117627
0.0005832322058267891
0.0005180779844522476
0.0010172937763854861
0.0006335827638395131
0.0004000153858214617
0.0005365458782762289
0.0005466105067171156
0.0005547484615817666
0.0006211722502484918
0.0004919283092021942
0.0005070590414106846
0.0007761665037833154
0.0005893558263778687
0.0005063022836111486
0.000589163217227906
0.0005460538668558002
0.0008621736778877676
0.000562529603485018
0.0005928286118432879
0.0006780080148018897
0.0006434833630919456
0.00045736212632618845
0.0005240979953669012
0.0006637618644163013
0.0005814472679048777
0.0004464424273464829
0.0006123711355030537
0.000667369517032057
0.0005394513718783855
0.0007736802217550576
0.0005949714686721563
0.0006142785423435271
0.000630890135653317
0.0006172924186103046
0.0005770027637481689
0.0006187799153849483
0.0007275109528563917
0.0004994134069420397
0.000572461576666683
0.0004087841371074319
0.0004602043190971017
0.0005586896440945566
0.0005344658275134861
0.0009926063939929008
0.0004871032142546028
0.0005262818885967135
0.00047158810775727034
0.0004655168449971825
0.0008787252008914948
0.0005131612997502089
0.0007847243687137961
0.000569357885979116
0.0005615236004814506
0.0007312336238101125
0.0005146684707142413
0.0005450918688438833
0.0005206043133512139
0.0005807495326735079
0.0007163175032474101
0.00052278843941167
0.0006034839898347855
0.0005786100518889725
0.0005866811843588948
0.0004153900663368404
0.0005393667379394174
0.0006316416547633708
0.00047331160749308765
0.0005954259540885687
0.0005300877382978797
0.0006395327509380877
0.0005110706551931798
0.0006194174056872725
0.0007058081682771444
0.00048095910460688174
0.0005280676414258778
0.0005986960022710264
0.00052640464855358
0.0006161031778901815
0.0006174741429276764
0.0004014890000689775
0.0006002153968438506
0.000515305669978261
0.0008255732245743275
0.0005456801154650748
0.00051782006630674
0.0005615229601971805
0.0005039329407736659
0.00064654037123546
0.0006440906436182559
0.0005128922639414668
0.0005625342018902302
0.0005885304417461157
0.0006031743832863867
0.0004914455930702388
0.0007048196857795119
0.0004914356977678835
0.00041169390897266567
0.0004886334645561874
0.0006758820964023471
0.0007067830301821232
0.0005641564493998885
0.000715222442522645
0.0005472794873639941
0.0004635805089492351
0.0005713995196856558
0.0004972430178895593
0.0005455067148432136
0.0005639904993586242
0.0007345869671553373
0.0008011421305127442
0.0006409281049855053
0.0008233840926550329
0.0006444078753702343
0.0007129699806682765
