2.619449696794618e-05
0.00014757168537471443
8.815855107968673e-05
4.175340654910542e-05
6.789426697650924e-05
7.98390174168162e-05
8.303800132125616e-05
0.00012501479068305343
0.00010369904339313507
0.00011769428965635598
0.0001292827510042116
2.8373087843647227e-05
0.0001132356483140029
0.00013703858712688088
9.939220763044432e-05
6.864325405331329e-05
9.838261030381545e-05
0.00013644323917105794
0.00024855422088876367
0.00014354047016240656
9.838676487561315e-05
2.6893074391409755e-05
8.49560383358039e-05
2.1680680220015347e-05
4.612905468093231e-05
8.59961292007938e-05
0.00013988229329697788
0.0001280066353501752
8.514610817655921e-05
0.00011259864550083876
0.00012595874432008713
9.129859245149419e-05
0.00010736913100117818
0.00011915344657609239
3.0340128432726488e-05
0.00012463350140023977
0.0001223027502419427
7.724145689280704e-05
3.066471253987402e-05
0.0001377318985760212
2.8525446396088228e-05
8.297316526295617e-05
4.6701290557393804e-05
0.00013033204595558345
3.390669371583499e-05
0.00012339169916231185
0.00012759027595166117
0.0001590335159562528
3.727166404132731e-05
3.8225636671995744e-05
0.00012076499842805788
7.545379048679024e-05
5.3087649575900286e-05
0.00013806685456074774
0.00010225218284176663
0.00013707508333027363
3.0127212085062638e-05
0.00011547591566340998
5.4139232815941796e-05
0.00014928466407582164
0.00016532329027540982
0.0001654081861488521
4.020649430458434e-05
4.880666165263392e-05
0.00010053633013740182
6.507764192065224e-05
0.0001356630091322586
0.00016775590484030545
2.7278954803477973e-05
7.967901910888031e-05
7.046768587315455e-05
2.4532489987905137e-05
2.5653696866356768e-05
9.289888112107292e-05
7.464399823220447e-05
0.00011962102144025266
6.74704642733559e-05
0.00014453486073762178
0.00014269330131355673
8.662662003189325e-05
4.887270551989786e-05
3.8774080167058855e-05
0.00012415614037308842
0.00010578837827779353
2.275910446769558e-05
0.00011368134437361732
0.0001565238635521382
9.323342237621546e-05
0.0001719718857202679
8.197251736419275e-05
0.00010385217319708318
0.00011913723574252799
2.3377513571176678e-05
2.49259337579133e-05
9.475380647927523e-05
3.692678001243621e-05
0.00011820222425740212
4.455048110685311e-05
0.00012441772560123354
6.995353760430589e-05
0.00010668566392268986
0.00010977377678500488
0.0001138176376116462
5.6457876780768856e-05
3.2400166674051434e-05
0.00016344341565854847
3.121409463346936e-05
0.00015553775301668793
9.326023428002372e-05
3.648053461802192e-05
0.00012507739302236587
7.208816532511264e-05
0.00016288933693431318
0.00013091218715999275
4.122499012737535e-05
0.00012026878539472818
0.00010729351924965158
0.00012502793106250465
3.1272316846298054e-05
8.519829862052575e-05
0.00010898238542722538
5.399249494075775e-05
8.257335866801441e-05
6.060573650756851e-05
7.595089846290648e-05
8.32146979519166e-05
9.980055619962513e-05
5.881551987840794e-05
8.859417721396312e-05
0.00011585620086407289
0.00011152947263326496
5.24505230714567e-05
0.00015329584130086005
7.443162030540407e-05
0.00014715720317326486
3.548943641362712e-05
9.542438056087121e-05
8.162387530319393e-05
0.0001294774847337976
2.9918423024355434e-05
7.114108302630484e-05
9.784658323042095e-05
2.3593807782162912e-05
7.353127875830978e-05
0.0002771297004073858
4.0165781683754176e-05
4.6525714424205944e-05
0.00011687305959640071
0.00010424279025755823
6.552270497195423e-05
4.311116936150938e-05
0.00014543632278218865
2.3462525859940797e-05
0.00010376291174907237
3.924905104213394e-05
0.00013416919682640582
8.893143967725337e-05
0.00014492096670437604
0.00010108877177117392
8.764048834564164e-05
7.536469638580456e-05
8.161897130776197e-05
0.00012272331514395773
0.00014643408940173686
9.029066859511659e-05
8.846088167047128e-05
2.8082093194825575e-05
8.574641833547503e-05
0.0003676686610560864
0.00011922720295842737
5.888635496376082e-05
0.00011936815280932933
0.00017490331083536148
0.00015594188880641013
9.86835002549924e-05
0.00026692557730711997
0.00023867192794568837
0.00013515878526959568
0.00012053274986101314
0.00011278369493084028
9.143912757281214e-05
6.107553781475872e-05
8.448722655884922e-05
3.0537146813003346e-05
9.800346742849797e-05
2.6127794626518153e-05
2.4481225409545004e-05
4.41884585598018e-05
9.486272028880194e-05
0.00012938675354234874
3.366309465491213e-05
0.00010591559112071991
6.562504131579772e-05
3.378348992555402e-05
0.00010243172437185422
0.00020331976702436805
0.00011502562847454101
3.5675184335559607e-05
0.00010158699296880513
2.4178729290724732e-05
5.424290066002868e-05
9.924496407620609e-05
3.432483208598569e-05
3.631861909525469e-05
6.904065958224237e-05
0.00010472727444721386
5.218485966906883e-05
0.00011608637578319758
0.00015866290777921677
0.0001166753500001505
5.8854391681961715e-05
7.122920214897022e-05
9.418331319466233e-05
0.00012696789053734392
0.00015065351908560842
6.105837383074686e-05
0.00015353334310930222
4.7890294808894396e-05
9.553896234137937e-05
0.00012409705959726125
2.197893445554655e-05
2.6979199901688844e-05
3.6782006645807996e-05
6.232056330190971e-05
3.64862680726219e-05
9.141867485595867e-05
0.00010300648136762902
4.286013063392602e-05
3.3223168429685757e-05
4.4596199586521834e-05
8.147609332809225e-05
0.00014199958241079003
0.0001271665678359568
5.817531928187236e-05
0.0001367978984490037
9.135093569057062e-05
3.429445860092528e-05
9.961910836864263e-05
2.4700124413357116e-05
0.00019568348943721503
0.00011768925469368696
0.00011966261808993295
0.00011333484872011468
8.889881428331137e-05
3.247784843551926e-05
0.00012312929902691394
6.463005411205813e-05
8.380656072404236e-05
0.00013952791050542146
2.7469865017337725e-05
4.8310273996321484e-05
3.0500323191517964e-05
0.00017511186888441443
7.375990389846265e-05
0.00011097092647105455
7.16124995960854e-05
9.719467925606295e-05
9.025001781992614e-05
7.31580366846174e-05
8.429059380432591e-05
2.9044093025731854e-05
0.0001253211812581867
8.52707598824054e-05
0.00010255797678837553
0.00013990848674438894
0.00014262246259022504
9.918937576003373e-05
9.021831647260115e-05
3.983382703154348e-05
9.999355825129896e-05
9.577796299709007e-05
2.953141120087821e-05
0.00013843056512996554
9.813223732635379e-05
6.915985431987792e-05
0.00012098476872779429
7.966761768329889e-05
0.00012445521133486181
2.2007350708008744e-05
2.4771836251602508e-05
0.00010260194540023804
5.338971095625311e-05
4.788413571077399e-05
4.959369107382372e-05
0.0001473944867029786
4.741308657685295e-05
4.603002889780328e-05
0.00013441420742310584
8.204150799429044e-05
9.554184362059459e-05
0.00010833582928171381
0.00018315792840439826
0.00010181568359257653
0.00010297880362486467
0.00010640230175340548
0.00011179273860761896
9.798144310479984e-05
0.0002048748719971627
0.00010420336911920458
2.4513461539754644e-05
5.321982462191954e-05
0.00011594896204769611
7.522840314777568e-05
0.00014660987653769553
4.744874968309887e-05
0.0001350794336758554
0.00013989752915222198
3.0487504773191176e-05
0.00013601970567833632
0.00012097149738110602
5.694162973668426e-05
9.885385952657089e-05
0.0001468129048589617
0.000140782751259394
2.457511618558783e-05
0.00010709048365242779
7.461139466613531e-05
3.5337568988325074e-05
0.00010025731899077073
0.0001344219344900921
0.0001440508058294654
7.494904275517911e-05
4.146681385464035e-05
0.00011079708929173648
6.903533358126879e-05
0.00012735951167996973
0.0001237332762684673
6.896594277350232e-05
0.0001361962640658021
6.171280983835459e-05
7.545026164734736e-05
0.00013645771832671016
0.00017845176625996828
0.00014464276318904012
0.00010014433792093769
0.00010466818639542907
0.00017601478612050414
2.6829608032130636e-05
5.778772901976481e-05
8.352952136192471e-05
6.446716724894941e-05
0.00017471188039053231
3.9065664168447256e-05
5.1107188483001664e-05
2.845655217242893e-05
6.534004933200777e-05
4.6929468226153404e-05
2.7379512175684795e-05
8.280637848656625e-05
4.756871203426272e-05
3.967486918554641e-05
0.0001600509276613593
0.0001082651870092377
0.00011024698324035853
6.801034760428593e-05
0.0001834172144299373
2.703882819332648e-05
0.00014635376282967627
0.00012283731484785676
9.244881948688999e-05
0.00012267346028238535
9.934206173056737e-05
0.00017707052757032216
3.284504055045545e-05
0.00013613811461254954
0.0001213186260429211
0.00016705483722034842
0.0001357060536975041
0.00018943057511933148
9.711740131024271e-05
9.925457561621442e-05
0.0001264616585103795
8.174665708793327e-05
0.00012464699102565646
0.00010275301610818133
0.00013621214020531625
0.00011618225835263729
0.00020565319573506713
6.365668377839029e-05
7.469165575457737e-05
0.00010139648657059297
3.774563447223045e-05
8.789440471446142e-05
6.96969436830841e-05
0.0001351759274257347
0.00011279049795120955
0.00016934628365561366
0.0001308145438088104
3.6708592233480886e-05
2.9574135623988695e-05
0.00011455494677647948
0.00011323340731905773
8.042091940296814e-05
8.062252163654193e-05
0.00011530818301253021
0.00013493737787939608
9.70654800767079e-05
8.59876599861309e-05
0.00011236180580453947
4.888824696536176e-05
4.725313920062035e-05
0.0002083073341054842
0.0001411959674442187
9.692955063655972e-05
0.00010898816253757104
0.00014184543397277594
4.463760706130415e-05
9.248018614016473e-05
1.9534496459527873e-05
1.8814846043824218e-05
3.599313640734181e-05
0.0001351916289422661
0.00012391321070026606
0.00011454647756181657
2.9935490601928905e-05
3.613509761635214e-05
9.423067967873067e-05
5.991416401229799e-05
5.7090808695647866e-05
2.92569056909997e-05
4.091995651833713e-05
5.878125739400275e-05
6.818293331889436e-05
9.950198727892712e-05
2.6794750738190487e-05
0.00011110464402008802
0.00012517529830802232
0.00010141364327864721
6.658130587311462e-05
2.96548314508982e-05
0.00011423420801293105
4.9875139666255563e-05
0.00014920254761818796
2.1269790522637777e-05
0.00012098545266781002
0.00019239143875893205
0.00014531495980918407
3.721887696883641e-05
9.647690603742376e-05
2.2998403437668458e-05
0.00015592091949656606
8.579075074521825e-05
0.00012310282909311354
9.460675937589258e-05
0.00010406508954474702
7.624661520821974e-05
3.834935705526732e-05
7.315171387745067e-05
3.129838660242967e-05
8.656547288410366e-05
0.00014938002277631313
0.00013640773249790072
0.00013890901755075902
4.358230216894299e-05
3.19468199450057e-05
0.00011985346645815298
6.657256744801998e-05
3.622027361416258e-05
7.174668280640617e-05
5.561177749768831e-05
0.00013921744539402425
2.331043106096331e-05
4.974870171281509e-05
4.335952689871192e-05
0.0001514733157819137
0.00011854007607325912
8.66742484504357e-05
7.480081694666296e-05
8.766516839386895e-05
0.0001498629426350817
4.205751611152664e-05
3.092757469858043e-05
0.0001520724326837808
0.0001318099384661764
0.00014961749548092484
0.00011813765013357624
8.357819024240598e-05
8.03464135969989e-05
0.00019983897800557315
0.00010551235754974186
0.00010363417823100463
7.60765906306915e-05
0.00011100181291112676
3.437980558373965e-05
3.340470357215963e-05
0.00011815916514024138
0.0001289909123443067
0.00012412363139446825
0.00011838845239253715
0.00012576246808748692
7.61748815421015e-05
0.00011678593000397086
0.00014476763317361474
0.0001460370549466461
0.00013648961612489074
2.9305083444342017e-05
0.00011251639807596803
2.665153624548111e-05
0.00013400122406892478
6.572736310772598e-05
0.00010749595094239339
4.3665619159583e-05
8.08352415333502e-05
3.726947397808544e-05
2.5202165488735773e-05
7.079590432113037e-05
6.467638013418764e-05
9.140820475295186e-05
5.9380909078754485e-05
0.00012010348291369155
7.42686606827192e-05
9.881987352855504e-05
0.0001109396544052288
2.1899681087234057e-05
0.00019759124552365392
5.501681152964011e-05
0.0001748694630805403
0.00018086814088746905
0.00010797016875585541
0.00014458356599789113
0.00013160231173969805
0.00011552798241609707
0.00016730805509723723
9.901475277729332e-05
0.00014396468759514391
0.00014390063006430864
0.0001973756734514609
0.00023840219364501536
8.963924483396113e-05
0.00010336926789022982
6.514163396786898e-05
0.0001502366067143157
6.848691555205733e-05
6.377906538546085e-05
2.4945527911768295e-05
0.00012029420031467453
4.977369462721981e-05
0.00013924672384746373
2.4414839572273195e-05
0.00012100233288947493
9.000349382404238e-05
0.00015124357014428824
0.00014250849199015647
2.9247048587421887e-05
2.8012897018925287e-05
0.00010625848517520353
9.075721754925326e-05
8.219428127631545e-05
0.00013711416977457702
0.00012484166654758155
7.97096363385208e-05
6.773170753149316e-05
2.3199263523565605e-05
0.00010659449617378414
0.00011757011088775471
0.00018586846999824047
0.0001579847012180835
2.459852294123266e-05
0.00014089698379393667
7.008260581642389e-05
0.0001202114435727708
0.00010286588803865016
2.88595947495196e-05
0.0001324464683420956
7.061030191835016e-05
3.323924102005549e-05
0.00010222391574643552
7.960789662320167e-05
5.092014544061385e-05
4.659819751395844e-05
0.00010876780288526788
9.650818537920713e-05
0.0001249834313057363
6.930263043614104e-05
3.88789085263852e-05
5.733686703024432e-05
4.342881584307179e-05
0.0001409007381880656
3.2514471968170255e-05
4.2823096009669825e-05
0.00013262614083942026
0.00013762029993813485
9.471946395933628e-05
4.055118915857747e-05
4.9176898755831644e-05
0.00012966572830919176
6.747440784238279e-05
0.00010290099453413859
0.00013903110811952502
0.00011589037603698671
4.490560240810737e-05
5.185501140658744e-05
4.899996201856993e-05
0.00018117757281288505
4.0414248360320926e-05
2.863572990463581e-05
0.00016001203039195389
0.00019293578225187957
9.668469283496961e-05
0.00011465432908153161
5.0438044127076864e-05
0.00011358545452822
8.282916678581387e-05
9.878200944513083e-05
0.00010897419269895181
0.00012625360977835953
8.536622044630349e-05
3.583394573070109e-05
7.678977272007614e-05
0.00010983714309986681
9.75117800408043e-05
0.00011502816050779074
2.2860042008687742e-05
0.00016200503159780055
0.0001578481460455805
3.56579439539928e-05
0.00010900764755206183
3.860570723190904e-05
0.00021141019533388317
8.924985013436526e-05
2.66468105110107e-05
0.00016238623356912285
4.477473339647986e-05
0.00014158124395180494
0.0001281786971958354
6.799589755246416e-05
8.949969196692109e-05
9.602202771930024e-05
9.965743811335415e-05
0.00011763660586439073
4.195920337224379e-05
2.2728270778316073e-05
0.00011299223842797801
2.3848371711210348e-05
0.00010212502093054354
0.00014360311615746468
3.1525996746495366e-05
9.053279791260138e-05
3.6329944123281166e-05
6.27351546427235e-05
0.00010618383385008201
6.213111191755161e-05
0.0001292198576265946
0.00014537501556333154
4.531020749709569e-05
4.872137287748046e-05
0.0001286287442781031
0.00012128404341638088
0.00024632809800095856
0.00010920859494945034
0.00028002055478282273
6.278171349549666e-05
0.0001166100992122665
6.458203279180452e-05
0.0001294717367272824
8.372490265173838e-05
2.626028799568303e-05
0.00012944225454702973
6.419264536816627e-05
7.552620809292421e-05
7.846655353205279e-05
0.00019135070033371449
4.783300028066151e-05
7.650171755813062e-05
0.00010571273014647886
0.0001337395515292883
3.31656337948516e-05
3.917067442671396e-05
0.00012056286504957825
8.243140473496169e-05
0.00016579683870077133
3.6233788705430925e-05
6.369317270582542e-05
9.152233542408794e-05
9.034162940224633e-05
0.00010451189882587641
2.9685239496757276e-05
0.00016139056242536753
3.0211283956305124e-05
2.3454407710232772e-05
4.499947317526676e-05
0.00014404150715563446
7.304616883629933e-05
0.00017447592108510435
2.9685474146390334e-05
0.00010085804387927055
0.00010779031435959041
7.694971282035112e-05
0.00010044679220300168
9.841542487265542e-05
1.9344703105161898e-05
9.030013461597264e-05
0.00016122072702273726
0.0001451731804991141
5.705650255549699e-05
0.0001119564039981924
0.000191643470316194
0.00014896249922458082
2.8662740078289062e-05
2.5817123969318345e-05
0.00011660809104796499
8.259630703832954e-05
2.3945936845848337e-05
2.9762062695226632e-05
9.073567343875766e-05
0.00012599377078004181
0.00011075376824010164
4.1376417357241735e-05
3.294850102975033e-05
0.00012403808068484068
0.00010828362428583205
0.00010092880256706849
0.00010925594688160345
7.529454887844622e-05
0.00017003736866172403
0.00010513362940400839
8.908631571102887e-05
0.00016195759235415608
7.560468657175079e-05
4.0662191167939454e-05
0.00010500450298422948
6.485053745564073e-05
2.6569316105451435e-05
7.616278890054673e-05
8.473513298667967e-05
0.0001421089837094769
6.288993608905002e-05
0.0001396827574353665
9.03733161976561e-05
4.359793820185587e-05
2.9242000891827047e-05
0.00011818826897069812
8.628237992525101e-05
9.11448587430641e-05
0.0001094745093723759
0.00012399112165439874
0.00012779462849721313
0.00014673073019366711
9.101847535930574e-05
0.0001405253860866651
4.912206713925116e-05
8.05833624326624e-05
5.1197501306887716e-05
0.0001405547372996807
0.00011244726192671806
8.688142406754196e-05
9.029290231410414e-05
5.550287460209802e-05
9.046660125022754e-05
0.00012416575918905437
5.589894135482609e-05
4.2076309910044074e-05
0.00011619911674642935
7.594605267513543e-05
1.9911951312678866e-05
0.00021123039186932147
2.7413640054874122e-05
2.6563513529254124e-05
3.3039152185665444e-05
3.640262002591044e-05
7.054766319924966e-05
0.00012280377268325537
0.000110548862721771
5.446402428788133e-05
0.00011579078272916377
0.00011943339632125571
0.00011784943490056321
7.788946095388383e-05
0.00013002361811231822
9.206309914588928e-05
5.565894389292225e-05
4.514881584327668e-05
8.289885590784252e-05
3.695603663800284e-05
3.354033106006682e-05
3.66796666639857e-05
0.00015234101738315076
8.068680472206324e-05
6.736845534760505e-05
0.00010355106496717781
2.879411658796016e-05
0.00013757699343841523
0.00012299783702474087
0.00011682705371640623
7.614166679559276e-05
0.00013645780563820153
9.83436984824948e-05
8.355113095603883e-05
5.358276757760905e-05
5.4525335144717246e-05
8.735011942917481e-05
7.668510806979612e-05
0.00014437036588788033
0.0001358406589133665
9.101339674089104e-05
5.627797872875817e-05
9.94156944216229e-05
9.003606828628108e-05
0.00014890583406668156
0.00013247465540189296
2.6994743166142143e-05
3.248693246860057e-05
9.675774344941601e-05
9.742555266711861e-05
5.738333857152611e-05
8.128111221594736e-05
0.00010408514935988933
0.00015480145520996302
3.632907828432508e-05
4.7981062380131334e-05
5.3147708968026564e-05
0.0001312596577918157
3.089680103585124e-05
4.488160629989579e-05
8.192591485567391e-05
6.502729229396209e-05
0.00013444969954434782
0.00010883086360991001
5.153556776349433e-05
9.548105299472809e-05
0.00010104581451741979
1.647365752432961e-05
0.00011205275950487703
4.682352300733328e-05
0.00011824018292827532
5.543019142351113e-05
1.6446447261841968e-05
0.00011069646279793233
0.0001178116726805456
0.00011975743109360337
3.0296265322249383e-05
0.00010391977411927655
0.0001231188653036952
2.6176596293225884e-05
5.057578891864978e-05
0.0001114179176511243
9.106520883506164e-05
2.8125165044912137e-05
4.723980964627117e-05
0.00011609406647039577
8.86170455487445e-05
6.373407086357474e-05
0.000140794349135831
0.00011012485629180446
0.0001378392771584913
0.00010597903747111559
0.00013397839211393148
4.134267146582715e-05
3.094588464591652e-05
9.731635509524494e-05
3.089129677391611e-05
8.994070230983198e-05
3.43025203619618e-05
0.00015065347542986274
0.00010653726349119097
0.00012323574628680944
5.00727619510144e-05
0.00012840752606280148
8.264258940471336e-05
0.00013903621584177017
9.796585072763264e-05
0.00013074556773062795
4.5341585064306855e-05
0.00012107426300644875
3.1962114007910714e-05
0.0001022660726448521
0.00010910743731074035
0.0001011406711768359
0.00011641508172033355
4.350776725914329e-05
0.00011608959903242067
0.00012556924775708467
3.6859779356746e-05
5.50830336578656e-05
4.095499389222823e-05
8.909746975405142e-05
2.6433805032866076e-05
5.404644616646692e-05
0.00011451799218775705
0.00011873277981067076
0.00017688544176053256
3.39438920491375e-05
0.00013457261957228184
0.00015854736557230353
2.590227268228773e-05
0.00011477686348371208
0.0001683556183706969
8.035409700823948e-05
4.2106919863726944e-05
8.878015796653926e-05
0.0001563086552778259
0.00011959153198404238
8.231915126089007e-05
5.457096267491579e-05
0.00011513729259604588
6.077103171264753e-05
0.00012730351591017097
8.363655797438696e-05
0.00013121134543325752
0.00010510691208764911
5.5258376960409805e-05
0.00013579412188846618
0.00011858237121487036
0.00012438136036507785
3.148232644889504e-05
2.256461448268965e-05
6.53816678095609e-05
0.00010908943659160286
8.917366358218715e-05
0.00011613618698902428
0.00021218089386820793
8.454939961666241e-05
0.00011144987365696579
0.00012276365305297077
0.0001686707983026281
0.00013843800115864724
0.0001237930846400559
4.911164069199003e-05
5.985255120322108e-05
7.497348269680515e-05
0.00010537263005971909
3.6297009501140565e-05
5.594438698608428e-05
0.00011814149911515415
0.0001567458239151165
9.466375195188448e-05
9.559276077197865e-05
0.00011235471902182326
0.0001056349283317104
0.00024679358466528356
8.870851888787001e-05
3.092787665082142e-05
0.00011653351975837722
0.000105704901216086
0.0001002686913125217
0.00010401912004454061
0.00013729376951232553
0.00020097977539990097
9.491377568338066e-05
9.361165575683117e-05
0.00012821872951462865
4.1210183553630486e-05
9.235841571353376e-05
0.00017373295850120485
0.00016328372294083238
8.94066397449933e-05
7.419280154863372e-05
0.00010456128802616149
0.00011564289161469787
4.6421413571806625e-05
0.000110481349111069
0.00013622092956211418
0.00013098394265398383
0.00011358856136212125
0.00012489446089603007
0.00013513778685592115
0.00013397348811849952
0.00011473346239654347
8.671762770973146e-05
3.459463914623484e-05
0.00011633979738689959
0.0001310469233430922
3.459445360931568e-05
3.2911972084548324e-05
0.00012848035839851946
0.00010392718104412779
9.880189463729039e-05
9.013576345751062e-05
7.162043038988486e-05
6.785964797018096e-05
4.996349161956459e-05
0.00014311345876194537
9.875687828753144e-05
3.7248180888127536e-05
0.00010849157115444541
3.124335125903599e-05
8.628459181636572e-05
0.000131580323795788
0.00016709040210116655
4.949039066559635e-05
0.00012192648864584044
8.21491121314466e-05
7.880543853389099e-05
0.00016773991228546947
0.00010953579476336017
9.674972534412518e-05
0.00016234950453508645
0.00014695477148052305
2.4922766897361726e-05
0.00010970987204927951
8.919946412788704e-05
0.00011334104056004435
0.0001146047143265605
4.98858789796941e-05
0.00013801772729493678
0.00016880326438695192
8.752701251069084e-05
5.694474384654313e-05
0.0001374355488223955
0.00010427748929942027
9.484426118433475e-05
6.988667155383155e-05
6.652981392107904e-05
4.918338527204469e-05
7.209186878753826e-05
0.00013701444549951702
6.866310286568478e-05
6.849004421383142e-05
0.00012624324881471694
0.00013730040518566966
0.00013294487143866718
6.202323856996372e-05
8.659326704218984e-05
2.9223076126072556e-05
0.00015084529877640307
0.00013443944044411182
0.00011517365783220157
0.00014456514327321202
7.896490569692105e-05
9.350395703222603e-05
4.182022894383408e-05
0.0001540955709060654
0.00014612938684877008
3.464925612206571e-05
0.00013209006283432245
2.267798117827624e-05
0.00010007331729866564
3.893267785315402e-05
2.4625058358651586e-05
0.0001060036665876396
0.00026352194254286587
0.00011907813313882798
8.536544191883877e-05
7.747234485577792e-05
0.00011520014959387481
7.178765372373164e-05
9.039806172950193e-05
0.00011479199747554958
4.917493060929701e-05
4.219489710521884e-05
4.8563870223006234e-05
7.627359445905313e-05
0.00013087612751405686
0.00014198757708072662
0.0001824302162276581
2.418106305412948e-05
0.00010089372517541051
0.00021299501531757414
9.007792687043548e-05
3.115006984444335e-05
4.523178722593002e-05
0.00012246491678524762
8.496191730955616e-05
7.820777682354674e-05
0.0002258609893033281
3.212324372725561e-05
8.337789040524513e-05
0.00012697918282356113
4.1245741158491e-05
0.00015249715943355113
7.587927393615246e-05
0.00010317884152755141
0.00011808831186499447
0.00013973670138511807
7.498599006794393e-05
3.103489143541083e-05
4.47409474872984e-05
0.00012280521332286298
0.00013522442895919085
0.00011848378198919818
7.730364450253546e-05
4.895411620964296e-05
0.00018860849377233535
4.2718533222796395e-05
3.2324111089110374e-05
3.651420774986036e-05
0.0001379031309625134
8.457800140604377e-05
7.227611786220223e-05
4.7458383050980046e-05
9.42361366469413e-05
0.0001354864361928776
2.5473806090303697e-05
3.491637471597642e-05
5.988838893244974e-05
8.115606760839e-05
0.00016813536058180034
0.00011261256440775469
4.473096487345174e-05
0.00017286506772506982
0.00013179320376366377
0.000120482400234323
7.579325756523758e-05
0.00015124736819416285
0.00010308287164662033
6.419487181119621e-05
9.389952174387872e-05
0.00011223968613194302
4.8684567445889115e-05
0.00012145704386057332
8.83366956259124e-05
6.477420538431033e-05
3.469359944574535e-05
0.00012559849710669369
0.00013147084973752499
0.000122923418530263
0.00010318118438590318
7.87230528658256e-05
4.9901442253030837e-05
0.00012650525604840368
0.0001043598895194009
7.550918235210702e-05
0.00017736433073878288
7.554407784482464e-05
0.00011688330414472148
0.0001309582294197753
6.722326361341402e-05
0.00014654167171102017
0.00014251915854401886
3.8663500163238496e-05
0.00015739764785394073
0.00010672655480448157
8.783338853390887e-05
5.4984229791443795e-05
0.00011158677807543427
5.6974789913510904e-05
2.808490717143286e-05
0.00010768769425339997
0.00012274847540538758
0.000177468013134785
0.00012459531717468053
8.592296944698319e-05
0.00010444633517181501
8.700150647200644e-05
0.00014851610467303544
0.00010444108193041757
0.00011469484161352739
5.359062197385356e-05
0.00010253467917209491
9.11565512069501e-05
0.00010950127762043849
7.554543117294088e-05
4.93804836878553e-05
0.00012728327419608831
8.39245185488835e-05
7.562278187833726e-05
5.6562566896900535e-05
4.6063105401117355e-05
4.325992631493136e-05
4.466105019673705e-05
0.00012983613123651594
3.1242154364008456e-05
