0.00012883507588412613
0.0002947154571302235
0.0001341831375611946
0.0001511901937192306
0.00021245998505037278
0.00024849220062606037
0.00015939945296850055
0.00015822584100533277
0.00018643916700966656
0.00021569887758232653
0.00016165008128155023
0.00017623836174607277
0.00014732920681126416
0.0001900344213936478
0.00022736891696695238
0.00023677297576796263
0.00017009580915328115
0.00018438685219734907
0.0002119606506312266
0.00025585494586266577
0.0001517002092441544
0.00025067507522180676
0.00028897871379740536
0.00018702965462580323
0.00028824794571846724
0.00012084112677257508
0.00025183262187056243
0.0001549127046018839
0.00019021847401745617
0.0002351639122935012
0.00016774481628090143
0.00010897624451899901
0.00011928013555007055
0.00014082611596677452
0.00018462786101736128
0.0001736875856295228
0.00024276040494441986
0.00014044054842088372
0.00021271938749123365
0.0003184130764566362
0.00021003872097935528
0.000268296105787158
0.0001820867182686925
0.0001605555444257334
0.00013566567213274539
0.00023887997667770833
0.00017276925791520625
0.00023595927632413805
