6.877832493046299e-05
0.00038747579674236476
0.00023147600586526096
0.00010963101522065699
0.00017826851399149746
0.00020963158749509603
0.00021803108393214643
0.000328248628647998
0.0002722803328651935
0.0003090273530688137
0.00033945494215004146
7.449860277120024e-05
0.00029732039547525346
0.00035981927067041397
0.0002609719813335687
0.00018023510347120464
0.00025832108804024756
0.00035825607483275235
0.0006526234210468829
0.00037689111195504665
0.00025833200197666883
7.061256474116817e-05
0.0002230672398582101
5.692649574484676e-05
0.00012112006515963003
0.00022579818323720247
0.0003672859165817499
0.0003361042763572186
0.00022356629779096693
0.00029564782744273543
0.00033072716905735433
0.00023972074268385768
0.0002819168148562312
0.000312858639517799
7.96634194557555e-05
0.0003272474859841168
0.0003211276780348271
0.0002028112212428823
8.051567419897765e-05
0.00036163965705782175
7.489864947274327e-05
0.00021786084107588977
0.00012262257223483175
0.00034221005626022816
8.902807167032734e-05
0.000323986925650388
0.00033501104917377234
0.00041757087456062436
9.786340524442494e-05
0.00010036822641268373
0.00031709004542790353
0.00019811738457065076
0.00013939109339844435
0.00036251917481422424
0.0002684813516680151
0.00035991508048027754
7.910437125246972e-05
0.0003032026288565248
0.00014215221744962037
0.00039197353180497885
0.000434085784945637
0.0004343086911831051
0.0001055693210219033
0.00012815059744752944
0.00026397607871331275
0.00017087295418605208
0.0003562074271030724
0.00044047305709682405
7.162576366681606e-05
0.00020921147370245308
0.00018502547754906118
6.441443110816181e-05
6.735835631843656e-05
0.00024392257910221815
0.00019599113147705793
0.0003140863263979554
0.00017715574358589947
0.00037950207479298115
0.00037466673529706895
0.00022745363821741194
0.00012832401262130588
0.00010180826211581007
0.0003259941004216671
0.0002777662593871355
5.9758091083494946e-05
0.0002984906604979187
0.000410981330787763
0.0002448009909130633
0.00045154287363402545
0.0002152334782294929
0.00027268240228295326
0.0003128160606138408
6.1381833802443e-05
6.54474861221388e-05
0.00024879301781766117
9.69578541116789e-05
0.0003103610360994935
0.00011697523586917669
0.00032668092171661556
0.00018367549637332559
0.00028012224356643856
0.0002882306289393455
0.0002988485211972147
0.00014824022946413606
8.507241727784276e-05
0.00042914983350783587
8.19581764517352e-05
0.00040839213761501014
0.0002448713930789381
9.578614844940603e-05
0.0003284130070824176
0.00018928034114651382
0.0004276950203347951
0.00034373332164250314
0.00010824356286320835
0.00031578715424984694
0.0002817182685248554
0.00032828314579091966
8.21110515971668e-05
0.00022370333317667246
0.00028615270275622606
0.0001417669263901189
0.0002168110804632306
0.00015913117385935038
0.00019942263315897435
0.00021849504264537245
0.00026204416644759476
0.00015443064330611378
0.00023261981550604105
0.00030420112307183444
0.0002928405301645398
0.0001377182052237913
0.0004025055677630007
0.00019543350208550692
0.00038638748810626566
9.318385127699003e-05
0.00025055374135263264
0.0002143180463463068
0.00033996623824350536
7.855615695007145e-05
0.0001867936080088839
0.0002569136559031904
6.194975139806047e-05
0.0001930694852489978
0.0007276535034179688
0.00010546242992859334
0.0001221615675603971
0.00030687107937410474
0.000273708050372079
0.00017204154573846608
0.00011319606710458174
0.0003818690311163664
6.160504563013092e-05
0.0002724480291362852
0.00010305539035471156
0.0003522851620800793
0.00023350535775534809
0.00038051584851928055
0.00026542661362327635
0.0002301157364854589
0.00019788344798143953
0.0002143051679013297
0.00032223196467384696
0.00038448881241492927
0.00023707425862085074
0.0002322698273928836
7.373454718617722e-05
0.00022514251759275794
0.0009653797023929656
0.0003130522964056581
0.00015461663133464754
0.00031342238071374595
0.000459239847259596
0.00040945326327346265
0.00025911114062182605
0.0007008607499301434
0.0006266757263801992
0.00035488352295942605
0.0003164802328683436
0.0002961337158922106
0.00024008973559830338
0.0001603647251613438
0.0002218362787971273
8.018072549020872e-05
0.000257325591519475
6.860318535473198e-05
6.427982589229941e-05
0.00011602468293858692
0.00024907899205572903
0.00033972799428738654
8.838846406433731e-05
0.00027810028404928744
0.00017231024685315788
8.870458259480074e-05
0.0002689527755137533
0.0005338523187674582
0.0003020203148480505
9.367156599182636e-05
0.0002667347725946456
6.348556780721992e-05
0.00014242441102396697
0.00026058536604978144
9.012597001856193e-05
9.536101424600929e-05
0.00018127857765648514
0.0002749801496975124
0.00013702065916731954
0.000304805493215099
0.000416597758885473
0.000306351954350248
0.00015453271043952554
0.00018702498346101493
0.000247295101871714
0.0003333768399897963
0.0003955676802434027
0.00016031965787988156
0.00040312917553819716
0.00012574451102409512
0.0002508545876480639
0.0003258389770053327
5.770961433881894e-05
7.083870150381699e-05
9.657772170612589e-05
0.0001636337547097355
9.580120240570977e-05
0.0002400360390311107
0.0002704618964344263
0.00011253692355239764
8.72333548613824e-05
0.00011709527461789548
0.0002139300195267424
0.0003728452429641038
0.00033389852615073323
0.00015274967881850898
0.000359187280992046
0.00023985817097127438
9.004621824715286e-05
0.00026156773674301803
6.485458288807422e-05
0.0005138019332662225
0.0003090141399297863
0.00031419555307365954
0.00029758087475784123
0.0002334196906303987
8.527638419764116e-05
0.00032329795067198575
0.00016969774151220918
0.00022004908532835543
0.0003663554380182177
7.212703349068761e-05
0.00012684724060818553
8.008404256543145e-05
0.0004597874649334699
0.0001936697808559984
0.00029137395904399455
0.00018803139391820878
0.0002552019723225385
0.00023696752032265067
0.0001920894719660282
0.00022131999139674008
7.62604468036443e-05
0.000329053116729483
0.00022389358491636813
0.0002692842681426555
0.0003673546889331192
0.0003744807036127895
0.0002604394103400409
0.0002368842833675444
0.00010459082113811746
0.0002625509223435074
0.000251482124440372
7.753998943371698e-05
0.00036347415880300105
0.00025766369071789086
0.0001815915311453864
0.0003176670870743692
0.00020918154041282833
0.00032677935087122023
5.778422564617358e-05
6.504287739517167e-05
0.00026939972303807735
0.00014018421643413603
0.0001257283438462764
0.00013021708582527936
0.00038701051380485296
0.0001244915183633566
0.00012086005153832957
0.00035292847314849496
0.0002154146204702556
0.00025086215464398265
0.00028445504722185433
0.00048091381904669106
0.00026733524282462895
0.00027038922416977584
0.0002793782332446426
0.0002935317752417177
0.00025726776220835745
0.000537935527972877
0.0002736045280471444
6.436446710722521e-05
0.00013973814202472568
0.00030444469302892685
0.00019752558728214353
0.00038495039916597307
0.00012458515993785113
0.0003546751686371863
0.0003673259343486279
8.005038398550823e-05
0.0003571439883671701
0.0003176322497893125
0.0001495104079367593
0.0002595584373921156
0.0003854834649246186
0.0003696502244565636
6.452634988818318e-05
0.0002811851736623794
0.00019590552255976945
9.27850924199447e-05
0.00026324347709305584
0.00035294878762215376
0.0003782311105169356
0.00019679208344314247
0.00010887852113228291
0.0002909175236709416
0.00018126459326595068
0.00033440510742366314
0.0003248837892897427
0.0001810823887353763
0.0003576075832825154
0.0001620379916857928
0.00019810812955256552
0.00035829408443532884
0.0004685569438152015
0.00037978540058247745
0.00026294682174921036
0.00027482499717734754
0.00046215823385864496
7.044592348393053e-05
0.00015173199062701315
0.00021932166418991983
0.00016927004617173225
0.00045873719500377774
0.0001025738674798049
0.0001341910392511636
7.471775461453944e-05
0.0001715619582682848
0.00012322168913669884
7.188979361671954e-05
0.00021742293029092252
0.00012490013614296913
0.00010417344310553744
0.00042024225695058703
0.00028426956851035357
0.00028947312966920435
0.0001785733038559556
0.000481594615848735
7.099526555975899e-05
0.0003842779260594398
0.00032253129757009447
0.0002427408762741834
0.00032210105564445257
0.00026084031560458243
0.000464930257294327
8.6240514065139e-05
0.0003574549045879394
0.000318543694447726
0.00043863229802809656
0.00035632046638056636
0.000497383764013648
0.00025499906041659415
0.00026061059907078743
0.0003320476389490068
0.00021464042947627604
0.00032728290534578264
0.0002697963791433722
0.00035764925996772945
0.0003050572413485497
0.000539979140739888
0.0001671419886406511
0.0001961162779480219
0.00026623456506058574
9.91078995866701e-05
0.00023078243248164654
0.00018300175725016743
0.00035492851748131216
0.00029615158564411104
0.0004446488746907562
0.0003434769168961793
9.638495976105332e-05
7.765217014821246e-05
0.00030078444979153574
0.0002973145165015012
0.00021115948038641363
0.00021168880630284548
0.0003027622005902231
0.0003543021739460528
0.0002548627380747348
0.00022577594791073352
0.0002950259658973664
0.00012836481619160622
0.00012407155008986592
0.0005469480529427528
0.0003707352152559906
0.0002545058378018439
0.000286167865851894
0.000372440495993942
0.00011720399925252423
0.00024282322556246072
5.1291306590428576e-05
4.940173676004633e-05
9.450640209252015e-05
0.0003549697285052389
0.0003253562608733773
0.0003007622144650668
7.860096957301721e-05
9.487914940109476e-05
0.0002474194625392556
0.00015731532766949385
0.00014990210183896124
7.681922579649836e-05
0.00010744264727691188
0.00015434068336617202
0.00017902646504808217
0.0002612602256704122
7.035439921310171e-05
0.0002917250676546246
0.00032867008121684194
0.00026627961779013276
0.0001748210925143212
7.78640533098951e-05
0.0002999423013534397
0.0001309560757363215
0.0003917579015251249
5.5847627663752064e-05
0.0003176688915118575
0.0005051580374129117
0.00038155034417286515
9.772480552783236e-05
0.00025331732467748225
6.038641004124656e-05
0.0004093981988262385
0.00022525891836266965
0.00032322845072485507
0.00024840692640282214
0.00027324145776219666
0.00020019909425172955
0.00010069307609228417
0.00019207288278266788
8.217949653044343e-05
0.0002272931014886126
0.00039222391205839813
0.00035816285526379943
0.0003647303965408355
0.00011443311086622998
8.388207788811997e-05
0.0003146966628264636
0.00017479814414400607
9.510279051028192e-05
0.000188383724889718
0.0001460186467738822
0.00036554023972712457
6.120569742051885e-05
0.00013062408834230155
0.00011384817480575293
0.0003977202286478132
0.00031124812085181475
0.00022757869737688452
0.0001964028924703598
0.00023018053616397083
0.00039349187863990664
0.00011042950791306794
8.120586426230147e-05
0.0003992933197878301
0.0003460905281826854
0.0003928474325221032
0.0003101914771832526
0.00021944945910945535
0.00021096384443808347
0.000524712901096791
0.0002770415158011019
0.0002721100172493607
0.00019975265604443848
0.00029145507141947746
9.027031774166971e-05
8.771001012064517e-05
0.0003102479677181691
0.0003386886673979461
0.0003259087388869375
0.0003108500095549971
0.0003302117984276265
0.0002000107488129288
0.00030664229416288435
0.00038011325523257256
0.0003834463423117995
0.0003583778452593833
7.694572559557855e-05
0.00029543187702074647
6.997836317168549e-05
0.000351844122633338
0.00017257891886401922
0.0002822497917804867
0.00011465186980785802
0.00021224735246505588
9.785764996195212e-05
6.617278268095106e-05
0.00018588728562463075
0.0001698193809716031
0.00024000855046324432
0.00015591517149005085
0.00031535312882624567
0.00019500561757013202
0.00025946920504793525
0.0002912918571382761
5.750152195105329e-05
0.0005188110517337918
0.00014445645501837134
0.0004591509932652116
0.00047490157885476947
0.00028349494095891714
0.00037962995702400804
0.00034554535523056984
0.0003033393295481801
0.0004392971459310502
0.00025998090859502554
0.00037800497375428677
0.0003778367827180773
0.0005182450404390693
0.000625967513769865
0.0002353638265049085
0.0002714144648052752
0.00017104098515119404
0.00039447302697226405
0.00017982460849452764
0.0001674633240327239
6.549893441842869e-05
0.0003158538893330842
0.00013068971747998148
0.00036561713204719126
6.410551577573642e-05
0.0003177132166456431
0.00023632023658137769
0.000397116964450106
0.00037418148713186383
7.679334521526471e-05
7.355285924859345e-05
0.0002790006110444665
0.00023829926794860512
0.00021581574401352555
0.00036001772969029844
0.00032779405592009425
0.0002092918730340898
0.000177841677214019
6.091380419093184e-05
0.0002798828645609319
0.0003087013028562069
0.00048803084064275026
0.0004148170119151473
6.458780990215018e-05
0.0003699501685332507
0.0001840143813751638
0.00031563660013489425
0.0002700927434489131
7.577601354569197e-05
0.0003477618156466633
0.00018539994198363274
8.727555541554466e-05
0.00026840713690035045
0.00020902472897432745
0.00013369992666412145
0.00012235187750775367
0.00028558928170241416
0.00025339945568703115
0.0003281662939116359
0.00018196641758549958
0.00010208351159235463
0.00015054817777127028
0.00011403010284993798
0.0003699600347317755
8.537254325347021e-05
0.00011243968037888408
0.00034823358873836696
0.00036134663969278336
0.0002487028541509062
0.0001064743846654892
0.00012912272359244525
0.00034046050859615207
0.00017716610454954207
0.0002701849152799696
0.0003650509752333164
0.00030429085018113256
0.00011790767166530713
0.00013615458738058805
0.00012865813914686441
0.00047571404138579965
0.00010611482139211148
7.518821803387254e-05
0.00042014013160951436
0.0005065873265266418
0.0002538629050832242
0.0003010453947354108
0.00013243408466223627
0.0002982388832606375
0.00021748275321442634
0.00025936978636309505
0.00028613119502551854
0.0003315013600513339
0.00022414424165617675
9.408842015545815e-05
0.00020162525470368564
0.0002883970155380666
0.00025603457470424473
0.0003020269505213946
6.002311783959158e-05
0.0004253731167409569
0.0004144584818277508
9.36262949835509e-05
0.00028621903038583696
0.00010136617493117228
0.0005550952046178281
0.00023434140894096345
6.99659576639533e-05
0.00042637402657419443
0.0001175640500150621
0.00037174683529883623
0.0003365560551173985
0.00017853536701295525
0.00023499740927945822
0.0002521229616831988
0.0002616683777887374
0.00030887589673511684
0.00011017137876478955
5.967713150312193e-05
0.0002966812753584236
6.261815724428743e-05
0.0002681474725250155
0.0003770556068047881
8.277712913695723e-05
0.00023771001724526286
9.539075108477846e-05
0.00016472233983222395
0.0002788045967463404
0.00016313632659148425
0.00033928980701602995
0.00038170802872627974
0.00011897003423655406
0.0001279266580240801
0.00033773769973777235
0.000318452890496701
0.0006467783823609352
0.0002867466537281871
0.0007352439570240676
0.00016484459047205746
0.0003061806201003492
0.00016957164916675538
0.00033995116245932877
0.00021983467740938067
6.895107071613893e-05
0.00033987374627031386
0.00016854924615472555
0.00019830753444693983
0.00020602793665602803
0.000502425420563668
0.00012559407332446426
0.00020086890435777605
0.0002775676257442683
0.00035115706850774586
8.708229142939672e-05
0.00010284958989359438
0.00031655930797569454
0.00021643836225848645
0.00043532918789424
9.513827535556629e-05
0.00016723779845051467
0.00024030821805354208
0.00023720806348137558
0.0002744146331679076
7.794389239279553e-05
0.0004237597167957574
7.932511653052643e-05
6.158373435027897e-05
0.0001181541447294876
0.0003782066924031824
0.00019179575610905886
0.00045811766176484525
7.794451084919274e-05
0.000264820788288489
0.0002830227022059262
0.00020204519387334585
0.00026374097797088325
0.00025840726448222995
5.079296897747554e-05
0.0002370991132920608
0.00042331378790549934
0.00038117810618132353
0.00014981202548369765
0.0002939615224022418
0.0005031941109336913
0.0003911276289727539
7.525913679273799e-05
6.778746319469064e-05
0.0003061753523070365
0.00021687133994419128
6.28743291599676e-05
7.814560376573354e-05
0.00023824270465411246
0.00033081910805776715
0.0002908037859015167
0.00010864116484299302
8.651216921862215e-05
0.00032568411552347243
0.0002843179681804031
0.00026500658714212477
0.00028687098529189825
0.00019769927894230932
0.00044646344031207263
0.00027604709612205625
0.0002339120110264048
0.0004252485523466021
0.0001985135895665735
0.00010676583769964054
0.00027570806560106575
0.0001702766603557393
6.976247823331505e-05
0.00019997898198198527
0.00022248720051720738
0.0003731324977707118
0.00016512874572072178
0.00036676201852969825
0.00023729127133265138
0.0001144741618190892
7.678008842049167e-05
0.0003103243943769485
0.0002265497896587476
0.000239317087107338
0.0002874448546208441
0.00032556080259382725
0.0003355476073920727
0.00038526771822944283
0.00023898524523247033
0.0003689744626171887
0.0001289787469431758
0.00021158599702175707
0.00013442817726172507
0.0003690515586640686
0.0002952503564301878
0.00022812267707195133
0.00023708012304268777
0.0001457327016396448
0.00023753619461786002
0.00032601936254650354
0.0001467726397095248
0.00011047886073356494
0.0003051015082746744
0.00019940991478506476
5.228237932897173e-05
0.000554623082280159
7.197940431069583e-05
6.974724237807095e-05
8.675018762005493e-05
9.558157762512565e-05
0.00018523547623772174
0.00032244320027530193
0.0002902657724916935
0.00014300501788966358
0.0003040293522644788
0.0003135936858598143
0.0003094347193837166
0.00020451267482712865
0.0003414002130739391
0.00024172809207811952
0.0001461424835724756
0.0001185462751891464
0.00021766572899650782
9.703466639621183e-05
8.806612459011376e-05
9.630901331547648e-05
0.00039999853470362723
0.00021185760851949453
0.00017688790103420615
0.0002718917967285961
7.560408994322643e-05
0.00036123296013101935
0.0003229527792427689
0.00030675026937387884
0.0001999235391849652
0.0003582943172659725
0.0002582189335953444
0.00021937840210739523
0.00014069111784920096
0.00014316599117591977
0.00022935333254281431
0.0002013504272326827
0.00037907014484517276
0.00035667390329763293
0.00023897191567812115
0.00014776787429582328
0.0002610336523503065
0.0002364057581871748
0.0003909788210876286
0.00034783585579134524
7.087951235007495e-05
8.530023478670046e-05
0.0002540547284297645
0.0002558081760071218
0.00015067019558046013
0.00021341806859709322
0.00027329413569532335
0.0004064588574692607
9.538848098600283e-05
0.0001259828422917053
0.00013954879250377417
0.0003446456394158304
8.112506475299597e-05
0.0001178446618723683
0.00021511111117433757
0.0001707407645881176
0.0003530216636136174
0.0002857548533938825
0.00013531582953874022
0.0002507025492377579
0.00026531380717642605
4.325452755438164e-05
0.0002942145220004022
0.00012294351472519338
0.00031046068761497736
0.00014554185327142477
4.3183081288589165e-05
0.00029065331909805536
0.0003093355626333505
0.00031444450723938644
7.954824832268059e-05
0.0002728599065449089
0.00032327056396752596
6.873132224427536e-05
0.0001327957579633221
0.00029254762921482325
0.00023910796153359115
7.384763739537448e-05
0.0001240365527337417
0.00030482569127343595
0.0002326798567082733
0.0001673451770329848
0.0003696806961670518
0.00028915246366523206
0.0003619216149672866
0.0002782668743748218
0.0003517841687425971
0.0001085525582311675
8.1253943790216e-05
0.00025552144506946206
8.111060742521659e-05
0.0002361553633818403
9.006739128381014e-05
0.0003955675638280809
0.0002797326014842838
0.00032357743475586176
0.00013147496792953461
0.0003371568745933473
0.00021699286298826337
0.000365064392099157
0.00025722681311890483
0.00034329580375924706
0.00011905241990461946
0.00031790207140147686
8.392223389819264e-05
0.0002685178187675774
0.00028648105217143893
0.0002655628777574748
0.0003056685673072934
0.00011423740215832368
0.0003048139624297619
0.0003297044604551047
9.678192873252556e-05
0.0001446303358534351
0.00010753464448498562
0.0002339413040317595
6.940666935406625e-05
0.00014190858928486705
0.000300687417620793
0.00031175409094430506
0.0004644442815333605
8.912574412534013e-05
0.0003533444250933826
0.000416294380556792
6.801103882025927e-05
0.00030136713758111
0.0004420477198436856
0.00021098401339258999
0.00011055923096137121
0.00023310814867727458
0.0004104162799194455
0.0003140089102089405
0.00021614361321553588
0.00014328579709399492
0.0003023135068360716
0.00015956518473103642
0.0003342581039760262
0.00021960270532872528
0.00034451880492269993
0.0002759769558906555
0.00014509072934743017
0.0003565516963135451
0.00031135918106883764
0.00032658546115271747
8.266246732091531e-05
5.924742072238587e-05
0.00017167124315164983
0.0002864337875507772
0.0002341413637623191
0.00030493628582917154
0.0005571187939494848
0.00022199953673407435
0.00029263153555803
0.000322337873512879
0.0004428752581588924
0.00036349365836940706
0.00032504083355888724
0.00012895137479063123
0.0001571535540279001
0.00019685625738929957
0.00027667463291436434
9.530427632853389e-05
0.00014689196541439742
0.00031020157621242106
0.0004115641349926591
0.00024855657829903066
0.0002509958576411009
0.00029500736854970455
0.0002773633459582925
0.0006480005686171353
0.0002329200360691175
8.120665734168142e-05
0.0003059795417357236
0.00027754707843996584
0.00026327333762310445
0.0002731207641772926
0.00036048926995135844
0.0005277082673273981
0.00024921304429881275
0.0002457941009197384
0.00033666114904917777
0.00010820468742167577
0.00024250349088106304
0.00045616686111316085
0.00042873056372627616
0.00023475308262277395
0.00019480644550640136
0.0002745443198364228
0.00030364104895852506
0.00012188770779175684
0.00029008850106038153
0.0003576723684091121
0.0003439217107370496
0.0002982470323331654
0.0003279326774645597
0.00035482837120071054
0.0003517713048495352
0.00030125316698104143
0.00022769260976929218
9.083440090762451e-05
0.0003054708940908313
0.00034408707870170474
9.083391341846436e-05
8.641625026939437e-05
0.00033734808675944805
0.000272879347903654
0.0002594219986349344
0.0002366675325902179
0.00018805221770890057
0.00017817762272898108
0.00013118806236889213
0.00037576991599053144
0.00025930380797944963
9.780174150364473e-05
0.0002848639851436019
8.203499601222575e-05
0.0002265555813210085
0.0003454876132309437
0.00043872566311620176
0.00012994585267733783
0.0003201397485099733
0.00021569714590441436
0.00020691774261649698
0.000440431060269475
0.0002876057696994394
0.00025403365725651383
0.00042627760558389127
0.00038585596485063434
6.543916970258579e-05
0.0002880628453567624
0.00023420911747962236
0.0002975971146952361
0.00030091512599028647
0.00013098427734803408
0.00036239015753380954
0.0004432230780366808
0.0002298177860211581
0.00014951858611311764
0.0003608615370467305
0.0002737991453614086
0.00024903053417801857
0.00018349992751609534
0.00017468590522184968
0.00012913974933326244
0.00018929006182588637
0.0003597558825276792
0.00018028722843155265
0.00017983283032663167
0.0003314741770736873
0.000360506703145802
0.0003490704984869808
0.0001628530735615641
0.00022736606479156762
7.673040090594441e-05
0.0003960712347179651
0.00035299474257044494
0.00030240899650380015
0.00037958158645778894
0.00020733644487336278
0.0002455113281030208
0.00010980647493852302
0.00040460540913045406
0.0003836887772195041
9.097780275624245e-05
0.0003468260110821575
5.954508378636092e-05
0.00026276035350747406
0.00010222469427390024
6.46574844722636e-05
0.00027833154308609664
0.000691923894919455
0.0003126608789898455
0.00022414218983612955
0.0002034174685832113
0.00030247855465859175
0.00018849129264708608
0.00023735624563414603
0.00030140686430968344
0.00012911755766253918
0.00011079022806370631
0.00012751310714520514
0.00020026993297506124
0.00034363861777819693
0.0003728137235157192
0.0004790030652657151
6.349169416353106e-05
0.0002649144735187292
0.000559256412088871
0.00023651566880289465
8.179006545105949e-05
0.00011876412463607267
0.0003215534961782396
0.00022308267944026738
0.0002053484640782699
0.0005930383340455592
8.434530900558457e-05
0.0002189235237892717
0.0003334064967930317
0.00010829805250978097
0.0004004084912594408
0.00019923456420656294
0.0002709144609980285
0.00031006193603388965
0.0003669036377687007
0.00019688910106197
8.148764027282596e-05
0.00011747534153982997
0.00032244701287709177
0.0003550558758433908
0.000311100302496925
0.00020297450828365982
0.00012853776570409536
0.0004952252493239939
0.00011216512939427048
8.487272134516388e-05
9.587456588633358e-05
0.00036208928213454783
0.00022207462461665273
0.00018977384024765342
0.00012461045116651803
0.00024743378162384033
0.00035574380308389664
6.688602297799662e-05
9.167917596641928e-05
0.00015724764671176672
0.00021308973373379558
0.00044146939762867987
0.0002956843818537891
0.00011744912626454607
0.0004538880893960595
0.0003460465813986957
0.0003163480432704091
0.00019900871848221868
0.0003971269470639527
0.0002706624800339341
0.00016855509602464736
0.00024654995650053024
0.00029470532899722457
0.0001278300187550485
0.0003189071430824697
0.00023194374807644635
0.000170076236827299
9.109423262998462e-05
0.00032978126546368003
0.0003452001546975225
0.0003227573761250824
0.0002709206019062549
0.0002067014283966273
0.00013102513912599534
0.0003321621334180236
0.00027401550323702395
0.00019826283096335828
0.00046570171252824366
0.00019835444982163608
0.00030689797131344676
0.00034385418985038996
0.0001765066699590534
0.00038477129419334233
0.0003742094850167632
0.00010151791502721608
0.0004132756148464978
0.00028022960759699345
0.00023062223044689745
0.00014437090430874377
0.00029299099696800113
0.0001495974720455706
7.374193228315562e-05
0.00028275325894355774
0.00032229803036898375
0.0004659739206545055
0.0003271472523920238
0.0002256060834042728
0.000274242484010756
0.00022843797341920435
0.00038995553040876985
0.0002742286887951195
0.00030115176923573017
0.00014071173791307956
0.00026922309189103544
0.00023934779164846987
0.00028751514037139714
0.00019835801504086703
0.00012965727364644408
0.0003342049603816122
0.00022035879374016076
0.00019856110156979412
0.00014851511514279991
0.00012094690464437008
0.00011358665506122634
0.00011726555385394022
0.00034090792178176343
8.203185279853642e-05
