6.288431904977188e-05
7.303001621039584e-05
4.6019686124054715e-05
8.105603774311021e-05
6.329244934022427e-05
9.489459625910968e-05
6.855468382127583e-05
0.00012009932834189385
0.00010138966899830848
7.252738578245044e-05
7.548723806394264e-05
7.681953138671815e-05
0.00011216606799280271
6.859101267764345e-05
0.00015260963118635118
7.699359412072226e-05
8.671313844388351e-05
6.571583799086511e-05
7.472033757949248e-05
0.0001386846270179376
5.202077954891138e-05
5.7966815802501515e-05
0.00017063005361706018
7.16944268788211e-05
7.213594653876498e-05
6.402843428077176e-05
8.622678433312103e-05
6.775087240384892e-05
7.86132222856395e-05
7.001752965152264e-05
7.452294084941968e-05
9.917381248669699e-05
9.170365956379101e-05
9.20611564652063e-05
6.137144373496994e-05
9.141108603216708e-05
7.395790453301743e-05
8.846594573697075e-05
5.8641890063881874e-05
0.00013465860683936626
8.440521196462214e-05
4.166673534200527e-05
5.7762030337471515e-05
5.483340646605939e-05
5.987501208437607e-05
7.275059761013836e-05
5.9090063587063923e-05
6.83084363117814e-05
7.959247886901721e-05
9.17889119591564e-05
0.00013311899965628982
7.585973798995838e-05
6.493032560683787e-05
7.346367056015879e-05
9.819127444643527e-05
0.00012473942479118705
9.101618343265727e-05
4.276377148926258e-05
9.501366002950817e-05
9.984350617742166e-05
6.390592898242176e-05
5.9140460507478565e-05
0.00023770997358951718
0.00022488874674309045
0.00011393293971195817
4.457722752704285e-05
0.00013423492782749236
7.160611858125776e-05
6.490157102234662e-05
7.714740058872849e-05
6.640484207309783e-05
0.00013458030298352242
6.677681085420772e-05
7.577493670396507e-05
6.52173112030141e-05
3.454340549069457e-05
8.062941196840256e-05
8.774047455517575e-05
9.559420141158625e-05
8.79391300259158e-05
4.2624502384569496e-05
0.00010213437781203538
4.0780640119919553e-05
5.703657370759174e-05
0.00010742015729192644
4.690022979048081e-05
6.344891153275967e-05
5.8888264902634546e-05
7.327471394091845e-05
8.107289613690227e-05
7.862202619435266e-05
7.043389632599428e-05
7.708524208283052e-05
0.00012792051711585373
0.00010967269190587103
4.205734876450151e-05
6.727826257701963e-05
0.00011663456098176539
5.721264096791856e-05
8.28475967864506e-05
9.773397323442623e-05
6.50808506179601e-05
7.700984861003235e-05
7.550974260084331e-05
9.110070823226124e-05
9.208690607920289e-05
0.00016221313853748143
0.00010082247172249481
0.00014612397353630513
4.960100704920478e-05
8.464654092676938e-05
0.00011490850010886788
5.161784793017432e-05
0.00026226264890283346
7.00111995683983e-05
4.0008719224715605e-05
6.453289825003594e-05
8.496147347614169e-05
6.0098725953139365e-05
6.323622073978186e-05
7.431295671267435e-05
5.7785509852692485e-05
9.002395381685346e-05
8.822039671940729e-05
0.00011124405864393339
7.867479143897071e-05
4.34466237493325e-05
8.869755401974544e-05
6.210629362612963e-05
6.708251021336764e-05
0.00011115154484286904
5.774754754384048e-05
9.233122545992956e-05
6.729735468979925e-05
5.665199569193646e-05
6.183853838592768e-05
9.332019544672221e-05
6.0137732361909e-05
5.87273680139333e-05
0.0001087084092432633
7.374086999334395e-05
8.963231084635481e-05
9.418855916010216e-05
7.818245649104938e-05
0.00010107067646458745
7.718797132838517e-05
8.799623174127191e-05
0.00012283427349757403
0.00017214422405231744
7.248185283970088e-05
5.8244877436663955e-05
6.781903357477859e-05
4.751184314955026e-05
4.792878098669462e-05
0.00017440431111026555
3.8498943467857316e-05
8.78165737958625e-05
0.00015372758207377046
8.507317397743464e-05
7.65235090511851e-05
8.592408994445577e-05
0.00011098248069174588
6.408221088349819e-05
6.043812754796818e-05
7.769802323309705e-05
7.90329504525289e-05
0.0001079811918316409
0.00010398787708254531
0.00010262318392051384
0.00018834587535820901
4.4908822019351646e-05
8.588508353568614e-05
0.00017194852989632636
0.00013436650624498725
8.669028466101736e-05
7.017192547209561e-05
8.15016683191061e-05
6.76785348332487e-05
7.648793689440936e-05
9.680014773039147e-05
0.000104425911558792
0.00014576298417523503
0.00010144048428628594
8.061035623541102e-05
7.956889749038965e-05
9.46654545259662e-05
7.091949373716488e-05
7.493751763831824e-05
9.205904643749818e-05
6.014530299580656e-05
0.00011077964154537767
6.74474285915494e-05
8.926347072701901e-05
7.388177618850023e-05
7.908407860668376e-05
8.265218639280647e-05
7.47240410419181e-05
8.842493843985721e-05
7.189431926235557e-05
6.089017551857978e-05
6.87038991600275e-05
8.178592543117702e-05
9.24321502679959e-05
9.009048517327756e-05
5.5910357332322747e-05
6.977524753892794e-05
3.303012272226624e-05
7.469148840755224e-05
6.054082768969238e-05
8.422756218351424e-05
8.901388355297968e-05
8.505814912496135e-05
0.00023705410421825945
7.216254016384482e-05
8.942221757024527e-05
0.00012922010500915349
8.721256017452106e-05
6.697390199406072e-05
5.2992421842645854e-05
6.364705041050911e-05
7.275361713254824e-05
6.141340418253094e-05
6.309283344307914e-05
0.00010008549725171179
4.7152239858405665e-05
9.25816420931369e-05
0.00010164178820559755
7.512615411542356e-05
9.323388803750277e-05
7.270538480952382e-05
7.953138265293092e-05
6.625369860557839e-05
6.365059380186722e-05
0.00012311633327044547
0.0001208813555422239
5.5664258979959413e-05
5.866932770004496e-05
0.00011188107600901276
6.475691770901904e-05
4.8678713937988505e-05
8.213947876356542e-05
0.00014138266851659864
7.275530515471473e-05
7.103751704562455e-05
5.413132021203637e-05
9.511981625109911e-05
7.493289740523323e-05
9.070728992810473e-05
9.265482367482036e-05
8.626902854302898e-05
9.284634870709851e-05
5.892658737138845e-05
5.9047270042356104e-05
8.911133045330644e-05
7.570132584078237e-05
5.056091322330758e-05
6.908047362230718e-05
9.871232032310218e-05
8.962769788922742e-05
6.200274947332218e-05
6.314736674539745e-05
9.023507300298661e-05
9.998117457143962e-05
0.00017408579878974706
8.564305608160794e-05
8.785590034676716e-05
6.206230318639427e-05
6.863173621241003e-05
7.805154746165499e-05
0.00011001066013704985
6.788845348637551e-05
5.907161539653316e-05
4.2111434595426545e-05
8.699655154487118e-05
8.880410314304754e-05
7.754198304610327e-05
7.586806896142662e-05
0.00011669432569760829
7.707624899921939e-05
8.320849883602932e-05
5.224787673796527e-05
7.651764462934807e-05
8.573005470680073e-05
9.3149981694296e-05
9.764364949660376e-05
7.067228580126539e-05
6.952708645258099e-05
8.493559289490804e-05
8.357482874998823e-05
0.0001237475371453911
6.71512316330336e-05
8.221622556447983e-05
3.808482870226726e-05
5.513986980076879e-05
3.073725019930862e-05
0.00011480854300316423
8.930046169552952e-05
7.492068107239902e-05
6.756325456080958e-05
7.531820301664993e-05
7.123166869860142e-05
0.00010316938278265297
0.0001155676000053063
8.200774027500302e-05
0.00010493081208551303
4.427467138157226e-05
8.962600986706093e-05
7.140626985346898e-05
7.639560499228537e-05
0.00021033172379247844
7.319841824937612e-05
9.289488662034273e-05
5.405996125773527e-05
0.00014257703151088208
7.977717905305326e-05
8.691269613336772e-05
8.04642477305606e-05
6.410833157133311e-05
5.884250276722014e-05
8.400124352192506e-05
5.457080987980589e-05
7.464848749805242e-05
0.0001219839250552468
4.556665226118639e-05
5.547842010855675e-05
7.146017742343247e-05
0.0002554976672399789
0.00013528716226574033
6.928242510184646e-05
0.00011414085020078346
5.686299118679017e-05
9.009693894768134e-05
6.745052814949304e-05
0.0001342858886346221
7.816262223059312e-05
7.735122198937461e-05
7.907293183961883e-05
0.00013046071399003267
4.200374678475782e-05
9.853208030108362e-05
5.7727978855837137e-05
0.00017963677237275988
8.149644418153912e-05
8.916310616768897e-05
0.00025498136528767645
6.372593634296209e-05
8.069850446190685e-05
7.48883539927192e-05
0.00011997132969554514
0.00014050831669010222
7.622369594173506e-05
6.422402657335624e-05
8.999901911010966e-05
0.00012035005784127861
8.760379569139332e-05
0.00010830946121132001
0.00017946885782293975
7.307592022698373e-05
4.849981269217096e-05
6.642094376729801e-05
9.185865201288834e-05
9.90415719570592e-05
8.679262100486085e-05
0.00010666882735677063
7.690484926570207e-05
4.611702388501726e-05
0.00013241572014521807
9.646664693718776e-05
0.00011607914348132908
5.297980533214286e-05
5.769420022261329e-05
0.00016338867135345936
0.00010054050653707236
6.231373845366761e-05
0.0001152835029643029
9.460331784794107e-05
0.00011693606211338192
6.47243214189075e-05
8.726872329134494e-05
9.545259672449902e-05
8.459902892354876e-05
9.778890671441332e-05
8.954152872320265e-05
9.317359945271164e-05
5.3542502428172156e-05
5.856237476109527e-05
7.160458335420117e-05
6.207407568581402e-05
0.00010612958431011066
0.00010136492346646264
0.00010344468319090083
9.376480738865212e-05
4.883775545749813e-05
0.00010018249304266647
9.73707064986229e-05
0.00010725776519393548
9.22896942938678e-05
0.00010847442172234878
5.957899338682182e-05
7.19875461072661e-05
8.214889385271817e-05
7.431740959873423e-05
0.00015269174764398485
6.807739555370063e-05
9.22569670365192e-05
4.411173358676024e-05
4.376687866169959e-05
7.465437374776229e-05
4.465445090318099e-05
0.00011298347089905292
3.3518332202220336e-05
9.122360643232241e-05
0.00011637529678409919
5.8095632994081825e-05
0.00011039694072678685
9.851984214037657e-05
6.01991887378972e-05
6.270900485105813e-05
8.843433897709474e-05
5.008725565858185e-05
9.077177674043924e-05
5.821400191052817e-05
6.114151619840413e-05
0.000174622458871454
0.0001607228332431987
5.500621409737505e-05
7.613014167873189e-05
9.785543807083741e-05
6.861758447485045e-05
0.0001021016068989411
9.746599243953824e-05
9.59074532147497e-05
9.607989341020584e-05
4.980239100405015e-05
0.00011267814988968894
5.931027408223599e-05
4.6528301027137786e-05
0.00014558376278728247
0.00010248367470921949
6.242363451747224e-05
0.00013348128413781524
8.973522926680744e-05
5.374644752009772e-05
8.534902735846117e-05
0.00013076842878945172
9.535863500786945e-05
9.244792454410344e-05
5.4566491598961875e-05
6.528391531901434e-05
7.591860048705712e-05
8.850135782267898e-05
6.684286199742928e-05
9.800714906305075e-05
4.688330591307022e-05
4.652327697840519e-05
7.685887976549566e-05
8.059269021032378e-05
7.848014502087608e-05
6.986121297813952e-05
9.961743489839137e-05
7.144094706745818e-05
9.949030936695635e-05
6.69328510412015e-05
7.157533400459215e-05
6.053265678929165e-05
0.0001336436253041029
5.3517673222813755e-05
6.786219455534592e-05
7.32909538783133e-05
0.00010084415407618508
6.229538848856464e-05
7.171678589656949e-05
9.248431888408959e-05
0.00010856873268494383
0.0001581693795742467
9.735431376611814e-05
4.8012934712460265e-05
6.365849549183622e-05
9.882648009806871e-05
9.658154158387333e-05
5.965286254649982e-05
5.979768684483133e-05
5.569707718677819e-05
8.386749686906114e-05
6.145838415250182e-05
9.423057781532407e-05
7.240819104481488e-05
6.31819202681072e-05
5.2630010031862184e-05
8.067525777732953e-05
7.047293183859438e-05
7.719206769252196e-05
8.827130659483373e-05
7.743491732981056e-05
7.931972504593432e-05
5.395795960794203e-05
9.946747741196305e-05
0.00012362387496978045
8.095002704067156e-05
7.747775816824287e-05
8.993103256216273e-05
8.530922059435397e-05
7.107309647835791e-05
0.0001181835395982489
8.479313692077994e-05
6.963382475078106e-05
7.75131193222478e-05
0.00011409170838305727
0.00010843900236068293
7.934373570606112e-05
6.626978574786335e-05
7.404583448078483e-05
9.654791938373819e-05
4.7604240535292774e-05
7.972862658789381e-05
6.19818310951814e-05
8.833689207676798e-05
5.735865488531999e-05
0.00010580976959317923
8.904201968107373e-05
9.166583913611248e-05
6.484532786998898e-05
9.527361544314772e-05
8.882961265044287e-05
8.926923328544945e-05
5.9651752962963656e-05
6.394891534000635e-05
8.745026570977643e-05
6.426732579711825e-05
8.525233715772629e-05
7.970901788212359e-05
6.736549403285608e-05
6.073587428545579e-05
6.318701343843713e-05
0.00011866517161251977
8.577212429372594e-05
9.33772316784598e-05
0.000105089828139171
0.00010269689664710313
4.205732329864986e-05
7.553162868134677e-05
7.068567356327549e-05
6.755237700417638e-05
0.00011427135905250907
7.743570313323289e-05
6.914618279552087e-05
6.99678566888906e-05
9.187743125949055e-05
6.630453572142869e-05
8.444557897746563e-05
0.00010211545304628089
7.866594387451187e-05
6.178706826176494e-05
8.29573255032301e-05
5.790987052023411e-05
8.060994878178462e-05
6.448222848121077e-05
7.409611134789884e-05
0.00010682363790692762
6.040627704351209e-05
8.994573727250099e-05
8.96594428922981e-05
9.45751162362285e-05
5.627182326861657e-05
9.579610195942223e-05
5.7375651522306725e-05
7.694811938563362e-05
9.92428686004132e-05
0.00010622743866406381
5.668364974553697e-05
0.00010863789066206664
6.42126688035205e-05
4.3060194002464414e-05
7.221318810479715e-05
9.489020885666832e-05
0.00014527984603773803
0.00010066691174870357
7.194923819042742e-05
4.7983074182411656e-05
5.6582357501611114e-05
7.786958303768188e-05
0.00010286679025739431
5.0088015996152535e-05
0.00010002199996961281
9.961707110051066e-05
3.7725501897512004e-05
7.8623226727359e-05
4.8414134653285146e-05
0.00014738265599589795
6.390068301698193e-05
8.79298968357034e-05
0.00026955243083648384
9.436368418391794e-05
8.396344492211938e-05
6.31375442026183e-05
8.33252415759489e-05
6.715366180287674e-05
6.740092067047954e-05
7.744887989247218e-05
6.903729808982462e-05
6.747874431312084e-05
5.8143068599747494e-05
9.229107672581449e-05
6.0558482800843194e-05
8.155828254530206e-05
0.00011200316657777876
7.648643804714084e-05
6.431379006244242e-05
3.9900518459035084e-05
0.00015828269533813
9.3298134743236e-05
6.213237065821886e-05
9.499973384663463e-05
5.1765724492724985e-05
6.555691652465612e-05
6.558880704687908e-05
0.00028730076155625284
8.295623410958797e-05
8.288315439131111e-05
0.00011650971282506362
9.801224950933829e-05
6.666366971330717e-05
5.606762715615332e-05
0.00010651305638020858
0.00010913068399531767
8.87871501618065e-05
6.0690716054523364e-05
8.776206232141703e-05
9.43472987273708e-05
0.00010511430446058512
0.0001352497929474339
6.610323180211708e-05
4.1144001443171874e-05
6.457615381805226e-05
0.00017040385864675045
6.307604053290561e-05
6.777595990570262e-05
9.353096538688987e-05
0.00010478468902874738
8.800762589089572e-05
9.362298442283645e-05
7.363959593931213e-05
6.462859164457768e-05
0.00011252415424678475
4.690493369707838e-05
5.5758311646059155e-05
6.362484418787062e-05
0.00012516714923549443
9.328903252026066e-05
7.138154614949599e-05
9.103777119889855e-05
7.983740215422586e-05
7.409850513795391e-05
6.169456901261583e-05
6.650367140537128e-05
4.191671541775577e-05
8.649965457152575e-05
6.08237023698166e-05
0.00013256182137411088
7.814669515937567e-05
3.440366708673537e-05
0.000128988700453192
0.00010655244841473177
7.167454168666154e-05
7.727793854428455e-05
9.329446038464084e-05
9.810485789785162e-05
9.058346040546894e-05
6.813971413066611e-05
0.000151235653902404
5.59304426133167e-05
0.00010577565990388393
9.295884956372902e-05
6.907893839525059e-05
0.00012693896132986993
0.00011180316505488008
7.433495193254203e-05
4.5313903683563694e-05
0.00010199815733358264
9.903965838020667e-05
5.821383456350304e-05
8.444789273198694e-05
8.869831799529493e-05
9.798497922020033e-05
4.948864079779014e-05
0.0001036427856888622
9.991386468755081e-05
9.860379213932902e-05
9.164693619823083e-05
6.958599260542542e-05
0.0001231482019647956
7.888674736022949e-05
9.769170719664544e-05
9.276477067032829e-05
6.655616743955761e-05
0.00012999384489376098
5.6088389101205394e-05
8.832341700326651e-05
0.00011599749996094033
6.134538853075355e-05
9.152470738627017e-05
7.272206130437553e-05
6.0784783272538334e-05
6.851916259620339e-05
8.620012522442266e-05
0.00013848583330400288
7.66920784371905e-05
7.388773519778624e-05
9.879841672955081e-05
0.00012580479960888624
5.994539969833568e-05
0.0002571936056483537
9.799849067348987e-05
0.00020546023733913898
5.074032742413692e-05
8.023689588299021e-05
8.634652476757765e-05
5.52102574147284e-05
0.0001371124672004953
0.00014786790416110307
9.286621934734285e-05
0.00014610029757022858
8.322376379510388e-05
0.00013040305930189788
9.644380770623684e-05
6.872506492072716e-05
4.362054824014194e-05
0.00016711969510652125
0.00012160905316704884
9.5623210654594e-05
5.881332981516607e-05
6.963971827644855e-05
9.133474668487906e-05
5.629594306810759e-05
7.697199180256575e-05
0.00012456603872124106
7.055288006085902e-05
7.001557241892442e-05
0.00011184070899616927
8.684284694027156e-05
5.845192936249077e-05
8.661171159474179e-05
0.00015876519319135696
6.731849134666845e-05
7.716339314356446e-05
0.00010891561396420002
4.1667251934995875e-05
0.00011185237963218242
7.523829845013097e-05
5.6639961258042604e-05
8.966627501649782e-05
7.258309778990224e-05
7.825130160199478e-05
6.89253574819304e-05
0.00010734317766036838
5.367444464354776e-05
5.878945012227632e-05
9.681073424872011e-05
4.0742284909356385e-05
5.4124124289955944e-05
0.00010862196359084919
9.341088298242539e-05
6.896926061017439e-05
5.956288077868521e-05
8.8298118498642e-05
5.08524572069291e-05
8.318531763507053e-05
5.9839265304617584e-05
9.991484694182873e-05
9.625144593883306e-05
5.408053402788937e-05
0.0001457667094655335
8.619979053037241e-05
5.3187999583315104e-05
6.709821172989905e-05
8.082968270173296e-05
8.93227115739137e-05
8.556857937946916e-05
7.793884287821129e-05
0.0002270063996547833
0.00014496417134068906
7.964977703522891e-05
0.00011640989396255463
5.3608189773513004e-05
9.236875484930351e-05
8.054244972299784e-05
0.00012179184705018997
9.092874825000763e-05
7.023339276202023e-05
5.227294968790375e-05
8.005736890481785e-05
4.2809409933397546e-05
4.4754338887287304e-05
8.848129800753668e-05
7.695500971749425e-05
0.00011189211363671347
3.9234848372871056e-05
9.434203093405813e-05
9.080206655198708e-05
7.077974441926926e-05
7.330138760153204e-05
7.78914982220158e-05
0.00012331119796726853
7.631247717654333e-05
0.00011794143938459456
5.27330776094459e-05
0.00010010172263719141
6.723283877363428e-05
5.5752894695615396e-05
5.424651681096293e-05
3.4869794035330415e-05
5.526230233954266e-05
8.512230851920322e-05
0.00012036018597427756
0.00020108598982915282
8.170500223059207e-05
0.00010746189946075901
7.69043545005843e-05
0.00012496966519393027
8.313814032590017e-05
9.993646381190047e-05
6.096231663832441e-05
0.00011106181045761332
8.063823770498857e-05
6.144328654045239e-05
7.239669503178447e-05
7.201385596999899e-05
5.6965454859891906e-05
7.160704262787476e-05
0.00019845580391120166
7.100679067661986e-05
0.00010331151133868843
8.761735807638615e-05
0.0001045241515384987
0.0001192532290588133
6.958594894967973e-05
0.00012977277219761163
0.00011600919242482632
0.00015234747843351215
8.020322275115177e-05
9.032492380356416e-05
7.159121742006391e-05
4.5515611418522894e-05
8.329213596880436e-05
9.996671724366024e-05
9.438634879188612e-05
5.249587775324471e-05
9.122198389377445e-05
9.23459228943102e-05
0.00012747243454214185
8.230032835854217e-05
6.290755118243396e-05
8.074011566350237e-05
6.414709059754387e-05
9.051310189533979e-05
5.031394539400935e-05
0.00012351102486718446
8.803660603007302e-05
6.919947918504477e-05
7.241165440063924e-05
0.00015523607726208866
6.526930519612506e-05
6.573051359737292e-05
7.497498882003129e-05
7.219214603537694e-05
0.00010966153786284849
6.739626405760646e-05
0.00010637674859026447
4.896366226603277e-05
7.49679165892303e-05
5.3747102356282994e-05
6.891723751323298e-05
0.00010120930528501049
7.917506445664912e-05
7.910593558335677e-05
0.0001359480811515823
0.0001302776945522055
9.161812340607867e-05
6.91089007887058e-05
0.00010435964213684201
0.00010277528053848073
3.8768575905123726e-05
7.833788549760357e-05
0.00013914979354012758
5.972482176730409e-05
5.53497884538956e-05
0.00011288723180769011
7.689666381338611e-05
0.00018518134311307222
0.00010591023601591587
7.257741526700556e-05
8.162818267010152e-05
4.325254121795297e-05
4.652402640203945e-05
3.7043333577457815e-05
5.8145444199908525e-05
5.277571108308621e-05
0.0001141659013228491
7.781758176861331e-05
9.246208355762064e-05
6.48910499876365e-05
7.84433213993907e-05
0.00012448492634575814
4.1973158658947796e-05
0.00014159386046230793
0.00012201144272694364
0.00012891835649497807
6.611033313674852e-05
6.31757648079656e-05
5.4701824410585687e-05
4.82919167552609e-05
0.00015154735592659563
5.659096495946869e-05
8.119103586068377e-05
7.977428322192281e-05
4.477916081668809e-05
6.56483243801631e-05
7.633794302819297e-05
4.795971108251251e-05
8.507083839504048e-05
8.440425153821707e-05
8.220013842219487e-05
0.0002557458938099444
0.00014316898887045681
8.555953536415473e-05
0.00012169111869297922
0.00010621725232340395
0.00011430675658630207
9.420762216905132e-05
0.00013796261919196695
8.79303042893298e-05
4.672652357839979e-05
6.702073005726561e-05
6.762520206393674e-05
7.424125942634419e-05
0.0001301322045037523
9.92207569652237e-05
7.526587432948872e-05
0.00017768533143680543
7.001142512308434e-05
5.118011176818982e-05
0.00011849622387671843
6.947047950234264e-05
0.00015838241961319
7.046511018415913e-05
5.9719001001212746e-05
9.827860776567832e-05
8.355740283150226e-05
7.514203025493771e-05
8.88705108081922e-05
0.00012595341831911355
9.612849680706859e-05
9.64439896051772e-05
6.950870010768995e-05
6.667410343652591e-05
3.234315227018669e-05
5.718734973925166e-05
8.620941662229598e-05
6.004287570249289e-05
9.17069919523783e-05
6.957005098229274e-05
7.202636334113777e-05
5.203963883104734e-05
6.161777127999812e-05
7.284843741217628e-05
4.8235768190352246e-05
5.422766480478458e-05
7.112396997399628e-05
5.968125697108917e-05
0.00021058390848338604
0.00010221284901490435
7.836631266400218e-05
0.000135544003569521
6.59937722957693e-05
8.934010111261159e-05
0.00010043817746918648
6.554814171977341e-05
3.699700755532831e-05
6.699578079860657e-05
4.491586150834337e-05
8.084007276920602e-05
0.00014076752995606512
6.905070040374994e-05
7.88647957961075e-05
0.00024967730860225856
0.00012317058281041682
5.311100176186301e-05
7.27490842109546e-05
5.520357808563858e-05
0.0001090288205887191
0.00020264630438759923
4.6112014388199896e-05
0.00013799876614939421
0.0001724934991216287
0.00012953097757417709
3.975254367105663e-05
0.00016934236919041723
5.3433799621416256e-05
5.272368434816599e-05
7.066232501529157e-05
6.644973473157734e-05
5.659192174789496e-05
7.926822581794113e-05
9.478475840296596e-05
8.17499021650292e-05
7.034544250927866e-05
9.406411118106917e-05
0.00015239299682434648
0.0001265219907509163
0.0001034391243592836
0.00011214681580895558
0.00011286635708529502
6.220659270184115e-05
0.0001787310029612854
5.162223897059448e-05
0.00014347565593197942
6.911585660418496e-05
8.894816710380837e-05
3.675746120279655e-05
8.947870810516179e-05
0.00011009258741978556
7.639027899131179e-05
7.219584949780256e-05
9.516074351267889e-05
8.647461800137535e-05
0.00010553449101280421
8.248349331552163e-05
8.85048066265881e-05
0.00014562894648406655
9.508818038739264e-05
7.29063613107428e-05
0.00010547241254244
0.00021060521248728037
8.094906661426648e-05
0.00013374230184126645
0.00016745297762099653
0.0001212262359331362
0.0001037410693243146
0.00014846338308416307
6.870776269352064e-05
0.00010505584214115515
0.00018458918202668428
8.782732766121626e-05
8.161499135894701e-05
6.008101991028525e-05
0.00010242061398457736
3.299187665106729e-05
4.194918437860906e-05
7.389232632704079e-05
8.209938823711127e-05
0.00010395055869594216
5.61175802431535e-05
8.062949200393632e-05
5.760676140198484e-05
9.800551924854517e-05
9.580758342053741e-05
0.00010742809536168352
9.582394704921171e-05
8.202699245885015e-05
8.252787665696815e-05
0.0001140202148235403
0.00015209635603241622
6.330492033157498e-05
0.0001325712655670941
4.218034155201167e-05
0.00010548613499850035
3.9393766201101243e-05
9.066693746717647e-05
8.06313764769584e-05
5.075030276202597e-05
8.759502816246822e-05
6.584253424080089e-05
6.257477070903406e-05
0.00012248303391970694
0.00010365074558649212
6.552164268214256e-05
8.478619565721601e-05
0.00012620454072020948
4.522115341387689e-05
7.172307959990576e-05
6.43774401396513e-05
7.50673352740705e-05
8.580538997193798e-05
9.075208072317764e-05
0.00010731248039519414
8.879783854354173e-05
9.514709381619468e-05
0.00016370740195270628
5.9383561165304855e-05
6.547617522301152e-05
9.156074520433322e-05
9.097671136260033e-05
0.00014962782734073699
5.115591557114385e-05
6.605387898162007e-05
6.322133413050324e-05
5.640522067551501e-05
8.824036922305822e-05
0.0001150392708950676
7.898157491581514e-05
6.898575520608574e-05
7.088942220434546e-05
9.630173008190468e-05
4.163956691627391e-05
5.791460716864094e-05
8.117974357446656e-05
0.00012714648619294167
0.00011111626372439787
6.287452561082318e-05
0.00013783486792817712
0.0001902170042740181
9.94774600258097e-05
9.700444934424013e-05
6.0673126426991075e-05
3.404087692615576e-05
8.19428387330845e-05
9.910150401992723e-05
3.8297574064927176e-05
0.0001089509460143745
0.00010932233999483287
8.749686094233766e-05
7.353263208642602e-05
0.00010622475383570418
8.18683038232848e-05
9.115210559684783e-05
0.00010503612429602072
0.00011618286953307688
0.00010910914716077968
0.00015524648188147694
0.00010685851884773001
0.0001235407980857417
0.00010660787665983662
5.435864659375511e-05
7.161073153838515e-05
0.0001047527912305668
0.00011133748921565711
0.00011004086263710633
0.00014453186304308474
7.043290679575875e-05
5.0332080718362704e-05
6.890833901707083e-05
8.962155698100105e-05
6.0741502238670364e-05
7.14812267688103e-05
9.220531501341611e-05
5.9805963246617466e-05
7.934965105960146e-05
0.00012827388127334416
9.591695561539382e-05
9.909800428431481e-05
6.619704799959436e-05
5.284725921228528e-05
