0.0033545640762895346
0.0038303672336041927
0.003197834827005863
0.003229101188480854
0.004459299612790346
0.004146065097302198
0.003931652754545212
0.003082198090851307
0.0037716012448072433
0.0029011445585638285
0.002062820130959153
0.00247256550937891
0.003707096679136157
0.003932140301913023
0.0029353683348745108
0.0038573453202843666
0.006243381183594465
0.0019574991893023252
0.002448488026857376
0.00237795477733016
0.002297901315614581
0.002242861781269312
0.0029831044375896454
0.003832555143162608
0.003651671577244997
0.0053779869340360165
0.0038705181796103716
0.0033079246059060097
0.004544069524854422
0.0038857944309711456
0.0023324014618992805
0.0051370649598538876
0.0036279300693422556
0.002175108762457967
0.0023100441321730614
0.003279683645814657
0.0038760770112276077
0.0037112415302544832
0.0030173971317708492
0.004746825899928808
0.002747690537944436
0.0035245721228420734
0.0024771103635430336
0.003991396632045507
0.0030899399425834417
0.0036216476000845432
0.0029912146274000406
0.002647827845066786
