0.05291340500116348
0.010690448805689812
0.0207990650087595
0.05958547443151474
0.03541243448853493
0.02850852720439434
0.030618272721767426
0.016566630452871323
0.02511352114379406
0.02562481351196766
0.00879712589085102
0.04828353226184845
0.019844457507133484
0.019208816811442375
0.008691789582371712
0.022958841174840927
0.016681291162967682
0.011026185005903244
0.004974217154085636
0.039135634899139404
0.024462254717946053
0.09312319755554199
0.018945543095469475
0.06708954274654388
0.05569327250123024
0.017304619774222374
0.006645819637924433
0.028660599142313004
0.040949609130620956
0.006853259168565273
0.021710457280278206
0.018167320638895035
0.06365729123353958
0.017177384346723557
0.05251898616552353
0.023511292412877083
0.010740581899881363
0.026370178908109665
0.06894312798976898
0.010497787036001682
0.08672768622636795
0.04251246526837349
0.034437209367752075
0.015378139913082123
0.06964103877544403
0.0123750614002347
0.03633332625031471
0.010391276329755783
0.03708098083734512
0.021511757746338844
0.024674931541085243
0.047936659306287766
0.11639823019504547
0.021205265074968338
0.0405418835580349
0.013206087984144688
0.06542658060789108
0.005404891446232796
0.04736102372407913
0.01231709960848093
0.007860369980335236
0.013835880905389786
0.09614039957523346
0.03375384584069252
0.03510407730937004
0.024942148476839066
0.009671729058027267
0.030536841601133347
0.04491521790623665
0.017623238265514374
0.0356341116130352
0.07348738610744476
0.06626344472169876
0.027187196537852287
0.024133015424013138
0.04686850309371948
0.03502019867300987
0.013597591780126095
0.02762143686413765
0.027239995077252388
0.048106420785188675
0.055895209312438965
0.018812257796525955
0.018933957442641258
0.06856517493724823
0.023656705394387245
0.020110897719860077
0.013366691768169403
0.017100974917411804
0.037717554718256
0.014452644623816013
0.0066771358251571655
0.06555736809968948
0.0687638521194458
0.016901768743991852
0.02307491935789585
0.029780123382806778
0.05847422778606415
0.020677916705608368
0.026114804670214653
0.0171285979449749
0.016847360879182816
0.036328501999378204
0.020225372165441513
0.06620588153600693
0.024610960856080055
0.05345741659402847
0.011187036521732807
0.03810562193393707
0.03458348661661148
0.01633797399699688
0.02741621993482113
0.009732389822602272
0.04172786325216293
0.07310539484024048
0.009367326274514198
0.016178475692868233
0.02083195000886917
0.0722060352563858
0.01593518815934658
0.01726720854640007
0.13208860158920288
0.0361560620367527
0.04899340495467186
0.02730070799589157
0.036409150809049606
0.037335388362407684
0.025881335139274597
0.025007793679833412
0.019920844584703445
0.01872098259627819
0.04014017432928085
0.019496571272611618
0.018344001844525337
0.01043518166989088
0.06914061307907104
0.029223034158349037
0.027467776089906693
0.029069190844893456
0.09557761251926422
0.00836497638374567
0.0324278250336647
0.06022774428129196
0.0280123520642519
0.005330914631485939
0.09030774235725403
0.020411236211657524
0.0139638502150774
0.02809414081275463
0.08268903940916061
0.0325065553188324
0.024602841585874557
0.06119956821203232
0.010051926597952843
0.09687730669975281
0.01284441165626049
0.02017943747341633
0.010416670702397823
0.011659037321805954
0.023190321400761604
0.01602485217154026
0.010816522873938084
0.02634512074291706
0.017297685146331787
0.05424191430211067
0.03294581174850464
0.06636796146631241
0.016449695453047752
0.0036103567108511925
0.020216697826981544
0.03752440959215164
0.01086124125868082
0.056644219905138016
0.011706313118338585
0.01916559971868992
0.012825618498027325
0.007113748695701361
0.018997425213456154
0.009431579150259495
0.011153006926178932
0.03712017089128494
0.028813501819968224
0.05747503042221069
0.05969169735908508
0.021029971539974213
0.08974195271730423
0.058491457253694534
0.024304799735546112
0.025117073208093643
0.013801093213260174
0.04430585354566574
0.033572737127542496
0.021197831258177757
0.0694892406463623
0.031962376087903976
0.005635368172079325
0.008849725127220154
0.06087483465671539
0.0163431316614151
0.10397695004940033
0.01720350980758667
0.011555430479347706
0.0768529623746872
0.06329459697008133
0.04534328728914261
0.02278396114706993
0.04193270951509476
0.04829229414463043
0.013581466861069202
0.03569065406918526
0.02938944101333618
0.02608119696378708
0.028373215347528458
0.010434985160827637
0.017100077122449875
0.04260473698377609
0.04119863361120224
0.03655890002846718
0.015341561287641525
0.03629839047789574
0.0656430572271347
0.09061244875192642
0.06825325638055801
0.02572515979409218
0.05115148425102234
0.033946506679058075
0.028218384832143784
0.016883792355656624
0.0838506743311882
0.03984278813004494
0.008284525945782661
0.02791818417608738
0.007529240567237139
0.03676404058933258
0.029993094503879547
0.02584856003522873
0.06221647933125496
0.010934822261333466
0.08329147100448608
0.019132880493998528
0.021225253120064735
0.01498380582779646
0.0246958639472723
0.009873251430690289
0.04758681729435921
0.020380329340696335
0.01731911674141884
0.015459507703781128
0.01293185818940401
0.1101362556219101
0.027164001017808914
0.09657222777605057
0.007549194153398275
0.01937277242541313
0.017567802220582962
0.08736322820186615
0.029009012505412102
0.04892633855342865
0.01512630470097065
0.029798824340105057
0.059388164430856705
0.01741870678961277
0.01417936384677887
0.018451200798153877
0.011971269734203815
0.006919303443282843
0.017329247668385506
0.015436261892318726
0.04103689640760422
0.0355537049472332
0.025949321687221527
0.027323665097355843
0.011474985629320145
0.02056095004081726
0.03079267591238022
0.01097479835152626
0.026913657784461975
0.008416775614023209
0.042745232582092285
0.03243887796998024
0.047492001205682755
0.028257889673113823
0.04396888613700867
0.023276371881365776
0.02869196981191635
0.023737860843539238
0.028843384236097336
0.010364229790866375
0.014219128526747227
0.01641949452459812
0.018101463094353676
0.007168114185333252
0.01283491775393486
0.014794068410992622
0.025112606585025787
0.031031707301735878
0.016210829839110374
0.03481774032115936
0.01773218810558319
0.07489889860153198
0.012035696767270565
0.034698884934186935
0.039360880851745605
0.018374400213360786
0.05171588063240051
0.01247892715036869
0.016818035393953323
0.05600427836179733
0.027389755472540855
0.012219857424497604
0.02339217998087406
0.02037903666496277
0.03571395203471184
0.025400904938578606
0.07168976217508316
0.028310095891356468
0.017586657777428627
0.05075162649154663
0.03093833103775978
0.03166516497731209
0.020540861412882805
0.012179892510175705
0.0562053807079792
0.07504890114068985
0.01966172643005848
0.016508109867572784
0.01598358526825905
0.05032365396618843
0.011382751166820526
0.049635156989097595
0.018781417980790138
0.006411675829440355
0.027033215388655663
0.03377922996878624
0.03152617812156677
0.008821029216051102
0.005180930718779564
0.15120910108089447
0.03458542749285698
0.013897732831537724
0.029210181906819344
0.017942240461707115
0.049773622304201126
0.02138563245534897
0.058521818369627
0.023968791589140892
0.05340079963207245
0.04851875826716423
0.04191726818680763
0.029516268521547318
0.051049523055553436
0.010372569784522057
0.015075222589075565
0.01817200519144535
0.032857589423656464
0.003707864787429571
0.05717972293496132
0.005704937968403101
0.010976760648190975
0.01554374024271965
0.008952736854553223
0.01900355890393257
0.014101089909672737
0.055421002209186554
0.01620752178132534
0.01976703107357025
0.050414495170116425
0.05841166526079178
0.004472878761589527
0.023710306733846664
0.013153654523193836
0.03624570742249489
0.0263973455876112
0.010902946814894676
0.007728907745331526
0.02554076537489891
0.016322258859872818
0.016716718673706055
0.05627581104636192
0.021381305530667305
0.0088126789778471
0.07755956798791885
0.024082735180854797
0.02325979806482792
0.021344074979424477
0.014328924007713795
0.009070687927305698
0.027829885482788086
0.04660075157880783
0.0754612535238266
0.030130181461572647
0.05419785901904106
0.04385977238416672
0.021701885387301445
0.040830112993717194
0.027962997555732727
0.02091946452856064
0.01594771258533001
0.024280114099383354
0.019849510863423347
0.06615815311670303
0.005609613377600908
0.04204428195953369
0.0153196444734931
0.01277859229594469
0.029697997495532036
0.0377688854932785
0.014016316272318363
0.05956590175628662
0.1553337126970291
0.049576692283153534
0.023625744506716728
0.019815703853964806
0.011607024818658829
0.10438264906406403
0.04958128184080124
0.023706337437033653
0.027735568583011627
0.01877136528491974
0.05352169647812843
0.05869903042912483
0.033642545342445374
0.017629077658057213
0.0776166096329689
0.16669145226478577
0.014353586360812187
0.013840693049132824
0.007042899262160063
0.03502776473760605
0.05827026814222336
0.0388016477227211
0.035783037543296814
0.036308810114860535
0.09086587280035019
0.011746658012270927
0.004582034889608622
0.01895160973072052
0.05540177971124649
0.014735542237758636
0.06842128932476044
0.02535499446094036
0.027094945311546326
0.01751541905105114
0.02816460281610489
0.031159691512584686
0.05522342771291733
0.03300774469971657
0.011349423788487911
0.06747783720493317
0.03733343258500099
0.00767551688477397
0.020835570991039276
0.02880879119038582
0.10515332221984863
0.054623913019895554
0.050566837191581726
0.017009930685162544
0.0469539538025856
0.014617454260587692
0.09834261238574982
0.012951785698533058
0.0857895165681839
0.04337679222226143
0.059464484453201294
0.014416002668440342
0.007804135326296091
0.022423647344112396
0.01587764546275139
0.030228035524487495
0.025308961048722267
0.034044355154037476
0.0336541049182415
0.03782014548778534
0.03568631410598755
0.016683006659150124
0.017760153859853745
0.018710102885961533
0.03339771553874016
0.006088500842452049
0.015751615166664124
0.011472438462078571
0.027207864448428154
0.012694728560745716
0.06470361351966858
0.07538425177335739
0.008048033341765404
0.023246949538588524
0.010514180175960064
0.025625232607126236
0.03325432166457176
0.015800217166543007
0.022621605545282364
0.004846238996833563
0.03470887616276741
0.03201460465788841
0.016586294397711754
0.02534513548016548
0.06731230765581131
0.023910213261842728
0.03212258219718933
0.017736954614520073
0.06224830448627472
0.020701516419649124
0.051234789192676544
0.06636442244052887
0.027080360800027847
0.027552315965294838
0.03561609238386154
0.017047198489308357
0.034250155091285706
0.021643446758389473
0.02365363948047161
0.026505237445235252
0.06322755664587021
0.016698386520147324
0.02299739606678486
0.03854978829622269
0.008866499178111553
0.04431617259979248
0.008041353896260262
0.023982224985957146
0.014539427123963833
0.008798439987003803
0.015064269304275513
0.012880463153123856
0.018224192783236504
0.013947725296020508
0.017995230853557587
0.014081825502216816
0.02332785539329052
0.03402501717209816
0.01493221428245306
0.1838521659374237
0.015050244517624378
0.11033976823091507
0.035839229822158813
0.034405868500471115
0.046945080161094666
0.06069587171077728
0.0202176570892334
0.008526839315891266
0.02544623799622059
0.03591271489858627
0.1276814341545105
0.1125464215874672
0.03289621323347092
0.01791984960436821
0.030480148270726204
0.021240945905447006
0.01470663771033287
0.030536659061908722
0.01576775126159191
0.07313407957553864
0.03255530074238777
0.016003957018256187
0.016298918053507805
0.012342927046120167
0.07071968913078308
0.037960559129714966
0.030851099640130997
0.009243340231478214
0.033822428435087204
0.05686355382204056
0.020235326141119003
0.03907110542058945
0.08411532640457153
0.018129130825400352
0.013162028044462204
0.028077200055122375
0.041164547204971313
0.027111975476145744
0.016017740592360497
0.01309157069772482
0.02625817432999611
0.04699879139661789
0.031860288232564926
0.03485150635242462
0.01288527064025402
0.0467325896024704
0.05796759948134422
0.018152479082345963
0.025285735726356506
0.01017703302204609
0.04620780423283577
0.04907459765672684
0.04444024711847305
0.01677759923040867
0.022518271580338478
0.009549645707011223
0.050133295357227325
0.12230893969535828
0.04671918973326683
0.06294003874063492
0.015399109572172165
0.05463893711566925
0.047003619372844696
0.0036767171695828438
0.011752031743526459
0.02423817850649357
0.03537745773792267
0.026439404115080833
0.01728157326579094
0.032594166696071625
0.012576378881931305
0.019338063895702362
0.011930388398468494
0.04030979424715042
0.03740154206752777
0.020962588489055634
0.016941100358963013
0.02339959517121315
0.013458571396768093
0.07083398103713989
0.0036099969875067472
0.011624704115092754
0.06418349593877792
0.025286290794610977
0.06258318573236465
0.017479758709669113
0.03813408315181732
0.03348420560359955
0.021487418562173843
0.06213437765836716
0.021498581394553185
0.02307756617665291
0.027569303289055824
0.0162090715020895
0.016902970150113106
0.015093750320374966
0.020982474088668823
0.04159099981188774
0.044225063174963
0.021845463663339615
0.08853141218423843
0.019751720130443573
0.010520950891077518
0.04971146956086159
0.017740627750754356
0.033891066908836365
0.048083096742630005
0.012084471061825752
0.03707081824541092
0.025171466171741486
0.028280161321163177
0.022055979818105698
0.03256825730204582
0.017424488440155983
0.034360259771347046
0.01967989094555378
0.03021334484219551
0.002188440877944231
0.04155075177550316
0.00815537665039301
0.043145544826984406
0.025093888863921165
0.023618122562766075
0.03996982052922249
0.01569364033639431
0.01243507955223322
0.016261661425232887
0.025913234800100327
0.004108669236302376
0.031596988439559937
0.026117704808712006
0.02573777362704277
0.019821450114250183
0.044580452144145966
0.03888672962784767
0.038651686161756516
0.022963831201195717
0.009177512489259243
0.0741429403424263
0.04963934049010277
0.011839097365736961
0.014988190494477749
0.018437588587403297
0.05512531101703644
0.03179708123207092
0.060027603060007095
0.05504120886325836
0.017222078517079353
0.0338604599237442
0.016837330535054207
0.012388731352984905
0.08901315927505493
0.013614392839372158
0.007067552767693996
0.018574945628643036
0.01871371828019619
0.02141759544610977
0.07129816710948944
0.02074197307229042
0.01997974142432213
0.011701099574565887
0.03018798679113388
0.023569568991661072
0.005444824229925871
0.015793975442647934
0.05784278362989426
0.04409294202923775
0.011092785745859146
0.01639338955283165
0.06627918034791946
0.060024701058864594
0.028399357572197914
0.04296576976776123
0.017789695411920547
0.0509464330971241
0.052414312958717346
0.009746063500642776
0.016267873346805573
0.02027178555727005
0.025268305093050003
0.03479493781924248
0.004712982568889856
0.041120391339063644
0.020075136795639992
0.0072593591175973415
0.03848199173808098
0.048972852528095245
0.01676871068775654
0.02306915819644928
0.07071813941001892
0.0233455803245306
0.010964104905724525
0.009128805249929428
0.024234147742390633
0.01952625997364521
0.015582732856273651
0.03560960665345192
0.0862029567360878
0.01161898486316204
0.02805614471435547
0.014868509024381638
0.016395334154367447
0.015261298045516014
0.019680779427289963
0.016497181728482246
0.024688037112355232
0.012026810087263584
0.040298398584127426
0.04553230106830597
0.032130271196365356
0.013602676801383495
0.015654709190130234
0.03562188521027565
0.08438020199537277
0.028321655467152596
0.01762821525335312
0.02051462233066559
0.03738975152373314
0.06965108960866928
0.03825259581208229
0.024777906015515327
0.053851231932640076
0.005713951773941517
0.0708337053656578
0.07211899012327194
0.03874002397060394
0.04523273929953575
0.0185602568089962
0.01762000285089016
0.013781670480966568
0.023554431274533272
0.017451880499720573
0.05278221145272255
0.025175966322422028
0.04109300300478935
0.02026960998773575
0.016560547053813934
0.019941750913858414
0.04048563912510872
0.024257313460111618
0.0530821718275547
0.05649123713374138
0.031426120549440384
0.01583654247224331
0.06191208213567734
0.030004676431417465
0.02399076335132122
0.05098683759570122
0.025183990597724915
0.010782052762806416
0.009474138729274273
0.011072793044149876
0.030099060386419296
0.011563966050744057
0.028081800788640976
0.029482807964086533
0.04161713272333145
0.0990922749042511
0.04080887511372566
0.015057891607284546
0.01480190735310316
0.01740935444831848
0.041843242943286896
0.02605642005801201
0.015005524270236492
0.01094832457602024
0.012890343554317951
0.06597685813903809
0.0708259791135788
0.05908754840493202
0.012761295773088932
0.026477593928575516
0.04046502336859703
0.013753348030149937
0.01078175101429224
0.051990386098623276
0.05679961293935776
0.03725304827094078
0.021157056093215942
0.06297130882740021
0.05662285536527634
0.030677614733576775
0.01914433389902115
0.049029137939214706
0.03009543940424919
0.019121238961815834
0.021052127704024315
0.016566695645451546
0.16927848756313324
0.023531945422291756
0.059292685240507126
0.011794138699769974
0.04130036011338234
0.09254525601863861
0.019250154495239258
0.029072575271129608
0.022446850314736366
0.046738747507333755
0.02309465780854225
0.015120485797524452
0.0729820728302002
0.06857761740684509
0.039813414216041565
0.02369951829314232
0.08606603741645813
0.06670577824115753
0.017730897292494774
0.010042051784694195
0.030023183673620224
0.014630806632339954
0.02336578629910946
0.015603582374751568
0.05841860547661781
0.01142979133874178
0.032171305269002914
0.04707115516066551
0.018916534259915352
0.0525834895670414
0.018385712057352066
0.0551842600107193
0.01543436199426651
0.01827547885477543
0.05036293342709541
0.028806548565626144
0.009617208503186703
0.03744777292013168
0.007276021875441074
0.04160383343696594
0.019730521366000175
0.12877117097377777
0.017770109698176384
0.05252472683787346
0.00806387048214674
0.018228746950626373
0.024203313514590263
0.025285210460424423
0.037728093564510345
0.021878710016608238
0.031978413462638855
0.04503937438130379
0.030612211674451828
0.04015721380710602
0.011441554874181747
0.06036825478076935
0.027364376932382584
0.022540366277098656
0.0254714023321867
0.009327958337962627
0.05406799912452698
0.02345370315015316
0.019638799130916595
0.04802006110548973
0.010763151571154594
0.016594883054494858
0.022766247391700745
0.07140596210956573
0.016879672184586525
0.04681698605418205
0.017923278734087944
0.02036430686712265
0.05298528075218201
0.044576920568943024
0.04199022427201271
0.014721151441335678
0.030685463920235634
0.023246120661497116
0.03178849071264267
0.021399546414613724
0.015789704397320747
0.012637962587177753
0.01381225697696209
0.04021115228533745
0.09290273487567902
0.032990097999572754
0.03486254811286926
0.0638587698340416
0.013693374581634998
0.004279809538275003
0.02342473715543747
0.01748056896030903
0.031000666320323944
0.009783926419913769
0.012558876536786556
0.03359868749976158
0.04024302214384079
0.03851325064897537
0.012229387648403645
0.030980626121163368
0.040500201284885406
0.05293314531445503
0.03831833600997925
0.029742490500211716
0.02865937538444996
0.03968561068177223
0.016379641368985176
0.011357911862432957
0.003225212451070547
0.031076816841959953
0.030683910474181175
0.01646486669778824
0.011269435286521912
0.019670797511935234
0.020231006667017937
0.020768743008375168
0.024135161191225052
0.016945982351899147
0.03215824440121651
0.01608586497604847
0.055518511682748795
0.01522858627140522
0.010490968823432922
0.008481190539896488
0.01902739889919758
0.027914516627788544
0.013001445680856705
0.018636470660567284
0.034813135862350464
0.03339159116148949
0.013726217672228813
0.020526830106973648
0.039178989827632904
0.028259992599487305
0.025654690340161324
0.030381612479686737
0.03178319334983826
0.02833481878042221
0.02589423395693302
0.01331736333668232
0.017253942787647247
0.13585160672664642
0.06687912344932556
0.014607110992074013
0.024860970675945282
0.014394217170774937
0.013529220595955849
0.014775736257433891
0.02567116543650627
0.015065758489072323
0.0680207684636116
0.031016873195767403
0.028935136273503304
0.010644448921084404
0.03498333692550659
0.043955039232969284
0.02613220177590847
0.010207162238657475
0.019792603328824043
0.019066844135522842
0.021884575486183167
0.026159511879086494
0.01417338103055954
0.013861941173672676
0.018409354612231255
0.024122469127178192
0.016274187713861465
0.0369395837187767
0.0357680581510067
0.019801415503025055
0.01387307420372963
0.022693807259202003
0.01948743686079979
0.014408501796424389
0.020736748352646828
0.017289835959672928
0.03951343521475792
0.014295080676674843
0.014164508320391178
0.010220776312053204
0.011619631201028824
0.03645696863532066
0.018783289939165115
0.033061593770980835
0.005947902332991362
0.027681950479745865
0.033053573220968246
0.015523126348853111
0.013504291884601116
0.022140953689813614
0.010987654328346252
0.025851497426629066
0.06434433162212372
0.009882056154310703
0.017031727358698845
0.011591365560889244
0.029155513271689415
0.014877302572131157
0.012845898047089577
0.025644764304161072
0.011457807384431362
0.03132142499089241
0.05596690997481346
0.020692288875579834
0.09256693720817566
0.024446804076433182
0.027584077790379524
0.10636411607265472
0.023526640608906746
0.005544834304600954
0.021748986095190048
0.05329132452607155
0.04991372674703598
0.02639189176261425
0.01931222714483738
0.03157063201069832
0.0424284003674984
0.032231781631708145
0.06126546114683151
0.05186456814408302
0.013541540130972862
0.011344228871166706
0.017378462478518486
0.014953608624637127
0.08220947533845901
0.02861245907843113
0.014333621598780155
0.020735420286655426
0.031420234590768814
0.026603087782859802
0.02842283621430397
0.0196139644831419
0.039091743528842926
0.004948603920638561
0.05999357998371124
0.023136505857110023
0.02032783254981041
0.020244035869836807
0.024891160428524017
0.017940565943717957
0.03720603883266449
0.009932884015142918
0.008430489338934422
0.01934610866010189
0.06160065531730652
0.05126297101378441
0.020019499585032463
0.03423367813229561
0.01840871013700962
0.039339978247880936
0.018191874027252197
0.017278002575039864
0.04254082217812538
0.054115571081638336
0.03590647876262665
0.01303822547197342
0.015441564843058586
0.02040768973529339
0.013617215678095818
0.021982131525874138
0.02758801355957985
0.03807023912668228
0.04543743655085564
0.01753196306526661
0.029314838349819183
0.011676917783915997
0.020606545731425285
0.08271106332540512
0.008452439680695534
0.013056640513241291
0.0317542739212513
0.013944062404334545
0.010324310511350632
0.03275180608034134
0.012269824743270874
0.01601446233689785
0.019760416820645332
0.04113518446683884
0.017209596931934357
0.027518296614289284
0.024514904245734215
0.056498680263757706
0.028034571558237076
0.016666656360030174
0.013710315339267254
0.021090352907776833
0.02000553533434868
0.028970839455723763
0.018421832472085953
0.01992144249379635
0.04371236637234688
0.011109462007880211
0.020800992846488953
0.031061453744769096
0.012830933555960655
0.03257611393928528
0.023991964757442474
0.033170685172080994
0.05174783244729042
0.007751599885523319
0.01730773039162159
0.01624942757189274
0.02527424693107605
0.021094707772135735
0.03617430105805397
0.08032456040382385
0.02618025802075863
0.00934712402522564
0.023796498775482178
0.020490601658821106
0.010644380934536457
0.03512562811374664
0.01999885030090809
0.011178338900208473
0.016139602288603783
0.012364444322884083
0.02807316742837429
0.015584941022098064
0.008955852128565311
0.018617717549204826
0.02635962888598442
0.016837025061249733
0.01149935182183981
0.01687747985124588
0.022877052426338196
0.036053404211997986
0.036873750388622284
0.039112985134124756
0.05290989577770233
0.020562484860420227
0.07301699370145798
