0.0009543661144562066
0.0011398245114833117
0.0026004407554864883
0.0014749914407730103
0.0012324464041739702
0.0014324962394312024
0.0010983977699652314
0.0016541719669476151
0.0014609177596867085
0.001116493484005332
0.0012582974741235375
0.0010333459358662367
0.002004193374887109
0.0013682236894965172
0.0015391133492812514
0.0011268830858170986
0.001178910955786705
0.00130817003082484
0.0019550113938748837
0.001866357633844018
0.0013775130501016974
0.0024221674539148808
0.0016068571712821722
0.000917110126465559
0.0008288644021376967
0.0016199663514271379
0.0017947780434042215
0.0015061526792123914
0.001440592808648944
0.0012337067164480686
0.001132499543018639
0.0014585237950086594
0.002953187096863985
0.0011469714809209108
0.0011616835836321115
0.0027488351333886385
0.0015487802447751164
0.0018233583541586995
0.0013028120156377554
0.0011237580329179764
0.001398472348228097
0.0038538314402103424
0.0010156921343877912
0.0017413246678188443
0.0013672999339178205
0.0011076693190261722
0.002759001450613141
0.0018734039040282369
0.0017335874726995826
0.00110373564530164
0.0014655464328825474
0.0015950151719152927
0.0014879856025800109
0.0016329458449035883
0.0027966953348368406
0.0014630572404712439
0.0011691635008901358
0.00137458392418921
0.0010383597109466791
0.0009858855046331882
0.0031531688291579485
0.0015450355131179094
0.0008771403809078038
0.001242341473698616
0.0017070808680728078
0.001623646472580731
0.0009219848434440792
0.0018159708706662059
0.0012646483955904841
0.0020893514156341553
0.0015960176242515445
0.001340288668870926
0.0016093722078949213
0.001585867372341454
0.0027244295924901962
0.00445578945800662
0.002151359338313341
0.001338986330665648
0.0013504005037248135
0.0018225341336801648
0.002660841681063175
0.0014418407808989286
0.0014005681732669473
0.001981159904971719
0.0008129044435918331
0.0011424131225794554
0.0010294070234522223
0.0012181020574644208
0.0020560361444950104
0.0012122314656153321
0.0016732009826228023
0.0021794100757688284
0.0009331623441539705
0.00152364291716367
0.0015328156296163797
0.0015911856899037957
0.0015726368874311447
0.0007723711896687746
0.001762879197485745
0.0013308831257745624
0.002321689622476697
0.0015143639175221324
0.004226665943861008
0.001161124906502664
0.0010543051175773144
0.0011217884020879865
0.0009915913688018918
0.0015575650613754988
0.0017036432400345802
0.0018130217213183641
0.0017120231641456485
0.0019481303170323372
0.0015233377926051617
0.0027088152710348368
0.002059467602521181
0.0017409436404705048
0.0022230586037039757
0.001080592512153089
0.0014316887827590108
0.001283382996916771
0.0016248817555606365
0.0017689524684101343
0.003153154393658042
0.001510969246737659
0.0025895133148878813
0.0032523053232580423
0.0011773079168051481
0.0014095589285716414
0.0015027964254841208
0.0017786609241738915
0.0019194911001250148
0.001222226652316749
0.0017399229109287262
0.0010969442082569003
0.001711641438305378
0.0015998061280697584
0.0018626336241140962
0.0015521710738539696
0.0011062533594667912
0.0018533641705289483
0.0027472502551972866
0.0012017724802717566
0.001898455899208784
0.0022813838440924883
0.0017220483860000968
0.0013397139264270663
0.0009181256755255163
0.0027074769604951143
0.001308315433561802
0.0017822309164330363
0.0012691800948232412
0.0015167234232649207
0.0011869666632264853
0.002836338710039854
0.0011708063539117575
0.0013026705710217357
0.0017165741883218288
0.0012654236052185297
0.0014085620641708374
0.0017921712715178728
0.0014372756704688072
0.0009157505119219422
0.0015592720592394471
0.0013878104509785771
0.001804962521418929
0.0018172183772549033
0.0010862216586247087
0.0016023718053475022
0.002131854183971882
0.0020552228670567274
0.0013522987719625235
0.0014515327056869864
0.0016802677419036627
0.0013819712912663817
0.001059680711477995
0.0010983007960021496
0.0015836433740332723
0.003315372858196497
0.0017421431839466095
0.0016151254530996084
0.0025666269939392805
0.001403990900143981
0.003988354001194239
0.0014981308486312628
0.0018237801268696785
0.0010291116777807474
0.0007992138271220028
0.0026533373165875673
0.0018013211665675044
0.0012572606792673469
0.0012848926708102226
0.0014982561115175486
0.001042881398461759
0.0018698102794587612
0.0018947155913338065
0.002048798371106386
0.0012773224152624607
0.0014807818224653602
0.001737135578878224
0.0019110270077362657
0.0009575756848789752
0.0011015159543603659
0.001073220162652433
0.0009384340373799205
0.0013049878180027008
0.0015867798356339335
0.0014731470728293061
0.0034523962531238794
0.002133491449058056
0.0020054434426128864
0.0020036776550114155
0.0013823200715705752
0.0013921052450314164
0.0011618778808042407
0.0014462783001363277
0.001325908349826932
0.0027052429504692554
0.001416026963852346
0.0012691435404121876
0.0015920313308015466
0.0012954864650964737
0.002710627857595682
0.0008767995168454945
0.0008625533664599061
0.0009115785360336304
0.0016226883744820952
0.0022975930478423834
0.00121350830886513
0.0011026898864656687
0.0010530030122026801
0.0014643179019913077
0.0012727263383567333
0.0017221795860677958
0.001334702130407095
0.0017351423157379031
0.001521156751550734
0.0011994314845651388
0.001697684172540903
0.0008269299869425595
0.0014195502735674381
0.0013195907231420279
0.0015091963578015566
0.001664677052758634
0.0009490908123552799
0.0006754801142960787
0.0014627857599407434
0.0013777620624750853
0.0025361471343785524
0.0013728052144870162
0.001116292318329215
0.0008869373123161495
0.0009812205098569393
0.002110823290422559
0.002009275835007429
0.0019326965557411313
0.002908070106059313
0.0013481362257152796
0.0027484556194394827
0.0014135187957435846
0.0015159010654315352
0.0011786494869738817
0.001225411077030003
0.001337122288532555
0.0011763038346543908
0.0012563028139993548
0.0013679566327482462
0.001658919733017683
0.0015644861850887537
0.00150412623770535
0.001569827669300139
0.002796517452225089
0.0013296973193064332
0.001004254911094904
0.0017674029804766178
0.0014618345303460956
0.0013607970904558897
0.0017443220131099224
0.001314150053076446
0.0013213607016950846
0.0010526272235438228
0.0014225206105038524
0.0012003056472167373
0.0016784180188551545
0.002114951377734542
0.002999408170580864
0.0017140402924269438
0.0015656162286177278
0.0013048704713582993
0.0013974220491945744
0.0013562999665737152
0.001671375590376556
0.0016305247554555535
0.0020112148486077785
0.0015539992600679398
0.0021499861031770706
0.0015024282038211823
0.0014192095259204507
0.004969962872564793
0.0012809538748115301
0.001143656438216567
0.0027713666204363108
0.001782778650522232
0.0011504271533340216
0.0018099198350682855
0.0010323267197236419
0.002937545068562031
0.0016471459530293941
0.0011855242773890495
0.0019090388668701053
0.002121377270668745
0.0015325500862672925
0.0009334486094303429
0.001155081670731306
0.001455201767385006
0.001487062661908567
0.001232777489349246
0.001562147168442607
0.00167137011885643
0.0024619014002382755
0.0016286310274153948
0.0023886593990027905
0.0045304009690880775
0.001086121890693903
0.0017171020153909922
0.0012731407769024372
0.0012230952270328999
0.0014506045263260603
0.0013144556432962418
0.0015972272958606482
0.0017597326077520847
0.002310310024768114
0.0026764709036797285
0.0018077933927997947
0.0023252081591635942
0.0013209519675001502
0.0013955244794487953
0.002029602648690343
0.0014109158655628562
0.0013936524046584964
0.0017648352077230811
0.0009743350092321634
0.0022436536382883787
0.0013557063648477197
0.0014590226346626878
0.0009667992126196623
0.0021713078022003174
0.0013371757231652737
0.0013875884469598532
0.0016929941484704614
0.001118713291361928
0.0010286024771630764
0.0014858877984806895
0.0018668185221031308
0.0023333283606916666
0.0013359374133870006
0.0023069854360073805
0.0012030362850055099
0.001704591210000217
0.0018133504781872034
0.0014079050160944462
0.0015948557993397117
0.0016988562420010567
0.0017790892161428928
0.0011245021596550941
0.001250560744665563
0.0017873469041660428
0.0012225667014718056
0.0025328975170850754
0.0021297759376466274
0.00220814673230052
0.0019915143493562937
0.0019154229667037725
0.0016724595334380865
0.0012724896660074592
0.001073148101568222
0.0017275650752708316
0.0020097026135772467
0.0016127555863931775
0.0011162827722728252
0.0016297423280775547
0.0031379438005387783
0.0046326941810548306
0.0013385084457695484
0.001416626968421042
0.0021895633544772863
0.003005753504112363
0.0017404513200744987
0.001517753698863089
0.0013583088293671608
0.0012285179691389203
0.0016020984621718526
0.0036660099867731333
0.0012459170538932085
0.0010681778658181429
0.0016434055287390947
0.002032477641478181
0.001342670526355505
0.0014585264725610614
0.0016778715653344989
0.004783413372933865
0.0018535745330154896
0.002249533776193857
0.0018334937049075961
0.0018861176213249564
0.0018117843428626657
0.0018464052118360996
0.001605343073606491
0.002269069431349635
0.0007052677683532238
0.0029233854729682207
0.0011066696606576443
0.0014808683190494776
0.0017673891270533204
0.0015965043567121029
0.001255229115486145
0.0013607966247946024
0.0010286300675943494
0.0013746273471042514
0.002113633556291461
0.0009588423417881131
0.0012099789455533028
0.0010099646169692278
0.0008865148993209004
0.0022679578978568316
0.0015902821905910969
0.0015295579796656966
0.0014262236654758453
0.0012079168809577823
0.0015425954479724169
0.000880623992998153
0.0012384678702801466
0.001154567813500762
0.001259519369341433
0.0017995446687564254
0.001188894035294652
0.002478216076269746
0.0018038911512121558
0.0013121265219524503
0.001130006741732359
0.0011136402608826756
0.0014602766605094075
0.0014203580794855952
0.0015904598403722048
0.0014984691515564919
0.0018650623969733715
0.0037688841111958027
0.002091845963150263
0.001383051392622292
0.0018673070007935166
0.0026514146011322737
0.0016983269015327096
0.0013988532591611147
0.004765578545629978
0.0013697369722649455
0.00102692109066993
0.002654897514730692
0.0013136094203218818
0.00086799735436216
0.0010825599310919642
0.0014862873358651996
0.0017560039414092898
0.0009594965376891196
0.0009621251374483109
0.001561495941132307
0.0009656600886955857
0.0013552684104070067
0.002268717158585787
0.0012887483462691307
0.0020551399793475866
0.0012418292462825775
0.0015313271433115005
0.0016698448453098536
0.0011827928246930242
0.0017024627886712551
0.001771913026459515
0.0012294234475120902
0.001924634212628007
0.0014014745829626918
0.0019413128029555082
0.001420432236045599
0.0014839849900454283
0.001580492127686739
0.0015348519664257765
0.0008915853104554117
0.001094858511351049
0.0015204858500510454
0.0016459479229524732
0.002112707821652293
0.0017336291493847966
0.002119333716109395
0.001729519572108984
0.00132922048214823
0.0010980537626892328
0.0015740117523819208
0.0018788089510053396
0.003512043273076415
0.0025417462456971407
0.0012991746189072728
0.0014298015739768744
0.0012889814097434282
0.0015529203228652477
0.0012670742580667138
0.001568817300722003
0.0010591605678200722
0.0013518898049369454
0.001107375486753881
0.0028779117856174707
0.001453088945709169
0.0010865103686228395
0.0017814558232203126
0.0016078073531389236
0.0018105002818629146
0.001361725153401494
0.0008566539036110044
0.0019581273663789034
0.0014179203426465392
0.0015977279981598258
0.0013668937608599663
0.0016843474004417658
0.0016225394792854786
0.0015726098790764809
0.001197670353576541
0.0014450809685513377
0.0015236283652484417
0.0030801347456872463
0.0023492283653467894
0.0016472394345328212
0.0014885413693264127
0.001129292300902307
0.0017852452583611012
0.0021662141662091017
0.0019288086332380772
0.001488547190092504
0.002131354296579957
0.0009600822813808918
0.0022968719713389874
0.0009667302947491407
0.0017407131381332874
0.0008276288863271475
0.001432009506970644
0.0014334822772070765
0.0012337377993389964
0.0016229087486863136
0.002359217731282115
0.0020859530195593834
0.001402231166139245
0.0013759632129222155
0.0025045149959623814
0.00235980236902833
0.001880825380794704
0.001112546306103468
0.0020038860384374857
0.0008565899915993214
0.0019329951610416174
0.0014501914847642183
0.0014491499168798327
0.0014460402308031917
0.0011257565347477794
0.0014889395097270608
0.0014746913220733404
0.0010511302389204502
0.0020900352392345667
0.0015155448345467448
0.0008987966575659811
0.0016251497436314821
0.001318303751759231
0.0017666771309450269
0.0008910539327189326
0.001626454177312553
0.0013164404081180692
0.0030542616732418537
0.0010708903428167105
0.0017441511154174805
0.0018938917201012373
0.0005607427447102964
0.00098557083401829
0.0009347426821477711
0.001251205918379128
0.0006493747932836413
0.001608156831935048
0.0017255671555176377
0.001984227215871215
0.0024960748851299286
0.0011515556834638119
0.0020793213043361902
0.002214091597124934
0.0013241255655884743
0.0014821619261056185
0.0012139641912654042
0.001917755464091897
0.0020897446665912867
0.001215016352944076
0.0009633061126805842
0.0021739432122558355
0.0024889318738132715
0.001653870102018118
0.0019186345161870122
0.002662401646375656
0.0013696638634428382
0.001155072939582169
0.0013145835837349296
0.0017421795055270195
0.001580176642164588
0.0011286723893135786
0.0032635857351124287
0.0011690148385241628
0.0020284652709960938
0.00122820062097162
0.0012944722548127174
0.0009446910116821527
0.0012702038511633873
0.0018526497296988964
0.0009452059748582542
0.002555624581873417
0.0013877906603738666
0.0016199409728869796
0.0016118029598146677
0.0009344989666715264
0.001617046189494431
0.002040332416072488
0.001539212535135448
0.0026108650490641594
0.0015297296922653913
0.001926735625602305
0.0015988749219104648
0.0015613496070727706
0.0012195513118058443
0.0015218834159895778
0.0018150941468775272
0.0012355599319562316
0.0008681614999659359
0.0011549608316272497
0.001824982580728829
0.0007239680853672326
0.001499899197369814
0.0017759654438123107
0.0008296907762996852
0.001510965870693326
0.0017941634869202971
0.002565312897786498
0.0015317293582484126
0.001092944759875536
0.0012931227684020996
0.0021227167453616858
0.0011882790131494403
0.0021743730176240206
0.002123091137036681
0.001310823136009276
0.0015623144572600722
0.0012811350170522928
0.0038773915730416775
0.001455439138226211
0.0021089643705636263
0.001507548033259809
0.0012776042567566037
0.002293225610628724
0.0014972299104556441
0.0021077864803373814
0.0013862672494724393
0.0015741675160825253
0.002010875381529331
0.0021332879550755024
0.0016954794991761446
0.0014277580194175243
0.0030933532398194075
0.0012842030264437199
0.0010599871166050434
0.0011244132183492184
0.0016167826252058148
0.0014361864887177944
0.0009275858174078166
0.0017029711743816733
0.0017026124987751245
0.0013686378952115774
0.0011508179595693946
0.0025271193590015173
0.0016980826621875167
0.0011137195397168398
0.001791823306120932
0.0009727729484438896
0.002453605644404888
0.002708751242607832
0.0015921664889901876
0.0022313124500215054
0.0007228228496387601
0.0015740686794742942
0.0021789383608847857
0.0011002118699252605
0.0017484884010627866
0.001690648845396936
0.0007963200332596898
0.0010967374546453357
0.0014385797549039125
0.0020773818250745535
0.0008302978822030127
0.0014052517944946885
0.001375203370116651
0.0034630103036761284
0.0009309749584645033
0.0007394986459985375
0.0016040800837799907
0.002476541558280587
0.001270081615075469
0.0008869396988302469
0.0013897176831960678
0.0023015898186713457
0.0012786798179149628
0.0014066040748730302
0.0007965376134961843
0.0014524211874231696
0.0009663109667599201
0.001754620810970664
0.0014342896174639463
0.0016014548018574715
0.0014599282294511795
0.0014195534167811275
0.0012891102815046906
0.0027916841208934784
0.0018739071674644947
0.0012186141684651375
0.0012137920130044222
0.0014433886390179396
0.000709552492480725
0.0018437291728332639
0.001308118342421949
0.001476882491260767
0.0014771925052627921
0.0029799826443195343
0.0015293228207156062
0.0015416451497003436
0.0011336652096360922
0.0012551723048090935
0.0012813477078452706
0.003199435770511627
0.001067611388862133
0.0020518272649496794
0.0017736669396981597
0.0020992890931665897
0.0015172645216807723
0.0012464139144867659
0.0015571884578093886
0.0019831997342407703
0.0014708139933645725
0.001175318262539804
0.001315040746703744
0.0019136121263727546
0.0014694870915263891
0.0014736783923581243
0.0012394544901326299
0.0017811396392062306
0.0013919841730967164
0.0020106874871999025
0.0012372075580060482
0.001316184177994728
0.0009352774941362441
0.001362449023872614
0.001207307679578662
0.0009519028244540095
0.0009569676476530731
0.0007896265597082675
0.0009435457759536803
0.0013098088093101978
0.0020053128246217966
0.0024624597281217575
0.0018109461525455117
0.0014007387217134237
0.0019746702164411545
0.0019496483728289604
0.0012216127943247557
0.0013717864640057087
0.001696098828688264
0.0009630906861275434
0.002215457148849964
0.0013052127324044704
0.000788842502515763
0.0010850108228623867
0.0012808885658159852
0.0010705096647143364
0.0012213940499350429
0.001329588470980525
0.001468759961426258
0.001280926400795579
0.0017400477081537247
0.0014770602574571967
0.0013289246708154678
0.001633554813452065
0.0006618429906666279
0.0013425530632957816
0.0013508859556168318
0.0013611986069008708
0.0015492620877921581
0.001451552496291697
0.0019649479072541
0.0010090256109833717
0.0012668980052694678
0.001254062750376761
0.001216607866808772
0.002059784485027194
0.0015752757899463177
0.0026678387075662613
0.0015805058646947145
0.0014813635498285294
0.0014383414527401328
0.0017354965675622225
0.0012448780471459031
0.0017699467716738582
0.001457954291254282
0.0012500621378421783
0.0016361534362658858
0.0016380640445277095
0.0012113080592826009
0.001752374111674726
0.0010750371729955077
0.0013880582991987467
0.0011266435030847788
0.0014933786587789655
0.002333404030650854
0.0014024130068719387
0.001379740540869534
0.0013108034618198872
0.002076144330203533
0.0027551809325814247
0.0018450625939294696
0.0008976921672001481
0.0019764036405831575
0.0016216904623433948
0.001104274531826377
0.0013975080801174045
0.0026334880385547876
0.0014204224571585655
0.0009686084813438356
0.004367947578430176
0.0017612497322261333
0.0013453109422698617
0.0009327345178462565
0.0012695200275629759
0.0012216286268085241
0.0014390603173524141
0.0008339984924532473
0.0014559372793883085
0.0015818150714039803
0.0010866427328437567
0.0015132325934246182
0.0016619632951915264
0.0016103738453239202
0.0026816215831786394
0.0010939274216070771
0.0012520544696599245
0.0008560367277823389
0.0009207426337525249
0.0007516248151659966
0.0022175146732479334
0.0007867596577852964
0.0019494653679430485
0.001822068588808179
0.0014999270206317306
0.0017439237562939525
0.0011529299663379788
0.0013196144718676805
0.001781016238965094
0.0015175933949649334
0.003239605575799942
0.0028635989874601364
0.00133557862136513
0.0009561650222167373
0.001449279603548348
0.0010946447728201747
0.002397861098870635
0.001965782605111599
0.002436788519844413
0.0018701321678236127
0.0017577189719304442
0.001655110390856862
0.001459093182347715
0.00147236289922148
0.0013759522698819637
0.000917722936719656
0.0011441591195762157
0.0013931433204561472
0.0022310330532491207
0.0010277958353981376
0.0012783738784492016
0.0013060977216809988
0.0018737497739493847
0.001922163413837552
0.0010833801934495568
0.0012747878208756447
0.0011675392743200064
0.0014184743631631136
0.0024354795459657907
0.0015181433409452438
0.0016173849580809474
0.0014469438465312123
0.0014846449485048652
0.001366838812828064
0.0014191230293363333
0.0015855870442464948
0.001622202922590077
0.0021597878076136112
0.0016283274162560701
0.002561194822192192
0.002719725714996457
0.001308324048295617
0.0019613325130194426
0.0008509309263899922
0.000898391124792397
0.0017453753389418125
0.0017236723797395825
0.0022305354941636324
0.001435646670870483
0.002250428544357419
0.0013359806034713984
0.0019656585063785315
0.0013406913494691253
0.0019035121658816934
0.002179209142923355
0.001893560285679996
0.0020293493289500475
0.0010393710108473897
0.0011830516159534454
0.0015728363068774343
0.0016583933029323816
0.0014308890094980597
0.001736100995913148
0.0012880392605438828
0.001086731906980276
0.0014412888558581471
0.0011722465278580785
0.0013277091784402728
0.0025971136055886745
0.0021800976246595383
0.0021052444353699684
0.0014013692270964384
0.001478926744312048
0.0015070290537551045
0.0023115596268326044
0.0016550809377804399
0.0015992062399163842
0.0023349004331976175
0.0014013408217579126
0.0015336794313043356
0.0006458070129156113
0.0011101082200184464
0.001158164581283927
0.0024524270556867123
0.0011534139048308134
0.001167313545010984
0.001217191806063056
0.0018131532706320286
0.001368274912238121
0.0015525991329923272
0.002049917122349143
0.0014460618840530515
0.0015323584666475654
0.0018422281136736274
0.0013843681663274765
0.0020421002991497517
0.0020431233569979668
0.001595875364728272
0.0013506284449249506
0.0010636922670528293
0.0013535695616155863
0.0013682474382221699
0.0013918071053922176
0.002580297412350774
0.0013307405170053244
0.001561572658829391
0.0011468002339825034
0.0019886230584234
0.0019211024045944214
0.001842121360823512
0.0024582769256085157
0.0012931061210110784
0.0009813703363761306
0.0031239285599440336
0.000825932715088129
0.0018623562064021826
0.0013471266720443964
0.001479264348745346
0.001197004341520369
0.0012772342888638377
0.0013898402685299516
0.0012736086500808597
0.0016718022525310516
0.0023965646978467703
0.0008904175483621657
0.0011628500651568174
0.0008231259998865426
0.0012957964790984988
0.0013929720735177398
0.0032498983200639486
0.0020155850797891617
0.0013677963288500905
0.0009202208020724356
0.0016183765837922692
0.0020790237467736006
0.0021446854807436466
0.0011018250370398164
0.002087079454213381
0.0021236261818557978
0.0011949086328968406
0.0023068273440003395
0.0013829813105985522
0.0011511591728776693
0.0014146912144497037
0.0011736892629414797
0.001558555057272315
0.0013889085967093706
0.0013284849701449275
0.0011293350253254175
0.000760950380936265
0.0010373523691669106
0.0018241213401779532
0.0011644959449768066
0.002190258586779237
0.0012440653517842293
0.002073566196486354
0.0012541011674329638
0.0015539020532742143
0.0011806314578279853
0.0013554282486438751
0.0013894482981413603
0.002111451467499137
0.001241146819666028
0.0016775375697761774
0.0022569107823073864
0.0015004868619143963
0.0015654631424695253
0.0013061147183179855
0.002062045270577073
0.0022987183183431625
0.0021106090862303972
0.0009564910433255136
0.0037317827809602022
0.0010511106811463833
0.0012133875861763954
0.0013254224322736263
0.0019587858114391565
0.0010102137457579374
0.001239611185155809
0.0009665274410508573
0.001769793452695012
0.0017594823148101568
0.0013888746034353971
0.001624086406081915
0.0014239891897886992
0.0017534148646518588
0.0012766493018716574
0.0014652727404609323
0.0010763328755274415
0.0024432637728750706
0.0019239194225519896
0.0023847627453505993
0.001960980938747525
0.0018921177834272385
0.0009418203844688833
0.0012693634489551187
0.001377174281515181
0.0016135339392349124
0.0013193744234740734
0.0012927856296300888
0.0010530563304200768
0.0032285484485328197
0.001370686455629766
0.0014116535894572735
0.0007954253815114498
0.0010246512247249484
0.0014959764666855335
0.0018057679990306497
0.001946976757608354
0.0019394023111090064
0.000992403132840991
0.0011741722701117396
0.0011551142670214176
0.0015816603554412723
0.0007084187236614525
0.0026160094421356916
0.0017187993507832289
0.0013342656893655658
0.001119748572818935
0.0012180126504972577
0.001841271761804819
0.0008092139032669365
0.0010898682521656156
0.0026496800128370523
0.0017973154317587614
0.0019337211269885302
0.0016813116380944848
0.0016862992197275162
0.0021995347924530506
0.002781166695058346
0.0014419221552088857
0.0011690245009958744
0.001194978947751224
0.001929218415170908
0.001308867009356618
0.0011083193821832538
0.0012851845240220428
0.0009706175187602639
0.0013945867540314794
0.0015784639399498701
0.0012906731572002172
0.0013721344294026494
0.001516231568530202
0.002446212572976947
0.0012402296997606754
0.001083742710761726
0.0011649838415905833
0.00159066217020154
0.0014478538651019335
0.0015197575557976961
0.0020596501417458057
0.0018188972026109695
0.00112994818482548
0.002197721740230918
0.001117850188165903
0.0021569659002125263
0.0011054410133510828
0.002066482324153185
0.001218722085468471
0.0011468500597402453
0.0012272080639377236
0.00131022441200912
0.0011330193374305964
0.0010893065482378006
0.0038291485980153084
0.0012311403406783938
0.0014207264175638556
0.001438145525753498
0.0021290446165949106
0.0014363046502694488
0.0015382770216092467
0.0015443462179973722
0.001360184047371149
0.001381895737722516
0.001640230300836265
0.0011123784352093935
0.002921170322224498
0.0012507393257692456
0.0012701883679255843
0.0011896326905116439
0.0022929501719772816
0.0020611602813005447
0.0027534363325685263
0.001277242787182331
0.001480695093050599
0.0008206857019104064
0.0010884541552513838
0.0010169798042625189
0.004079601727426052
0.001213819719851017
0.0017552002100273967
