0.00013939042401034385
0.00017347042739856988
8.336664905073121e-05
0.0001201653722091578
0.00014323682989925146
0.00012621830683201551
0.00013021379709243774
7.875184383010492e-05
0.0001343682233709842
9.527537622489035e-05
0.00013632065383717418
0.00015157563029788435
9.706831042421982e-05
0.00016471643175464123
0.00013179016241338104
0.00010305183968739584
0.00021404454309958965
7.023140642559156e-05
0.0001674749655649066
0.00019808071374427527
0.00014266776270233095
0.00012623857764992863
3.583526995498687e-05
0.00018024491146206856
0.00011885748244822025
0.00010935134923784062
0.0001288556377403438
9.452686936128885e-05
0.0001460259809391573
0.00016421082546003163
6.207988917594776e-05
0.0001435787125956267
9.260432125302032e-05
0.00011410320439608768
5.560762292589061e-05
7.911177090136334e-05
0.00014582999574486166
0.00012234349560458213
2.622027022880502e-05
0.00014927040319889784
9.800159023143351e-05
0.0001324264012509957
0.0001178862075903453
0.00014429788279812783
8.84777691680938e-05
0.0001312891545239836
0.00014666232164017856
2.7143969418830238e-05
0.00013601704267784953
2.9957924198242836e-05
3.712165562319569e-05
0.0001668974873609841
7.212023047031835e-05
0.00011870582966366783
0.00017904775450006127
4.14525784435682e-05
0.00013128836872056127
0.00012151234113844112
0.00013013814168516546
0.0001559411030029878
0.0001668637414695695
0.00014020387607160956
0.00014874071348458529
8.963439904619008e-05
2.9372864446486346e-05
0.00011500946857267991
6.584884249605238e-05
0.0001317369460593909
0.00012058334687026218
0.00014520717377308756
0.0001290165528189391
0.00017121490964200348
0.00011242651817156002
0.00019210853497497737
0.00016825149941723794
0.00013333192327991128
0.00011568053014343604
0.00013307560584507883
0.00014169616042636335
0.0001123146284953691
0.00013502061483450234
0.00013909007248003036
0.0001168613089248538
0.00010965317051159218
0.0001197929450427182
0.00010802428732858971
0.000137743292725645
0.00020454128389246762
3.8043428503442556e-05
9.400886483490467e-05
8.48320996738039e-05
0.000166070502018556
0.00010238419781671837
0.00010113037569681183
0.0001331320236204192
0.00020284313359297812
4.60575356555637e-05
0.00014013821783009917
4.845288640353829e-05
0.0001125591152231209
0.00018687942065298557
8.063975110417232e-05
0.00016236801457125694
3.48339272022713e-05
0.00012191321729915217
8.016232459340245e-05
0.0001313383545493707
9.95606096694246e-05
4.216361776343547e-05
0.00011688996164593846
0.00016558714560233057
0.00018399444525130093
0.00016981024236883968
0.00013272574869915843
0.00017017430218402296
8.157947740983218e-05
0.00014922147965990007
0.00012731335300486535
4.369790985947475e-05
0.0001502260274719447
8.059426181716844e-05
0.000174565109773539
0.00013187617878429592
0.00012205931852804497
0.00011876112694153562
4.6487046347465366e-05
0.00012082408647984266
6.286223651841283e-05
0.00011716595327015966
0.00016259985568467528
0.00012367681483738124
9.404061711393297e-05
0.00012402563879732043
0.00011288538371445611
0.00012436888937372714
0.0001405753573635593
0.0001543439138913527
0.00012988208618480712
0.0001294366520596668
0.0001130978562287055
0.00010332139936508611
0.00012629292905330658
7.288620690815151e-05
0.00010587780707282946
0.00012879623682238162
0.00012126294313929975
0.00014419868239201605
5.511309063876979e-05
0.00012447437620721757
3.107804514002055e-05
0.0001521995582152158
0.00012545663048513234
0.0001357195433229208
0.00017283399938605726
0.00018167133384849876
0.00019653764320537448
0.00012527749640867114
6.506934732897207e-05
0.00013687332102563232
0.00015626060485374182
0.0001254746166523546
3.6860441468888894e-05
0.00014958105748519301
7.601310062455013e-05
0.00014428394206333905
9.939816663973033e-05
0.00012536108260974288
0.0001812702976167202
0.00012773256457876414
0.00014018376532476395
0.00010289620695402846
0.00015806932060513645
0.00011118778638774529
3.8939801015658304e-05
0.00014100296539254487
0.00016922425129450858
0.00012729212176054716
0.00010054825543193147
7.385371281998232e-05
5.36923689651303e-05
0.00011959689436480403
0.00015743737458251417
0.00011692456610035151
0.00011916772200493142
0.00015170600090641528
0.00017179847054649144
3.565535735106096e-05
0.00013310604845173657
0.00010935443424386904
0.00010733823728514835
5.8195579185849056e-05
0.00010678666149033234
7.161017856560647e-05
8.918972162064165e-05
0.00013943253725301474
3.562248093658127e-05
0.00013389618834480643
0.00013055728049948812
5.950759077677503e-05
0.00011715918662957847
0.00010355211270507425
0.00013625009160023183
0.00011124306183774024
7.077615009620786e-05
0.00010194165224675089
0.00012307034921832383
0.00012483321188483387
0.0001359916786896065
0.00011926958541152999
0.00014143931912258267
0.00010816820577019826
0.00011471071775304154
7.599399395985529e-05
9.097758447751403e-05
0.00014153764641378075
4.344022090663202e-05
8.643285400466993e-05
0.00017990396008826792
0.00010535916226217523
0.0001611645275261253
0.0001841638732003048
0.0001406288065481931
0.0001340500166406855
0.00011871508468175307
0.00021638757607433945
7.831660332158208e-05
0.00014321834896691144
2.996911462105345e-05
0.00010569372534519061
0.00015966199862305075
4.500901559367776e-05
0.00016018570750020444
8.457159128738567e-05
0.00015854305820539594
3.3556785638211295e-05
3.086726792389527e-05
0.0001262522127944976
0.0001533201866550371
0.00015004794113337994
4.5535125536844134e-05
0.00014593920786865056
0.00016436443547718227
0.00010823774209711701
0.0001140335516538471
3.119803295703605e-05
6.575923907803372e-05
0.0001295180118177086
0.00010673884389689192
0.00012498602154664695
0.00024628627579659224
0.00010536667832639068
0.00021462688164319843
0.00010780389129649848
0.00015279736544471234
3.089088568231091e-05
0.0001429584517609328
0.00013082899386063218
7.999539957381785e-05
0.00010276665125275031
0.00012839541886933148
0.00011991376231890172
9.222693915944546e-05
0.0001309842918999493
0.00013187705189920962
0.00014047646254766732
0.0001258838310604915
6.881444278405979e-05
0.0001793707924662158
0.00012172971037216485
0.0001494268944952637
0.00010867770470213145
0.00014427419228013605
0.0001476151664974168
0.00010166262654820457
5.330513886292465e-05
0.00010194283095188439
5.520493505173363e-05
0.00012982310727238655
4.574053309625015e-05
4.958657154929824e-05
0.00012365651491563767
0.0001481341168982908
0.00012643495574593544
7.249896589200944e-05
0.00012055761908413842
0.00015330789028666914
9.867041080724448e-05
0.00011123040167149156
8.236740541178733e-05
0.0002094536175718531
0.0001278361160075292
0.00013327902706805617
0.0001123725960496813
3.582927456591278e-05
0.0001342717296211049
0.00019575911574065685
6.619788473471999e-05
9.354131179861724e-05
0.00011271841503912583
0.0001191742776427418
5.5996257287915796e-05
4.54888358945027e-05
2.517460598028265e-05
0.00018506501510273665
3.0685994715895504e-05
0.00012062343739671633
0.00015599974722135812
2.6969462851411663e-05
0.00012477395648602396
8.414901822106913e-05
3.1607745768269524e-05
8.788794366410002e-05
0.00022087608522269875
5.34609098394867e-05
0.00014789999113418162
7.696626562392339e-05
4.5809571020072326e-05
0.00012941907334607095
4.147629442741163e-05
4.046399044455029e-05
0.00013440597103908658
6.992285489104688e-05
7.716620893916115e-05
0.00017743263742886484
0.00014076930528972298
2.592849705251865e-05
0.00013404623314272612
0.0001612804044270888
0.0001775887794792652
3.148602627334185e-05
4.019995321868919e-05
0.00012178210454294458
3.549385291989893e-05
0.000142284479807131
0.00018711533630266786
0.00015827322204131633
0.00010333256796002388
0.00015930521476548165
0.00015909953799564391
0.00011705096403602511
0.00012611008423846215
0.00015237471961881965
0.00012310600141063333
0.00010572286555543542
0.00016847044753376395
0.00014859424845781177
0.00013983093958813697
0.00011540996638359502
0.00010862579074455425
0.00014893784828018397
3.993044083472341e-05
0.00013644073624163866
0.00015391764463856816
9.793933713808656e-05
0.00014005544653628021
0.00017609729547984898
0.0001365311472909525
0.00011045351129723713
0.0001682764122961089
0.00021175562869757414
0.00021159369498491287
0.0001328906655544415
0.0001536457857582718
4.121270831092261e-05
0.0001786882639862597
0.00012454597163014114
0.00013601922546513379
8.133098890539259e-05
8.28362099127844e-05
0.00014721410116180778
0.00010201678378507495
0.00014813814777880907
9.075697016669437e-05
0.00010742043377831578
6.906517228344455e-05
9.112463885685429e-05
0.00010454532457515597
0.00013096403563395143
9.364990546600893e-05
0.00014657428255304694
3.654859392554499e-05
0.00014485169958788902
0.0001558166986797005
0.00015158578753471375
0.00016453316493425518
7.498090417357162e-05
0.00012091221287846565
0.00011221454769838601
0.0001508338755229488
3.240290243411437e-05
0.00012802085257135332
0.000137538299895823
5.222559047979303e-05
0.0001365359203191474
0.0001657606626395136
4.903427543467842e-05
2.649626367201563e-05
0.0001275554532185197
0.0001514880423201248
0.0001896502508316189
0.00015244710084516555
0.00010939993080683053
0.00012787996092811227
0.0001222536084242165
8.257929584942758e-05
7.886470848461613e-05
0.0001339639420621097
0.00017016715719364583
0.00011893379269167781
0.00014815846225246787
4.2619387386366725e-05
0.00010739170829765499
0.00013604320702143013
0.00011222896137041971
0.0002626481873448938
5.7201938034268096e-05
0.00013406280777417123
0.000140860109240748
9.910353401210159e-05
0.00011363712110323831
6.228848360478878e-05
3.377361281309277e-05
8.724771760171279e-05
0.00016418348241131753
8.080848056124523e-05
0.0001476331235608086
6.741491961292922e-05
0.00011867802095366642
0.00019962427904829383
9.70748151303269e-05
0.00015390577027574182
8.330172568093985e-05
6.286670395638794e-05
0.0002120539575116709
9.876031253952533e-05
3.450102303759195e-05
0.00015144942153710872
0.00011271378753008321
5.487968883244321e-05
5.9902784414589405e-05
0.0001536846102681011
0.00012827193131670356
7.68437166698277e-05
0.00010261327406624332
8.414576586801559e-05
4.058637932757847e-05
0.00018906814511865377
7.973980973474681e-05
0.00017530737386550754
9.678356582298875e-05
0.0001310351799475029
8.487527520628646e-05
7.104828546289355e-05
0.00015869906928855926
2.715176196943503e-05
0.0001632927596801892
8.697821613168344e-05
3.584847945603542e-05
0.00018848034960683435
0.00023509356833528727
8.2014812505804e-05
0.0001705194590613246
0.00012584732030518353
0.00011119844566565007
0.00010794998524943367
0.00019225831783842295
7.678777183173224e-05
0.00011483498383313417
0.00017164951714221388
0.00014466828724835068
0.00010396771540399641
0.00013579837104771286
6.026624396326952e-05
0.00020510463218670338
0.00013780083099845797
0.0002897221129387617
0.0001995215570786968
8.531239291187376e-05
0.00013000443868804723
0.00016176093777175993
3.131457924610004e-05
0.00010725866741267964
3.356445813551545e-05
0.00018383584392722696
0.00011796060425695032
0.00012525147758424282
0.0001283199671888724
2.2994938262854703e-05
0.0001826432708185166
5.043480996391736e-05
0.0001305517362197861
0.000117994706670288
5.8086778153665364e-05
4.477166658034548e-05
0.00021515959815587848
0.00013391667744144797
9.739149390952662e-05
0.00014957688108552247
0.00013777559797745198
6.545669748447835e-05
8.914437057683244e-05
0.00017758396279532462
0.0001255912211490795
0.0001593504275660962
7.636046939296648e-05
0.00010499238123884425
5.5842974688857794e-05
0.00011017377983080223
0.0001567993895150721
0.00044889282435178757
0.00017068050510715693
0.00010675343219190836
3.569155160221271e-05
0.00014495501818601042
0.00014681635366287082
0.0001285769831156358
0.00013669564214069396
6.438532000174746e-05
9.092512482311577e-05
0.00010436143929837272
0.00018791417824104428
9.074714762391523e-05
0.00010844301868928596
4.10322863899637e-05
0.00016566056001465768
8.577889821026474e-05
8.723628707230091e-05
0.0002120058925356716
0.0001616333902347833
0.0001604060671525076
0.00016375513223465532
0.00012031217920593917
0.00012867074110545218
0.00012592544953804463
0.00018424003792461008
6.348594615701586e-05
0.00010862014460144565
0.00012097189028281718
0.00016830844106152654
0.00010527147969696671
6.896779086673632e-05
0.00013678765390068293
3.361552080605179e-05
7.471346907550469e-05
0.00012417636753525585
0.00014132320939097553
7.57172965677455e-05
5.360324212233536e-05
0.000169579463545233
0.00012190161214675754
0.0001690526696620509
0.00013184675481170416
0.00011913338676095009
3.8622296415269375e-05
0.00016335189866367728
0.00017693298286758363
0.0001346983917756006
0.00010735485557233915
0.00011295326112303883
0.00011145468306494877
0.00012393509678076953
0.00010069051495520398
0.00012004104792140424
0.00011890183668583632
0.00011379569332348183
0.00010660116095095873
0.00014193030074238777
8.243582851719111e-05
9.607293759472668e-05
0.00013145314005669206
0.0001420198386767879
0.00011557475954759866
0.00016320326540153474
0.00010445783846080303
7.670895865885541e-05
0.00015183098730631173
2.7015998057322577e-05
0.00014182159793563187
0.00015232100849971175
0.00014046674186829478
0.000150152322021313
0.00013684213627129793
6.346529698930681e-05
0.0001118228246923536
0.00012687039270531386
0.00010809164814418182
2.987184598168824e-05
0.00012660847278311849
0.00012920073640998453
0.00015116424765437841
8.145382162183523e-05
0.00012542391777969897
0.00014584789460059255
9.660064097261056e-05
7.084541721269488e-05
2.7840909751830623e-05
0.00010017745080403984
0.00011943324352614582
0.00013756798580288887
0.00011235669808229432
9.158589091384783e-05
0.00011950149200856686
0.0001316154230153188
8.959791011875495e-05
9.191707067657262e-05
0.00010814294364536181
0.00014894681225996464
0.00013834168203175068
3.7405909097287804e-05
7.838566671125591e-05
0.00015522146713919938
9.942866017809138e-05
0.0001711910736048594
0.00013647366722580045
3.36970406351611e-05
0.00022350720246322453
0.00011107984755653888
4.10471620853059e-05
0.00012803080608136952
0.00019104448438156396
0.00010691500210668892
0.00012058596621500328
0.0001367229997413233
0.00011854364129249007
0.00010452352580614388
0.00011738051398424432
0.00012780501856468618
0.00021364021813496947
0.00010988846042891964
0.0001747774367686361
0.00016617184155620635
9.094493725569919e-05
7.564558472950011e-05
0.0001076069165719673
5.060109469923191e-05
0.00013232413039077073
8.566344331484288e-05
2.3431175577570684e-05
0.00013993127504363656
0.00020513169874902815
0.0001478793565183878
0.00011784926027758047
0.0001144908819696866
0.00013234381913207471
0.00016240291006397456
0.00016418944869656116
0.00010126959386980161
0.00010713913070503622
8.195283589884639e-05
0.00014302408089861274
0.00012459528807085007
3.984328577644192e-05
3.476244819466956e-05
3.8663227314827964e-05
0.00014519674004986882
4.387229637359269e-05
0.0001171815165434964
0.0001171160110970959
7.918540359241888e-05
0.00014051909965928644
0.00016874745779205114
0.00015690247528254986
4.843819988309406e-05
0.00012859921844210476
0.00010834758722921833
6.490849773399532e-05
0.00015054286632221192
0.00016562119708396494
0.00017302585183642805
9.319985838374123e-05
0.0001280523429159075
7.882517093094066e-05
2.838864929799456e-05
0.0001435405865777284
5.15495594299864e-05
0.00012031375808874145
0.00010060463682748377
0.000142570526804775
0.0001478624326409772
0.00017657119315117598
5.513490395969711e-05
0.00014855769404675812
0.00013915933959651738
0.00011897444346686825
0.00012438817066140473
0.00012379291001707315
0.00012404471635818481
0.000123695470392704
4.703239392256364e-05
0.0001226221938850358
5.741232598666102e-05
7.216099766083062e-05
4.759487273986451e-05
0.00014817157352808863
3.602799552027136e-05
0.00011495673970784992
9.845884778769687e-05
2.9149508918635547e-05
0.00014497268421109766
3.791025301325135e-05
0.00016188951849471778
0.00011752403224818408
0.00012053603859385476
0.00012874531967099756
4.720139259006828e-05
0.00010572248720563948
7.821998588042334e-05
2.7870812118635513e-05
0.00011061015538871288
0.00015726679703220725
0.00015922804595902562
0.00015633547445759177
9.098975715460256e-05
0.00016504032828379422
0.00011086447193520144
4.5956854592077434e-05
0.00012652536679524928
6.986437801970169e-05
0.00010156976350117475
0.00013954327732790262
0.0001696793333394453
0.00015211020945571363
0.0001276884286198765
0.00015121037722565234
0.00010794249828904867
0.00010692970681702718
0.00010182464757235721
9.508327639196068e-05
0.00011265418288530782
0.00014987445320002735
0.00011618991266004741
0.0001294911198783666
0.00015209786943159997
3.5162465792382136e-05
2.6312727641197853e-05
0.00011310917761875317
0.00019893812714144588
8.955500379670411e-05
7.06272476236336e-05
4.369694579509087e-05
0.00011534297664184123
9.508613584330305e-05
6.874566315673292e-05
0.00010467036918271333
0.00012039115244988352
0.00010192638728767633
0.00018336635548621416
0.00014454622578341514
0.0001216047749039717
0.0002277106250403449
0.00011476248619146645
0.00014242774341255426
0.00013444550859276205
0.00013004688662476838
0.00015064171748235822
0.00012729890295304358
9.732480975799263e-05
0.00010386932990513742
9.833615331444889e-05
0.00013548364222515374
2.1374746211222373e-05
0.00015832326607778668
9.50862595345825e-05
8.126034663291648e-05
4.397675729705952e-05
0.00014152420044410974
0.00012765312567353249
0.00013441682676784694
0.00011176394036738202
4.137907671974972e-05
0.00011747215467039496
0.000140139673021622
0.00010245400335406885
0.00012777427036780864
0.00010152421600650996
0.0001730102812871337
8.374053140869364e-05
0.00011035543866455555
3.347819438204169e-05
0.00010934720194200054
0.00011752935097320005
0.000137460941914469
4.975116462446749e-05
0.00011354357411619276
0.00013374246191233397
3.597362228902057e-05
0.00017933238996192813
0.0001187721936730668
0.0001532974129077047
0.00010629995085764676
0.00014900251699145883
0.00011823088425444439
0.00013924637460149825
0.00012127546506235376
0.00012114980927435681
0.0001244151935679838
0.00012912713282275945
2.9141703635104932e-05
0.00014348079275805503
0.00010577122156973928
0.00013542160741053522
0.00012157217861386016
3.2484687835676596e-05
5.6683154980419204e-05
9.23408442758955e-05
2.4579570890637115e-05
4.188158709439449e-05
0.00011270133836660534
0.00015994034765753895
0.00018562044715508819
0.00013405764184426516
9.137956658378243e-05
3.639990609372035e-05
0.00014047297008801252
0.00010909400589298457
6.321789987850934e-05
0.00011452347098384053
0.0001532905298518017
8.296650048578158e-05
0.00014132182695902884
0.00010511989967199042
0.00011387412087060511
2.639953891048208e-05
0.00010238907998427749
0.00013846540241502225
8.741806959733367e-05
0.00011864581028930843
0.00017141202988568693
0.00014499355165753514
0.00016746488108765334
0.00015294054173864424
0.00014434695185627788
8.201612217817456e-05
8.487266313750297e-05
0.00017431438027415425
0.00023454589245375246
7.629237370565534e-05
0.00011719491885742173
6.902773020556197e-05
0.00012898922432214022
5.077597961644642e-05
0.0001325785560766235
0.00015562672342639416
0.0001766281493473798
5.941010022070259e-05
5.197453356231563e-05
0.0002236978616565466
2.880269857996609e-05
0.0001450453419238329
3.452884266152978e-05
7.838878809707239e-05
9.4866547442507e-05
0.00010929640120593831
0.00013228063471615314
6.758617382729426e-05
7.970508158905432e-05
0.0001269284257432446
3.217078119632788e-05
0.00010966500849463046
3.493628537398763e-05
8.490031905239448e-05
9.02689789654687e-05
9.923510515363887e-05
0.00011639705917332321
7.974982145242393e-05
4.969102155882865e-05
0.00010044564987765625
0.0001445226080249995
3.7715079088229686e-05
0.00012618760229088366
3.515466596581973e-05
0.0001294301764573902
3.6935107345925644e-05
0.00010425129585200921
0.00016268459148705006
0.00013801200839225203
0.00011114609515061602
0.00017054699128493667
0.0002283343783346936
4.6223496610764414e-05
0.0001054744134307839
7.547065615653992e-05
0.0001118549844250083
0.0001282255252590403
0.00012585858348757029
4.357123907539062e-05
0.00013137336645741016
4.3413445382611826e-05
0.0001539640943519771
5.8219207858201116e-05
0.0002105250023305416
7.067256956361234e-05
8.328375406563282e-05
0.00010755152470665053
0.00014643183385487646
0.0001261816651094705
6.961390317883343e-05
0.0001286924525629729
9.133353887591511e-05
3.0765677365707234e-05
0.00010267773177474737
9.976643195841461e-05
0.0001290718064410612
5.40547953278292e-05
0.00012898854038212448
0.00013561599189415574
5.199107908993028e-05
0.00012845649325754493
3.079165253438987e-05
8.820966468192637e-05
3.992699203081429e-05
5.062897616880946e-05
0.00013444782234728336
4.0939939935924485e-05
0.00014269442181102931
0.00012751150643453002
0.00022876463481225073
0.00012112183321733028
6.104476051405072e-05
0.00016931780555751175
5.680319736711681e-05
0.00013770208170171827
0.00012558091839309782
7.722316513536498e-05
6.446959741879255e-05
9.463352762395516e-05
0.0002147708582924679
0.00011481819092296064
0.00013615239004138857
4.879193875240162e-05
0.0002340898645343259
5.086700912215747e-05
0.00013943068915978074
0.00011658950825221837
3.304231722722761e-05
0.0001441581262042746
0.00013216063962318003
0.0001517410419182852
0.0001388874079566449
0.00019892415730282664
0.00013324232713785022
0.00012127234367653728
6.044681867933832e-05
0.0001351578684989363
0.00015891240036580712
0.0001209332185680978
0.00010141883103642613
0.00020214926917105913
0.00017754212603904307
9.84419384622015e-05
0.00011332363646943122
0.00013496502651832998
3.553376518539153e-05
9.284137195209041e-05
0.00014357957115862519
0.00011749147961381823
0.00022728345356881618
4.566310963127762e-05
0.00014660767919849604
0.00014197829295881093
0.00014186365297064185
0.00017447090067435056
0.00013426451187115163
5.696192238247022e-05
0.0001361516333417967
0.00015836009697522968
0.00011516993254190311
6.142663914943114e-05
9.428441262571141e-05
0.00013239451800473034
7.086457480909303e-05
0.00011557462130440399
0.0001273006055271253
0.00015388484462164342
5.3959578508511186e-05
9.38324083108455e-05
3.0380282623809762e-05
0.00021159362222533673
0.00014430246665142477
0.00010314811515854672
3.799406476900913e-05
0.0001290069631068036
4.2965584725607187e-05
0.00012149543181294575
0.00014226522762328386
7.34375134925358e-05
5.736267121392302e-05
0.000157827467774041
0.00018801137048285455
4.078770143678412e-05
0.00019783485913649201
5.8821082348003983e-05
8.067328599281609e-05
0.00010213499626843259
0.00010933649173239246
0.00013560072693508118
2.7533224056242034e-05
0.0001438475155737251
0.00012571366096381098
8.972777868621051e-05
4.624982466339134e-05
7.190641190391034e-05
0.00012890271318610758
0.00010145665874006227
0.00014151498908177018
0.00010400522296549752
0.0001120454107876867
0.0002206812205258757
6.393648800440133e-05
3.489901064313017e-05
0.000126083439681679
0.00012670914293266833
0.00011013018229277804
8.933737262850627e-05
0.00019827231881208718
9.291142487199977e-05
0.00014425769040826708
0.00011659284791676328
3.0873092327965423e-05
0.0002380340883973986
9.658248018240556e-05
0.00013327859051059932
0.00012536800932139158
0.00016446792869828641
5.088352190796286e-05
0.00015886152687016875
0.00010252454376313835
0.0001172760094050318
0.00016294262604787946
9.273692558053881e-05
0.00015475956024602056
0.00015139258175622672
3.1860203307587653e-05
0.0001834916474763304
3.742809349205345e-05
0.00012555677676573396
0.00011485855065984651
0.00013143208343535662
3.3196476579178125e-05
0.0001636100496398285
8.954884833656251e-05
8.243955380748957e-05
7.885441300459206e-05
0.00014480663230642676
0.00013682019198313355
8.262904157163575e-05
0.00022400179295800626
0.00012176994641777128
0.00013470275735016912
8.548596815671772e-05
0.0001261510915355757
0.00010528100392548367
8.061600965447724e-05
0.00013735619722865522
4.1263836465077475e-05
9.84294674708508e-05
0.00010154266055906191
4.1573541238904e-05
0.00013344368198886514
0.0001295153342653066
0.00012812709610443562
0.00014852959429845214
2.9428259949781932e-05
0.00016023468924686313
7.235594239318743e-05
9.505485650151968e-05
8.330012497026473e-05
0.00010387974180048332
0.0001216825912706554
0.0001456711906939745
4.9166865210281685e-05
0.00014880108938086778
9.620762284612283e-05
0.00016555777983739972
0.00011389054270694032
0.00010113044845638797
0.00018479950085747987
0.00013104324170853943
0.0001345629571005702
0.00014423659013118595
9.860187856247649e-05
7.368016667896882e-05
0.0001083016541088
0.00013427986414171755
6.702906102873385e-05
0.00010748855856945738
5.304817750584334e-05
0.00014537479728460312
0.00010319567081751302
7.760170410620049e-05
0.00013587089779321104
8.918116509448737e-05
0.00017624659813009202
0.000130844593513757
0.00014783201913814992
9.844671149039641e-05
0.00012530962703749537
9.072113607544452e-05
0.0001324696931988001
8.290055120596662e-05
0.0001429931726306677
7.796527643222362e-05
8.38619380374439e-05
7.26354555808939e-05
3.48282337654382e-05
6.859084533061832e-05
4.403972707223147e-05
0.00015801317931618541
0.00014235290291253477
9.799422696232796e-05
5.777861952083185e-05
0.00018866347090806812
3.7000314478063956e-05
0.00013106035476084799
6.822786235716194e-05
6.695497722830623e-05
0.00016540852084290236
0.00015287718269973993
0.0001756985002430156
6.796345405746251e-05
8.374860044568777e-05
0.0001163486740551889
0.00011046583676943555
0.00010408520756755024
0.0001600172254256904
9.464120375923812e-05
0.0001234878582181409
0.00019194124615751207
0.00010876374290091917
0.00010906012175837532
0.00018403005378786474
0.00031058877357281744
0.00014987362374085933
0.00015056892880238593
0.00013215921353548765
0.0001482179795857519
0.0001857775787357241
4.793488187715411e-05
7.313908281503245e-05
0.00012366462033241987
0.00015548113151453435
0.00015155208529904485
0.00013290591596160084
0.0001349267113255337
6.458228745032102e-05
7.57192392484285e-05
0.00012685987167060375
0.00015404005534946918
0.0001269581407541409
8.798270573606715e-05
0.00019047906971536577
0.00013910613779444247
