0.006623172201216221
0.0039284429512917995
0.005521209444850683
0.005814002826809883
0.004511277657002211
0.0047375173307955265
0.0037179403007030487
0.00458255922421813
0.005046073347330093
0.004578105639666319
0.005385627504438162
0.004747478757053614
0.004441073630005121
0.007437700871378183
0.00480402959510684
0.006262855604290962
0.006434171460568905
0.005550689995288849
0.00764132896438241
0.0063085355795919895
0.004624602850526571
0.0061501795426011086
0.003859790973365307
0.007277118507772684
0.0064917393028736115
0.003806655528023839
0.004846037365496159
0.007057573646306992
0.003587396815419197
0.00460364855825901
0.004142472520470619
0.00522628566250205
0.004702190402895212
0.004860797896981239
0.005421674344688654
0.004583002533763647
0.005982427857816219
0.003359537571668625
0.006087830755859613
0.005541480146348476
0.0046381824649870396
0.0036025866866111755
0.004600297659635544
0.010372567921876907
0.004821966867893934
0.0052037229761481285
0.004315539728850126
0.0050927274860441685
0.004581267014145851
0.006478262133896351
0.006590671371668577
0.005564976017922163
0.00433699507266283
0.0054884180426597595
0.006494008470326662
0.005619894713163376
0.0053211236372590065
0.005695826839655638
0.004817631095647812
0.005594531539827585
0.003706489223986864
0.0054030283354222775
0.0066786571405828
0.01139420922845602
0.005604596342891455
0.00494074821472168
0.003579014213755727
0.0054440852254629135
0.006991023663431406
0.006219572853296995
0.008403269574046135
0.0037251177709549665
0.004897852893918753
0.005068568047136068
0.012198453769087791
0.004597889259457588
0.005483051296323538
0.0058632222935557365
0.006558298598974943
0.005440175533294678
0.006040967535227537
0.007904861122369766
0.0051946379244327545
0.0063624014146625996
0.00547542842105031
0.0056835962459445
0.005847287829965353
0.005214581731706858
0.005195060279220343
0.009127236902713776
0.005171127617359161
0.004833890590816736
0.004546011798083782
0.004831330385059118
0.0061473846435546875
0.005717282183468342
0.004785314667969942
0.00638253428041935
0.005470587871968746
0.0032350134570151567
0.005004230421036482
0.005261135287582874
0.005735176615417004
0.0052423435263335705
0.005065071862190962
0.005290259141474962
0.003985464107245207
0.005381107330322266
0.005486337002366781
0.005674378946423531
0.006091022863984108
0.004481425508856773
0.005095156840980053
0.005780229810625315
0.006126265972852707
0.004939064383506775
0.005092472303658724
0.003374791704118252
0.004055378958582878
0.004776234272867441
0.004258793778717518
0.008363388478755951
0.004111389629542828
0.005116669926792383
0.005901651456952095
0.004297817591577768
0.00678951246663928
0.004983917810022831
0.00894251186400652
0.0038297194987535477
0.004858050029724836
0.0064113144762814045
0.005011772271245718
0.005673160310834646
0.005447084084153175
0.004948626738041639
0.00602528965100646
0.005373936612159014
0.005088706500828266
0.005084547214210033
0.00574392918497324
0.003750427858904004
0.0052255685441195965
0.005034549627453089
0.004648011177778244
0.0055717406794428825
0.0049287425354123116
0.005359094124287367
0.005598339252173901
0.00666832784190774
0.009394333697855473
0.004954418633133173
0.004514759406447411
0.005776612553745508
0.005994938779622316
0.004039963241666555
0.006242634262889624
0.003830659668892622
0.00638762628659606
0.006029567681252956
0.007516396697610617
0.004902638029307127
0.005033921450376511
0.00464691361412406
0.0045347874984145164
0.00536264618858695
0.004749672953039408
0.003794501069933176
0.005631610285490751
0.005488557741045952
0.004303956404328346
0.004616552498191595
0.005719814449548721
0.004277224186807871
0.004218817222863436
0.0062632132321596146
0.005849799606949091
0.004978802055120468
0.003911957144737244
0.006365273613482714
0.003531833877786994
0.004748644307255745
0.006170396693050861
0.005669237580150366
0.003863952588289976
0.004781454335898161
0.005449694115668535
0.006967141292989254
0.00478760153055191
0.005896524526178837
0.005294919479638338
0.005837295204401016
