0.0013192606857046485
0.0015111648244783282
0.002571628661826253
0.0015793578932061791
0.002116777701303363
0.001256279763765633
0.001719908439554274
0.0012025507166981697
0.0013271789066493511
0.001324803801253438
0.0015207864344120026
0.0013130521401762962
0.002146824961528182
0.001280897413380444
0.0019349973881617188
0.001563984202221036
0.0019960396457463503
0.000862726999912411
0.0021753443870693445
0.001910183927975595
0.0015768114244565368
0.0013020330807194114
0.0009282510145567358
0.002036922611296177
0.0016376512357965112
0.0013070737477391958
0.002293398603796959
0.0016150054289028049
0.0020874913316220045
0.0017017028294503689
0.00243098265491426
0.0019332616357132792
0.0012543626362457871
0.001405708841048181
0.0010450789704918861
0.0016047058161348104
0.0020094735082238913
0.0012630069395527244
0.003362631658092141
0.0013141059316694736
0.0013619624078273773
0.0015099080046638846
0.0013594109332188964
0.0015006581088528037
0.0024896205868571997
0.002544260350987315
0.0015476865228265524
0.001181553234346211
0.0013665793230757117
0.001481682644225657
0.0014763391809538007
0.0013900818303227425
0.0019421776523813605
0.0012067212956026196
0.0018696592887863517
0.0009873360395431519
0.004622448701411486
0.002406815066933632
0.0017109025502577424
0.0018412641948089004
0.0013067576801404357
0.0011589701753109694
0.0033327711280435324
0.001944957533851266
0.0009635358001105487
0.0016062839422374964
0.0012682242086157203
0.0016014130087569356
0.0011505503207445145
0.001222682185471058
0.0015327909495681524
0.0013268167385831475
0.0015928667271509767
0.0014416080666705966
0.0018403336871415377
0.0016842986224219203
0.0012984046479687095
0.0019879494793713093
0.003310913685709238
0.0012626118259504437
0.001643242547288537
0.0015896866098046303
0.0014251908287405968
0.0017626123735681176
0.0011543621076270938
0.0017612025840207934
0.0024912895169109106
0.0014944575959816575
0.0008291083504445851
0.0017920414684340358
0.003396586049348116
0.00204869476146996
0.00159201689530164
0.002489799400791526
0.0012660111533477902
0.0016008352395147085
0.00212214351631701
0.001306076068431139
0.0011455296771600842
0.0012449081987142563
0.002005821792408824
0.00139386928640306
0.0013103309320285916
0.0009715122287161648
0.00124841567594558
0.0014363977825269103
0.0012862663716077805
0.0013071468565613031
0.0010769205400720239
0.002101162215694785
0.00389260146766901
0.0011407457059249282
0.0012228587875142694
0.0015005728928372264
0.0019778343848884106
0.0012432063231244683
0.0021493106614798307
0.0017003626562654972
0.0011346322717145085
0.0012492898385971785
0.0013155624037608504
0.0017935215728357434
0.0012204977683722973
0.0011386252008378506
0.0016673080390319228
0.0009480136795900762
0.0012629406992346048
0.001606689882464707
0.002090887166559696
0.002592502161860466
0.0014312787679955363
0.0018906011246144772
0.0014804265229031444
0.0012974996352568269
0.0013841883046552539
0.0017237660940736532
0.003953839186578989
0.001231767819263041
0.0012515273410826921
0.0013568953145295382
0.0015709862345829606
0.001528399996459484
0.0031018296722322702
0.002833462553098798
0.0012750941095873713
0.0020100120455026627
0.0015801300760358572
0.001190769486129284
0.0011873990297317505
0.001923069590702653
0.001246199943125248
0.0016600539674982429
0.0014459537342190742
0.0015736607601866126
0.002239688066765666
0.003797690849751234
0.0011743518989533186
0.001903797616250813
0.0010638649109750986
0.0013505760580301285
0.0016327481716871262
0.0010232973145321012
0.001356544904410839
0.002444207901135087
0.0018270584987476468
0.0025310656055808067
0.0025360954459756613
0.0013351775705814362
0.0014722550986334682
0.0016879509203135967
0.0029342258349061012
0.0019934759475290775
0.0012309509329497814
0.0018052527448162436
0.0014588978374376893
0.0012639970518648624
0.0010352995013818145
0.0016896856250241399
0.0015592864947393537
0.002547492505982518
0.0014638886786997318
0.0008682302432134748
0.0015425813617184758
0.0015510692028328776
0.002013293793424964
0.0010687526082620025
0.0010452981805428863
0.0015986550133675337
0.0015262585366144776
0.0028396009001880884
0.0015498739667236805
0.001631448743864894
0.0015793845523148775
0.0015577782178297639
0.0012866486795246601
0.00097373389871791
0.0015049801440909505
0.001705532195046544
0.002097031334415078
0.0021696160547435284
0.001160636660642922
0.0016191453905776143
0.0019844400230795145
0.001103212940506637
0.002023932058364153
0.001310836523771286
0.0017861934611573815
0.0013918461045250297
0.0014429198345169425
0.0012161355698481202
0.002030517440289259
0.0016049831174314022
0.0012461263686418533
0.0011359467171132565
0.0010238304967060685
0.0014490660978481174
0.0016284578014165163
0.0012696385383605957
0.0019120966317132115
0.0016495122108608484
0.0021023638546466827
0.0015929370420053601
0.0014040005626156926
0.0011242697946727276
0.0027903863228857517
0.0014083944261074066
0.0018821428529918194
0.0020907071884721518
0.0016112875891849399
0.0015447139739990234
0.0014820436481386423
0.0015125783393159509
0.0019346998305991292
0.0009481647866778076
0.0015172199346125126
0.0010198847157880664
0.0028441771864891052
0.0016113324090838432
0.0017893539043143392
0.002164528938010335
0.0029640549328178167
0.0011896146461367607
0.001194199314340949
0.001376225263811648
0.0009399667615070939
0.002035177545621991
0.0015770714962854981
0.0018601856427267194
0.0012044159229844809
0.002099944045767188
0.0013977813068777323
0.001379180932417512
0.0011486561270430684
0.001518083969131112
0.001210518879815936
0.0019272948848083615
0.002115070354193449
0.0015524328919127584
0.0016501516802236438
0.0012566660298034549
0.0014952842611819506
0.001594717614352703
0.0022175684571266174
0.0014926653821021318
0.0026324675418436527
0.0014653443358838558
0.0010581358801573515
0.0014219119912013412
0.0016785397892817855
0.0018858440453186631
0.0014065258437767625
0.0013505471870303154
0.002396136289462447
0.0017072453629225492
0.0017247500363737345
0.0016505299136042595
0.0015385790029540658
0.0017635198310017586
0.0013476017629727721
0.0018346809083595872
0.0023295124992728233
0.0012605533702298999
0.0018785697175189853
0.0038297479040920734
0.0018183768261224031
0.0019152236636728048
0.0015788020100444555
0.0013180382084101439
0.003323852550238371
0.0016300480347126722
0.0014700769679620862
0.001941169728524983
0.001718328450806439
0.0015893022064119577
0.0021503339521586895
0.0018840349512174726
0.0013800655724480748
0.0010288971243426204
0.0012201262870803475
0.0014440992381423712
0.0010860675247386098
0.0011410376755520701
0.0027871811762452126
0.0017128611216321588
0.000917116878554225
0.001358540146611631
0.0020269996020942926
0.0009406311437487602
0.0012114163255319
0.0017773255240172148
0.0016203837003558874
0.0019046596717089415
0.0017772811697795987
0.0015404626028612256
0.0015789171447977424
0.0032882224768400192
0.0013150882441550493
0.0012475847033783793
0.0016269844491034746
0.0011542815482243896
0.0016761694569140673
0.0017142825527116656
0.0009272476891055703
0.0017069268506020308
0.001834376947954297
0.0013999008806422353
0.0018196150194853544
0.0013094419846311212
0.0013876017183065414
0.000807314005214721
0.0011807639384642243
0.0019101582001894712
0.0014418219216167927
0.0022376771084964275
0.002023278037086129
0.0016721158754080534
0.002122896257787943
0.002256219508126378
0.0012219853233546019
0.0016802948666736484
0.0021806550212204456
0.0013869873946532607
0.0013665157603099942
0.0017019364750012755
0.0011186014162376523
0.0018013701774179935
0.0012026256881654263
0.001556874020025134
0.0017747752135619521
0.0017676431452855468
0.0015066774794831872
0.0022232213523238897
0.0015445621684193611
0.0010695647215470672
0.0013289133785292506
0.0014259991003200412
0.002217656234279275
0.0018812855705618858
0.0016398041043430567
0.0016775691183283925
0.0010665006702765822
0.0013275609817355871
0.0019301993306726217
0.0014422484673559666
0.001819344237446785
0.0016175208147615194
0.001494835945777595
0.0017966872546821833
0.001473653712309897
0.000993536552414298
0.0015268463175743818
0.0012731699971482158
0.002266957424581051
0.001233175746165216
0.0014610171783715487
0.0014269662788137794
0.003123451955616474
0.002060488099232316
0.0012684771791100502
0.0016391933895647526
0.000747260928619653
0.0010681258281692863
0.0010549360886216164
0.0015234071761369705
0.001837605144828558
0.0018700958462432027
0.0012990225804969668
0.0011564294109120965
0.0014471517642959952
0.0011097629321739078
0.0021407927852123976
0.0009818196995183825
0.0012430346105247736
0.0016058670589700341
0.002456183545291424
0.002100994111970067
0.0011063473066315055
0.0017004292458295822
0.0016861343756318092
0.001979145687073469
0.0013888196554034948
0.0015490384539589286
0.0013754194369539618
0.001938195782713592
0.0012182919308543205
0.0015411658678203821
0.0019466731464490294
0.0017757931491360068
0.0012388948816806078
0.0015796194784343243
0.0010522597003728151
0.0016606783028692007
0.0018314736662432551
0.0016721219290047884
0.0024492070078849792
0.0022988412529230118
0.0013797541614621878
0.0019575285259634256
0.0018178801983594894
0.0014651621459051967
0.0008725767838768661
0.0013201456749811769
0.001659739762544632
0.0012838962720707059
0.0019248493481427431
0.001549371867440641
0.0032451662700623274
0.001099039800465107
0.0017777043394744396
0.0015463604358956218
0.0015994592104107141
0.0020349938422441483
0.00117813132237643
0.0019211556063964963
0.0026993420906364918
0.0012917857384309173
0.001241652062162757
0.002088763751089573
0.0019262019777670503
0.0016946946270763874
0.001953321509063244
0.002212694613263011
0.003046035533770919
0.001923976233229041
0.0015127355000004172
0.0009910857770591974
0.0016152443131431937
0.0014570628991350532
0.0032003249507397413
0.001590266008861363
0.0014200963778421283
0.0016673089703544974
0.0012503131292760372
0.0014530078042298555
0.001960939262062311
0.0014817857882007957
0.0014729979448020458
0.0011139082489535213
0.0017604492604732513
0.001453832839615643
0.0009179681073874235
0.001506446860730648
0.0019623746629804373
0.0014942727284505963
0.0018311063759028912
0.0008967009489424527
0.0019609963055700064
0.0017593690427020192
0.0012006663018837571
0.0023365910165011883
0.0010800829622894526
0.0015571844996884465
0.0009569156682118773
0.002383338985964656
0.0017433569300919771
0.0018762456020340323
0.002593807177618146
0.00165516696870327
0.0015662810765206814
0.0011168458731845021
0.002199325477704406
0.0010718912817537785
0.0008895124192349613
0.0016758913407102227
0.0016965490067377687
0.0013493041042238474
0.0013666420709341764
0.0011562355794012547
0.001566446153447032
0.0022403367329388857
0.001565384678542614
0.0012606980744749308
0.001866583013907075
0.0016702677821740508
0.0018451967043802142
0.0015101619064807892
0.001684448099695146
0.0013141343370079994
0.0019065375672653317
0.0015634990995749831
0.0011493896599859
0.0018515894189476967
0.0013738236157223582
0.0019196498906239867
0.001596134272404015
0.0011225175112485886
0.002356440294533968
0.0017528374446555972
0.0013536441838368773
0.0018329786835238338
0.0014452673494815826
0.0017623455496504903
0.0013455167645588517
0.001502001192420721
0.0011909723980352283
0.001262857229448855
0.001557959825731814
0.0012968670343980193
0.0014903537230566144
0.002887285780161619
0.0031109072733670473
0.0012878092238679528
0.001820080797187984
0.0010029703844338655
0.0014817966148257256
0.0016833405243232846
0.0016000547911971807
0.002146841259673238
0.0013072947040200233
0.002318189712241292
0.001881991047412157
0.0014939280226826668
0.0016850881511345506
0.0013235585065558553
0.0012869167840108275
0.002082852879539132
0.001868937979452312
0.001433603698387742
0.001947210868820548
0.0017645936459302902
0.0017922467086464167
0.0013516036560758948
0.0009086878271773458
0.0011954245856031775
0.0016004061326384544
0.0014108306495472789
0.001198632293380797
0.0013827396323904395
0.002332640578970313
0.0014994698576629162
0.0025976933538913727
0.0014573488151654601
0.0016589595470577478
0.002475197659805417
0.002401891862973571
0.0013499351916834712
0.0014250378590077162
0.0029282416217029095
0.001327509293332696
0.001103367772884667
0.0017583898734301329
0.0019767777994275093
0.002508481265977025
0.0012819645926356316
0.0015830427873879671
0.0038762581534683704
0.002652613213285804
0.0011324272491037846
0.0022759956773370504
0.0012360488763079047
0.0017430078005418181
0.0013868215028196573
0.0014740917831659317
0.0028351338114589453
0.0016198933590203524
0.001075530075468123
0.0014731015544384718
0.0016066526295617223
0.0015600025653839111
0.0014464538544416428
0.0014827025588601828
0.0020515068899840117
0.0013084181118756533
0.0014778055483475327
0.0010309349745512009
0.0013063302030786872
0.0011019178200513124
0.002061034319922328
0.0018900653813034296
0.000960569188464433
0.001392522593960166
0.0015403470024466515
0.0016381273744627833
0.0012368696043267846
0.0017192303203046322
0.0012465264881029725
0.002637614030390978
0.001201981445774436
0.0015320900129154325
0.0018573645502328873
0.0014756809687241912
0.002183218253776431
0.0014618951827287674
0.0018692279700189829
0.0020718921441584826
0.0015151728875935078
0.0014845009427517653
0.0012735346099361777
0.0018914116080850363
0.0013503596419468522
0.001336459070444107
0.0014558489201590419
0.0016921462956815958
0.0023997121024876833
0.0021927033085376024
0.0022519577760249376
0.0011176331900060177
0.0011193250538781285
0.0024319819640368223
0.0010683642467483878
0.0012966429349035025
0.0017776574240997434
0.0015761589165776968
0.0020219520665705204
0.0012797247618436813
0.0012200913624837995
0.0018450175411999226
0.0009520696476101875
0.0010259978007525206
0.0020181271247565746
0.002335283672437072
0.001282076700590551
0.0009786536684259772
0.002012623008340597
0.001114351092837751
0.001581159420311451
0.0015212763100862503
0.0016694332007318735
0.0011179352877661586
0.0020486924331635237
0.0019768555648624897
0.00267556170001626
0.0017180577851831913
0.001262332429178059
0.0012517711147665977
0.0012237378396093845
0.0013045152882114053
0.002009687013924122
0.0013081217184662819
0.0021138801239430904
0.0012972948607057333
0.0014695891877636313
0.0025819719303399324
0.0014731260016560555
0.0016813732217997313
0.0012550062965601683
0.0012916716514155269
0.001401180517859757
0.0017225034534931183
0.0017869094153866172
0.0019884221255779266
0.001887134276330471
0.0016947584226727486
0.001468326081521809
0.0011444544652476907
0.001613506581634283
0.001544930855743587
0.0015304184053093195
0.001310128951445222
0.0017353167058899999
0.0011772194411605597
0.002256026491522789
0.0007687192992307246
0.001463247463107109
0.0014393710298463702
0.0011679469607770443
0.0012979828752577305
0.0016284731682389975
0.0018801389960572124
0.0012227699626237154
0.001279314048588276
0.001606862642802298
0.0014165680622681975
0.0019334038952365518
0.0013833288103342056
0.001868378953076899
0.0012557178270071745
0.0018564658239483833
0.0013189041055738926
0.0012964773923158646
0.0019414933631196618
0.0014451873721554875
0.0016095583559945226
0.0014919781824573874
0.0010051187127828598
0.001056818407960236
0.0024143250193446875
0.0008097816607914865
0.0019470072584226727
0.0006819652626290917
0.002940885256975889
0.0017528661992400885
0.0014431183226406574
0.001106972573325038
0.0012918486027047038
0.0022652691695839167
0.0012150461552664638
0.0008499600808136165
0.0020060355309396982
0.002249582437798381
0.0009291984024457633
0.0020691105164587498
0.0013626409927383065
0.002487713238224387
0.0008247144287452102
0.001389984623529017
0.0014982660068199039
0.0017099111573770642
0.0017119112890213728
0.001348012243397534
0.0012569125974550843
0.0014654090628027916
0.0010715187527239323
0.0015806944575160742
0.0029417816549539566
0.0016747682821005583
0.0013646347215399146
0.0014129411429166794
0.0016855676658451557
0.0017444225959479809
0.0014627467608079314
0.0020492777694016695
0.0017823416274040937
0.0014460865641012788
0.00167528772726655
0.001243683393113315
0.0009379782131873071
0.001356960623525083
0.0012162174098193645
0.0016470645787194371
0.0011171443620696664
0.0018931630766019225
0.0020568096078932285
0.0026217165868729353
0.0014617933193221688
0.0025555663742125034
0.0013120141811668873
0.00140014523640275
0.0019302649889141321
0.0018604000797495246
0.0017229034565389156
0.0011304221116006374
0.0014711988624185324
0.0015595735749229789
0.001049567712470889
0.0012766391737386584
0.0012396005913615227
0.0009463675669394433
0.0011354198213666677
0.0016549269203096628
0.0011135726235806942
0.0019913623109459877
0.0030955655965954065
0.0015105936909094453
0.0013172649778425694
0.0017548894975334406
0.0008101510466076434
0.0013662194833159447
0.0010419160826131701
0.0009398101246915758
0.0025489875115454197
0.0028306711465120316
0.001258435775525868
0.0017254777485504746
0.0012455014511942863
0.0017702265176922083
0.0010746134212240577
0.001615668530575931
0.0012762427795678377
0.0011483929120004177
0.0021856699604541063
0.0013908535474911332
0.001312258536927402
0.0012356620281934738
0.0012946550268679857
0.0009580120677128434
0.001581375952810049
0.001229354296810925
0.0014210869558155537
0.002315915422514081
0.0013872471172362566
0.0016932188300415874
0.0011667093494907022
0.0027706080581992865
0.0023266365751624107
0.0018811406334862113
0.0019038828322663903
0.0011061145924031734
0.001489227288402617
0.0013339499710127711
0.0017165577737614512
0.002340882085263729
0.0011469656601548195
0.001313063083216548
0.002144833095371723
0.0008536570821888745
0.0014564045704901218
0.0016543715028092265
0.001156379352323711
0.0012157736346125603
0.0017811141442507505
0.0016464900691062212
0.0009838551050052047
0.0017985486192628741
0.0014056374784559011
0.0012885673204436898
0.0017123774159699678
0.0014477153308689594
0.0010950310388579965
0.0028269458562135696
0.001870719832368195
0.002238749759271741
0.0010083180386573076
0.001407478703185916
0.002079942263662815
0.0017165408935397863
0.0016994406469166279
0.001287617371417582
0.0014447272988036275
0.001130691496655345
0.0028846319764852524
0.0016116040060296655
0.001323179923929274
0.0010687749600037932
0.0028990688733756542
0.0014668864896520972
0.001749299350194633
0.0010415727738291025
0.0014007248682901263
0.0014709882671013474
0.0013493545120581985
0.0023694990668445826
0.0016930692363530397
0.001779657555744052
0.0016202885890379548
0.0009743308764882386
0.0016288544284179807
0.000845481117721647
0.0014666547067463398
0.0010465258965268731
0.0018670004792511463
0.0023434129543602467
0.0014175641117617488
0.001260013086721301
0.0015395316295325756
0.001597695634700358
0.0016644357237964869
0.0010791642125695944
0.0014561729039996862
0.0033186767250299454
0.001871019136160612
0.001041532726958394
0.0016916242893785238
0.0011903414269909263
0.0010324822505936027
0.0014513880014419556
0.001314306864514947
0.0011316293384879827
0.0007972167222760618
0.0010821064934134483
0.001051481463946402
0.0011692652478814125
0.001172581221908331
0.001476457342505455
0.0015323380939662457
0.0010396980214864016
0.0019688555039465427
0.0012189639965072274
0.0014909568708389997
0.0011768845142796636
0.0017550926422700286
0.0015962283359840512
0.002866857685148716
0.002181263407692313
0.0015982243930920959
0.001226093154400587
0.0019515854073688388
0.0023318310268223286
0.0019140507793053985
0.0015136725269258022
0.0011547886533662677
0.001956384629011154
0.002299126237630844
0.001841043820604682
0.0022957262117415667
0.0012317001819610596
0.0021599619649350643
0.0013211279874667525
0.0015214817831292748
0.0012221161741763353
0.0016802400350570679
0.0016240292461588979
0.0014490151079371572
0.0011714035645127296
0.0013097088085487485
0.002381386933848262
0.00099484296515584
0.001639068592339754
0.0012318718945607543
0.0015939949080348015
0.0012019991409033537
0.001380682224407792
0.001379719004034996
0.0011576906545087695
0.0011510394979268312
0.002635751385241747
0.0021220932248979807
0.0016518072225153446
0.0014102434506639838
0.0017936936346814036
0.0010757842101156712
0.0016557773342356086
0.0016123163513839245
0.001073201885446906
0.0013080131029710174
0.0017982346471399069
0.0019513001898303628
0.0012428981717675924
0.0013386313803493977
0.0018815231742337346
0.0017801382346078753
0.002249544020742178
0.0012340530520305037
0.001229149173013866
0.0013284687884151936
0.00153961475007236
0.0011591097572818398
0.0012880926951766014
0.0024147017393261194
0.0035384264774620533
0.0025193276815116405
0.0015686374390497804
0.0022157023195177317
0.0013290996430441737
0.0012174532748758793
0.0008875872008502483
0.0029508911538869143
0.0012109329691156745
0.0017170856008306146
0.001490084920078516
0.0019628298468887806
0.0012515553971752524
0.0010525512043386698
0.002019946463406086
0.0015524151967838407
0.0017110251355916262
0.002730397507548332
0.0015608042012900114
0.0018930173246189952
0.0017208958743140101
0.0016554876929149032
0.0022482937201857567
0.0022338395938277245
0.003058795118704438
0.001063208794221282
0.0025071855634450912
0.0013838461600244045
0.001317349262535572
0.0010177571093663573
0.0012950870441272855
0.0013780288863927126
0.0022979152854532003
0.0011686076177284122
0.0015540883177891374
0.0012676456244662404
0.001541422912850976
0.0007670274353586137
0.001423363108187914
0.002192010870203376
0.0017689630622044206
0.0009293437469750643
0.0014460397651419044
0.0008225898491218686
0.003448554314672947
0.001541218371130526
0.0011565220775082707
0.0014469148591160774
0.0017210107762366533
0.0012471380177885294
0.001602339674718678
0.0013463943032547832
0.0019168445141986012
0.001599236624315381
0.0012359707616269588
0.001702976180240512
0.0011941521661356091
0.0016481257043778896
0.0013725922908633947
0.0013769190991297364
0.0014310915721580386
0.0013245686423033476
0.0011234425473958254
0.001571366097778082
0.0014559713890776038
0.0015708344290032983
0.0014859006041660905
0.001595421344973147
0.0015295152552425861
0.0037251231260597706
0.0009600839694030583
0.0023817108012735844
0.001231132191605866
0.0012495398987084627
0.0024069324135780334
0.0012399728875607252
0.0017410744912922382
0.001803330727852881
0.0012998075690120459
0.0008353929733857512
0.001263559446670115
0.0014759581536054611
0.0013989704893901944
0.0029289701487869024
0.0018647662363946438
0.0014934759819880128
0.0012856939574703574
0.0031479662284255028
0.001468175440095365
0.0015615500742569566
0.00141466676723212
0.0012703720713034272
0.0019092500442638993
0.001172361196950078
0.002155081834644079
0.0013242303393781185
0.002030888805165887
0.0020718586165457964
0.00305488845333457
0.0010959646897390485
0.0012269276194274426
0.000949464738368988
0.001584723824635148
0.0011194383259862661
0.001901770243421197
0.0020672783721238375
0.0012931936653330922
0.003861690405756235
0.0014821570366621017
0.0014276928268373013
0.0018944388721138239
0.0014809552812948823
0.0011923788115382195
0.0023261760361492634
0.00197545625269413
0.0016235928051173687
0.0009394288063049316
0.002448414685204625
0.0008214185363613069
0.0013741019647568464
0.0026821461506187916
0.002160424366593361
0.0016574301989749074
0.001531741232611239
0.0016599191585555673
0.0015017479890957475
0.001217378186993301
0.0012863022275269032
0.0021224457304924726
0.001155527075752616
0.0018596311565488577
0.004099479876458645
0.0014508840395137668
0.0014785992680117488
0.001905544544570148
0.001649793004617095
0.001517333323135972
0.0011337915202602744
0.00169001251924783
0.001740962266921997
0.0014585726894438267
0.002075290074571967
0.0028485150542110205
0.0013054675655439496
0.001305068377405405
0.001294897636398673
0.001475422061048448
0.0016397411236539483
0.001464443514123559
0.0015621065394952893
0.0010937884217128158
0.0019866630900651217
0.0012429091148078442
0.0031976718455553055
0.001400974579155445
0.001159651088528335
0.0011942981509491801
0.0014328054385259748
0.0023407083936035633
0.0020149925258010626
0.0013318718411028385
0.0017271300312131643
0.0015851580537855625
0.0012281762901693583
0.0015178058529272676
0.002748191822320223
0.0012149115791544318
0.0015430364292114973
0.00196076394058764
0.0017771723214536905
0.0016546540427953005
0.001974774757400155
0.0019425395876169205
0.0011046102736145258
0.0011654505506157875
0.0014526539016515017
0.0012686086120083928
0.0019152266904711723
0.0011906924191862345
0.0016213837079703808
0.00108016945887357
0.0009343352867290378
0.0015270980075001717
0.0016253626672551036
0.0023770274128764868
0.001884547178633511
0.002480483613908291
0.0015437825350090861
0.002450514817610383
0.0019266706658527255
0.0021998730953782797
0.0016155462944880128
0.0022444690112024546
0.001652589882723987
0.0024264578241854906
0.001149980933405459
0.001083539566025138
0.0012041082372888923
0.0012243008241057396
0.001363542047329247
0.001933183753862977
0.0012009087949991226
0.0028059978503733873
0.0033434098586440086
0.001250205677933991
0.001547608058899641
0.0009976798901334405
0.0031076676677912474
0.001679449575021863
0.002811557613313198
0.001812231494113803
0.0022215971257537603
0.001903557451441884
