0.0045795198529958725
0.0032649890054017305
0.003936138469725847
0.0022736017126590014
0.003196989418938756
0.0025302644353359938
0.00440961541607976
0.002904878230765462
0.0020544843282550573
0.0032661431469023228
0.0019916053861379623
0.0027465769089758396
0.003985266201198101
0.0024376411456614733
0.002746103098616004
0.004236435052007437
0.0025997809134423733
0.004074343480169773
0.00297367456369102
0.004717420320957899
0.0019396129064261913
0.002924826228991151
0.0033545158803462982
0.0038973065093159676
0.0030173207633197308
0.0036250136326998472
0.004295981954783201
0.0031565793324261904
0.004574292339384556
0.0021819809917360544
0.0020042925607413054
0.002745258156210184
0.0022956293541938066
0.00281771132722497
0.0018186453962698579
0.0028247288428246975
0.003201800398528576
0.002792570274323225
0.0034875129349529743
0.0023446776904165745
0.003079518908634782
0.0025523037184029818
0.0028412032406777143
0.0028427131474018097
0.003142968285828829
0.0022329548373818398
0.0037638465873897076
0.004343877080827951
