0.00025288175675086677
0.00018029318016488105
0.00021735415793955326
0.00012554862769320607
0.00017653823306318372
0.0001397215819451958
0.00024349962768610567
0.000160407813382335
0.00011344892845954746
0.0001803569175535813
0.00010997674689861014
0.00015166639059316367
0.00022006699873600155
0.00013460690388455987
0.00015164022624958307
0.00023393657465931028
0.0001435602898709476
0.00022498585167340934
0.00016420675092376769
0.0002604966575745493
0.00010710571223171428
0.00016150933515746146
0.00018523687322158366
0.00021520984591916203
0.00016661689733155072
0.00020017378847114742
0.00023722476908005774
0.00017430678417440504
0.0002525931049603969
0.00012048931967001408
0.00011067733430536464
0.00015159357280936092
0.0001267649931833148
0.00015559444727841765
0.0001004258738248609
0.00015598195022903383
0.0001768038928275928
0.00015420615090988576
0.00019258099200669676
0.00012947345385327935
0.00017005149857141078
0.00014093858771957457
0.00015689166320953518
0.00015697504568379372
0.0001735551777528599
0.00012330409663263708
0.00020784017397090793
0.00023986953601706773
