5.953340223641135e-05
6.819333066232502e-05
0.00011604818428168073
7.127063872758299e-05
9.552242408972234e-05
5.669130405294709e-05
7.761317101540044e-05
5.4266711231321096e-05
5.9890724514843896e-05
5.978354238322936e-05
6.862752343295142e-05
5.92532342125196e-05
9.687834972282872e-05
5.7802208175417036e-05
8.731934212846681e-05
7.05768761690706e-05
9.007396147353575e-05
3.893171015079133e-05
9.81653283815831e-05
8.619960135547444e-05
7.115572225302458e-05
5.8755984355229884e-05
4.18885683757253e-05
9.191886056214571e-05
7.39012029953301e-05
5.89834526181221e-05
0.0001034926826832816
7.28792801965028e-05
9.42008409765549e-05
7.679161353735253e-05
0.00010970134462695569
8.724101644475013e-05
5.660479291691445e-05
6.343449058476835e-05
4.716058538178913e-05
7.241449930006638e-05
9.068017971003428e-05
5.6994878832483664e-05
0.0001517432538093999
5.93007862335071e-05
6.146037776488811e-05
6.813662184868008e-05
6.134523573564366e-05
6.771920743631199e-05
0.0001123474576161243
0.00011481314868433401
6.984142237342894e-05
5.33191705471836e-05
6.166871753521264e-05
6.686291453661397e-05
6.662178202532232e-05
6.27293047728017e-05
8.764336234889925e-05
5.4454911150969565e-05
8.437087672064081e-05
4.4554857595358044e-05
0.00020859418145846575
0.00010861075134016573
7.720676512690261e-05
8.308950782520697e-05
5.8969188103219494e-05
5.230007809586823e-05
0.00015039576101116836
8.776880713412538e-05
4.348084257799201e-05
7.24857090972364e-05
5.723031426896341e-05
7.226590241771191e-05
5.1920123951276764e-05
5.5175169109134004e-05
6.916924030520022e-05
5.987437907606363e-05
7.188024028437212e-05
6.505448982352391e-05
8.304751827381551e-05
7.600622484460473e-05
5.85922462050803e-05
8.970887574832886e-05
0.0001494094030931592
5.697704909835011e-05
7.415351865347475e-05
7.173673657234758e-05
6.431364454329014e-05
7.954023749334738e-05
5.2092134865233675e-05
7.947662379592657e-05
0.00011242277105338871
6.743939593434334e-05
3.741462205653079e-05
8.086826710496098e-05
0.00015327548317145556
9.245009277947247e-05
7.184188871178776e-05
0.00011235552665311843
5.713044811272994e-05
7.22398326615803e-05
9.576456795912236e-05
5.8938428992405534e-05
5.1693557907128707e-05
5.617814895231277e-05
9.051539382198825e-05
6.290021701715887e-05
5.913043423788622e-05
4.384078783914447e-05
5.633642649627291e-05
6.481937452917919e-05
5.804449028801173e-05
5.8986748626921326e-05
4.8597481509204954e-05
9.481775487074628e-05
0.0001756588462740183
5.147767660673708e-05
5.518313992070034e-05
6.771535845473409e-05
8.925241854740307e-05
5.6101347581716254e-05
9.699051588540897e-05
7.673113577766344e-05
5.120179775985889e-05
5.637587673845701e-05
5.936651359661482e-05
8.093506039585918e-05
5.5076594435377046e-05
5.1381986850174144e-05
7.523950625909492e-05
4.278038613847457e-05
5.6991888413904235e-05
7.250402995850891e-05
9.435407991986722e-05
0.00011699012975441292
6.458837015088648e-05
8.531590719940141e-05
6.680622755084187e-05
5.855140625499189e-05
6.246334669413045e-05
7.778724830131978e-05
0.0001784222840797156
5.558516932069324e-05
5.647684520226903e-05
6.123171624494717e-05
7.089285645633936e-05
6.897109415149316e-05
0.00013997421774547547
0.00012786379375029355
5.754032827098854e-05
9.070448140846565e-05
7.130548328859732e-05
5.373506428441033e-05
5.358296766644344e-05
8.678108861204237e-05
5.62364402867388e-05
7.49121536500752e-05
6.5250598709099e-05
7.101355004124343e-05
0.00010106892295880243
0.00017137588292825967
5.299420081428252e-05
8.591141522629187e-05
4.800832539331168e-05
6.0946549638174474e-05
7.367994840024039e-05
4.6177661715773866e-05
6.121590558905154e-05
0.00011029814777430147
8.244845957960933e-05
0.00011421772069297731
0.00011444470146670938
6.0251673858147115e-05
6.643748201895505e-05
7.617103983648121e-05
0.0001324108598055318
8.995826647151262e-05
5.554830568144098e-05
8.146444451995194e-05
6.583471986232325e-05
5.703955685021356e-05
4.671927308663726e-05
7.624932186445221e-05
7.036489114398137e-05
0.00011495900980662555
6.605993257835507e-05
3.9180049498099834e-05
6.961104372749105e-05
6.999407196417451e-05
9.085257624974474e-05
4.822889241040684e-05
4.7170477046165615e-05
7.21414471627213e-05
6.887445488246158e-05
0.00012814078945666552
6.994013529038057e-05
7.362130418187007e-05
7.127183926058933e-05
7.029682456050068e-05
5.806174158351496e-05
4.39410432591103e-05
6.791423948016018e-05
7.6964424806647e-05
9.46313448366709e-05
9.790682815946639e-05
5.237528239376843e-05
7.306610496016219e-05
8.955050725489855e-05
4.9783961003413424e-05
9.133264393312857e-05
5.91532516409643e-05
8.060436812229455e-05
6.280891830101609e-05
6.51136870146729e-05
5.4879743402125314e-05
9.162981586996466e-05
7.242700667120516e-05
5.623311881208792e-05
5.126111500430852e-05
4.620171966962516e-05
6.539104651892558e-05
7.348633516812697e-05
5.729413896915503e-05
8.62859160406515e-05
7.443644426530227e-05
9.48719825828448e-05
7.18834126018919e-05
6.335740181384608e-05
5.073417923995294e-05
0.00012591991981025785
6.35556789347902e-05
8.493421046296135e-05
9.434595995116979e-05
7.271151116583496e-05
6.970728281885386e-05
6.687920540571213e-05
6.825711898272857e-05
8.730591798666865e-05
4.278720371075906e-05
6.846657925052568e-05
4.6023662434890866e-05
0.00012834729568567127
7.271352660609409e-05
8.074699144344777e-05
9.767726442078128e-05
0.0001337569410679862
5.3682953875977546e-05
5.3889842092758045e-05
6.210400897543877e-05
4.24172576458659e-05
9.184010559692979e-05
7.116745837265626e-05
8.394336327910423e-05
5.435087950900197e-05
9.476278501097113e-05
6.30767535767518e-05
6.223738455446437e-05
5.183464236324653e-05
6.850557110738009e-05
5.462628178065643e-05
8.697176235727966e-05
9.544537897454575e-05
7.005561201367527e-05
7.446530071320012e-05
5.670873724739067e-05
6.747669976903126e-05
7.196376827778295e-05
0.00010007074160967022
6.735852366546169e-05
0.00011879362136824057
6.612561992369592e-05
4.7749796067364514e-05
6.41656806692481e-05
7.574635674245656e-05
8.510123734595254e-05
6.347135786199942e-05
6.0945247241761535e-05
0.00010812885739142075
7.70417318562977e-05
7.783165347063914e-05
7.4482370109763e-05
6.943043263163418e-05
7.958119385875762e-05
6.081233368604444e-05
8.279243047581986e-05
0.00010512236622162163
5.688415694748983e-05
8.477296796627343e-05
0.00017282250337302685
8.205668564187363e-05
8.642702596262097e-05
7.124555122572929e-05
5.947823592578061e-05
0.00014999329869169742
7.355809793807566e-05
6.633919110754505e-05
8.759788033785298e-05
7.754186663078144e-05
7.171939068939537e-05
9.703669638838619e-05
8.501959382556379e-05
6.22773077338934e-05
4.643035936169326e-05
5.505983062903397e-05
6.516691064462066e-05
4.901025022263639e-05
5.1490849727997556e-05
0.00012577527377288789
7.72951461840421e-05
4.138612712267786e-05
6.130593828856945e-05
9.14710690267384e-05
4.2447238229215145e-05
5.466678339871578e-05
8.020419045351446e-05
7.312198431463912e-05
8.595031249569729e-05
8.020218956517056e-05
6.951543764444068e-05
7.125074625946581e-05
0.00014838544302619994
5.934511500527151e-05
5.629892984870821e-05
7.341984746744856e-05
5.208850052440539e-05
7.563938561361283e-05
7.735929102636874e-05
4.184329372947104e-05
7.702735456405208e-05
8.277871529571712e-05
6.317240331554785e-05
8.211256499635056e-05
5.909032188355923e-05
6.261738599278033e-05
3.6431123589864e-05
5.328355109668337e-05
8.619844447821379e-05
6.506414501927793e-05
0.00010097816993948072
9.130312537308782e-05
7.545646803919226e-05
9.579853212926537e-05
0.00010181491961702704
5.51437224203255e-05
7.582555554108694e-05
9.840497659752145e-05
6.258966459427029e-05
6.166585080791265e-05
7.680215639993548e-05
5.0478385674068704e-05
8.12892394606024e-05
5.427009455161169e-05
7.025602099020034e-05
8.008910663193092e-05
7.976726192282513e-05
6.799083348596469e-05
0.00010032583668362349
6.970043614273891e-05
4.826553777093068e-05
5.996899199089967e-05
6.435011891881004e-05
0.00010007470700656995
8.489552419632673e-05
7.399835158139467e-05
7.570254820166156e-05
4.812726911040954e-05
5.9907964896410704e-05
8.710282418178394e-05
6.508338992716745e-05
8.210034138755873e-05
7.299279241124168e-05
6.745647260686383e-05
8.107791654765606e-05
6.650059367530048e-05
4.483466545934789e-05
6.890098302392289e-05
5.745350063079968e-05
0.00010229948384221643
5.5648706620559096e-05
6.593035504920408e-05
6.439376011257991e-05
0.00014094995276536793
9.298227814724669e-05
5.7241730246460065e-05
7.397079752990976e-05
3.37211495207157e-05
4.8200607125181705e-05
4.760540105053224e-05
6.874578684801236e-05
8.292438724311069e-05
8.439058001386002e-05
5.862013131263666e-05
5.218542355578393e-05
6.530465907417238e-05
5.0079535867553204e-05
9.660613432060927e-05
4.4305928895482793e-05
5.609359868685715e-05
7.246690074680373e-05
0.00011083856952609494
9.481016604695469e-05
4.992540198145434e-05
7.67341407481581e-05
7.608906889799982e-05
8.931159391067922e-05
6.267234130064026e-05
6.990243127802387e-05
6.206764373928308e-05
8.746367529965937e-05
5.49770520592574e-05
6.954716809559613e-05
8.784623059909791e-05
8.013503975234926e-05
5.590678847511299e-05
7.12824403308332e-05
4.7484627430094406e-05
7.494032615795732e-05
8.264769712695852e-05
7.545673724962398e-05
0.00011052373884012923
0.00010373828990850598
6.226325058378279e-05
8.833609172143042e-05
8.203427569242194e-05
6.61173980915919e-05
3.937619476346299e-05
5.95733399677556e-05
7.489798008464277e-05
5.793753734906204e-05
8.686140063218772e-05
6.991747795837e-05
0.0001464424713049084
4.959564103046432e-05
8.022128895390779e-05
6.97815848980099e-05
7.217773963930085e-05
9.183181828120723e-05
5.316475289873779e-05
8.66947157192044e-05
0.00012181141937617213
5.829356086906046e-05
5.603121098829433e-05
9.425825555808842e-05
8.692243864061311e-05
7.647536403965205e-05
8.814624743536115e-05
9.985080396290869e-05
0.0001374564308207482
8.682200132170692e-05
6.82642130414024e-05
4.47240709036123e-05
7.289006316568702e-05
6.575191218871623e-05
0.00014441894018091261
7.176287908805534e-05
6.408374611055478e-05
7.523954991484061e-05
5.6422053603455424e-05
6.556892185471952e-05
8.849000732880086e-05
6.686756387352943e-05
6.64710023556836e-05
5.026660073781386e-05
7.94426305219531e-05
6.56061529298313e-05
4.142453690292314e-05
6.79804288665764e-05
8.855477790348232e-05
6.743105768691748e-05
8.263112249551341e-05
4.046483081765473e-05
8.849258301779628e-05
7.939388160593808e-05
5.418167347670533e-05
0.00010544179531279951
4.874018850387074e-05
7.027003448456526e-05
4.318209903431125e-05
0.0001075513573596254
7.867131353123114e-05
8.466809231322259e-05
0.00011704902135534212
7.469162665074691e-05
7.068052946124226e-05
5.0399165047565475e-05
9.924750338541344e-05
4.837052620132454e-05
4.014043588540517e-05
7.562684186268598e-05
7.655904482817277e-05
6.088915324653499e-05
6.167154788272455e-05
5.217667785473168e-05
7.068798004183918e-05
0.00010109819413628429
7.06400751369074e-05
5.689068711944856e-05
8.42320587253198e-05
7.537307101301849e-05
8.32669684314169e-05
6.81480742059648e-05
7.601297693327069e-05
5.9302070440026e-05
8.603505557402968e-05
7.055499008856714e-05
5.186774433241226e-05
8.355544559890404e-05
6.19956263108179e-05
8.662676555104554e-05
7.202769484138116e-05
5.065510413260199e-05
0.00010633751662680879
7.90991325629875e-05
6.108500383561477e-05
8.271561819128692e-05
6.521962495753542e-05
7.952820305945352e-05
6.071824464015663e-05
6.777981616323814e-05
5.374422107706778e-05
5.6988123105838895e-05
7.030502456473187e-05
5.852285903529264e-05
6.725420826114714e-05
0.00013029263936914504
0.000140383854159154
5.811411392642185e-05
8.213357796194032e-05
4.526038173935376e-05
6.686805136268958e-05
7.596299110446125e-05
7.220460975077003e-05
9.687908459454775e-05
5.899342068005353e-05
0.0001046114120981656
8.49273637868464e-05
6.741550168953836e-05
7.604185520904139e-05
5.9727346524596214e-05
5.8073841501027346e-05
9.399151895195246e-05
8.433832408627495e-05
6.469328218372539e-05
8.787049591774121e-05
7.962965173646808e-05
8.087752939900383e-05
6.099292295402847e-05
4.100575461052358e-05
5.3945132094668224e-05
7.222046406241134e-05
6.36656186543405e-05
5.4089887271402404e-05
6.239797221496701e-05
0.0001052635270752944
6.766558362869546e-05
0.00011722438648575917
6.576481246156618e-05
7.486277172574773e-05
0.00011169660865562037
0.00010838857997441664
6.09176313446369e-05
6.430673965951428e-05
0.000132140819914639
5.990563295199536e-05
4.979094592272304e-05
7.934969471534714e-05
8.920473919715732e-05
0.00011319857003400102
5.7850367738865316e-05
7.143692346289754e-05
0.00017492134065832943
0.00011970271589234471
5.1102295401506126e-05
0.00010270735219819471
5.577836054726504e-05
7.865556108299643e-05
6.25821776338853e-05
6.652036245213822e-05
0.00012793920177500695
7.309985812753439e-05
4.8534733650740236e-05
6.647568079642951e-05
7.250234921230003e-05
7.039720367174596e-05
6.527316145366058e-05
6.690893496852368e-05
9.257699275622144e-05
5.9044115914730355e-05
6.66879495838657e-05
4.652232018997893e-05
5.894989590160549e-05
4.9725516873877496e-05
9.300692909164354e-05
8.529172919224948e-05
4.334696859586984e-05
6.28394482191652e-05
6.951022078283131e-05
7.392268889816478e-05
5.581539517152123e-05
7.758256833767518e-05
5.625117410090752e-05
0.00011902586265932769
5.4241019824985415e-05
6.913761171745136e-05
8.381606312468648e-05
6.659207429038361e-05
9.852064249571413e-05
6.596997263841331e-05
8.435141353402287e-05
9.349690662929788e-05
6.837420369265601e-05
6.699009099975228e-05
5.746995157096535e-05
8.53524761623703e-05
6.093678530305624e-05
6.0309503169264644e-05
6.569713150383905e-05
7.636036752955988e-05
0.0001082902163034305
9.894867253024131e-05
0.00010162260878132656
5.043469354859553e-05
5.051104017184116e-05
0.0001097464410122484
4.8211364628514275e-05
5.8512745454208925e-05
8.021917165024206e-05
7.112627645255998e-05
9.124328789766878e-05
5.774929013568908e-05
5.50582553842105e-05
8.325888484250754e-05
4.296341649023816e-05
4.629952309187502e-05
9.107068763114512e-05
0.00010538280184846371
5.7855424529407173e-05
4.416305455379188e-05
9.082230826606974e-05
5.0286584155401215e-05
7.135193300200626e-05
6.864962779218331e-05
7.533540338044986e-05
5.0448325055185705e-05
9.244998364010826e-05
8.920825348468497e-05
0.00012073830293957144
7.752965757390484e-05
5.696443986380473e-05
5.648784645018168e-05
5.522280844161287e-05
5.886799772270024e-05
9.068981307791546e-05
5.9030742704635486e-05
9.539166785543784e-05
5.8542165788821876e-05
6.631718133576214e-05
0.0001165149369626306
6.647677946602926e-05
7.58742171456106e-05
5.663383853971027e-05
5.8288409491069615e-05
6.323014531517401e-05
7.773027027724311e-05
8.063668065005913e-05
8.973020885605365e-05
8.515945955878124e-05
7.647823804290965e-05
6.626018148381263e-05
5.1645038183778524e-05
7.281164289452136e-05
6.971706898184493e-05
6.906217458890751e-05
5.9121321100974455e-05
7.830849062884226e-05
5.312360008247197e-05
0.00010180621029576287
3.468948489171453e-05
6.603099609492347e-05
6.495354318758473e-05
5.270516703603789e-05
5.85732122999616e-05
7.348702638410032e-05
8.484378486173227e-05
5.5179130868054926e-05
5.7730758271645755e-05
7.25118225091137e-05
6.392452633008361e-05
8.724743383936584e-05
6.242456584004685e-05
8.431309834122658e-05
5.666594734066166e-05
8.377550693694502e-05
5.951731145614758e-05
5.8505276683717966e-05
8.761248318478465e-05
6.521601608255878e-05
7.263347652042285e-05
6.732751353411004e-05
4.535732659860514e-05
4.769034421769902e-05
0.00010894964361796156
3.654248212114908e-05
8.78613063832745e-05
3.0774594051763415e-05
0.00013271138595882803
7.910043495940045e-05
6.512264371849597e-05
4.9953618145082146e-05
5.829639485455118e-05
0.00010222330456599593
5.4830583394505084e-05
3.835558527498506e-05
9.052503446582705e-05
0.00010151541937375441
4.193132190266624e-05
9.337138180853799e-05
6.149099499452859e-05
0.00011226139031350613
3.721634129760787e-05
6.272491737036034e-05
6.761125405319035e-05
7.7162025263533e-05
7.725228351773694e-05
6.0830854636151344e-05
5.671986218658276e-05
6.612854485865682e-05
4.8353718739235774e-05
7.133094914024696e-05
0.00013275182573124766
7.557615754194558e-05
6.158096948638558e-05
6.376086093951017e-05
7.606349390698597e-05
7.871940033510327e-05
6.600840424653143e-05
9.247640264220536e-05
8.043055277084932e-05
6.525658682221547e-05
7.559960067737848e-05
5.612287714029662e-05
4.232752326061018e-05
6.123466300778091e-05
5.488343595061451e-05
7.432599522871897e-05
5.041263284510933e-05
8.543151488993317e-05
9.281628445023671e-05
0.00011830846779048443
6.596538150915876e-05
0.00011532335338415578
5.9206395235378295e-05
6.318342639133334e-05
8.710579277249053e-05
8.39530403027311e-05
7.77483219280839e-05
5.101181159261614e-05
6.638981722062454e-05
7.037784234853461e-05
4.7363148041768e-05
5.761005013482645e-05
5.593863534159027e-05
4.270610224921256e-05
5.123733717482537e-05
7.468079274985939e-05
5.025145583203994e-05
8.986288594314829e-05
0.00013969153224024922
6.816755922045559e-05
5.944334407104179e-05
7.919173367554322e-05
3.655915134004317e-05
6.165248487377539e-05
4.7017856559250504e-05
4.241018905304372e-05
0.00011502647248562425
0.00012773781782016158
5.678859815816395e-05
7.786448986735195e-05
5.620491720037535e-05
7.988383731571957e-05
4.8493366193724796e-05
7.290920621016994e-05
5.759216219303198e-05
5.182276800042018e-05
9.86312807071954e-05
6.276412750594318e-05
5.921742194914259e-05
5.5760901886969805e-05
5.842304017278366e-05
4.32315755460877e-05
7.136170461308211e-05
5.547625551116653e-05
6.412844959413633e-05
0.00010450878471601754
6.260137888602912e-05
7.640876719960943e-05
5.264932042337023e-05
0.0001250273926416412
0.00010499258496565744
8.48889903863892e-05
8.591525693191215e-05
4.991489913663827e-05
6.720337114529684e-05
6.019627835485153e-05
7.746196206426248e-05
0.00010563543764874339
5.175836122361943e-05
5.9253728977637365e-05
9.67884625424631e-05
3.852241934509948e-05
6.572220445377752e-05
7.465572707587853e-05
5.2183164370944723e-05
5.486341251526028e-05
8.037516090553254e-05
7.430006371578202e-05
4.439777694642544e-05
8.116191020235419e-05
6.343127461150289e-05
5.814832547912374e-05
7.727331831119955e-05
6.533008854603395e-05
4.941473889630288e-05
0.0001275697140954435
8.441873796982691e-05
0.00010102657688548788
4.5501699787564576e-05
6.351435877149925e-05
9.386017336510122e-05
7.74612053646706e-05
7.668953185202554e-05
5.810545553686097e-05
6.51952504995279e-05
5.1023966079810634e-05
0.00013017287710681558
7.272578659467399e-05
5.971026257611811e-05
4.822990013053641e-05
0.00013082436635158956
6.619521445827559e-05
7.893947622505948e-05
4.700236604548991e-05
6.320958345895633e-05
6.638031481998041e-05
6.089142698328942e-05
0.00010692681826185435
7.640201511094347e-05
8.0309429904446e-05
7.311769149964675e-05
4.3967982492176816e-05
7.350423402385786e-05
3.815346644842066e-05
6.6184758907184e-05
4.7225879825418815e-05
8.425089617958292e-05
0.00010574964107945561
6.396947719622403e-05
5.68597752135247e-05
6.947342626517639e-05
7.209815521491691e-05
7.510988507419825e-05
4.869873009738512e-05
6.571174890268594e-05
0.0001497597259003669
8.443224214715883e-05
4.700055797002278e-05
7.633680797880515e-05
5.371575025492348e-05
4.659214391722344e-05
6.549582758452743e-05
5.9309855714673176e-05
5.106628668727353e-05
3.597547038225457e-05
4.883150177192874e-05
4.744950638269074e-05
5.276465890347026e-05
5.291429624776356e-05
6.662711530225351e-05
6.914880941621959e-05
4.691776484833099e-05
8.884723501978442e-05
5.500738188857213e-05
6.728142034262419e-05
5.310848791850731e-05
7.920090138213709e-05
7.203193672467023e-05
0.00012937079009134322
9.843242878559977e-05
7.212201307993382e-05
5.5329091992462054e-05
8.806789992377162e-05
0.00010522699449211359
8.63741006469354e-05
6.830650090705603e-05
5.2111383411102e-05
8.82844760781154e-05
0.00010375114652561024
8.307956159114838e-05
0.00010359771840739995
5.558211705647409e-05
9.747117292135954e-05
5.961766873952001e-05
6.865889736218378e-05
5.514962685992941e-05
7.582308171549812e-05
7.328649371629581e-05
6.53887473163195e-05
5.2861152653349563e-05
5.91023635934107e-05
0.00010746326734079048
4.489361890591681e-05
7.396516593871638e-05
5.5589865951333195e-05
7.193115015979856e-05
5.4241820180322975e-05
6.230513099581003e-05
6.22616644250229e-05
5.224233973422088e-05
5.194219556869939e-05
0.00011894180352101102
9.576229786034673e-05
7.454001024598256e-05
6.363911961670965e-05
8.094282384263352e-05
4.854620055994019e-05
7.47191661503166e-05
7.275793177541345e-05
4.842966882279143e-05
5.9025842347182333e-05
8.114774391287938e-05
8.805502875475213e-05
5.608744322671555e-05
6.040753214620054e-05
8.490624895785004e-05
8.033111953409389e-05
0.00010151368041988462
5.568829510593787e-05
5.5467000493081287e-05
5.9948932175757363e-05
6.947717338334769e-05
5.230637907516211e-05
5.8126905059907585e-05
0.0001089666475309059
0.0001596762303961441
0.00011368803097866476
7.078686030581594e-05
9.998652967624366e-05
5.9977399359922856e-05
5.493920616572723e-05
4.005356095149182e-05
0.00013316291733644903
5.464497007778846e-05
7.748578354949132e-05
6.724207196384668e-05
8.857532520778477e-05
5.64781112188939e-05
4.749778236146085e-05
9.115278953686357e-05
7.005481165833771e-05
7.721229485468939e-05
0.00012321284157224
7.043337973300368e-05
8.542493742424995e-05
7.76577289798297e-05
7.470609853044152e-05
0.00010145726264454424
0.00010080500214826316
0.00013803222100250423
4.797871952177957e-05
0.00011314010043861344
6.244790711207315e-05
5.9447145758895203e-05
4.592765253619291e-05
5.844253610121086e-05
6.218539783731103e-05
0.00010369650408392772
5.273498027236201e-05
7.01303142705001e-05
5.7204204495064914e-05
6.955877324799076e-05
3.46131382684689e-05
6.423116428777575e-05
9.891742229228839e-05
7.982682291185483e-05
4.193788117845543e-05
6.525447679450735e-05
3.7120466004125774e-05
0.00015562062617391348
6.954954005777836e-05
5.218960723141208e-05
6.529397069243714e-05
7.766291673760861e-05
5.627877180813812e-05
7.230772462207824e-05
6.075784403947182e-05
8.650017116451636e-05
7.216769154183567e-05
5.5774835345800966e-05
7.684907905058935e-05
5.3887713875155896e-05
7.437387830577791e-05
6.194005982251838e-05
6.21353174210526e-05
6.457992276409641e-05
5.9772930399049073e-05
5.069684630143456e-05
7.090999861247838e-05
6.570265395566821e-05
7.08860025042668e-05
6.705325358780101e-05
7.199552055681124e-05
6.902142195031047e-05
0.00016810116358101368
4.3325071601429954e-05
0.00010747788473963737
5.555648749577813e-05
5.63871581107378e-05
0.00010861604096135125
5.595543552772142e-05
7.856831507524475e-05
8.137770782923326e-05
5.865555431228131e-05
3.769822433241643e-05
5.7019809901248664e-05
6.660458893748e-05
6.31304137641564e-05
0.00013217369269113988
8.415007323492318e-05
6.739509990438819e-05
5.801866063848138e-05
0.00014205618936102837
6.625337846344337e-05
7.046703831292689e-05
6.383872823789716e-05
5.732723730034195e-05
8.615745900897309e-05
5.2904368203599006e-05
9.725095151225105e-05
5.975766543997452e-05
9.164657240035012e-05
9.349539323011413e-05
0.00013785592454951257
4.9456873966846615e-05
5.536674871109426e-05
4.284586611902341e-05
7.151278259698302e-05
5.051615153206512e-05
8.581992733525112e-05
9.328870510216802e-05
5.8357094530947506e-05
0.00017426394333597273
6.68843204039149e-05
6.442654557758942e-05
8.54890895425342e-05
6.683008541585878e-05
5.38076892553363e-05
0.00010497180483071133
8.914510544855148e-05
7.326679769903421e-05
4.239298141328618e-05
0.00011048798478441313
3.706760981003754e-05
6.200819188961759e-05
0.00012103543122066185
9.749204036779702e-05
7.479375199181959e-05
6.912187382113189e-05
7.490607094950974e-05
6.776838563382626e-05
5.4935819207457826e-05
5.8046109188580886e-05
9.577820310369134e-05
5.214470365899615e-05
8.391834126086906e-05
0.00018499451107345521
6.54730829410255e-05
6.672376912320033e-05
8.599024295108393e-05
7.444911898346618e-05
6.847169424872845e-05
5.116385727887973e-05
7.626407750649378e-05
7.856325100874528e-05
6.582004425581545e-05
9.365024016005918e-05
0.00012854304804932326
5.8910969528369606e-05
5.8892957895295694e-05
5.84339868510142e-05
6.658039637841284e-05
7.399551395792514e-05
6.608496914850548e-05
7.049214764265344e-05
4.9358666728949174e-05
8.965082815848291e-05
5.6087937991833314e-05
0.00014429922157432884
6.32208539173007e-05
5.2330808102851734e-05
5.389430225477554e-05
6.465725891757756e-05
0.0001056275941664353
9.092923573916778e-05
6.010249853716232e-05
7.79390538809821e-05
7.153237675083801e-05
5.5423097364837304e-05
6.849302008049563e-05
0.0001240158308064565
5.482451160787605e-05
6.963158375583589e-05
8.848209836287424e-05
8.019727829378098e-05
7.466847455361858e-05
8.911434997571632e-05
8.765969687374309e-05
4.984701445209794e-05
5.259251338429749e-05
6.555295112775639e-05
5.7247660151915625e-05
8.642716420581564e-05
5.373158637667075e-05
7.316710980376229e-05
4.874409205513075e-05
4.216313027427532e-05
6.891234079375863e-05
7.33466658857651e-05
0.00010726653999881819
8.504270954290405e-05
0.00011193514365004376
6.966524961171672e-05
0.00011058276140829548
8.694358984939754e-05
9.92722125374712e-05
7.290369103429839e-05
0.0001012846696539782
7.45753277442418e-05
0.00010949715215247124
5.1894428906962276e-05
4.8896170483203605e-05
5.43369933438953e-05
5.524821244762279e-05
6.153166032163426e-05
8.723750215722248e-05
5.419261651695706e-05
0.00012662440713029355
0.0001508758432464674
5.641720417770557e-05
6.983788625802845e-05
4.502163938013837e-05
0.00014023766561876982
7.578740769531578e-05
0.00012687529670074582
8.177936979336664e-05
0.00010025253868661821
8.590057404944673e-05
