0.01752173714339733
0.020652038976550102
0.015131592750549316
0.006029724143445492
0.007444624789059162
0.013009904883801937
0.013905921019613743
0.02181452326476574
0.0038123184349387884
0.02923637069761753
0.0219732653349638
0.0215519517660141
0.008158894255757332
0.033260591328144073
0.02148066833615303
0.012976950034499168
0.03223634511232376
0.02920597977936268
0.034842342138290405
0.1018732339143753
0.01956731267273426
0.0251363106071949
0.01863231509923935
0.022543156519532204
0.024258671328425407
0.019944021478295326
0.0754312202334404
0.025746485218405724
0.022780070081353188
0.02237127348780632
0.01617131009697914
0.021662047132849693
0.02175336889922619
0.02944500558078289
0.01468883641064167
0.02624436840415001
0.020593540742993355
0.019134951755404472
0.01485739927738905
0.05492224916815758
0.012679319828748703
0.03869852423667908
0.03609686344861984
0.042833004146814346
0.014035752043128014
0.02285161055624485
0.04953605309128761
0.006916700396686792
0.031118014827370644
0.021595817059278488
0.008855156600475311
0.010519001632928848
0.01783311739563942
0.030556978657841682
0.018896138295531273
0.03079759143292904
0.033123794943094254
0.028730396181344986
0.0157259963452816
0.014937099069356918
0.016325009986758232
0.020628085359930992
0.03268330916762352
0.012084834277629852
0.030341994017362595
0.055933691561222076
0.01134021021425724
0.02433139458298683
0.023670610040426254
0.03186304122209549
0.021756138652563095
0.021420950070023537
0.024317603558301926
0.025658834725618362
0.023263590410351753
0.018085137009620667
0.022496305406093597
0.051652394235134125
0.03146062046289444
0.013082010671496391
0.023955466225743294
0.03617842495441437
0.04035303369164467
0.02054128609597683
0.0328875370323658
0.017928842455148697
0.00574422487989068
0.020217357203364372
0.030119428411126137
0.020714985206723213
0.01235930621623993
0.029743492603302002
0.04023308306932449
0.050745926797389984
0.03617313504219055
0.029457930475473404
0.008389480412006378
0.03441775217652321
0.030700229108333588
0.02728491649031639
0.01762647181749344
0.0662856474518776
0.028947727754712105
0.03325490653514862
0.008960222825407982
0.011354654096066952
0.005786839872598648
0.023835787549614906
0.054654043167829514
0.0302454624325037
0.028582513332366943
0.022390948608517647
0.022713677957654
0.013472124934196472
0.026910362765192986
0.010962980799376965
0.02513328194618225
0.010122878476977348
0.031096961349248886
0.03235473856329918
0.02607433684170246
0.017890959978103638
0.02095789834856987
0.030301066115498543
0.019612571224570274
0.05187111720442772
0.023678120225667953
0.06896805018186569
0.03308619186282158
0.033510684967041016
0.018868479877710342
0.033406227827072144
0.01815653406083584
0.026960408315062523
0.033043213188648224
0.026319721713662148
0.022434204816818237
0.09800518304109573
0.02785216085612774
0.009546544402837753
0.02543039806187153
0.01268651895225048
0.026121340692043304
0.03235967457294464
0.0302298441529274
0.03929697722196579
0.009753617458045483
0.006387489847838879
0.004796240013092756
0.04227573797106743
0.03187725320458412
0.022613516077399254
0.023262251168489456
0.03162357956171036
0.0528651587665081
0.036413200199604034
0.011630300432443619
0.022326963022351265
0.015571997500956059
0.03973910212516785
0.04486767575144768
0.015119470655918121
0.022944647818803787
0.03772755712270737
0.02384943887591362
0.028078816831111908
0.018355632200837135
0.03369425982236862
0.02185107208788395
0.03184188902378082
0.03551831468939781
0.07176516205072403
0.01550574041903019
0.04064911603927612
0.01070725079625845
0.03023914434015751
0.022011538967490196
0.013796918094158173
0.024503551423549652
0.024248968809843063
0.027320707216858864
0.019175829365849495
0.026726476848125458
0.06007545441389084
0.016917912289500237
0.02523498609662056
0.028241828083992004
0.02701863832771778
0.03678789362311363
0.019514333456754684
0.08783829212188721
0.020352991297841072
0.03960336372256279
0.02759343571960926
0.023817548528313637
0.03942050412297249
0.029027923941612244
0.016026657074689865
0.0206260085105896
0.025981569662690163
0.02593485452234745
0.017218777909874916
0.017071295529603958
0.014072163961827755
0.009855575859546661
0.02673799730837345
0.015552569180727005
0.03064395859837532
0.020663315430283546
0.043978918343782425
0.018860450014472008
0.01581289991736412
0.02755623497068882
0.007328957784920931
0.01793244108557701
0.024290286004543304
0.026065828278660774
0.023885153234004974
0.008932861499488354
0.03754657134413719
0.027638094499707222
0.05728606507182121
0.016221871599555016
0.03418520465493202
0.05394826829433441
0.045065779238939285
0.03204072266817093
0.01609318144619465
0.014562921598553658
0.044540662318468094
0.024152090772986412
0.021438995376229286
0.0228728074580431
0.04192397743463516
0.04963141679763794
0.014825602993369102
0.015320341102778912
0.04595768824219704
0.027477312833070755
0.04462113603949547
0.05920061096549034
0.02019585482776165
0.06353729218244553
0.025547541677951813
0.03952302038669586
0.021894386038184166
0.01934727653861046
0.009428734891116619
0.03150259703397751
0.0180125180631876
0.01835150271654129
0.021177662536501884
0.018308954313397408
0.007248234935104847
0.0194755420088768
0.07886527478694916
0.03122316114604473
0.0371236652135849
0.022814512252807617
0.015160252340137959
0.02512173168361187
0.026488007977604866
0.022754058241844177
0.014725235290825367
0.05632622167468071
0.028484346345067024
0.030559686943888664
0.028629641979932785
0.01273230742663145
0.03218843415379524
0.011448238044977188
0.040046852082014084
0.03125642240047455
0.01846156269311905
0.01300144474953413
0.017995988950133324
0.027648447081446648
0.013202020898461342
0.0335991345345974
0.01940223202109337
0.029651669785380363
0.036287155002355576
0.049762122333049774
0.030439745634794235
0.047975197434425354
0.017314037308096886
0.018289288505911827
0.02587074227631092
0.056449808180332184
0.011466177180409431
0.01890896074473858
0.01220483984798193
0.045738209038972855
0.03601470962166786
0.029296111315488815
0.0514826625585556
0.030490348115563393
0.015025819651782513
0.014922854490578175
0.014218177646398544
0.03193408623337746
0.015114129520952702
0.02668045647442341
0.03363499790430069
0.04889807105064392
0.025332044810056686
0.035390280187129974
0.010737546719610691
0.044071733951568604
0.029469937086105347
0.015163768082857132
0.027777982875704765
0.021794162690639496
0.036884669214487076
0.009734188206493855
0.022378504276275635
0.025389166548848152
0.01893560029566288
0.019402965903282166
0.03434643894433975
0.037614043802022934
0.022101815789937973
0.03173762559890747
0.011970587074756622
0.05299828201532364
0.038698628544807434
0.014503511600196362
0.030111471191048622
0.13369034230709076
0.0343841128051281
0.01884152926504612
0.04867538437247276
0.01216963492333889
0.06366968899965286
0.017860172316432
0.02909163013100624
0.048441026359796524
0.0384620763361454
0.026540685445070267
0.03729981184005737
0.013770021498203278
0.014176709577441216
0.020252401009202003
0.03292937949299812
0.05023084953427315
0.029598142951726913
0.019710322842001915
0.01719694770872593
0.01995357684791088
0.0723709911108017
0.01606435328722
0.046169888228178024
0.020679175853729248
0.040918245911598206
0.011892179027199745
0.022269880399107933
0.02541198581457138
0.030309082940220833
0.04106324911117554
0.012098017148673534
0.0403444804251194
0.01333947665989399
0.025343377143144608
0.024781832471489906
0.043834950774908066
0.03849819302558899
0.0212678425014019
0.027781754732131958
0.01172491256147623
0.04932640120387077
0.016870178282260895
0.029240259900689125
0.01982954517006874
0.018348654732108116
0.011515350081026554
0.01852879673242569
0.06840310245752335
0.019791198894381523
0.03173895552754402
0.024083346128463745
0.016345368698239326
0.035987067967653275
0.020389875397086143
0.02631043829023838
0.030063316226005554
0.018719956278800964
0.03093590959906578
0.03742245212197304
0.05302726849913597
0.01301239151507616
0.029165582731366158
0.03831162676215172
0.01292180921882391
0.015990519896149635
0.015455851331353188
0.01715749315917492
0.018899371847510338
0.011168641969561577
0.013930024579167366
0.019139569252729416
0.012957440689206123
0.05487655848264694
0.03682827204465866
0.042402222752571106
0.01792207732796669
0.02550305239856243
0.007409178651869297
0.010056858882308006
0.022367745637893677
0.014255374670028687
0.008660479448735714
0.02020425535738468
0.022217806428670883
0.031931910663843155
0.05571911484003067
0.012260296382009983
0.03163781762123108
0.03683878853917122
0.040033262223005295
0.0138606121763587
0.04112960025668144
0.03048928827047348
0.014614047482609749
0.018684742972254753
0.031547341495752335
0.025824623182415962
0.020025692880153656
0.02821912243962288
0.009343963116407394
0.06865840405225754
0.01795230060815811
0.017602624371647835
0.11083325743675232
0.011046221479773521
0.026292182505130768
0.021054692566394806
0.01830580271780491
0.024038570001721382
0.013639486394822598
0.011303258128464222
0.020442917943000793
0.0954940915107727
0.011314286850392818
0.043445054441690445
0.019239692017436028
0.03264551982283592
0.019477780908346176
0.011732425540685654
0.010189470835030079
0.026167405769228935
0.012731839902698994
0.02678210847079754
0.03395913913846016
0.01245153322815895
0.03797703981399536
0.020658083260059357
0.08788755536079407
0.06486155837774277
0.020346423611044884
0.027236243709921837
0.030581563711166382
0.034945979714393616
0.017003977671265602
0.046087607741355896
0.013193219900131226
0.009887435473501682
0.019272755831480026
0.025425951927900314
0.01793701760470867
0.02138780616223812
0.028621412813663483
0.023774413391947746
0.00912016537040472
0.026247473433613777
0.016800226643681526
0.03779309615492821
0.04793228581547737
0.008504713885486126
0.018794987350702286
0.04176190122961998
0.01944573223590851
0.011740426532924175
0.0396433100104332
0.022161541506648064
0.0420835055410862
0.01322131883352995
0.013946608640253544
0.035575754940509796
0.014506245963275433
0.00901981070637703
0.012445583008229733
0.01944449171423912
0.024695081636309624
0.05919646471738815
0.024442294612526894
0.011790895834565163
0.07694950699806213
0.024405062198638916
0.015660149976611137
0.02091361954808235
0.026370421051979065
0.01843503676354885
0.05852572247385979
0.016918180510401726
0.017788784578442574
0.027081694453954697
0.023056278005242348
0.026179201900959015
0.03214556351304054
0.023919720202684402
0.02648784965276718
0.010385763831436634
0.03982864320278168
0.05510003864765167
0.037346772849559784
0.028621451929211617
0.027008501812815666
0.02454569935798645
0.04771836847066879
0.016814151778817177
0.017748048529028893
0.028235048055648804
0.021844837814569473
0.04010027274489403
0.02590915933251381
0.013139314949512482
0.022112270817160606
0.03437618911266327
0.024130918085575104
0.02114952728152275
0.03557620570063591
0.019789403304457664
0.0214101430028677
0.008017630316317081
0.026678161695599556
0.05436260625720024
0.010386893525719643
0.007049026899039745
0.0423114113509655
0.04263193532824516
0.018834589049220085
0.010778730735182762
0.01272598933428526
0.020223300904035568
0.017852310091257095
0.02098146826028824
0.025088714435696602
0.03581280633807182
0.02005862258374691
0.04740956053137779
0.06740503758192062
0.0074308207258582115
0.013417486101388931
0.02320806123316288
0.020295096561312675
0.017063764855265617
0.02266690693795681
0.042377371340990067
0.03955971822142601
0.02809816412627697
0.025036845356225967
0.038127824664115906
0.03633563965559006
0.017983099445700645
0.023060446605086327
0.016270441934466362
0.018934641033411026
0.0310194231569767
0.035001207143068314
0.021611198782920837
0.03977284952998161
0.018392177298665047
0.013835165649652481
0.029062015935778618
0.042734187096357346
0.09284011274576187
0.04249601811170578
0.019996119663119316
0.037809520959854126
0.0169746745377779
0.023426225408911705
0.03743734955787659
0.013476152904331684
0.020218374207615852
0.019083498045802116
0.043613675981760025
0.012162410654127598
0.010885367169976234
0.02764485590159893
0.02595624141395092
0.03050611913204193
0.037732597440481186
0.033992700278759
0.05013332888484001
0.02529136650264263
0.048876602202653885
0.022073989734053612
0.028700804337859154
0.017109569162130356
0.02516350895166397
0.01988803595304489
0.02625756338238716
0.04301349073648453
0.008860436268150806
0.032231129705905914
0.022473325952887535
0.013683019205927849
0.014306508004665375
0.01607808656990528
0.03684121370315552
0.03371820226311684
0.026121502742171288
0.022047266364097595
0.01059113722294569
0.029464541003108025
0.02691822685301304
0.05217522382736206
0.034004755318164825
0.023003384470939636
0.019416218623518944
0.026738131418824196
0.03659031540155411
0.025502828881144524
0.02638491615653038
0.015399829484522343
0.04546906054019928
0.018331201747059822
0.028585758060216904
0.020824264734983444
0.015593758784234524
0.02477315440773964
0.0305461622774601
0.034442175179719925
0.009954208508133888
0.03840198740363121
0.028211940079927444
0.018047617748379707
0.02859974466264248
0.0129970358684659
0.019309530034661293
0.03217786177992821
0.06039511784911156
0.01405815314501524
0.031230712309479713
0.011063190177083015
0.03248032554984093
0.05525478348135948
0.01266788225620985
0.05984900891780853
0.008474951609969139
0.025978004559874535
0.01783624477684498
0.009980235248804092
0.012014709413051605
0.018003826960921288
0.030210204422473907
0.023690540343523026
0.028116565197706223
0.017673997208476067
0.008507339283823967
0.023151114583015442
0.033136483281850815
0.019094176590442657
0.02243550680577755
0.01826385222375393
0.040189873427152634
0.038221925497055054
0.07403597235679626
0.05017825588583946
0.017842743545770645
0.022106125950813293
0.040302589535713196
0.020451024174690247
0.018645858392119408
0.0398855023086071
0.03167631849646568
0.020619358867406845
0.007729270029813051
0.0161737073212862
0.022749947383999825
0.04852160066366196
0.044553592801094055
0.01073665451258421
0.03716466203331947
0.031229814514517784
0.05111804977059364
0.008787703700363636
0.020514771342277527
0.025912633165717125
0.02343570441007614
0.017768586054444313
0.0756782591342926
0.01918371580541134
0.08444420248270035
0.043517012149095535
0.011316988617181778
0.015489005483686924
0.02638113871216774
0.025620942935347557
0.01952667534351349
0.034723833203315735
0.028272073715925217
0.004666246939450502
0.02405773103237152
0.04810469597578049
0.016956837847828865
0.030339514836668968
0.04947224631905556
0.032262858003377914
0.04993636906147003
0.022773228585720062
0.013248075731098652
0.02227570116519928
0.04209624230861664
0.01989942602813244
0.04898236319422722
0.04036514088511467
0.047458283603191376
0.010756686329841614
0.02994747832417488
0.016064375638961792
0.021663684397935867
0.02877688594162464
0.013625891879200935
0.029611410573124886
0.013748012483119965
0.018216531723737717
0.02451949566602707
0.023398974910378456
0.01954176276922226
0.03314455226063728
0.01775873452425003
0.029998037964105606
0.02692047879099846
0.015122732147574425
0.030704649165272713
0.012869378551840782
0.020149802789092064
0.018322505056858063
0.017299393191933632
0.026503166183829308
0.017747489735484123
0.01768636144697666
0.003974609076976776
0.025956502184271812
0.02428899146616459
0.012052997946739197
0.021414516493678093
0.021781405434012413
0.015964508056640625
0.01969657838344574
0.03166018798947334
0.011660750024020672
0.01752558909356594
0.006164912600070238
0.055171530693769455
0.01905228942632675
0.026200532913208008
0.05751952901482582
0.006476477719843388
0.02917044423520565
0.02501768246293068
0.024677421897649765
0.010858970694243908
0.016029339283704758
0.030602065846323967
0.0185651034116745
0.026732176542282104
0.04166858643293381
0.09799472242593765
0.02221566066145897
0.01793185994029045
0.026874398812651634
0.008530094288289547
0.04619091749191284
0.013535221107304096
0.04775827378034592
0.027537047863006592
0.03125050291419029
0.029106775298714638
0.03922372683882713
0.030736127868294716
0.013855122961103916
0.022115251049399376
0.0481296144425869
0.029011810198426247
0.024711571633815765
0.004856286104768515
0.05067091062664986
0.01817420683801174
0.026365377008914948
0.038846224546432495
0.01337454840540886
0.0279855839908123
0.0256892628967762
0.0357249490916729
0.04305770620703697
0.015608175657689571
0.01951097697019577
0.016556385904550552
0.04672845080494881
0.025086259469389915
0.015225255861878395
0.023539459332823753
0.048051755875349045
0.03402886167168617
0.025214463472366333
0.01573825813829899
0.027771642431616783
0.025066101923584938
0.013872369192540646
0.038415610790252686
0.020654968917369843
0.019609471783041954
0.018431933596730232
0.09025812894105911
0.0350206233561039
0.01088334433734417
0.014535862021148205
0.018118558451533318
0.034221336245536804
0.028595132753252983
0.03397708758711815
0.043080054223537445
0.01519470289349556
0.014940734021365643
0.06426908075809479
0.034791894257068634
0.014351645484566689
0.009778888896107674
0.03612084314227104
0.035295624285936356
0.05132798105478287
0.04402966797351837
0.0329962819814682
0.023079540580511093
0.013723009265959263
0.036071814596652985
0.008286752738058567
0.031486790627241135
0.01520824246108532
0.058723222464323044
0.027437526732683182
0.03378983959555626
0.025217613205313683
0.013254835270345211
0.02966957911849022
0.017079921439290047
0.059645626693964005
0.03240789473056793
0.04672573506832123
0.07422607392072678
0.0034567816182971
0.04200032353401184
0.04190617799758911
0.022834723815321922
0.028773587197065353
0.028229616582393646
0.04220825806260109
0.028715379536151886
0.01653975248336792
0.01929488591849804
0.0314667709171772
0.016482623293995857
0.031034767627716064
0.04091139882802963
0.007698492147028446
0.006205662153661251
0.02172616869211197
0.015280517749488354
0.030344851315021515
0.03190392255783081
0.018041353672742844
0.012958576902747154
0.039729174226522446
0.01972821354866028
0.026248974725604057
0.018416674807667732
0.032100703567266464
0.06319805234670639
0.02387959323823452
0.01617584377527237
0.027753029018640518
0.051842544227838516
0.05110878124833107
0.010847385972738266
0.011371567845344543
0.03206150606274605
0.031340956687927246
0.03702119365334511
0.026759793981909752
0.0543682798743248
0.13801676034927368
0.030673744156956673
0.015989311039447784
0.021074840798974037
0.011310374364256859
0.02081860601902008
0.018193697556853294
0.02307550050318241
0.03372865542769432
0.06291233003139496
0.060176100581884384
0.0306356530636549
0.029355844482779503
0.018547052517533302
0.09268806129693985
0.0529690682888031
0.0726344957947731
0.02085123211145401
0.019700156524777412
0.025981569662690163
0.022270044311881065
0.10344334691762924
0.025592487305402756
0.03499307483434677
0.05400268733501434
0.012332788668572903
0.02553218975663185
0.02493341825902462
0.010198546573519707
0.03678128868341446
0.015349597670137882
0.029704729095101357
0.022639509290456772
0.021634578704833984
0.018588244915008545
0.006848513148725033
0.048904284834861755
0.026478834450244904
0.010595683939754963
0.027787044644355774
0.01310796570032835
0.02954159304499626
0.03945808857679367
0.03520498797297478
0.015163591131567955
0.026002062484622
0.018749576061964035
0.02073926292359829
0.016428688541054726
0.050285276025533676
0.029170693829655647
0.009131444618105888
0.0481392927467823
0.028408007696270943
0.03430795669555664
0.01875595934689045
0.028159048408269882
0.020113660022616386
0.015274387784302235
0.01821899600327015
0.02512197569012642
0.007591047789901495
0.0884285494685173
0.026543525978922844
0.02329949475824833
0.022052334621548653
0.04640405252575874
0.012399458326399326
0.036279816180467606
0.016376640647649765
0.02205122448503971
0.017416004091501236
0.016656585037708282
0.039093319326639175
0.015554276295006275
0.014345130883157253
0.022908557206392288
0.02624700777232647
0.017421649768948555
0.01578473672270775
0.0537639856338501
0.04892371967434883
0.019530978053808212
0.0478520467877388
0.022688403725624084
0.025173692032694817
0.03163987025618553
0.013022854924201965
0.018183719366788864
0.025510460138320923
0.02093764767050743
0.013782628811895847
0.05030154809355736
0.019822262227535248
0.016882188618183136
0.01437350269407034
0.021762296557426453
0.013540890999138355
0.06717150658369064
0.016078505665063858
0.012184991501271725
0.019864512607455254
0.02304905839264393
0.05593796446919441
0.022971250116825104
0.05431077629327774
0.022020578384399414
0.0440254807472229
0.04823148623108864
0.03647870197892189
0.021803634241223335
0.012672602199018002
0.022823406383395195
0.004433038178831339
0.028595449402928352
0.013855510391294956
0.016232509166002274
0.017763420939445496
0.017476625740528107
0.040257181972265244
0.014612844213843346
0.0226190984249115
0.011491164565086365
0.03195101022720337
0.032150086015462875
0.019878873601555824
0.0072806235402822495
0.02214335836470127
0.06440649181604385
0.01662619784474373
0.017463771626353264
0.016315169632434845
0.021318979561328888
0.011443543247878551
0.018616575747728348
0.013071653433144093
0.016298307105898857
0.04441661387681961
0.029242904856801033
0.03629452735185623
0.024294178932905197
0.10883729159832001
0.012310882098972797
0.03179232031106949
0.017581192776560783
0.029066912829875946
0.014847839251160622
0.03516552224755287
0.023100951686501503
0.004970598500221968
0.016177281737327576
0.01874401979148388
0.03337795287370682
0.03878116235136986
0.04052220284938812
0.010078269056975842
0.043701980262994766
0.05374054238200188
0.01405365765094757
0.0307359267026186
0.01947914808988571
0.043743327260017395
0.02636837027966976
0.03215824067592621
0.03499053418636322
0.03822546452283859
0.03859305754303932
0.022149939090013504
0.03777642548084259
0.014964197762310505
0.04870108887553215
0.0110917454585433
0.04505844786763191
0.01953631453216076
0.022253070026636124
0.042046453803777695
0.03095007874071598
0.051627133041620255
0.027017245069146156
0.03552927076816559
0.0040070293471217155
0.0055772000923752785
0.0277232825756073
0.007305886130779982
0.03810445964336395
0.026164906099438667
0.014775910414755344
0.029163096100091934
0.018400663509964943
0.03089969977736473
0.06722769886255264
0.022936219349503517
0.024374885484576225
0.014649778604507446
0.040157873183488846
0.005118565633893013
0.029892312362790108
0.02456919103860855
0.018284274265170097
0.05200929194688797
0.02842656522989273
0.035908326506614685
0.0979185700416565
0.010894699022173882
0.020941074937582016
0.008277262561023235
0.021803757175803185
0.019392244517803192
0.01639682427048683
0.020825322717428207
0.029555030167102814
0.014740223065018654
0.04013592377305031
0.04191971570253372
0.03377915173768997
0.0274386927485466
0.015815366059541702
0.022934889420866966
0.015406313352286816
0.09063976258039474
0.006141389720141888
0.011102961376309395
0.06361673027276993
0.02181839570403099
0.030470268800854683
0.02449398674070835
0.01934150978922844
0.04639873653650284
0.01626121811568737
0.010966449975967407
0.0063585201278328896
0.038429658859968185
0.07145945727825165
0.04398650303483009
0.031594835221767426
0.017751086503267288
0.010049639269709587
0.029478702694177628
0.03575354814529419
0.01696697250008583
0.0343036949634552
0.030863545835018158
0.014644310809671879
0.05646811053156853
0.03880243003368378
0.019458338618278503
0.023149196058511734
0.01611943356692791
0.022658860310912132
0.017172763124108315
0.030245881527662277
0.033774107694625854
0.024251343682408333
0.05636158958077431
0.025945011526346207
0.022887755185365677
0.009200962260365486
0.0501461960375309
0.028020864352583885
0.02425948902964592
