0.00020324326760601252
0.0003792879870161414
0.000288235314656049
0.0004071429721079767
0.00024370613391511142
0.0002331189753022045
0.00038244694587774575
0.0002657265868037939
0.0004112817405257374
0.0002050905313808471
0.0002675339637789875
0.0002014712372329086
0.0003249591973144561
0.00011424081458244473
0.00016752055671531707
6.30500799161382e-05
0.00029440841171890497
0.00030705361859872937
0.00023780038463883102
6.323645357042551e-05
0.00029163173167034984
0.0002208795485785231
0.0003453721874393523
0.0002489957551006228
0.0002842314133886248
0.0002220522437710315
6.217231566552073e-05
0.0003288847510702908
0.0002769613347481936
0.00015423668082803488
0.00021592753182630986
0.0003144799266010523
0.0003423971647862345
0.00025850406382232904
0.00039694056613370776
0.00013072803267277777
0.0002410437009530142
0.00024240737548097968
0.0002620148879941553
7.365338387899101e-05
0.00042654346907511353
0.0003517598379403353
0.0003506107605062425
0.0003067984653171152
0.0003687413118313998
0.0003967716183979064
0.00018428500334266573
0.00034626375418156385
0.00026376181631349027
0.00022112416627351195
0.0006119585013948381
0.0003365807351656258
0.0002767450059764087
0.0004191862535662949
0.00028534221928566694
0.0004072338342666626
0.000270908756647259
0.0004247985780239105
0.0002453426131978631
0.0003873464302159846
0.0003069836529903114
0.00012713622709270567
0.00030644700746051967
0.00034572614822536707
0.00023239015717990696
0.0002493064966984093
0.00020154278900008649
0.000331496587023139
0.0002024642308242619
0.0002685731742531061
0.0002544444287195802
0.0002769715210888535
0.000335648946929723
0.0002344663516851142
0.0002176223642891273
0.0003264789411332458
0.0003847161715384573
0.00023064474225975573
0.00030850578332319856
0.00029889686265960336
0.00027874295483343303
0.00020262056204956025
0.0003144729125779122
0.00016719008272048086
0.000300110928947106
0.0003027661005035043
0.0004418847674969584
0.0002958287950605154
0.0003104820498265326
0.00032610123162157834
0.0001789350062608719
0.00042004455463029444
0.00012461231381166726
0.00038434070302173495
0.00029239061404950917
0.00022179326333571225
0.00033125633490271866
0.0003112558042630553
0.0002484462456777692
0.0002655161661095917
0.00035432164440862834
9.845754539128393e-05
0.00028720026602968574
0.0001383766793878749
0.0009899231372401118
0.00023986634914763272
0.0004734022368211299
0.0003220238722860813
0.00033072446240112185
0.0002635262790136039
0.0002583239402156323
0.00030210003023967147
0.0003211454313714057
0.00026138636167161167
0.00030487836920656264
0.0003026277699973434
0.00022544256353285164
0.0005043400451540947
0.0003484103363007307
0.0004180804535280913
0.0002709261898417026
0.00014580556307919323
0.0003254150506108999
0.0003858025302179158
0.0003670318110380322
0.00011311253911117092
0.0003047320933546871
0.0003772318596020341
0.00020984691218473017
0.00013479767949320376
0.00036434768117032945
0.0002608785580378026
0.0002726454986259341
0.00027088081697002053
0.00023437294294126332
0.0002915410732384771
0.00017557243700139225
0.00012905776384286582
0.00021374864445533603
0.0003130871627945453
0.0003329087339807302
0.0002987321058753878
0.00035719756851904094
0.0004832470149267465
0.00031157766352407634
0.00015075303963385522
0.00019197743677068502
0.00021292643214110285
0.00043869082583114505
0.0003075480926781893
0.0003006210026796907
0.00032341451151296496
0.000285651272861287
0.00036146605270914733
7.464735972462222e-05
0.00024864598526619375
0.00022612894827034324
0.00021139715681783855
0.0002486348676029593
0.0003427239425946027
0.0002709260443225503
0.000291874777758494
0.00033056759275496006
0.00022705811716150492
0.00021283412934280932
0.00024120599846355617
0.00033955229446291924
0.000308214221149683
0.0003124062204733491
0.00032589613692834973
0.0003244930994696915
0.00010561383533058688
0.0002824009279720485
0.00022660614922642708
0.00038348851376213133
0.00023301146575249732
0.00031112070428207517
0.0004187295271549374
0.00019413315749261528
0.00028455775463953614
0.00023792008869349957
0.0001935163454618305
0.00029499141965061426
0.00018312118481844664
0.00034519832115620375
0.00023919348313938826
0.00027937121922150254
0.0003179265186190605
0.0003039388975594193
0.00031660491367802024
5.452017649076879e-05
0.0002726316743064672
0.0002505733573343605
0.0003060961898881942
0.0002615108678583056
0.000247854768531397
0.0003096531145274639
0.00030101602897047997
0.0002412336616544053
0.00026757398154586554
0.0002329092676518485
0.0003295749775134027
0.0002377790806349367
0.00013201090041548014
0.0003612594155129045
0.00034651943133212626
0.0003092951374128461
0.00025238882517442107
0.0001070469879778102
0.0003178240149281919
0.0004026956739835441
0.0003088641678914428
0.0002656051074154675
0.0003461382584646344
0.00025672870106063783
5.85233501624316e-05
0.00012501151650212705
0.00029172140057198703
0.00023824699746910483
0.0002078225079458207
0.0003118372114840895
0.0003203173400834203
0.0003252153401263058
0.00010397352161817253
0.00034577559563331306
4.0083847125060856e-05
0.0001578264927957207
0.000270159391220659
0.0002850382588803768
0.00013083661906421185
0.00029316276777535677
0.00031387535273097456
0.00022507691755890846
0.0001965730480151251
0.0002799566136673093
0.00022684180294163525
0.0003050877421628684
9.354701614938676e-05
0.0001956451596925035
0.0002056229714071378
5.474821955431253e-05
0.0003381434944458306
0.00013436493463814259
0.000407848710892722
0.00010628755990182981
0.0002830644662026316
0.0002115116367349401
0.00024999072775244713
0.00012520953896455467
0.0001110038356273435
0.00027376413345336914
0.00031653704354539514
0.00016608279838692397
0.00032435121829621494
0.00028575267060659826
5.7546400057617575e-05
0.00024716026382520795
0.00023239596339408308
0.0002425690327072516
0.0003413973608985543
0.0002534099330659956
0.00031373495585285127
0.000250771117862314
0.0003184536471962929
8.506245649186894e-05
0.00024840765399858356
0.00022609061852563173
0.0002927195164375007
0.00026703678304329515
0.000218961838982068
0.000322992738801986
0.0001699688727967441
0.00024993959232233465
0.00033464704756624997
0.0003069857775699347
0.0002163140889024362
0.0002597129496280104
0.00025670649483799934
0.00024397840024903417
0.0003595146699808538
0.00023277277068700641
0.00028928712708875537
0.0001376110449200496
0.00017978569667320698
0.00030177822918631136
0.00022037338931113482
0.0003085184725932777
0.00034314816002734005
0.00010253365326207131
0.00019396904099266976
0.0003052791871596128
0.0006360364495776594
0.00022825186897534877
0.0002337628829991445
0.0003319305833429098
0.00014928307791706175
0.00015970574168022722
0.00033541047014296055
0.00025983466184698045
0.00029484895640052855
0.00027720173238776624
0.00024160642351489514
0.00024252873845398426
0.00046220578951761127
0.00011008467117790133
0.00019258251995779574
0.00027266296092420816
0.00027539918664842844
9.717083594296128e-05
0.00028693629428744316
0.00010287851182511076
0.00027146810316480696
0.00021126325009390712
0.00032892776653170586
0.0004289190983399749
0.00023403926752507687
0.0001435279264114797
0.0002533845545258373
0.00043143489165231586
0.00026878321659751236
0.0002837107458617538
0.0002625836059451103
0.0003023171448148787
0.00026438021450303495
0.0003511594550218433
0.00034529154072515666
0.00028182563255541027
0.00018464891763869673
6.105451029725373e-05
0.0002602296299301088
0.0003184129309374839
0.0003156342136207968
0.0003506763023324311
0.0001876911410363391
0.0003762190754059702
0.00030831521144136786
0.0003346129378769547
0.0001249243796337396
0.00023522959963884205
0.00011181869922438636
0.0003103266062680632
0.0003272578469477594
0.00027983656036667526
0.0001309253420913592
0.0001878946932265535
0.0002320044004591182
0.0003276747593190521
0.0002508892212063074
0.0002791301521938294
7.157343497965485e-05
0.00041063324897550046
0.0002889066527131945
0.00024010871129576117
0.00022834568517282605
0.0004184098797850311
0.00018120251479558647
0.00029166913009248674
0.0002386117266723886
0.00030369864543899894
0.00028123692027293146
0.0002955090894829482
0.00019788366626016796
0.00022246611479204148
0.0003132610290776938
6.701818347210065e-05
0.000294217694317922
0.0001570901513332501
0.000291584525257349
0.00028984330128878355
0.00016341498121619225
0.00022127108240965754
0.0003096134460065514
0.00030688068363815546
0.00028020760510116816
0.00034021984902210534
0.0003327887097839266
0.0002604514011181891
0.00027544249314814806
0.00040874542901292443
0.0003787642635870725
0.00027907092589884996
0.0002868662413675338
0.00037382819573394954
0.00026745384093374014
0.0002923071151599288
0.0002866577997338027
0.00011496070510474965
0.00028206862043589354
0.00017426221165806055
0.00025155217736028135
0.00038610532646998763
0.00017479916277807206
0.00029092913609929383
0.0002131571527570486
0.0003150165139231831
0.0002655127609614283
0.0002494128420948982
0.0004180121177341789
0.0003066903736907989
0.0002172982058255002
0.00018612778512760997
0.00029793166322633624
0.00033523820457048714
0.0003106470685452223
0.00030123040778562427
0.0003412772493902594
0.0003160166961606592
0.00022310185886453837
0.00017912170733325183
0.0003300294920336455
0.0004933523596264422
0.00042521714931353927
0.00031544946250505745
0.00019926777167711407
0.00048722984502092004
0.00015318937948904932
0.0002518035180401057
0.0002783751115202904
0.0002518720575608313
0.00023408378183376044
0.0002690074616111815
0.00029593895305879414
0.0002320106141269207
0.0004251164209563285
0.00025965346139855683
0.0002626210043672472
0.0003324170538689941
0.00028447818476706743
0.0002965779567603022
6.619674240937456e-05
0.0003021184238605201
0.0003235810436308384
6.94560949341394e-05
0.0002547455078456551
0.0003373745712451637
0.00012129898823332042
0.00016335223335772753
0.00040272108162753284
0.00026258768048137426
0.0002255720755783841
0.0001815788564272225
7.350451778620481e-05
0.0003164726367685944
0.00010509540879866108
0.00021276541519910097
0.00022504983644466847
0.0002570028882473707
0.0003463003085926175
0.0002530548663344234
0.00038110517198219895
0.00024034858506638557
0.0002350632712477818
0.0003237365453969687
0.0003469265648163855
0.00037545038503594697
0.0003361324197612703
0.00010747540363809094
0.0003781091363634914
0.0003934624546673149
0.00035733581171371043
0.00024730610311962664
0.00021083846513647586
0.0003012811066582799
0.00040323310531675816
0.00022857767180539668
0.00031031417893245816
0.00022537658514920622
0.00033509283093735576
0.0002584407920949161
0.00032656104303896427
0.0002936661767307669
0.00033864271244965494
0.00027009137556888163
0.00042249890975654125
0.0001270876091439277
0.0002904730208683759
0.00035100194509141147
0.000302465254208073
0.00026168214390054345
0.00030573763069696724
0.000252750760409981
0.0002855478087440133
0.0002553324156906456
0.0002482903946656734
0.00038290151860564947
0.00032296907738782465
0.00024671523715369403
0.0003828876360785216
0.0002550289500504732
0.00026636404800228775
0.0002017139340750873
0.0003155536251142621
0.0002007709554163739
0.0003200847713742405
0.00015436194371432066
0.0002541481808293611
0.0001449711708119139
0.00030706427060067654
0.0003633598971646279
0.0003586687089409679
0.00024668543483130634
0.00023123068967834115
8.247816003859043e-05
0.000167534060892649
0.00024547523935325444
0.000314486853312701
0.0002928373287431896
0.00025788205675780773
0.00031651597237214446
0.00028814072720706463
0.0003837535041384399
0.000355749943992123
0.00026962035917676985
0.00031575115281157196
0.00039436903898604214
0.00023616148973815143
0.0003009293577633798
0.00032406963873654604
0.00030300652724690735
0.00039050832856446505
0.00030507633346132934
0.0002373316528974101
0.00024125984054990113
9.658822818892077e-05
0.00024891705834306777
0.0002986027975566685
0.00030306566623039544
0.0001605341531103477
0.00020397274056449533
0.0004075810720678419
0.00030169091769494116
0.00031404203036800027
0.0002790482249110937
0.00035999188548885286
0.00017472944455221295
4.54345608886797e-05
0.0003028134233318269
0.00036707145045511425
9.374544606544077e-05
0.00029769024695269763
0.0002998117997776717
0.0003630035207606852
0.000295578851364553
0.000314967124722898
0.00026450707809999585
0.0003210818103980273
0.00018807314336299896
0.00031172134913504124
0.00033508078195154667
0.0002993732341565192
0.00010179642413277179
0.00024539517471566796
0.00033333973260596395
0.0002746853861026466
0.00023800035705789924
0.0002902296546380967
0.00033019008697010577
0.00036787509452551603
0.000233367012697272
0.0004047280817758292
0.00026450076256878674
7.37443842808716e-05
0.0003149943659082055
0.00022690949845127761
0.0002364528045291081
0.0002720498014241457
0.00030605323263444006
0.00014349783305078745
0.00019807962235063314
0.0002764063829090446
0.00019382458413019776
0.0003248913853894919
0.0002387948043178767
0.00012512959074229002
0.00010703056614147499
0.0001130274249590002
0.0002788158890325576
0.0001718933053780347
0.00024004078295547515
0.0003799770202022046
0.0002650633978191763
0.00014990031195338815
0.00021333761105779558
0.00027016690000891685
0.00021346980065573007
0.00019322115986142308
0.00030844580032862723
0.0002700719051063061
0.00031853417749516666
0.0003295519854873419
0.000308163114823401
7.106726843630895e-05
0.000367744272807613
0.00026669030194170773
0.0003864584432449192
8.842343231663108e-05
0.00026842509396374226
0.0001766631903592497
0.00034852608223445714
0.00029636675026267767
0.0003196896577719599
0.0002931129129137844
0.0001220907288370654
0.0001981185923796147
0.00013689133629668504
0.00019531123689375818
0.0003082444309256971
0.0002897342783398926
0.0003275186172686517
0.00023737744777463377
0.00010851707338588312
0.00026747153606265783
0.0003099603927694261
0.00028940162155777216
0.0003177136823069304
0.00027511929511092603
0.0003290066379122436
0.00024086551275104284
0.00018484031897969544
0.00028067175298929214
0.00028479169122874737
0.00023559301916975528
0.00027031058561988175
0.0002947417669929564
0.0002285796799696982
0.00023743716883473098
0.00025143151287920773
0.0002667579974513501
0.00022348562197294086
0.00028660526731982827
0.000130069165606983
0.00011482819536468014
0.00027476815739646554
0.0003305647405795753
0.00021306623239070177
0.00044592315680347383
0.00021444630692712963
0.0002840431989170611
0.00028527769609354436
0.000317736150464043
0.00021203281357884407
0.00020510685862973332
0.00023996394884306937
0.00021636976453009993
0.0003235538606531918
0.00021187623497098684
0.0002952704671770334
0.0004246892931405455
0.0001641174021642655
0.000544764450751245
0.00034169599530287087
0.00024296653282362968
0.00034830960794351995
0.00021512732200790197
0.0003772225172724575
0.0003023760218638927
0.0001047212426783517
0.00020439800573512912
0.00022963470837567002
0.00025832749088294804
0.00029606319731101394
0.00019272396457381546
0.000336438009981066
0.0003020881849806756
0.0003300398529972881
0.0001231931964866817
0.00032267169444821775
5.0983886467292905e-05
0.0003385626769158989
0.00025395359261892736
0.0002169097715523094
0.00032971729524433613
0.00017701262549962848
0.0002511730417609215
0.00036888770409859717
0.00013294040400069207
0.0002778498746920377
0.00025987051776610315
0.00026095868088304996
0.00020498099911492318
0.00022640313545707613
0.0002947746543213725
0.000406599254347384
0.00016041249909903854
0.00030705571407452226
0.0002726476814132184
0.0003738208906725049
0.0002504671283531934
0.0003890826483257115
0.00030380708631128073
0.0004015236918348819
6.512277468573302e-05
8.196449198294431e-05
7.810615352354944e-05
0.0002463895361870527
0.0001819675526348874
0.0002777364570647478
0.00024888102780096233
0.0003113635757472366
0.0002379018405918032
0.0002784334647003561
0.0002720088232308626
0.0004613063938450068
0.0002493475913070142
8.60765649122186e-05
0.00033242497011087835
0.00023169995984062552
0.00027117220452055335
9.58265591179952e-05
0.00034698660601861775
0.00027116044657304883
0.0002958467521239072
0.00034698506351560354
0.00029955804347991943
0.00018343707779422402
0.0001032868676702492
0.00019973157031927258
0.00025411424576304853
0.00031539108022116125
0.0002841746318154037
0.00019733911904040724
0.00028187292627990246
0.00023110515030566603
0.0003459376748651266
0.0002997037081513554
0.00020982162095606327
0.0002818706852849573
0.0003295696515124291
0.00010767541243694723
0.0003276631759945303
0.00030183486524038017
0.0002495278313290328
0.00016051017155405134
0.00021014186495449394
0.0002929532784037292
0.0004110419540666044
0.0002527720353100449
0.00025369119248352945
0.0002370939910179004
0.00021437036048155278
0.000742131844162941
0.0003465975751169026
0.00023200672876555473
0.0003621166106313467
0.0002523961884435266
0.00020748405950143933
0.0003602718061301857
0.00034715080983005464
0.00035257209674455225
0.0003418780688662082
0.000199409420019947
0.00025187336723320186
0.00021336200006771833
0.00022694024664815515
0.0005184712936170399
5.4801399528514594e-05
0.00030141312163323164
0.00018811254994943738
0.0002786366967484355
0.00026819235063157976
0.0002170206280425191
0.0003343902062624693
0.0003761107800528407
0.00031087137176655233
0.00033811922185122967
0.000338076613843441
0.0002596131234895438
0.0002077704994007945
0.00010036094317911193
6.092444164096378e-05
0.00026954023633152246
0.0002397625066805631
0.00021620122424792498
0.00046453485265374184
0.0003653196035884321
0.00026327770319767296
0.0003768709138967097
0.0002396688360022381
0.00030137665453366935
0.00019325070024933666
0.0002086437598336488
0.00024375195789616555
0.00040304349386133254
0.00026053781039081514
0.0003161360218655318
0.0003094902203883976
0.00037873670225962996
0.0003115630825050175
0.00012159613834228367
0.0003226528933737427
0.00018589138926472515
0.0002489296311978251
0.0002939697296824306
0.0002118103438988328
0.00016270326159428805
0.00011611104855546728
0.00026188118499703705
0.0003199058410245925
0.00033819297095760703
0.00023707262880634516
0.0003439868160057813
0.00018293762695975602
0.0003303163102827966
0.0005169196520000696
0.00026882096426561475
0.0002832044556271285
0.0002838817599695176
0.0004030107520520687
0.00022016078582964838
0.00033377009094692767
0.00025739287957549095
0.0003173665318172425
0.00014044543786440045
0.00030267221154645085
0.00032422144431620836
0.0003424030728638172
0.0002572131634224206
0.00035172360367141664
0.00026411633007228374
0.00026947291917167604
0.0003182919754181057
0.00011424672993598506
0.0003365168522577733
0.00021414535876829177
0.0004452717839740217
0.00026188066112808883
0.00026742846239358187
0.00029619556153193116
0.00025961134815588593
0.00028882449259981513
0.00023229143698699772
0.00024293623573612422
0.00027732300804927945
0.00022901057673152536
0.00019907743262592703
0.00027714730822481215
0.000306521775200963
0.00017628830391913652
0.0002056133234873414
0.00012528210936579853
0.0004606001893989742
9.060225420398638e-05
0.0002425961138214916
0.0002374119940213859
0.0003215864417143166
0.00032430602004751563
0.00024284145911224186
0.0002778138732537627
7.596465002279729e-05
0.00033892301144078374
0.00031315398518927395
0.0002738756302278489
0.000532384729012847
0.00020125597075093538
9.123968629864976e-05
0.00038124146522022784
0.0003037966671399772
0.0002618891012389213
0.0002873351040761918
0.0004614324716385454
0.0003824384184554219
0.00028548165573738515
0.00020936761575285345
0.00032421210198663175
0.00034454092383384705
0.00015723495744168758
0.00025910764816217124
0.00031595295877195895
0.00023266708012670279
0.00020195818797219545
0.00032142209238372743
0.0004355539567768574
0.000274167163297534
0.00032287617796100676
0.00019681367848534137
0.00013519894855562598
0.00014972795906942338
0.0003199405618943274
0.0001523763785371557
7.20419266144745e-05
0.0002201795723522082
0.000277172977803275
0.0002732163411565125
0.0003529384557623416
0.00026151080965064466
0.0003022587043233216
0.00017759120964910835
0.000340845319442451
0.0003257696225773543
0.00034067584783770144
0.0002716667077038437
0.00011140949209220707
4.321291271480732e-05
0.00020023320394102484
0.0003313530469313264
0.00040777577669359744
0.0002456680522300303
0.0002815198095049709
0.0002919743419624865
0.00029677702696062624
0.00030606662039645016
6.507467332994565e-05
0.00031147347181104124
0.0003247810818720609
0.00031541293719783425
0.00031941672204993665
0.00029664719477295876
7.721887959633023e-05
5.583263191510923e-05
0.0003630121937021613
0.00031646652496419847
0.00020252341346349567
0.0004009073309134692
4.716943294624798e-05
0.0002919830149039626
0.00032185111194849014
8.872562466422096e-05
0.00032920297235250473
0.00020874875190202147
0.0003463818284217268
0.00024295358161907643
0.0002978672564495355
0.0002016952057601884
0.00026750273536890745
0.00022719870321452618
0.00035381552879698575
0.00022367954079527408
0.00027435339870862663
0.0003406512551009655
0.00014892223407514393
0.0003082756884396076
0.0002922395069617778
0.000266922521404922
0.00017356582975480705
0.0003643165109679103
0.0004422403872013092
0.00018244149396196008
0.00029347691452130675
0.00022764068853575736
0.0002873939520213753
0.00027794999186880887
0.0003261883684899658
0.0003272792382631451
0.0003473660908639431
9.609335393179208e-05
0.00028889000532217324
0.0002077856770483777
0.00032975757494568825
0.00031538118491880596
0.00024372759799007326
0.0002774625027086586
0.00031739918631501496
0.00021272242884151638
0.00017867509450297803
0.00017531024059280753
0.00025331106735393405
0.00027001084527000785
0.0003883706231135875
0.00027373648481443524
0.0003548082895576954
0.00018872808141168207
0.0002688068780116737
0.00032279297010973096
0.0002580277796369046
0.0002760074276011437
0.000234470862778835
0.0002762557996902615
0.00030900482670404017
0.0002884462883230299
9.887653141049668e-05
0.00017510305042378604
0.0002696887531783432
0.00011860235099447891
0.00030822455300949514
0.0002361808583373204
0.00022180717496667057
0.0002598326245788485
0.00028858339646831155
0.0003303453850094229
0.00045896528172306716
0.00028797477716580033
0.00030515165417455137
0.00016180824604816735
0.0003126226947642863
0.000344742089509964
0.00023172167129814625
0.00026565472944639623
0.00028308696346357465
0.0002994949172716588
0.00040821495349518955
5.853053880855441e-05
0.0003656818880699575
0.0004565094714052975
0.00025141279911622405
0.00028727177414111793
0.00021007163741160184
0.0002972180664073676
0.00018703355453908443
0.0003171403077431023
0.00030357815558090806
0.000259569613263011
0.00028446578653529286
0.00022508772963192314
0.00029492255998775363
0.00022938119946047664
0.00043362603173591197
0.0003242855309508741
0.00025660390383563936
0.0003941133909393102
0.0002796631015371531
0.00019856452126987278
0.00040964563959278166
0.0003524523344822228
0.00019973379676230252
0.00022325153986457735
0.00020710870740003884
0.00016902039351407439
0.00022160072694532573
0.0003400599816814065
0.00031090309494175017
0.0003074439591728151
0.00023889490694273263
0.0003215896140318364
0.00030172974220477045
0.00018961068417411298
0.00028239007224328816
0.00028583750827237964
0.00026548924506641924
0.0003134754952043295
0.0002692580164875835
0.00021855451632291079
0.000409176223911345
0.0003607429680414498
6.306535215117037e-05
0.0002962093276437372
0.00025634924531914294
0.0003593257279135287
0.0002202598116127774
0.00032015409669838846
0.000239145228988491
0.00023407366825267673
0.0005080619012005627
0.00024507316993549466
0.00043102746712975204
0.00031463790219277143
0.00016995379701256752
0.000317129772156477
0.00019130909640807658
0.0002640646416693926
8.332380093634129e-05
0.0002716570452321321
0.00010832277621375397
0.00015594760770909488
0.00025712631759233773
0.0002344655804336071
0.0003203860833309591
0.00023368617985397577
0.00018277796334587038
8.749078551772982e-05
0.0002112995134666562
7.157193613238633e-05
0.00028006467618979514
0.00032689233194105327
0.0003404150193091482
0.00033305661054328084
0.0003222909290343523
0.00037731448537670076
0.00028026176732964814
0.00026152917416766286
0.00032894700416363776
0.0005275444709695876
0.0002157017297577113
0.00042626948561519384
0.000347698776749894
0.0003897999122273177
0.00028898127493448555
0.00032682475284673274
0.0002864341950044036
0.0002536035608500242
0.00032701832242310047
0.0002808086865115911
0.00024359252711292356
0.0002515234227757901
0.00026694414555095136
0.00034488431992940605
0.00028619341901503503
0.0001687639014562592
0.0003746793372556567
0.00023354488075710833
0.00023666404013056308
0.00041694450192153454
0.00024207560636568815
0.00025993725284934044
0.0002668096567504108
4.451987479114905e-05
0.0003324841964058578
0.0002990759676322341
0.00024552654940634966
0.000383763195713982
0.00024390709586441517
0.0002879941021092236
0.00043438468128442764
0.00020697296713478863
0.0003329582104925066
0.00032585501321591437
0.0003299004165455699
0.00016565485566388816
0.0002958263794425875
0.00024245496024377644
0.0003318822418805212
9.659689385443926e-05
8.206617349060252e-05
0.0003681787638925016
0.00022887041268404573
0.0003686729760374874
0.0003273279871791601
0.00038264511385932565
0.0002579037973191589
0.0002561272995080799
0.0003246413543820381
0.00039296766044571996
0.0003007151826750487
0.00030885133310221136
0.00016334430256392807
5.537063771043904e-05
7.574541086796671e-05
0.00019128753046970814
0.0002483353018760681
0.00037486833753064275
0.000299692852422595
0.00012150498514529318
0.0002389390137977898
0.00026620959397405386
0.0004056533216498792
0.00037870745291002095
0.0002467955055180937
0.00035504522384144366
0.00027192122070118785
0.00024948175996541977
0.00030299960053525865
0.000286063615931198
0.00023198720009531826
0.0003962441987823695
0.0002257011947222054
0.0003084110503550619
0.00028736062813550234
0.0002943909785244614
0.00028711598133668303
0.000376646377844736
0.00021176482550799847
0.00025554749299772084
0.0002781043585855514
