0.0009394526132382452
0.0011072881752625108
0.0008113016374409199
0.00032329215900972486
0.0003991540288552642
0.0006975443684495986
0.0007455855375155807
0.0011696163564920425
0.0002044028224190697
0.0015675491886213422
0.0011781275970861316
0.0011555382516235113
0.0004374505952000618
0.001783313462510705
0.001151716336607933
0.0006957774749025702
0.0017283970955759287
0.0015659197233617306
0.0018681212095543742
0.005462076980620623
0.0010491290595382452
0.0013477186439558864
0.0009989978279918432
0.0012086831266060472
0.0013006628723815084
0.001069326768629253
0.004044351167976856
0.001380434026941657
0.0012213855516165495
0.0011994673404842615
0.0008670475799590349
0.0011614412069320679
0.001166337518952787
0.0015787354204803705
0.0007875626324675977
0.0014071287587285042
0.0011041517136618495
0.0010259473929181695
0.0007966003613546491
0.002944733714684844
0.0006798196118324995
0.002074875868856907
0.001935384119860828
0.0022965518292039633
0.0007525465916842222
0.0012252213200554252
0.0026559452526271343
0.0003708486328832805
0.0016684362199157476
0.0011578901903703809
0.0004747817001771182
0.0005639910814352334
0.0009561476763337851
0.0016383554320782423
0.0010131431045010686
0.0016512562287971377
0.0017759789479896426
0.001540420693345368
0.0008431714377366006
0.0008008736185729504
0.00087528838776052
0.001106003881432116
0.0017523616552352905
0.0006479453877545893
0.0016268286854028702
0.0029989636968821287
0.0006080213352106512
0.0013045619707554579
0.0012691330630332232
0.0017083818092942238
0.001166486064903438
0.001148514449596405
0.001303822617046535
0.0013757345732301474
0.0012473101960495114
0.0009696600609458983
0.0012061711167916656
0.0027694159653037786
0.0016868055099621415
0.0007014104048721492
0.001284406054764986
0.001939757145009935
0.0021635848097503185
0.0011013499461114407
0.0017633115639910102
0.00096128013683483
0.0003079847083427012
0.001083982060663402
0.0016148955328390002
0.0011106630554422736
0.0006626616232097149
0.001594739267602563
0.0021571533288806677
0.0027208144310861826
0.0019394735572859645
0.0015794284408912063
0.0004498138150665909
0.001845356309786439
0.0016460360493510962
0.0014629191718995571
0.0009450680809095502
0.0035539984237402678
0.0015520731685683131
0.001783008687198162
0.00048041497939266264
0.0006087957881391048
0.000310269562760368
0.0012779893586412072
0.00293035339564085
0.0016216530930250883
0.0015324916457757354
0.0012005222961306572
0.0012178258039057255
0.0007223269785754383
0.0014428369468078017
0.0005877956282347441
0.0013475563609972596
0.0005427523865364492
0.0016673073405399919
0.001734744873829186
0.001398012274876237
0.0009592490387149155
0.0011236872524023056
0.0016246343730017543
0.0010515556205064058
0.002781142946332693
0.0012695357436314225
0.0036978190764784813
0.001773962751030922
0.0017967225285246968
0.0010116600897163153
0.0017911219038069248
0.0009734881459735334
0.0014455202035605907
0.0017716584261506796
0.001411168952472508
0.0012028415221720934
0.005254685878753662
0.0014933327911421657
0.0005118513945490122
0.0013634866336360574
0.0006802055868320167
0.0014005324337631464
0.0017350094858556986
0.0016208157176151872
0.002106962725520134
0.000522953923791647
0.0003424742608331144
0.00025715716765262187
0.0022666731383651495
0.001709143863990903
0.001212455565109849
0.0012472383677959442
0.0016955427126958966
0.0028344399761408567
0.0019523450173437595
0.0006235749460756779
0.0011970915365964174
0.0008349145646207035
0.0021306679118424654
0.0024056436959654093
0.0008106516906991601
0.0012302096001803875
0.00202281610108912
0.0012787212617695332
0.0015054852701723576
0.000984163023531437
0.0018065652111545205
0.0011715759756043553
0.0017072476912289858
0.0019043644424527884
0.0038477901834994555
0.0008313620928674936
0.0021794596686959267
0.0005740843480452895
0.001621314324438572
0.001180179649963975
0.000739741197321564
0.0013137924252077937
0.0013001426123082638
0.0014648381620645523
0.0010281391441822052
0.0014329777332022786
0.0032210301142185926
0.0009070776868611574
0.001353009371086955
0.0015142253832891583
0.0014486423460766673
0.0019724348094314337
0.001046288525685668
0.004709573928266764
0.001091254292987287
0.0021233900915831327
0.00147946085780859
0.0012770113535225391
0.002113585826009512
0.001556372968479991
0.0008592918165959418
0.0011058924719691277
0.0013930384302511811
0.0013905337546020746
0.0009232090087607503
0.0009153015562333167
0.0007544988766312599
0.0005284205544739962
0.0014335954328998923
0.000833872880320996
0.0016430190298706293
0.001107892720028758
0.0023579916451126337
0.0010112295858561993
0.0008478309027850628
0.001477466314099729
0.00039295238093473017
0.0009614730952307582
0.0013023578794673085
0.0013975560432299972
0.0012806361773982644
0.00047894794261083007
0.002013112185522914
0.0014818554045632482
0.003071472980082035
0.0008697584853507578
0.0018328878795728087
0.0028925123624503613
0.002416265197098255
0.0017179084243252873
0.0008628586074337363
0.000780811533331871
0.0023881103843450546
0.0012949483934789896
0.0011494819773361087
0.0012263577664270997
0.002247813157737255
0.0026610582135617733
0.0007948955753818154
0.0008214216795749962
0.0024640862829983234
0.0014732348499819636
0.0023924249690026045
0.003174124052748084
0.00108282919973135
0.0034066413063555956
0.0013697674730792642
0.0021190824918448925
0.0011738983448594809
0.0010373315308243036
0.0005055348738096654
0.0016890560509636998
0.0009657665505073965
0.000983941718004644
0.0011354702292010188
0.0009816603269428015
0.00038862432120367885
0.001044208649545908
0.004228472709655762
0.0016740737482905388
0.0019904375076293945
0.0012232322478666902
0.0008128382614813745
0.0013469370314851403
0.0014201918384060264
0.0012199908960610628
0.0007895142189227045
0.0030200097244232893
0.0015272283926606178
0.0016385006019845605
0.0015350185567513108
0.000682660611346364
0.0017258282750844955
0.0006138134049251676
0.0021471683867275715
0.0016758571146056056
0.0009898426942527294
0.0006970907561480999
0.000964880280662328
0.001482410472817719
0.0007078449707478285
0.0018014649394899607
0.0010402780026197433
0.0015898160636425018
0.0019455868750810623
0.002668066183105111
0.0016320698196068406
0.0025722577702254057
0.0009283164981752634
0.000980605953373015
0.001387096242979169
0.0030266358517110348
0.0006147752283141017
0.0010138305369764566
0.000654379662591964
0.0024523185566067696
0.001930979429744184
0.0015707522397860885
0.0027603155467659235
0.0016347829950973392
0.0008056304650381207
0.0008001098758541048
0.0007623276324011385
0.001712191035039723
0.0008103653672151268
0.001430510194040835
0.0018033877713605762
0.002621738938614726
0.0013582132523879409
0.0018974996637552977
0.0005757086910307407
0.0023629681672900915
0.0015800722176209092
0.0008130267960950732
0.001489355694502592
0.0011685247300192714
0.00197762344032526
0.0005219121812842786
0.0011998550035059452
0.0013612759066745639
0.0010152588365599513
0.0010403173509985209
0.0018415326485410333
0.0020167299080640078
0.0011850199662148952
0.0017016575438901782
0.0006418199045583606
0.0028415776323527098
0.0020748814567923546
0.0007776261772960424
0.0016144689870998263
0.007167995907366276
0.0018435526872053742
0.0010102151427417994
0.0026097993832081556
0.0006524921045638621
0.0034137400798499584
0.0009575982694514096
0.001559788710437715
0.0025972337462008
0.0020621984731405973
0.0014230161905288696
0.00199988204985857
0.0007382991025224328
0.0007601042743772268
0.0010858610039576888
0.001765555003657937
0.002693197689950466
0.0015869460767135024
0.0010567967547103763
0.0009220385691151023
0.0010698391124606133
0.0038802726194262505
0.0008613129029981792
0.0024754635524004698
0.0011087431339547038
0.0021938893478363752
0.0006376159144565463
0.0011940309777855873
0.001362499431706965
0.0016250641783699393
0.0022016640286892653
0.0006486522033810616
0.0021631261333823204
0.0007152148173190653
0.0013588208239525557
0.0013287127949297428
0.002350272610783577
0.0020641349256038666
0.001140305306762457
0.0014895579079166055
0.0006286476855166256
0.002644704421982169
0.0009045183542184532
0.0015677576884627342
0.0010631890036165714
0.000983788981102407
0.0006174116861075163
0.0009934474946931005
0.0036675287410616875
0.001061132992617786
0.0017017287900671363
0.001291262567974627
0.0008763799560256302
0.0019294973462820053
0.0010932318400591612
0.001410671160556376
0.0016118870116770267
0.0010036968160420656
0.0016586723504588008
0.002006457420065999
0.0028431317768990993
0.0006976777222007513
0.0015637538162991405
0.0020541318226605654
0.0006928209913894534
0.0008573542581871152
0.0008286872180178761
0.0009199231863021851
0.001013316446915269
0.0005988224875181913
0.0007468778640031815
0.0010261950083076954
0.0006947314250282943
0.002942283870652318
0.0019745996687561274
0.0022734547965228558
0.0009609173866920173
0.0013673821231350303
0.0003972535487264395
0.0005392126622609794
0.0011992781655862927
0.0007643220014870167
0.00046434381511062384
0.0010832796106114984
0.001191238989122212
0.0017120743868872523
0.00298745883628726
0.0006573530845344067
0.0016963061643764377
0.001975163584575057
0.002146439626812935
0.0007431562407873571
0.0022052214480936527
0.0016347261844202876
0.0007835527649149299
0.0010018087923526764
0.0016914551379159093
0.0013846235815435648
0.001073705730959773
0.001513008028268814
0.0005009897286072373
0.003681217087432742
0.0009625378879718482
0.000943789491429925
0.005942481104284525
0.0005922587006352842
0.0014096923405304551
0.0011288770474493504
0.0009814914083108306
0.0012888617347925901
0.0007313002715818584
0.0006060401210561395
0.0010960758663713932
0.00512005016207695
0.0006066313944756985
0.0023293676786124706
0.001031563151627779
0.0017503355629742146
0.0010443286737427115
0.0006290505407378078
0.0005463228444568813
0.0014030023012310266
0.0006826355238445103
0.0014359604101628065
0.0018207670655101538
0.0006676064804196358
0.0020361924543976784
0.001107612275518477
0.004712215159088373
0.003477643709629774
0.0010909021366387606
0.0014603096060454845
0.0016396736027672887
0.0018736779456958175
0.0009116922155953944
0.0024710518773645163
0.000707373081240803
0.0005301287746988237
0.0010333359241485596
0.0013632482150569558
0.0009617184405215085
0.0011467373697087169
0.0015345773426815867
0.0012746986467391253
0.0004889905103482306
0.0014072952326387167
0.0009007678017951548
0.002026329981163144
0.002569956937804818
0.00045599220902659
0.0010077196639031172
0.0022391232196241617
0.0010426102671772242
0.00062947953119874
0.0021255319006741047
0.0011882222024723887
0.0022563664242625237
0.0007088796119205654
0.0007477670442312956
0.00190744420979172
0.0007777728023938835
0.0004836098523810506
0.0006672874442301691
0.001042543794028461
0.0013240615371614695
0.0031739019323140383
0.0013105079997330904
0.0006321854889392853
0.004125756211578846
0.001308511826209724
0.0008396409684792161
0.001121313194744289
0.0014138872502371669
0.0009884204482659698
0.0031379391439259052
0.000907092064153403
0.0009537707082927227
0.0014520231634378433
0.0012361948611214757
0.0014036347856745124
0.0017235296545550227
0.0012824895093217492
0.001420183340087533
0.0005568473716266453
0.002135468879714608
0.0029542662668973207
0.002002399880439043
0.0015345794381573796
0.0014480988029390574
0.0013160522794350982
0.002558487467467785
0.0009015144314616919
0.0009515866404399276
0.0015138618182390928
0.0011712417472153902
0.0021500326693058014
0.0013891560956835747
0.0007044828962534666
0.001185580505989492
0.001843127771280706
0.0012938131112605333
0.0011339617194607854
0.00190746842417866
0.001061036717146635
0.0011479349341243505
0.00042987652705051005
0.0014303872594609857
0.0029147276654839516
0.0005569079075939953
0.00037794350646436214
0.002268585842102766
0.002285771304741502
0.0010098429629579186
0.0005779167986474931
0.0006823218427598476
0.0010843008058145642
0.0009571767295710742
0.001124950940720737
0.0013451667036861181
0.0019201540853828192
0.0010754712857306004
0.002541930414736271
0.0036140161100775003
0.00039841391844674945
0.0007193973870016634
0.0012443328741937876
0.0010881501948460937
0.0009148977696895599
0.0012153181014582515
0.0022721225395798683
0.0021210499107837677
0.0015065226471051574
0.0013423857744783163
0.0020442770328372717
0.0019481865456327796
0.0009641891811043024
0.0012364182621240616
0.0008723626378923655
0.0010152074974030256
0.0016631500329822302
0.0018766389694064856
0.0011587148765102029
0.0021324772387742996
0.0009861225262284279
0.0007417919114232063
0.0015582009218633175
0.002291253535076976
0.004977753385901451
0.0022784839384257793
0.0010721201542764902
0.0020272107794880867
0.0009101210744120181
0.0012560300529003143
0.0020072562620043755
0.0007225429289974272
0.001084036659449339
0.0010231885826215148
0.002338408725336194
0.0006521047907881439
0.0005836343043483794
0.0014822179218754172
0.00139168044552207
0.0016356285195797682
0.002023086417466402
0.0018225664971396327
0.002687969012185931
0.0013560322113335133
0.0026205878239125013
0.0011835279874503613
0.0015388340689241886
0.000917353667318821
0.0013491769786924124
0.0010663249995559454
0.0014078362146392465
0.002306228969246149
0.0004750647640321404
0.0017281174659729004
0.0012049389770254493
0.0007336343405768275
0.000767063582316041
0.0008620492299087346
0.001975293504074216
0.0018078489229083061
0.0014005411649122834
0.0011820952640846372
0.0005678587476722896
0.0015797828091308475
0.0014432586031034589
0.0027974480763077736
0.0018232128350064158
0.0012333588674664497
0.0010410279501229525
0.0014336025342345238
0.0019618412479758263
0.001367370132356882
0.0014146644389256835
0.0008256835280917585
0.0024378877133131027
0.000982853234745562
0.0015326656866818666
0.0011165222385898232
0.0008360813371837139
0.0013282475993037224
0.0016377754509449005
0.0018466657493263483
0.0005337088950909674
0.002058976562693715
0.0015126229263842106
0.0009676484623923898
0.0015334156341850758
0.0006968543748371303
0.0010353076504543424
0.0017252613324671984
0.0032381692435592413
0.0007537477067671716
0.0016744786407798529
0.0005931685445830226
0.0017414784524589777
0.0029625629540532827
0.0006792063359171152
0.003208888927474618
0.00045439647510647774
0.0013928472762927413
0.0009563153726048768
0.0005351043655537069
0.0006441855803132057
0.0009653005399741232
0.0016197626246139407
0.0012702016392722726
0.0015075092669576406
0.000947616237681359
0.0004561329842545092
0.0012412796495482326
0.0017766591627150774
0.0010237611131742597
0.0012029112549498677
0.0009792421478778124
0.0021548366639763117
0.002049322472885251
0.003969543147832155
0.002690377878025174
0.0009566638036631048
0.0011852510506287217
0.0021608800161629915
0.0010965104447677732
0.0009997239103540778
0.0021385173313319683
0.0016983704408630729
0.0011055360082536936
0.0004144156991969794
0.0008671761024743319
0.0012197705218568444
0.0026015539187937975
0.002388803521171212
0.0005756608443334699
0.0019926356617361307
0.0016744304448366165
0.00274076615460217
0.00047116511268541217
0.001099928398616612
0.0013893423601984978
0.0012565383221954107
0.0009526877547614276
0.004057596437633038
0.0010285619646310806
0.004527594894170761
0.002333225915208459
0.0006067762733437121
0.0008304648217745125
0.0014144618762657046
0.0013737028930336237
0.0010469502303749323
0.0018617672612890601
0.0015158470487222075
0.00025018741143867373
0.0012898891000077128
0.0025792010128498077
0.0009091647225432098
0.0016266958555206656
0.002652524271979928
0.0017298185266554356
0.0026774087455123663
0.0012210187269374728
0.0007103142561390996
0.0011943430872634053
0.0022570493165403605
0.0010669357143342495
0.0026262584142386913
0.0021642339415848255
0.0025445427745580673
0.0005767348920926452
0.0016056762542575598
0.0008613141253590584
0.0011615289840847254
0.0015429132618010044
0.0007305713952519
0.0015876574907451868
0.0007371190586127341
0.0009767049923539162
0.001314647262915969
0.0012545690406113863
0.0010477590840309858
0.0017770918784663081
0.0009521595784462988
0.0016083871014416218
0.0014433793257921934
0.0008108266047202051
0.001646272954531014
0.0006900098524056375
0.0010803600307554007
0.0009823868749663234
0.0009275313350372016
0.0014210045337677002
0.0009515566634945571
0.0009482791647315025
0.0002131042565451935
0.0013916944153606892
0.0013022884959354997
0.0006462384480983019
0.0011481695109978318
0.0011678406735882163
0.0008559596026316285
0.0010560598457232118
0.0016975055914372206
0.0006252075545489788
0.0009396591340191662
0.0003305404679849744
0.0029580993577837944
0.0010215153452008963
0.0014047784497961402
0.003083990653976798
0.0003472454845905304
0.001564014470204711
0.0013413582928478718
0.001323114731349051
0.0005822189850732684
0.000859435589518398
0.0016407729126513004
0.0009953941917046905
0.0014332833234220743
0.0022341199219226837
0.005254125222563744
0.001191123970784247
0.0009614418959245086
0.0014409087598323822
0.0004573530168272555
0.0024765911512076855
0.0007257099496200681
0.002560627181082964
0.0014764375519007444
0.0016755397664383054
0.001560600707307458
0.0021030353382229805
0.0016479607438668609
0.0007428619428537786
0.0011857403442263603
0.0025805369950830936
0.0015555090503767133
0.001324945711530745
0.0002603766042739153
0.002716792281717062
0.0009744357084855437
0.001413616817444563
0.002082795137539506
0.0007170952740125358
0.0015004865126684308
0.00137736601755023
0.001915443455800414
0.0023085996508598328
0.0008368543349206448
0.0010461085475981236
0.0008876939537003636
0.0025054116267710924
0.0013450351543724537
0.0008163235615938902
0.0012621012283489108
0.0025763625744730234
0.0018245053943246603
0.0013519090134650469
0.0008438288932666183
0.0014890157617628574
0.0013439543545246124
0.0007437866297550499
0.002059707185253501
0.0011074452195316553
0.0010513894958421588
0.000988254090771079
0.004839316476136446
0.0018776800716295838
0.0005835258052684367
0.0007793607073836029
0.0009714520419947803
0.0018348251469433308
0.0015331683680415154
0.0018217293545603752
0.0023097977973520756
0.0008146853651851416
0.0008010684978216887
0.0034458772279322147
0.0018654164159670472
0.0007694836822338402
0.0005243088817223907
0.0019366699270904064
0.0018924246542155743
0.002752021886408329
0.0023607127368450165
0.0017691421089693904
0.0012374420184642076
0.000735778477974236
0.0019340411527082324
0.00044430591515265405
0.0016882086638361216
0.0008154113311320543
0.0031485282815992832
0.0014711016556248069
0.0018116898136213422
0.001352077815681696
0.0007106766570359468
0.0015907762572169304
0.0009157640160992742
0.003197984304279089
0.001737594953738153
0.0025052661076188087
0.003979735542088747
0.00018534022092353553
0.0022519065532833338
0.002246858784928918
0.0012243158416822553
0.0015427364269271493
0.0015135706635192037
0.002263055182993412
0.0015396155649796128
0.0008868020959198475
0.0010345224291086197
0.0016871351981535554
0.0008837390341795981
0.0016639727400615811
0.002193522173911333
0.0004127655120100826
0.00033272532164119184
0.001164879184216261
0.0008192865061573684
0.0016269818879663944
0.0017105737933889031
0.0009673126041889191
0.0006947923684492707
0.0021301356609910727
0.0010577559005469084
0.001407375792041421
0.0009874359238892794
0.0017211243975907564
0.0033884525764733553
0.0012803380377590656
0.0008672906551510096
0.0014880177332088351
0.0027796109206974506
0.0027402692940086126
0.0005815978511236608
0.0006097026052884758
0.0017190227517858148
0.0016803895123302937
0.001984943402931094
0.001434764009900391
0.002915031975135207
0.0073999627493321896
0.0016446160152554512
0.0008572894148528576
0.0011299572652205825
0.0006064216722734272
0.0011162188602611423
0.0009754807106219232
0.0012372254859656096
0.001808409346267581
0.0033731332514435053
0.0032264264300465584
0.0016425736248493195
0.0015739549417048693
0.0009944263147190213
0.0049696010537445545
0.0028400111477822065
0.0038944007828831673
0.0011179681168869138
0.0010562515817582607
0.0013930384302511811
0.0011940398253500462
0.005546260625123978
0.0013721772702410817
0.0018762029940262437
0.0028954301960766315
0.0006612398428842425
0.001368944300338626
0.0013368403306230903
0.0005468094605021179
0.001972080674022436
0.0008229903178289533
0.0015926609048619866
0.0012138491729274392
0.0011599684366956353
0.000996634946204722
0.00036719266790896654
0.0026220721192657948
0.0014196999836713076
0.0005681025213561952
0.0014898414956405759
0.0007028020336292684
0.0015839141560718417
0.002115600975230336
0.0018875650130212307
0.0008130173082463443
0.0013941371580585837
0.0010052849538624287
0.0011119648115709424
0.000880847277585417
0.0026961159892380238
0.001564027857966721
0.0004895952879451215
0.002581055974587798
0.0015231353463605046
0.0018394694197922945
0.0010056272149085999
0.0015097870491445065
0.0010784221813082695
0.0008189578074961901
0.0009768371237441897
0.001346950070001185
0.0004070047289133072
0.004741221200674772
0.001423168578185141
0.0012492352398112416
0.0011823669774457812
0.002488018712028861
0.0006648144335485995
0.0019451933912932873
0.0008780566276982427
0.0011823074892163277
0.0009337835945188999
0.000893066287972033
0.002096043433994055
0.0008339644409716129
0.0007691343780606985
0.0012282745447009802
0.0014072703197598457
0.00093408627435565
0.0008463208796456456
0.002882631728425622
0.002623114036396146
0.0010471808491274714
0.0025656549260020256
0.00121647072955966
0.0013497229665517807
0.0016964161768555641
0.0006982387276366353
0.0009749457240104675
0.001367779215797782
0.0011226014466956258
0.0007389750680886209
0.002696988405659795
0.0010627985466271639
0.0009051623055711389
0.0007706555770710111
0.0011668162187561393
0.0007260139682330191
0.0036014949437230825
0.0008620716980658472
0.0006533154519274831
0.0010650638723745942
0.0012358077801764011
0.002999192802235484
0.001231635920703411
0.0029119488317519426
0.0011806642869487405
0.0023604880552738905
0.0025859989691525698
0.0019558570347726345
0.0011690325336530805
0.000679459422826767
0.0012237090850248933
0.00023768359096720815
0.0015331852482631803
0.0007428827229887247
0.0008703288622200489
0.0009524108027108014
0.0009370339103043079
0.0021584455389529467
0.0007834882126189768
0.001212754868902266
0.000616114994045347
0.001713098376058042
0.0017237721476703882
0.0010658338433131576
0.00039036088855937123
0.00118724734056741
0.003453244687989354
0.0008914369973354042
0.0009363447315990925
0.0008747607935220003
0.0011430471204221249
0.0006135617149993777
0.0009981539333239198
0.0007008551037870347
0.0008738567121326923
0.002381459344178438
0.0015678994823247194
0.0019459822215139866
0.0013025666121393442
0.0058354646898806095
0.0006600652704946697
0.0017045900458469987
0.0009426404139958322
0.0015584634384140372
0.0007960877846926451
0.0018854490481317043
0.0012385901063680649
0.00026650563813745975
0.000867367722094059
0.0010049870470538735
0.0017896059434860945
0.00207930663600564
0.0021726549603044987
0.0005403605755418539
0.002343143103644252
0.0028813749086111784
0.000753506668843329
0.0016479500336572528
0.0010444018989801407
0.002345360117033124
0.0014137773541733623
0.0017242094036191702
0.0018760667880997062
0.0020495119970291853
0.0020692211110144854
0.0011876001954078674
0.002025436144322157
0.0008023265399970114
0.002611177507787943
0.0005946995806880295
0.0024158721789717674
0.001047466997988522
0.0011931296903640032
0.002254379913210869
0.0016594320768490434
0.0027680613566190004
0.0014485676074400544
0.001904951874166727
0.0002148425264749676
0.0002990294306073338
0.0014864228432998061
0.0003917153808288276
0.0020430241711437702
0.0014028683071956038
0.0007922312361188233
0.0015636205207556486
0.0009865774773061275
0.001656730892136693
0.0036045077722519636
0.0012297576759010553
0.0013068937696516514
0.0007854684954509139
0.0021531209349632263
0.0002744391094893217
0.001602718373760581
0.0013173117768019438
0.0009803371503949165
0.0027885513845831156
0.0015241303481161594
0.0019252755446359515
0.005250041838735342
0.0005841346574015915
0.0011227852664887905
0.000443797092884779
0.0011690391693264246
0.0010397424921393394
0.0008791388245299459
0.0011165790492668748
0.0015846345340833068
0.0007903178338892758
0.002151943976059556
0.002247584518045187
0.00181111681740731
0.001471164170652628
0.0008479631505906582
0.0012296864297240973
0.0008260312024503946
0.004859778564423323
0.00032927925349213183
0.0005953009240329266
0.003410900477319956
0.0011698240414261818
0.0016337063862010837
0.001313279615715146
0.0010370223317295313
0.002487733494490385
0.0008718681056052446
0.0005879816599190235
0.00034092101850546896
0.002060460392385721
0.0038313993718475103
0.002358398400247097
0.0016940016066655517
0.0009517495054751635
0.0005388255813159049
0.0015805421862751245
0.0019169768784195185
0.0009097081492654979
0.0018392408965155482
0.0016547924606129527
0.0007851753616705537
0.003027617232874036
0.0020804470404982567
0.0010432861745357513
0.0012411767384037375
0.0008642661268822849
0.0012148866662755609
0.000920741877052933
0.001621675561182201
0.001810846384614706
0.0013002699706703424
0.0030219058971852064
0.001391078345477581
0.0012271591695025563
0.0004933225573040545
0.0026886588893830776
0.0015023781452327967
0.0013007066445425153
