0.0014071217738091946
0.0014045446878299117
0.0021036840043962
0.00221135257743299
0.0018925023032352328
0.0012405759189277887
0.0015886726323515177
0.001502971863374114
0.0019076416501775384
0.0017544722650200129
0.0013230997137725353
0.0013163815019652247
0.0025692693889141083
0.0012462388258427382
0.0011759836925193667
0.0009792036144062877
0.0011342974612489343
0.0019330666400492191
0.0016627804143354297
0.0018569505773484707
0.0012082339962944388
0.0018098435830324888
0.0012548209633678198
0.002104386454448104
0.0014402539236471057
0.0017928548622876406
0.0011309331748634577
0.0013067269464954734
0.001440183143131435
0.0014483088161796331
0.0015162787167355418
0.0013601507525891066
0.001994761638343334
0.0015765575226396322
0.002258539665490389
0.0015193646540865302
0.001766958157531917
0.0018748337170109153
0.0020087934099137783
0.0008787894621491432
0.001443760935217142
0.0021021405700594187
0.0019130123546347022
0.0029399304185062647
0.0010322467423975468
0.0013110372237861156
0.0012231693835929036
0.003510282840579748
0.0016381465829908848
0.0012924153124913573
0.0015559523599222302
0.0017061794642359018
0.001124040805734694
0.0013476671883836389
0.0011485894210636616
0.0013824575580656528
0.0018161601619794965
0.001945257536135614
0.0016867617378011346
0.002357075922191143
0.0013855977449566126
0.0015924167819321156
0.0013194122584536672
0.0009471966768614948
0.001258745905943215
0.0019627180881798267
0.0018474834505468607
0.0010698703117668629
0.0020224011968821287
0.0015883385203778744
0.0012702149106189609
0.0014558476395905018
0.00329814781434834
0.0021549719385802746
0.0013157047796994448
0.001790303853340447
0.00251568085514009
0.001710021635517478
0.0019211870385333896
0.0018133517587557435
0.001490795984864235
0.0014050101162865758
0.001639649854041636
0.0026823696680366993
0.0015862112632021308
0.001458209240809083
0.0035157320089638233
0.002350912196561694
0.0016875299625098705
0.0018910489743575454
0.0010313799139112234
0.0020069426391273737
0.0012059026630595326
0.0014055258361622691
0.0019024090142920613
0.001288330415263772
0.0028694760985672474
0.0013766007032245398
0.0013425038196146488
0.0010016423184424639
0.0015793218044564128
0.0010678679682314396
0.0019399495795369148
0.001303706201724708
0.0013515319442376494
0.0013471990823745728
0.0016329733189195395
0.00130428746342659
0.0035126996226608753
0.0015803109854459763
0.0018655614694580436
0.0012285171542316675
0.0019488080870360136
0.0017013910692185163
0.002204748336225748
0.0012940862216055393
0.0017006826819851995
0.0019224615534767509
0.0011075674556195736
0.0020896962378174067
0.0016890406841412187
0.0015464696334674954
0.0018051100196316838
0.0019361444283276796
0.002695197705179453
0.001625657663680613
0.0016127757262438536
0.0011705101933330297
0.0016879180911928415
0.0014949229080229998
0.001843061181716621
0.0016141311498358846
0.0018244838574901223
0.0017561226850375533
0.002664208645001054
0.0013537297490984201
0.0036989457439631224
0.0010227699531242251
0.0013821081956848502
0.0009954170091077685
0.0019256140803918242
0.0013602235121652484
0.001557741081342101
0.0015870027709752321
0.001569875399582088
0.001569233019836247
0.002175448229536414
0.0015730229206383228
0.001836338429711759
0.0019757114350795746
0.0021557060535997152
0.0018433367367833853
0.001296760281547904
0.002366616390645504
0.0006684434483759105
0.0013071725843474269
0.0015054321847856045
0.0015848616603761911
0.0012910207733511925
0.0030554409604519606
0.002952875103801489
0.0019509212579578161
0.001853589084930718
0.0014767993707209826
0.00180897768586874
0.0015917080454528332
0.0013862947234883904
0.001418907311744988
0.001218014513142407
0.0013745126780122519
0.0028177264612168074
0.0016224634600803256
0.0017596425022929907
0.0013485971139743924
0.0023147109895944595
0.0018205818487331271
0.0013477386673912406
0.0017322126077488065
0.0018911964725703
0.0014507134910672903
0.0019339065765962005
0.001729451003484428
0.0033197200391441584
0.0016705661546438932
0.0029869491700083017
0.0014055202482268214
0.002053695498034358
0.0016292036743834615
0.0012854869710281491
0.0014156176475808024
0.0019854370038956404
0.0015590909169986844
0.001890271669253707
0.0018735979683697224
0.0014773417497053742
0.0019454453140497208
0.0012139584869146347
0.0011919098906219006
0.0018341351533308625
0.0015793063212186098
0.0018803420243784785
0.0017649132059887052
0.0013283842708915472
0.0020007684361189604
0.0026021460071206093
0.0018632467836141586
0.0012716029305011034
0.0018919636495411396
0.002277832245454192
0.0013588423607870936
0.0015169570688158274
0.00141835433896631
0.0013171378523111343
0.001827077241614461
0.0030476318206638098
0.0015979252057150006
0.0017725732177495956
0.001581790391355753
0.00170932209584862
0.0017759253969416022
0.0016314147505909204
0.0016984734684228897
0.0013863930944353342
0.001121021923609078
0.0016925727250054479
0.001556146307848394
0.001348872552625835
0.0013000322505831718
0.0017204133328050375
0.001103731570765376
0.0016021275660023093
0.0020904759876430035
0.0015974915586411953
0.0014216131530702114
0.0022926819510757923
0.0012810115003958344
0.0030825284775346518
0.0012659580679610372
0.002409349661320448
0.0018530101515352726
0.001062439288944006
0.0016726106405258179
0.003403487615287304
0.0034254121128469706
0.001301170908845961
0.0014432769967243075
0.0027060997672379017
0.0011760746128857136
0.001940597197972238
0.0014509543543681502
0.0019656347576528788
0.0018757511861622334
0.0020693272817879915
0.0016967899864539504
0.0016115945763885975
0.0007405736832879484
0.002509716898202896
0.001146229449659586
0.0013029081746935844
0.001097598928026855
0.002881498308852315
0.001523394021205604
0.0026732601691037416
0.0012597856111824512
0.0011409084545448422
0.0018313484033569694
0.001368891797028482
0.001300800940953195
0.0028156430926173925
0.0019376418786123395
0.0010745441541075706
0.002152914647012949
0.0019395044073462486
0.0014521434204652905
0.0025233684573322535
0.0014344502706080675
0.0014802369987592101
0.0014321942580863833
0.0023639965802431107
0.0014485468855127692
0.0015972217079252005
0.001084736897610128
0.0013270722702145576
0.001918996567837894
0.001943117007613182
0.0012637423351407051
0.0018101445166394114
0.002008714247494936
0.0015260494546964765
0.0016838154988363385
0.002203890820965171
0.002324864733964205
0.0021778829395771027
0.0017523907590657473
0.0014435979537665844
0.001331453793682158
0.0022042097989469767
0.001499443780630827
0.0018148533999919891
0.0014195638941600919
0.001719257328659296
0.0015165471704676747
0.0016329166246578097
0.0016562845557928085
0.002159055322408676
0.0019451107364147902
0.0017168988706544042
0.0014203180326148868
0.0012513359542936087
0.003420829540118575
0.0013578280340880156
0.0018850528867915273
0.0015880998689681292
0.00235771294683218
0.002603383269160986
0.001326048281043768
0.0016932339640334249
0.0017189240315929055
0.0025353555101901293
0.00174169079400599
0.0019116975599899888
0.0012227538973093033
0.0016300581628456712
0.0016408718656748533
0.002626939443871379
0.0020237790886312723
0.0019009842071682215
0.0018358146771788597
0.0014706072397530079
0.002859745640307665
0.0040521021001040936
0.00148613506462425
0.001170180388726294
0.0031541825737804174
0.0014253422850742936
0.0013354072580114007
0.0012836800888180733
0.001504678511992097
0.002385615138337016
0.0018348742742091417
0.0011698075104504824
0.0027287297416478395
0.0015438380651175976
0.0015801285626366735
0.0015871420037001371
0.0011531665222719312
0.001688007963821292
0.001498446916230023
0.0020391615107655525
0.0011782388901337981
0.001847767736762762
0.0026895671617239714
0.0010043458314612508
0.0015242970548570156
0.001962592825293541
0.00150746526196599
0.0023264680057764053
0.0028840091545134783
0.0014684101333841681
0.0016394683625549078
0.002738413866609335
0.0012321319663897157
0.0018989036325365305
0.001780789578333497
0.0020850272849202156
0.0018303387332707644
0.0011077886447310448
0.0023794532753527164
0.0030419237446039915
0.001672383164986968
0.001940635615028441
0.0014310063561424613
0.0013403240591287613
0.001429815893061459
0.0012574285501614213
0.00134994403924793
0.0021912825759500265
0.0012086600763723254
0.0020655998960137367
0.0018016548128798604
0.0015268418937921524
0.0014958278043195605
0.0016314301174134016
0.0012117110891267657
0.00197155331261456
0.002598063787445426
0.001396769192069769
0.003022954799234867
0.0017197519773617387
0.0014428511494770646
0.002310766838490963
0.003134703729301691
0.0012549019884318113
0.001751723000779748
0.0011924986029043794
0.0021011841017752886
0.001297113485634327
0.0013205225113779306
0.0010816034628078341
0.0013805904891341925
0.0012787514133378863
0.0013639837270602584
0.0018173505086451769
0.0017570818308740854
0.0027672541327774525
0.0015208818949759007
0.001931015751324594
0.0011456715874373913
0.0018009337363764644
0.0017394012538716197
0.0015208673430606723
0.0014992121141403913
0.0031271888874471188
0.0015344393905252218
0.0015679473290219903
0.004445079248398542
0.0015780061949044466
0.0018749459413811564
0.0018041623989120126
0.0023751012049615383
0.0012341560795903206
0.0015596802113577724
0.0011828845599666238
0.00141778658144176
0.0014409670839086175
0.0015409647021442652
0.0017210401128977537
0.0014160320861265063
0.0013067341642454267
0.001992088044062257
0.0013361023738980293
0.0016742319567129016
0.0014147153124213219
0.0014528328320011497
0.0017892017494887114
0.0017612683586776257
0.0015039602294564247
0.0025553463492542505
0.0016826040809974074
0.001919034169986844
0.0015973527915775776
0.001343705109320581
0.0035916382912546396
0.0012062712339684367
0.0016581232193857431
0.0017251764656975865
0.0029514788184314966
0.0022568160202354193
0.0014069528551772237
0.0017998816911131144
0.0016765020554885268
0.0030373043846338987
0.002487221034243703
0.0012906648917123675
0.0019362560706213117
0.0017437469214200974
0.0009614029549993575
0.0012813203502446413
0.00297704990953207
0.0014462822582572699
0.0010718075791373849
0.001801967853680253
0.0011033196933567524
0.00192952249199152
0.0011692445259541273
0.0017109463224187493
0.0010730259818956256
0.0014705428620800376
0.0012464865576475859
0.0015198421897366643
0.0016825853381305933
0.0012708273716270924
0.0016078960616141558
0.0022187884896993637
0.001525596366263926
0.0014017648063600063
0.0020955230575054884
0.0013488354161381721
0.001975922379642725
0.0016080373898148537
0.0016968887066468596
0.001791680697351694
0.002338518388569355
0.0013776683481410146
0.0016401222674176097
0.0019002762855961919
0.0016480335034430027
0.002192790387198329
0.0014430510345846415
0.0014444811968132854
0.0038303546607494354
0.0013665644219145179
0.001390612218528986
0.001626094919629395
0.0032774752471596003
0.0014125860761851072
0.001709753880277276
0.001198717625811696
0.001773192430846393
0.0014667302602902055
0.002242772839963436
0.0015308152651414275
0.0012936898274347186
0.0020148702897131443
0.0017413062741979957
0.0014486457221210003
0.001511039910838008
0.0016659906832501292
0.0016659613465890288
0.0011930160690099
0.0016991767333820462
0.0015118748415261507
0.0014551926869899035
0.0016113411402329803
0.0015000476269051433
0.0010318534914404154
0.0014796695904806256
0.0026199582498520613
0.0023707302752882242
0.0026614076923578978
0.002004435984417796
0.0013128325808793306
0.0017280818428844213
0.0009354780777357519
0.001459058839827776
0.001375160994939506
0.0011817284394055605
0.0014583455631509423
0.0013268333859741688
0.0013307594927027822
0.0020120544359087944
0.0026775214355438948
0.0017299049068242311
0.0020728358067572117
0.001391267403960228
0.0017679686425253749
0.0018573574488982558
0.004410498775541782
0.0012424038723111153
0.0013845262583345175
0.0023679498117417097
0.0012299956288188696
0.0015674515161663294
0.0030251196585595608
0.0019762939773499966
0.00165129778906703
0.0014457320794463158
0.001614417415112257
0.001332400948740542
0.0021440451964735985
0.0013279039412736893
0.0016400855965912342
0.0015071089146658778
0.0015253055607900023
0.002639089711010456
0.0014826202532276511
0.0016253998037427664
0.00281054456718266
0.0020142854191362858
0.0014175879769027233
0.0027048583142459393
0.0014907087897881866
0.0018719981890171766
0.001188597409054637
0.0014190844958648086
0.0013028292451053858
0.0011103361612185836
0.0012392953503876925
0.0023085009306669235
0.001827932195737958
0.0015320886159315705
0.0014735930599272251
0.001479506492614746
0.0012510725064203143
0.0007716691470704973
0.001859399606473744
0.0018685023533180356
0.0011554835364222527
0.0016072221333160996
0.0014724673237651587
0.0017300902400165796
0.0018867419566959143
0.0012131441617384553
0.0026002407539635897
0.001336579560302198
0.0015930855879560113
0.001826773164793849
0.0018401206471025944
0.0020265488419681787
0.0013926653191447258
0.0013843284687027335
0.001085673226043582
0.0022362456656992435
0.001672312617301941
0.002078365534543991
0.0013378695584833622
0.001398788532242179
0.000985866179689765
0.001374125829897821
0.0015717960195615888
0.0024836244992911816
0.0032181430142372847
0.0013674745569005609
0.0013633565977215767
0.0019285216694697738
0.0025034225545823574
0.0010231652995571494
0.0012313824845477939
0.0019032243872061372
0.0012485269689932466
0.0017634775722399354
0.0010776109993457794
0.0022123237140476704
0.0016365079209208488
0.001474298071116209
0.001702602137811482
0.0017232869286090136
0.002041625091806054
0.0017113189678639174
0.00129184580873698
0.0013301072176545858
0.0012400321429595351
0.0018525274936109781
0.00268841115757823
0.0012917094863951206
0.0025098605547100306
0.0013385115889832377
0.00167920533567667
0.0019036714220419526
0.0020095433574169874
0.0028730263002216816
0.0008277380256913602
0.001537127187475562
0.002964276121929288
0.001819460652768612
0.0018343791598454118
0.0009682144154794514
0.001208312576636672
0.0015327867586165667
0.001499595702625811
0.0023824330419301987
0.0015013297088444233
0.0014462001854553819
0.0017012347234413028
0.0021188671234995127
0.00163272675126791
0.002382181119173765
0.001330840983428061
0.0020592100918293
0.0031781839206814766
0.0020616978872567415
0.001686121802777052
0.0014194593532010913
0.0020051272585988045
0.0017520172987133265
0.0016282101860269904
0.002224548254162073
0.0011908342130482197
0.001566586666740477
0.0027144888881593943
0.002000975888222456
0.0016404243651777506
0.0010316435946151614
0.0014661169843748212
0.0019484537187963724
0.0016875357832759619
0.0021315051708370447
0.001799434539861977
0.0031769988127052784
0.001542156795039773
0.0020041384268552065
0.001553753623738885
0.0014785469975322485
0.0011645605554804206
0.0020352855790406466
0.0021202184725552797
0.001428866176865995
0.001855322509072721
0.0017027414869517088
0.0014245304046198726
0.002114878734573722
0.0012477909913286567
0.0020490819588303566
0.0013620734680444002
0.001316841458901763
0.0021778589580208063
0.0020620671566575766
0.0014000753872096539
0.0015969069208949804
0.001988649135455489
0.0012903067981824279
0.001332920859567821
0.0015953989932313561
0.0012018595589324832
0.0013240756234154105
0.0025882525369524956
0.0022501572966575623
0.0021234529558569193
0.001766311819665134
0.0017921848921105266
0.0013512400910258293
0.0013195178471505642
0.0018853924702852964
0.0017665473278611898
0.0027205024380236864
0.0016487028915435076
0.0022474259603768587
0.002114433329552412
0.0015641627833247185
0.0016426293877884746
0.001504684565588832
0.0013246716698631644
0.0022799065336585045
0.003015283029526472
0.001403286587446928
0.0018797883531078696
0.0022458313032984734
0.0013079107739031315
0.0018864180892705917
0.002852702047675848
0.0023210314102470875
0.0023305935319513083
0.0014302238123491406
0.0017174844397231936
0.0022693919017910957
0.0028989817947149277
0.0018104080809280276
0.0029071427416056395
0.0020026303827762604
0.002215157961472869
0.0025125646498054266
0.0014465507119894028
0.0014983360888436437
0.002305380767211318
0.001253307331353426
0.0031185857951641083
0.0015267831040546298
0.0015211544232442975
0.0008945466252043843
0.0011508571915328503
0.0027413491625338793
0.001798728364519775
0.0016800364246591926
0.0015883110463619232
0.002042062347754836
0.0013676113449037075
0.0017512320773676038
0.002172196749597788
0.0029433094896376133
0.0027351570315659046
0.0019711232744157314
0.001426645671017468
0.001125569804571569
0.0016753729432821274
0.0015891497023403645
0.0013463349314406514
0.0018252896843478084
0.001378971035592258
0.0012381672859191895
0.003430337645113468
0.0013516758335754275
0.0012614973820745945
0.0014327227836474776
0.0014554064255207777
0.0034627129789441824
0.0015802427660673857
0.0018471194198355079
0.001409501419402659
0.001256123068742454
0.000931793765630573
0.002037170808762312
0.0017663930775597692
0.0011919320095330477
0.0016303100856021047
0.0029526117723435163
0.001476379344239831
0.001868792693130672
0.0012156062293797731
0.0015237507177516818
0.0015802545240148902
0.001836108509451151
0.0015236405888572335
0.0016060686903074384
0.002614106284454465
0.0027793217450380325
0.0015221828361973166
0.001499608508311212
0.0018267016857862473
0.0011838838690891862
0.0017526968149468303
0.0015946250641718507
0.0018424190348014235
0.0014329918194562197
0.002064080908894539
0.0013847281225025654
0.0007835026481188834
0.002824461320415139
0.001409941352903843
0.0013618387747555971
0.001242698053829372
0.002686836989596486
0.0014761508209630847
0.0018498485442250967
0.0010651369811967015
0.0016837584553286433
0.0012040592264384031
0.0031045309733599424
0.0022618244402110577
0.0011834331089630723
0.0020998993422836065
0.0015474115498363972
0.0015303626423701644
0.0010788623476400971
0.0015274513280019164
0.002345598768442869
0.0020262517500668764
0.0013835690915584564
0.0015636141179129481
0.0024502945598214865
0.0021273696329444647
0.0012736542848870158
0.0014166398905217648
0.001300991978496313
0.0013634453061968088
0.0010156776988878846
0.0026782492641359568
0.0036054241936653852
0.0013503098161891103
0.002039132174104452
0.00271753896959126
0.0020819371566176414
0.002360926941037178
0.0020657056011259556
0.0021553889382630587
0.0014366661198437214
0.0015650750137865543
0.0008755815215408802
0.0013696241658180952
0.0015264800749719143
0.0027713291347026825
0.0018922380404546857
0.0010906703537330031
0.0015796778025105596
0.0013117584167048335
0.001505378051660955
0.001845294376835227
0.0015734905609861016
0.001493822899647057
0.0010355451377108693
0.0023302389308810234
0.0029086959548294544
0.0031910149846225977
0.0016646900912746787
0.002039808314293623
0.0011212395038455725
0.0015012113144621253
0.0015456436667591333
0.0019191092578694224
0.0013047353131696582
0.0015942323952913284
0.0013041357742622495
0.0026308614760637283
0.0014986571623012424
0.002744376426562667
0.0018259744392707944
0.0013232160126790404
0.0031247062142938375
0.00192155665718019
0.0012251815060153604
0.0012404362205415964
0.0014711286639794707
0.0012965035857632756
0.0027495091781020164
0.0011740084737539291
0.0020955137442797422
0.0016185480635613203
0.0014972174540162086
0.0018064125906676054
0.0013511722208932042
0.00397805031388998
0.0014693709090352058
0.0012892220402136445
0.002038925653323531
0.0022494520526379347
0.002089435700327158
0.0014640998560935259
0.0017795795574784279
0.002188630634918809
0.002025539055466652
0.0015565541107207537
0.001740874839015305
0.003529453882947564
0.0018834850052371621
0.001701918663457036
0.0012858844129368663
0.0018060676520690322
0.0011885995045304298
0.0013980052899569273
0.0024596177972853184
0.0016231382032856345
0.0017741706687957048
0.0020633370149880648
0.001679071574471891
0.002241982612758875
0.0013547670096158981
0.0015328339068219066
0.0016810105880722404
0.0011542171705514193
0.0009872025111690164
0.0018244324019178748
0.0016942414222285151
0.002284521237015724
0.0023851380683481693
0.0025687417946755886
0.0013428113888949156
0.0015429190825670958
0.0007931609870865941
0.0013194485800340772
0.001836966024711728
0.0025288641918450594
0.0013832978438585997
0.0017034278716892004
0.0024016909301280975
0.0015418370021507144
0.0020693615078926086
0.0013703053118661046
0.0019685691222548485
0.0017912436742335558
0.00252952566370368
0.001212489791214466
0.0011053120251744986
0.0013527425471693277
0.0016406506765633821
0.0012407840695232153
0.0018254786264151335
0.0017580456333234906
0.0018179911421611905
0.001267915708012879
0.0013684678124263883
0.0012004462769255042
0.0021548799704760313
0.002160894451662898
0.001602467498742044
0.00144171342253685
0.0010257414542138577
0.0011603524908423424
0.0012981193140149117
0.0020888247527182102
0.0014932270860299468
0.001430789357982576
0.001215655356645584
0.0020685112103819847
0.0015058211283758283
0.003071714425459504
0.0016842770855873823
0.002162066288292408
0.0014775253366678953
0.0013405384961515665
0.001746702240779996
0.0012960325693711638
0.00183764286339283
0.0016949849668890238
0.0021362598054111004
0.0022436114959418774
0.002716503106057644
0.0021008686162531376
0.0020465294364839792
0.0016868442762643099
0.0014545377343893051
0.0016633027698844671
0.0014338454930111766
0.0017621470615267754
0.0009710495360195637
0.0014868476428091526
0.002211624290794134
0.0031109272968024015
0.0012087344657629728
0.0015033107483759522
0.0025757888797670603
0.0015836342936381698
0.0021204613149166107
0.002794465282931924
0.0024229155387729406
0.0014017977518960834
0.0017954835202544928
0.0010893659200519323
0.0015762187540531158
0.0014504555147141218
0.0014863441465422511
0.0014653652906417847
0.0007746295304968953
0.0018938080174848437
0.003221545135602355
0.0019523520022630692
0.0018783165141940117
0.0031044860370457172
0.0017556416569277644
0.0015828512841835618
0.0013837721198797226
0.0018987682415172458
0.0015362740959972143
0.0015397240640595555
0.0012399902334436774
0.001942113391123712
0.001465161214582622
0.002416580682620406
0.0026073791086673737
0.0015219968045130372
0.001155812293291092
0.0017439420334994793
0.0014347919495776296
0.0016846813960000873
0.00148152862675488
0.001802131300792098
0.001696195686236024
0.001680408720858395
0.001728444593027234
0.0012119917664676905
0.0012056976556777954
0.0021979089360684156
0.0018226677784696221
0.001749110291711986
0.002201660070568323
0.001437874510884285
0.0013670112239196897
0.002423393540084362
0.0016382255125790834
0.001556276809424162
0.001790995942428708
0.001881996518932283
0.0025819565635174513
0.001673019491136074
0.0021174282301217318
0.0015191375277936459
0.0010935498867183924
0.0013847192749381065
0.002563562709838152
0.0012142494088038802
0.001718444749712944
0.001016915077343583
0.0014893010957166553
0.002274247584864497
0.0015158704482018948
0.002184400102123618
0.002273957710713148
0.001427671522833407
0.0022523270454257727
0.001306244870647788
0.0015482357703149319
0.0012124518398195505
0.001968427561223507
0.001696065766736865
0.0012774290516972542
0.001912604784592986
0.0017409584252163768
0.0015036399709060788
0.0031548095867037773
0.0019222223199903965
0.0020583600271493196
0.0014188747154548764
0.0017292083939537406
0.001272483728826046
0.0014744747895747423
0.0017110636690631509
0.0018539935117587447
0.0022315073292702436
0.001502876984886825
0.001761066378094256
0.0020029288716614246
0.001685460563749075
0.001440388266928494
0.0029614027589559555
0.0024200663901865482
0.0018083405448123813
0.0014966713497415185
0.0024892285000532866
0.0021787243895232677
0.0012254170142114162
0.0014961914857849479
0.001567875500768423
0.0014987889444455504
0.0017008940922096372
0.0015805372968316078
0.001982117770239711
0.0021630728151649237
0.0019205157877877355
0.0014821969671174884
0.0020321987103670835
0.0021799772512167692
0.001344879507087171
0.001347430283203721
0.0017535507213324308
0.0016945460811257362
0.0013188618468120694
0.002032812451943755
0.0019054325530305505
0.003724277950823307
0.0015123581979423761
0.001322185155004263
0.0018555718706920743
0.002591300057247281
0.0012670524884015322
0.0013201588299125433
0.0013030919944867492
0.0018408471951261163
0.0017800945788621902
0.001515571610070765
0.0018318832153454423
0.002127460204064846
0.0016556112095713615
0.003022989956662059
0.0019250803161412477
0.002317774575203657
0.001600005547516048
0.0018723414978012443
0.00336972763761878
0.0010535952169448137
0.0014138224069029093
0.0020945246797055006
0.0016535988543182611
0.001416482264176011
0.0018222872167825699
0.002321394393220544
0.0014808567939326167
0.0013197073712944984
0.0013129994040355086
0.001312976935878396
0.00216547679156065
0.0010443715145811439
0.0017483722185716033
0.0008780178031884134
0.0013579782098531723
0.0018670117715373635
0.0014911370817571878
0.0025693068746477365
0.002395936055108905
0.0017458609072491527
0.00198949477635324
0.0014144635060802102
0.0013513390440493822
0.0022835801355540752
0.0011200340231880546
0.0010164197301492095
0.0017199846915900707
0.0009962435578927398
0.0023791706189513206
0.0011269828537479043
0.0012629441916942596
0.0015172403072938323
0.0020048473961651325
0.0014365314273163676
0.0025679138489067554
