0.00013725149619858712
8.864775736583397e-05
0.00012934509140904993
9.209637937601656e-05
4.470451676752418e-05
0.00014286409714259207
0.00013340484292712063
0.00013790687080472708
0.00019179319497197866
0.00018303880642633885
0.00015321632963605225
9.706789569463581e-05
0.00012673040328081697
0.00015438722039107233
0.0001227743923664093
0.0001470481656724587
0.00011333861766615883
0.0001093699611374177
0.00019097897165920585
0.00014738464960828424
0.00011896047362824902
0.00011454588093329221
0.0001175141878775321
0.00012853890075348318
0.00011597386037465185
0.00012021115253446624
0.00016556847549509257
0.00015505353803746402
0.00013311080692801625
0.00015718856593593955
4.6489461965393275e-05
0.0001145594724221155
0.0001615439250599593
0.00016664800932630897
0.0001538091601105407
0.00014618907880503684
8.597443229518831e-05
0.00010393842967459932
0.00018158415332436562
0.0001558677467983216
0.00010819732415257022
0.00012387103924993426
0.00012668082490563393
0.0001538583164801821
0.00013483640213962644
0.00012808934843633324
0.0001589981693541631
0.00015516814892180264
0.00015200109919533134
0.00010195163486059755
0.00012655642058234662
0.00015482549497392029
0.00012874280218966305
0.00010720772843342274
0.00023869315919000655
0.0001394866412738338
9.255467011826113e-05
9.628359111957252e-05
0.00012836004316341132
0.00016057974426075816
0.000214584797504358
0.00012569052341859788
3.363647192600183e-05
0.00017034189659170806
0.00015123237972147763
9.60254983510822e-05
0.00010934934107353911
0.00018608063692227006
0.00017040061356965452
0.00014475666102953255
8.815416367724538e-05
0.00015063023602124304
4.0384689782513306e-05
0.00014721446495968848
0.00015901758160907775
9.848897025221959e-05
9.227047121385112e-05
0.00010811901302076876
0.00015651782450731844
0.00014623506285715848
0.00012300835805945098
0.00018157037266064435
5.969978519715369e-05
0.00012905870971735567
0.00013442158524412662
0.00015859164705034345
9.051622328115627e-05
0.0001586615398991853
0.0001522462844150141
0.00014518751413561404
0.00015502632595598698
0.00012512278044596314
0.00012813297507818788
0.00014013724285177886
7.335690315812826e-05
0.00016105824033729732
0.00010897257743636146
0.00010628962627379224
0.0001283134479308501
0.00010699620906962082
0.00017439023940823972
0.00019163471006322652
0.00015702619566582143
3.336411464260891e-05
0.00012636305473279208
0.00010804198973346502
0.000153315209900029
0.00011739018373191357
0.0001677276595728472
0.0002903396380133927
0.00021196820307523012
0.0001516028423793614
0.00015480373986065388
0.00013083514932077378
0.0001295994152314961
0.00017390171706210822
0.00010804677731357515
9.42954357014969e-05
0.0001473846787121147
0.00014211537200026214
0.00011335875751683488
8.523641736246645e-05
0.0001573186309542507
0.0001703176967566833
0.00012125632201787084
0.00018241530051454902
0.00011409595026634634
0.00015941688616294414
0.00013169788871891797
0.00014568824553862214
0.00018395541701465845
0.0001632433122722432
0.00014198396820575
3.3013959182426333e-05
0.00010057362669613212
0.00015420385170727968
0.000201872389880009
0.00016677469830028713
0.00012269157741684467
0.0001232008362421766
0.00014379761705640703
0.0001353719417238608
0.00010973542521242052
0.00014058395754545927
0.0001146594004239887
8.117313700495288e-05
0.00033437664387747645
0.00012487449566833675
0.00014133741206023842
0.00013819437299389392
0.00013889030378777534
0.00014473618648480624
0.00012033460370730609
0.00010823072807397693
0.00014069731696508825
7.836193981347606e-05
0.0001567952858749777
0.00010824585478985682
0.00014675121929030865
0.00018659693887457252
0.00013051574933342636
0.0001315252884523943
0.0001288114144699648
0.00013515932369045913
0.00022071183775551617
0.0001633771462365985
0.00014541327254846692
0.000151433763676323
0.0001461128267692402
0.00012156605225754902
0.0001231527276104316
0.0001470667339162901
2.3513099222327583e-05
0.0001363946357741952
0.00010608478623908013
0.0001405077491654083
0.00014315028965938836
0.00014315391308628023
0.0001781898899935186
4.029654519399628e-05
0.00022648046433459967
0.00019346762564964592
0.0001514002215117216
0.00011895983334397897
0.00015066949708852917
0.00012939737644046545
0.00019256597443018109
0.00011794227611972019
0.00012747792061418295
0.00014608385390602052
0.00013669626787304878
7.833343261154369e-05
7.832544361008331e-05
0.00014477811055257916
0.00011479160457383841
7.73076171753928e-05
7.515976903960109e-05
0.00010264010052196681
0.00017406952974852175
0.0001133484038291499
0.00013333487731870264
0.00016603055701125413
0.00012028983474010602
0.00014362524962052703
0.00014061780530028045
0.00011489535245345905
3.5185094020562246e-05
0.00017722668417263776
0.0001437345054000616
0.0001439312909496948
0.00014535484660882503
0.00016516278265044093
2.3729433451080695e-05
0.00010150075104320422
0.00015684182289987803
0.00011188738426426426
0.00010571520397206768
9.658725321060047e-05
0.0001066154582076706
0.00010447062231833115
0.00010664050932973623
0.00016180922102648765
6.332491466309875e-05
0.00017523820861242712
3.007033228641376e-05
0.00018633260333444923
0.00020556429808493704
4.53841348644346e-05
0.00012854325177613646
4.0382976294495165e-05
0.0001578298833919689
0.000123897785670124
0.00013537064660340548
0.00020949990721419454
0.0001504694955656305
0.00013113331806380302
0.00011828931019408628
0.00015150518447626382
0.00015925863408483565
0.00010721741273300722
0.0002408496948191896
0.00016352359671145678
3.1836680136621e-05
0.00012746512948069721
5.163892637938261e-05
0.00019465445075184107
0.00010597233631415293
0.00015615449228789657
0.00012211532157380134
0.0002486573357600719
8.056388469412923e-05
9.73791247815825e-05
0.0001930108410306275
0.0001505790278315544
0.00014352804282680154
0.00016279146075248718
0.000189113401575014
0.000103017344372347
9.909783693728969e-05
0.00015775101201143116
7.915713649708778e-05
3.466462658252567e-05
0.00012056635750923306
7.752080273348838e-05
0.0001227208849741146
0.00013917582691647112
0.0001570751192048192
0.00022395991254597902
0.00016617742949165404
0.0001663532602833584
0.0001271276269108057
0.00010159677913179621
0.00013765912444796413
0.00013050712004769593
0.00012960108870174736
2.642420986376237e-05
0.00020286902145016938
0.0002034850331256166
9.917411807691678e-05
3.9385122363455594e-05
6.959593156352639e-05
0.0001194584765471518
8.083501597866416e-05
9.383798897033557e-05
0.00011643326433841139
0.0001123482797993347
0.00016190670430660248
0.00018452023505233228
0.00011948752944590524
0.0001181707120849751
9.677850903244689e-05
0.00010719567217165604
0.00014025651034899056
0.00014113413635641336
6.678015779471025e-05
0.0001752132666297257
0.00010404687782283872
0.00012007424811599776
0.00011156644177390262
0.00016099183994811028
0.0001570613676449284
0.00012960056483279914
0.0001380149187752977
0.00015536931459791958
9.477492130827159e-05
8.294169674627483e-05
0.0001402719790348783
0.0001504590909462422
9.309228335041553e-05
0.00013364327605813742
0.00016286890604533255
0.0001477481418987736
0.0001685977476881817
0.00017672001558821648
4.097089185961522e-05
0.0001927999110193923
0.00016405986389145255
0.00013891010894440114
0.000196478606085293
0.00016416830476373434
0.00016312972002197057
0.0001554340560687706
0.00014075009676162153
0.00014166109031066298
0.00012110488751204684
0.0001290854561375454
3.789075344684534e-05
0.0001164914428954944
0.00015287345740944147
0.00012782035628333688
0.00018610432744026184
0.0001290429790969938
0.00011594268289627507
0.00014417656348086894
0.00012546965444926172
0.0001257788680959493
0.00015686968981754035
0.0001556361821712926
0.00011033811460947618
0.00013834402489010245
2.7874759325641207e-05
0.0001301595475524664
0.00011775460006901994
0.0001258673146367073
9.826261521084234e-05
0.0001062147639458999
0.00013273839431349188
0.00012948970834258944
0.0001395056606270373
0.00010910896526183933
0.00013019349717069417
0.00011648295185295865
6.102454790379852e-05
0.00014794776507187635
0.00014946698502171785
0.00014850091247353703
7.21319520380348e-05
0.0001359753659926355
9.663373202783987e-05
0.00016190834867302328
0.00015013145457487553
0.0001402498601237312
0.00012696623161900789
0.00012146640074206516
0.00012578269524965435
0.00012957901344634593
0.00018547083891462535
0.00014371717406902462
0.00011500377877382562
0.00017652859969530255
0.00011545298912096769
0.00011564196756808087
0.00011399647337384522
0.00013105534890200943
0.0001271868823096156
0.00014014304906595498
3.512390685500577e-05
0.0001315392437390983
0.00020813565060961992
0.00018444375018589199
0.00010396441211923957
0.00011427874414948747
0.0001220552294398658
0.00016437620797660202
0.00014261605974752456
0.0001457681937608868
0.00015662024088669568
0.00012044246977893636
0.00015455162792932242
0.00014988711336627603
0.00013624348503071815
0.00014285679208114743
0.000178884482011199
0.00014768810069654137
0.0001709410425974056
0.00012319537927396595
0.00010552557796472684
0.0001779005106072873
0.00024082021263893694
0.0002508572652004659
9.28409062908031e-05
0.00011930478649446741
0.00014863928663544357
0.00016809790395200253
0.00014588538033422083
0.0001311671658186242
0.00012523985060397536
6.002188820275478e-05
8.355546742677689e-05
0.00013067277905065566
0.00018757829093374312
0.00010974934411933646
0.00014353016740642488
0.0001948671560967341
0.00012782844714820385
0.00019499240443110466
0.00012923036410938948
0.00028825332992710173
0.00014549761544913054
0.00010557951463852078
0.00014278704475145787
0.00015936134150251746
0.0001585211866768077
0.00012297177454456687
0.00021594906866084784
0.0001393386337440461
0.0001275732647627592
0.00014112245116848499
0.00020361822680570185
0.00017388974083587527
0.0001618348906049505
0.0001520238001830876
0.00016351803787983954
0.00012357599916867912
0.00015722020179964602
0.00013959691568743438
0.00012154335126979277
0.00012630567653104663
3.944513446185738e-05
1.763118416420184e-05
4.6977587771834806e-05
0.0001675150851951912
4.498609632719308e-05
0.0001262686273548752
0.00016592003521509469
0.00012152755516581237
0.00013138705980964005
0.00011680321767926216
0.00016224356659222394
0.00010560648661339656
0.00016342922754120082
0.0001693015219643712
0.00014257908333092928
4.627320959116332e-05
2.8886785003123805e-05
9.061113087227568e-05
0.00024459330597892404
0.00014896034554112703
6.290862074820325e-05
0.00013217398372944444
0.0001637856912566349
8.510831685271114e-05
9.386789315612987e-05
0.00013946123362984508
0.00012145249638706446
0.0001443489600205794
0.00010160377132706344
6.931952520972118e-05
0.00017880130326375365
0.000147547762026079
0.00016408231749664992
0.00012949449592269957
0.00016954218153841794
0.00011827798880403861
0.00010815045970957726
0.00018052638915833086
0.0001306855265283957
0.00014782315702177584
0.00014590707723982632
0.00018686347175389528
0.00011852766328956932
0.00012563845666591078
0.000130252301460132
0.00010564632248133421
0.0001677186373854056
0.00012899443390779197
0.0001572351175127551
0.00012900687579531223
0.00012330993195064366
0.00018110524979420006
0.00013982807286083698
2.8045973522239365e-05
0.00014552594802808017
0.00017614242096897215
3.9125745388446376e-05
0.00014694024866912514
0.00012948525545652956
0.0001607107260497287
4.1846604290185496e-05
0.00014322098286356777
0.00012744490231852978
0.00014660126180388033
3.969739918829873e-05
0.00019557875930331647
0.00012898063869215548
9.790262265596539e-05
0.0001251373323611915
0.0001747436326695606
0.0001369059318676591
0.00018237401673104614
0.00011328422260703519
0.00013163524272385985
7.937902410048991e-05
0.00021159743482712656
0.00013414770364761353
0.00014446543355006725
0.00018598558381199837
0.0001494671596447006
0.00011812145385192707
8.063462155405432e-05
0.0001486547407694161
8.517567766830325e-05
0.00011256865400355309
0.00016228250751737505
0.00014611448568757623
0.00015817731036804616
0.0001724034227663651
0.00012040261208312586
2.2389789592125453e-05
0.00011794616875704378
0.0001852917339419946
0.00012353331840131432
5.198297731112689e-05
0.00013898266479372978
0.00012817421520594507
0.0001392687117913738
0.0001723413006402552
0.00017044565174728632
0.00012519204756245017
0.0002143532910849899
0.00013331390800885856
0.00016209179011639208
0.00013142013631295413
0.00016873181448318064
0.00011723839270416647
0.00011914771312149242
0.0001823437778512016
0.00014532545174006373
0.00011959017865592614
0.0001547649735584855
0.00011274968710495159
0.0001378390588797629
0.00011594103852985427
0.00013700754789169878
9.783448331290856e-05
0.00011101914424216375
0.0001405714574502781
0.0001628981699468568
8.917270315578207e-05
0.00012895680265501142
0.00013361139281187207
0.00019231178157497197
0.00011547224858077243
0.0001392429694533348
0.0001053082596627064
7.155718776630238e-05
0.0001114917904487811
0.00018825540610123426
0.00011827181151602417
0.00016075460007414222
0.00013812999532092363
0.00012205809616716579
0.0001191000992548652
0.00016145998961292207
0.00013892452989239246
0.00020770875562448055
0.00015550719399470836
0.00019343318126630038
2.950713133031968e-05
0.00013055262388661504
0.00022625965357292444
0.00014334586740005761
0.0002002349792746827
9.174440492643043e-05
2.933391988335643e-05
0.00018885490135289729
0.00010711784125305712
0.00015922881721053272
6.287302676355466e-05
0.00010574726184131578
0.00014327109965961426
0.00010462455247761682
0.00012925615010317415
0.00019733603403437883
0.0001145323840319179
0.0001549602166051045
0.0001362408947898075
0.00014793791342526674
2.5981420549214818e-05
0.0001084044124581851
0.00014848924183752388
0.00011293841089354828
0.0001573254558024928
0.00014341007045004517
0.00012299157970119268
9.603333455743268e-05
5.049342507845722e-05
0.0001917595654958859
5.621260788757354e-05
0.00012346642324700952
0.00012925686314702034
0.00010749771172413602
0.0001531436573714018
0.0001341717434115708
0.00012868836347479373
0.00012501848686952144
9.874007082544267e-05
0.00018954274128191173
0.00016748749476391822
0.0001421634660800919
8.364408131456003e-05
0.00017559676780365407
0.0001251042849617079
0.00012058475840603933
0.00015934332623146474
0.00015351182082667947
0.00011686502693919465
0.0001420600456185639
0.00012711260933429003
0.00013786330237053335
0.00016905178199522197
0.00013674164074473083
7.8883211244829e-05
0.00010973388270940632
0.00012112361582694575
3.692073732963763e-05
4.001941124442965e-05
3.86493957194034e-05
0.00016307439364027232
0.00012218394840601832
0.00013534606841858476
0.0001316439447691664
0.00015242544759530574
0.00010620995453791693
0.0001412786077708006
0.00015053806419018656
0.000151795320562087
0.0001274236274184659
3.976809966843575e-05
8.01969290478155e-05
0.00016866029181983322
0.00015035300748422742
0.00015385106962639838
0.00013893797586206347
0.00010725071479100734
0.0001525129919173196
0.0001572414330439642
0.00017695926362648606
0.0001346363715128973
3.77577671315521e-05
0.00011119539703940973
0.00010984722030116245
0.00012046114716213197
0.00017812626902014017
0.0001197320525534451
0.0001313459943048656
0.00013834211858920753
0.00019118697673548013
8.294427971122786e-05
0.00010983444371959195
0.00012388286995701492
0.00014257778821047395
0.00011447083670645952
0.0001597138907527551
0.0002109642227878794
0.00014037864457350224
0.0001733856333885342
0.00011175658437423408
0.00012629394768737257
0.00015469285426661372
0.00016062473878264427
3.0338111173477955e-05
8.688436355441809e-05
0.00012855191016569734
0.00011902155529242009
2.5091570933000185e-05
0.0001157372462330386
0.00015632438589818776
0.00016679141845088452
0.00017470346938353032
0.0001426909293513745
0.00012644009257201105
0.00010565590491751209
0.00013810835662297904
0.00016047354438342154
0.0001624651049496606
0.00011372569133527577
0.000155288478708826
0.0002440676325932145
0.00014299758186098188
0.00015576693112961948
0.0001804245257517323
0.00015002342115622014
0.00014860414376016706
0.00014288305828813463
0.00015215054736472666
0.0002112014190061018
0.0001563869445817545
0.00019444857025519013
0.00010820622992468998
0.00014519496471621096
0.0001435077574569732
0.00013119482900947332
0.00011373998859198764
0.00013301329454407096
0.00017521323752589524
0.00014273579290602356
9.254636825062335e-05
0.0001489986461820081
3.945113712688908e-05
0.00013736786786466837
0.00016157187928911299
0.0001965563715202734
7.227195601444691e-05
0.00016606308054178953
9.859819692792371e-05
9.683336975285783e-05
0.00013398721057455987
0.00015852895739953965
0.00018693202582653612
0.000149001571116969
0.00014303649368230253
0.00013793969992548227
0.00012196523312013596
0.00015161432384047657
0.00012439668353181332
7.080077921273187e-05
0.0001718352286843583
0.00011289647227386013
0.00014151976210996509
0.00010779540752992034
0.0002612374082673341
0.000153012340888381
0.00018047422054223716
1.5557003280264325e-05
0.00015567531227134168
0.0001096679043257609
0.00019360859005246311
0.000161404037498869
0.00012244124081917107
0.0001823405036702752
0.00015194241132121533
0.00016674080688972026
0.00013901927741244435
0.00012575398432090878
0.00016463476640637964
8.966439781943336e-05
0.00013017168384976685
0.0001721974986139685
0.00017853084136731923
0.0001503058010712266
0.0002302655193489045
0.00010792160901473835
0.00015498675929848105
0.0001064425305230543
9.174517617793754e-05
6.43479434074834e-05
0.0001363037881674245
0.00011233700934099033
4.0808095945976675e-05
0.00013397508882917464
4.8476180381840095e-05
0.00015796630759723485
0.0001805166684789583
0.00026397561305202544
0.00014979284605942667
0.00013591205060947686
0.00010488951375009492
0.0001347558427369222
7.361298048635945e-05
0.00016352128295693547
0.00014277745503932238
9.52870468609035e-05
0.0001306014455622062
0.00015521702880505472
9.682513336883858e-05
0.00013737610424868762
7.249611371662468e-05
0.00010583799303276464
0.00014182657469063997
0.00011678530427161604
3.290174208814278e-05
0.00013636538642458618
3.886964623234235e-05
0.00023573434737045318
0.00017573675722815096
0.00019035558216273785
0.00011350720888003707
8.674858690937981e-05
0.00014416768681257963
0.00015967499348334968
0.00012739395606331527
0.00013729574857279658
0.00010975883924402297
0.00011388114944566041
0.0001020937561406754
0.00012906899792142212
3.147653478663415e-05
0.00018103295587934554
0.00011871699098264799
0.00013914299779571593
0.00019442547636572272
0.00014191171794664115
0.00013602653052657843
0.0001326494530076161
9.892872185446322e-05
0.00016317206609528512
0.00015671926666982472
0.00020218743884470314
0.0001392766716890037
0.00023974005307536572
0.0001392543053952977
0.00011940644617425278
3.308206214569509e-05
0.00016711314674466848
0.00012387662718538195
0.00016295908426400274
0.00015778221131768078
0.00010592788748908788
0.00016231728659477085
0.00016221264377236366
0.00013595390191767365
0.00021131332323420793
0.00016422514454461634
0.00015380066179204732
0.0001256609830306843
9.911350934999064e-05
8.377781341550872e-05
0.00014527792518492788
0.00011250835814280435
0.00011266071669524536
0.0001482272637076676
0.00014897208893671632
0.00010254821245325729
0.00014285654469858855
0.00016351575322914869
0.00013971305452287197
9.586689702700824e-05
0.00019781400624196976
0.00013089265848975629
0.00015553348930552602
0.00015072713722474873
0.00016601193055976182
0.00010436258889967576
0.00018460840510670096
3.872604065691121e-05
0.00010671360359992832
0.000151702988659963
4.2986037442460656e-05
0.0001343548356089741
0.00010419500904390588
0.00012340964167378843
0.00013128909631632268
4.904274101136252e-05
4.0661288949195296e-05
6.820444104960188e-05
0.00013189278251957148
0.00017887174908537418
0.00013343557657208294
0.00010869334073504433
0.00013256989768706262
3.8076188502600417e-05
0.00016937342297751456
0.00015916916891001165
6.147130625322461e-05
0.00013965574908070266
0.00013333201059140265
0.00010474049486219883
0.00017019108054228127
7.471771823475137e-05
0.00014039470988791436
0.00014358879707287997
0.00018459666171111166
0.00020811242575291544
0.00010856783046619967
0.00012072581012034789
0.00015622614591848105
0.00013797949941363186
3.1204628612613305e-05
0.000153892528032884
0.00014696785365231335
0.00014852607273496687
0.0001373466511722654
0.00010530561849009246
0.00013872640556655824
0.00011874936171807349
0.00010816661233548075
0.000140286996611394
0.00013469163968693465
8.374971366720274e-05
0.00012641568901017308
0.00021873926743865013
0.00012334337225183845
0.00015198730397969484
0.00019248804892413318
0.00015948282089084387
0.00014441023813560605
9.968467929866165e-05
0.0001768891088431701
0.0001797278964659199
7.742970046820119e-05
0.00023368671827483922
0.00014775298768654466
0.00013523799134418368
9.205097740050405e-05
0.00014026595454197377
7.090184226399288e-05
0.0002243846538476646
0.00014642732276115566
0.0001446517271688208
0.00018911344523075968
0.00018651850405149162
8.611880184616894e-05
0.00014345688396133482
0.00013677585229743272
9.352520282845944e-05
3.9517330151284114e-05
0.00012773287016898394
0.00015003044973127544
0.00013176380889490247
0.00015973945846781135
0.00011952416389249265
0.00013493960432242602
0.000142327364301309
3.495789860608056e-05
0.00014477527292910963
0.00013894015864934772
0.0001298614079132676
0.00016515955212526023
6.840322021162137e-05
0.0001242884754901752
0.0001359340822091326
0.00012993544805794954
0.00011843980610137805
0.00012727883586194366
0.0001307254278799519
0.00013930469867773354
0.00012935158156324178
0.0001178977036033757
0.00014521766570396721
0.00017049431335180998
0.0001659471745369956
0.00018608364916872233
6.49567591608502e-05
8.575387619202957e-05
0.00015111158427316695
0.00014524963626172394
0.00020401328220032156
0.00018904262105934322
0.00011019709199899808
0.00020947314624208957
0.00015762521070428193
0.00012666099064517766
0.00011754222214221954
0.00016286435129586607
6.437223055399954e-05
0.00014212522364687175
0.00017269991803914309
3.470323281362653e-05
7.343165634665638e-05
0.00012502020399551839
0.00012374771176837385
0.00010109854338224977
0.00015552659169770777
0.00015320089005399495
0.00016488337132614106
3.16474397550337e-05
0.00013066877727396786
0.00012161909398855641
0.00010354768164688721
6.134887371445075e-05
0.0001814001298043877
0.00014835914771538228
0.00017948997265193611
0.00012458472338039428
0.00011801104847108945
9.103034244617447e-05
0.0001565436541568488
0.00015404944133479148
0.0001314844557782635
0.00010834644490387291
4.409997563925572e-05
0.0001432693679817021
0.00017063786799553782
0.00011412042658776045
6.463762110797688e-05
0.00013571037561632693
0.0001767323410604149
2.054547621810343e-05
0.00016453186981379986
0.00011990207713097334
0.00012579490430653095
0.0001045697063091211
0.0001481501676607877
0.00014150861534290016
0.0001347247016383335
0.0001469264243496582
0.0001320459123235196
0.0001506086264271289
0.00013680459233000875
0.00018889247439801693
0.000148088249261491
7.118250505300239e-05
0.0001793003175407648
0.00013106198457535356
0.00017037693760357797
0.00013767379277851433
0.00015682983212172985
0.00010442778875585645
0.0001390823454130441
6.224626849871129e-05
0.00016720907296985388
0.00014147853653412312
0.00012159860489191487
0.00019957032054662704
0.0001593164197402075
0.0001324205077253282
0.00012716084893327206
0.00013781727466266602
0.0001513578463345766
0.00012409925693646073
0.00013568026770371944
9.426986798644066e-05
0.00010194885544478893
0.00012382645218167454
4.722697849501856e-05
0.00015845696907490492
9.364262950839475e-05
0.00012084579066140577
0.0001443188521079719
0.00013822184700984508
9.198114275932312e-05
4.6577551984228194e-05
0.0001416372979292646
0.00020927701552864164
0.00014849334547761828
0.0001601711701368913
0.00013046755339019
0.000177945097675547
8.976021490525454e-05
0.00017615883552934974
0.0002158104907721281
0.00010498699703020975
0.00016249142936430871
0.0001315425761276856
0.00013750609650742263
7.873053255025297e-05
0.0001357637083856389
4.378701123641804e-05
0.00016376118583139032
0.00018021957657765597
0.00019710765627678484
0.0001423891371814534
0.00012044439790770411
0.0001965928968274966
0.00014301566989161074
0.0001708797790342942
0.00010728302004281431
0.00015899891150183976
0.00014833442401140928
0.00014093852951191366
0.00014269878738559783
0.0001720325817586854
0.00015719981456641108
0.00011705380165949464
0.0001487401023041457
8.216020069085062e-05
0.0002193639666074887
0.00016667811723891646
0.0001509966532466933
9.583077917341143e-05
0.0001200968908960931
0.00016745206085033715
0.00014076301886234432
0.00013844015484210104
0.00011444882693467662
0.00010435446165502071
0.00016928327386267483
0.00014450761955231428
0.00011523310240590945
0.0001343387848464772
0.00018538841686677188
0.00017663362086750567
0.00015773833729326725
9.943822078639641e-05
3.165016823913902e-05
0.00010668429604265839
4.200908733764663e-05
0.0001564313715789467
0.00016286548634525388
0.00013217923697084188
0.00012874076492153108
0.00016618627705611289
0.00019784760661423206
0.00016659096581861377
0.00016289373161271214
0.00010514658060856164
0.00015807207091711462
0.00013403054617810994
0.00021602587366942316
0.00013498010230250657
0.00015355453069787472
0.00012991545372642577
0.00016570654406677932
5.813196912640706e-05
8.706751395948231e-05
0.0001750195660861209
0.00011734071449609473
0.00012414810771588236
0.00017251670942641795
2.4369901439058594e-05
0.00016904104268178344
0.00018369215831626207
0.00011749063560273498
0.00012570303806569427
4.134131449973211e-05
0.0001421702472725883
0.0001910398423206061
0.000138746909215115
9.842992585618049e-05
0.0001837241870816797
0.00013912339636590332
0.00015002343570813537
7.007490785326809e-05
0.0001443774381186813
0.00014941395784262568
0.00012326387513894588
0.00017586239846423268
0.0001522933307569474
0.00013480691995937377
0.00018582152551971376
0.00014109164476394653
0.00020295350986998528
0.00017279168241657317
0.000149109197081998
0.0001221248967340216
0.0001196117591462098
0.00015671252913307399
0.00013227011368144304
5.913901986787096e-05
0.00015732400061096996
0.00012401930871419609
