0.0001540227822260931
0.00014634437684435397
0.00013985989789944142
0.00017067465523723513
0.00012492400128394365
0.00018859673582483083
0.000166819678270258
0.0001949779543792829
0.0003423463786020875
0.00014449559967033565
0.00016977098130155355
0.00018023420125246048
0.00023342973145190626
0.00016916544700507075
0.00020635713008232415
0.00021448156621772796
0.00021435285452753305
0.00032926545827649534
0.00016947001859080046
0.00030107019119895995
0.00026942830299958587
0.00014091408229433
0.0003527436056174338
0.00025073401047848165
0.00033087513293139637
0.00012836349196732044
0.00015771684411447495
0.0003776265075430274
0.0003530044050421566
0.00034088914981111884
0.00025834061671048403
0.00022789195645600557
0.00018017533875536174
0.0002529768389649689
0.0003048682992812246
0.0002125890605384484
0.00013550325820688158
0.0001759884034981951
0.00024263023806270212
0.00022346693731378764
0.00016896195302251726
0.00012990416144020855
0.0002622393367346376
0.0001612319756532088
0.00017498934175819159
0.00017233923426829278
0.00032800791086629033
0.00021579490567091852
