0.0006722424295730889
0.00048154950491152704
0.0005961303249932826
0.0006972475675866008
0.0005034685018472373
0.0005519688711501658
0.00042160856537520885
0.0005586580373346806
0.0004843799106311053
0.0004258517292328179
0.0005091336788609624
0.0005203702603466809
0.00046972205745987594
0.0007974670152179897
0.0005197239806875587
0.0005505811423063278
0.0006045121117495
0.0006812587380409241
0.0008569538476876915
0.0005375322070904076
0.0005037104710936546
0.0006671147421002388
0.00039061426650732756
0.0005956510431133211
0.0007391796098090708
0.0005324711091816425
0.0006365513545460999
0.0009857546538114548
0.0004536328779067844
0.000413496425608173
0.0005170580116100609
0.0005822721868753433
0.0005846416461281478
0.0005191482487134635
0.000562498695217073
0.00044654583325609565
0.0005400062073022127
0.0003882582241203636
0.0006372389034368098
0.0006683535175397992
0.0005192387034185231
0.000625841086730361
0.0005450845346786082
0.0007957467460073531
0.0004886870156042278
0.0005651873652823269
0.0005945628508925438
0.0004183724813628942
0.0004227687604725361
0.0006563669885508716
0.0005948595935478806
0.000492114806547761
0.0006036996492184699
0.0006306551513262093
0.0007352616521529853
0.0005232366966083646
0.0005764017696492374
0.00056603888515383
0.0005435856874100864
0.0007239237311296165
0.0005882628611288965
0.0004997096839360893
0.0006216112524271011
0.001589862396940589
0.0006343688583001494
0.00046245611156336963
0.0004696842806879431
0.0005574065144173801
0.0006539287278428674
0.0007164154667407274
0.00148492562584579
0.0005537808174267411
0.0005862677935510874
0.0006102327606640756
0.001506533706560731
0.0005285458173602819
0.0005949767655692995
0.0006071875104680657
0.0007105453405529261
0.0006006186013109982
0.000856210885103792
0.000662236416246742
0.0004885423113591969
0.0006039035506546497
0.0006779473624192178
0.000507902994286269
0.000596397090703249
0.0005538626573979855
0.0006304110283963382
0.0008140173158608377
0.0005740530323237181
0.0006121225887909532
0.0004698630073107779
0.0006891798693686724
0.0006939058657735586
0.0007681151619181037
0.0004644240252673626
0.0007886834791861475
0.0006217005429789424
0.0004826294898521155
0.0006045863265171647
0.0005650086095556617
0.0005530389025807381
0.0005293129943311214
0.0006045683403499424
0.0006339800311252475
0.0006312913028523326
0.0006798880640417337
0.0005858944496139884
0.0005668253870680928
0.0005922028212808073
0.0005450323224067688
0.0005801809020340443
0.0005718807224184275
0.0009174022707156837
0.00045130684156902134
0.0005806193803437054
0.0003322632110211998
0.0004303954483475536
0.0006362612475641072
0.00048194886767305434
0.0008721115300431848
0.0004763734177686274
0.0004937461344525218
0.0005886145518161356
0.00044269271893426776
0.0010897768661379814
0.000579043582547456
0.0006438928539864719
0.000370335386833176
0.0005964990705251694
0.0007502809166908264
0.0005789790884591639
0.0005220315069891512
0.0005928739556111395
0.0005449354066513479
0.0006029800861142576
0.0005682704504579306
0.0005397354252636433
0.0005216196295805275
0.0006513804546557367
0.0004246855096425861
0.0006583916256204247
0.000576623366214335
0.0005785700050182641
0.0006035881815478206
0.001104908064007759
0.0005029504536651075
0.0004763799370266497
0.0007301836158148944
0.0009767289739102125
0.0005325496895238757
0.0005876034847460687
0.0007323612226173282
0.0008009184384718537
0.0004548968281596899
0.0006286852294579148
0.0003790950577240437
0.0006357361562550068
0.0006001878646202385
0.0006852063233964145
0.0005123720620758832
0.0005160735454410315
0.000525043229572475
0.000507063465192914
0.0005933106294833124
0.00046731758629903197
0.0004586682771332562
0.0006514310953207314
0.0004927685367874801
0.0004725840117316693
0.0005630451487377286
0.0005767288967035711
0.0005090516060590744
0.0004211840278003365
0.0005465278518386185
0.000723727629519999
0.0007712005754001439
0.0004086288099642843
0.0007812741096131504
0.00041053694440051913
0.0005569355562329292
0.0005419618682935834
0.0005907125887461007
0.0004185732686892152
0.0005199320730753243
0.0006304667331278324
0.0007002780330367386
0.0005892093176953495
0.0005948899197392166
0.0005899336538277566
0.0005431342869997025
