0.0019141557859256864
0.0024711659643799067
0.0017532481579110026
0.002911862451583147
0.0037353006191551685
0.000650149944704026
0.003297357354313135
0.0014827641425654292
0.0009998803725466132
0.0005902346456423402
0.0019168630242347717
0.0016598996007815003
0.000679421762470156
0.00098693638574332
0.0011151665821671486
0.002019596053287387
0.0011518440442159772
0.0011214780388399959
0.002799498150125146
0.00290749897249043
0.0012880607973784208
0.0005321453791111708
0.0006817960529588163
0.0009734883205965161
0.0013542856322601438
0.002005533315241337
0.00315547245554626
0.0007976705674082041
0.000345173612004146
0.005065807607024908
0.0013699524570256472
0.0007503808592446148
0.0022377250716090202
0.0018064675386995077
0.0011606373591348529
0.001653592218644917
0.0009364348952658474
0.0015995961148291826
0.0007322834571823478
0.0028803031891584396
0.001942986506037414
0.0011174494866281748
0.0033917827531695366
0.0014969495823606849
0.001899645896628499
0.0009037338895723224
0.0009201397770084441
0.0010689531918615103
0.0008237690199166536
0.0009923421312123537
0.0010070475982502103
0.0024853649083524942
0.0008053255151025951
0.0010439876932650805
0.00043356214882805943
0.00042092608055099845
0.0018834145739674568
0.0012324003037065268
0.0018845628947019577
0.002021424937993288
0.001090486184693873
0.0012990019749850035
0.004180773627012968
0.0018023618031293154
0.002597695216536522
0.0025303566362708807
0.0009035427356138825
0.0013145185075700283
0.001028609462082386
0.0018649825360625982
0.002307226648554206
0.0012681960361078382
0.003210001392289996
0.0028769499622285366
0.000923390151001513
0.0018357018707320094
0.0018918623682111502
0.0010329134529456496
0.0031571073923259974
0.0010043025249615312
0.0026886898558586836
0.0016539269126951694
0.0029630938079208136
0.001985164824873209
0.0016776113770902157
0.0009532811236567795
0.001540310331620276
0.0015431942883878946
0.0017519127577543259
0.0014464922714978456
0.0010376920690760016
0.0012045307084918022
0.0013046468375250697
0.001382893300615251
0.002080291975289583
0.0005735675804316998
0.0026196353137493134
0.0007474969606846571
0.0018081904854625463
0.001811782130971551
0.0005448886658996344
0.0013070021523162723
0.0010571122402325273
0.0020038818474859
0.0011185253970324993
0.001632727449759841
0.0013232538476586342
0.002534545259550214
0.0014114066725596786
0.00022456474835053086
0.0012261035153642297
0.0015546423383057117
0.0011795725440606475
0.0015314810443669558
0.0008736601448617876
0.00039985895273275673
0.0005162445595487952
0.0014302004128694534
0.0015436955727636814
0.003453053766861558
0.0016277468530461192
0.0005676946020685136
0.0014747974928468466
0.002165683778002858
0.00186229741666466
0.001552349072881043
0.002281636232510209
0.0008758726762607694
0.002250121906399727
0.002023623790591955
0.0024739038199186325
0.0015202364884316921
0.0015845454763621092
0.002423851052299142
0.0007261887076310813
0.0012124675558879972
0.003339847084134817
0.0013342193560674787
0.000829210679512471
0.0011899960227310658
0.0019120655488222837
0.0017430271254852414
0.0011630753288045526
0.0019549618009477854
0.0012831997592002153
0.0018031776417046785
0.0002798855712171644
0.0020763040520250797
0.00142568233422935
0.0011703487252816558
0.001100203488022089
0.0012998993042856455
0.0011739452602341771
0.001827867585234344
0.0007739327265881002
0.002018541330471635
0.0009872508235275745
0.0014880429953336716
0.00047720089787617326
0.0014870766317471862
0.0011585066094994545
0.001101718400605023
0.003170605981722474
0.0017030047019943595
0.0020854193717241287
0.0013110935688018799
0.000562458299100399
0.001983164343982935
0.0012413233052939177
0.0013185938587412238
0.0026099595706909895
0.0005155755206942558
0.003318393835797906
0.0008478850941173732
0.002111183712258935
0.0007033919100649655
0.0009322291007265449
0.0008723612991161644
0.0013310405192896724
0.0035435401368886232
0.0032205283641815186
0.002274027094244957
0.0015545918140560389
0.0015347878215834498
0.0017466172575950623
0.001855839742347598
0.0003911607200279832
0.0017336495220661163
0.000717349408660084
0.0010948124108836055
0.0012707646237686276
0.0029489384032785892
0.002166708465665579
0.0015210116980597377
0.0009702845709398389
0.0007228949689306319
0.004209921695291996
0.0007550888694822788
0.00099576183129102
0.001449747709557414
0.0012686664704233408
0.000790931168012321
0.0010937494225800037
0.0010121474042534828
0.001407392555847764
0.0025401317980140448
0.003623363096266985
0.0029643410816788673
0.0009147219825536013
0.0007399921305477619
0.001126619172282517
0.0009852694347500801
0.003131402423605323
0.0017288842936977744
0.0013693661894649267
0.0009740786626935005
0.0018840539269149303
0.0013061206554993987
0.0010600206442177296
0.0021617761813104153
0.0021443923469632864
0.001092978403903544
0.000893239164724946
0.000594471232034266
0.0032547989394515753
0.0012564583448693156
0.003257916308939457
0.001377834239974618
0.0008987918845377862
0.0013120159273967147
0.0016713346121832728
0.001158177270554006
0.0006835806998424232
0.0010153172770515084
0.0022545133251696825
0.0007150607998482883
0.0017393077723681927
0.0017225048504769802
0.0012676568003371358
0.0023589578922837973
0.0007503876695409417
0.0015551819233223796
0.0033072633668780327
0.0011226166971027851
0.00829800684005022
0.001171794137917459
0.0010070751886814833
0.002404134953394532
0.001212191884405911
0.001382471527904272
0.003015341004356742
0.0022064652293920517
0.001584405079483986
0.001254482427611947
0.0011879518860951066
0.0011576673714444041
0.0011479302775114775
0.0008775303140282631
0.0015164876822382212
0.0012955311685800552
0.0017694915877655149
0.0026232192758470774
0.0018204936059191823
0.000775230408180505
0.0014097356470301747
0.001319976057857275
0.0019038250902667642
0.002003265544772148
0.0016164089320227504
0.0015591796254739165
0.0018593326676636934
0.001137136947363615
0.001788511173799634
0.0017485530115664005
0.0010292736114934087
0.0027410495094954967
0.001173766446299851
0.0019263072172179818
0.001565067796036601
0.0010385162895545363
0.0006754446658305824
0.0017136341193690896
0.0013482148060575128
0.0006499576848000288
0.0007345449412241578
0.0012712900061160326
0.0010031883139163256
0.0010510634165257215
0.0015820853877812624
0.0011197564890608191
0.0023227427154779434
0.0022571568842977285
0.003191679483279586
0.001483103260397911
0.0020673894323408604
0.0010884091025218368
0.001379245426505804
0.0021900609135627747
0.0007852654089219868
0.0020243606995791197
0.0010525761172175407
0.0009380821720696986
0.002378783654421568
0.0011035021161660552
0.0009638387709856033
0.0010101869702339172
0.001606026547960937
0.00103039073292166
0.0012282035313546658
0.0009127198136411607
0.0017456363420933485
0.0003981854533776641
0.001022133743390441
0.0016454150900244713
0.008596720173954964
0.0023985973093658686
0.001114729675464332
0.0020532547496259212
0.001537748845294118
0.0007692874642089009
0.0020089815370738506
0.0008410364389419556
0.0017251957906410098
0.0007974905893206596
0.0027464888989925385
0.0010566985001787543
0.0038940911181271076
0.0010681615676730871
0.0007641342235729098
0.001551436958834529
0.0019639309030026197
0.001024799421429634
0.001620705472305417
0.00125660200137645
0.0010716971009969711
0.0010381757747381926
0.0014131563948467374
0.0017668467480689287
0.0013989789877086878
0.0015458283014595509
0.008697258308529854
0.0008175541879609227
0.001348166260868311
0.0007345508201979101
0.0031163282692432404
0.002551068551838398
0.0014477440854534507
0.0017558424733579159
0.0019865757785737514
0.0011674313573166728
0.001207779161632061
0.0016476170858368278
0.0016456176526844501
0.002664765575900674
0.0013829299714416265
0.0014038129011169076
0.0018038220005109906
0.0016207006992772222
0.0014475194038823247
0.0014646800700575113
0.0017464988632127643
0.0007445737137459219
0.000594196084421128
0.001732775941491127
0.00134189217351377
0.002816427731886506
0.0010391086107119918
0.0014743531355634332
0.0012295900378376245
0.0016989480936899781
0.0023188854102045298
0.001965265953913331
0.0016344052273780107
0.0007669279584661126
0.0011225830530747771
0.002424675039947033
0.003546483814716339
0.0012885764008387923
0.001050538499839604
0.0009235102916136384
0.001026214100420475
0.0010263333097100258
0.0011886649299412966
0.0011641872115433216
0.001327170873992145
0.001493068877607584
0.001808388507924974
0.0022598423529416323
0.0006691856542602181
0.0009656009497120976
0.0018513752147555351
0.0017684842459857464
0.001545223407447338
0.0030140739399939775
0.002162792021408677
0.0033076584804803133
0.0013031648704782128
0.0006641487125307322
0.00038235250394791365
0.0003800982085522264
0.0012713411124423146
0.001333420048467815
0.0020870643202215433
0.001098550041206181
0.0018655438907444477
0.0006757039809599519
0.002021883148699999
0.005817900411784649
0.0007762286113575101
0.0016334094107151031
0.0010628278832882643
0.003941814880818129
0.0016872219275683165
0.0013827859656885266
0.0020943202544003725
0.0009966242359951138
0.001297498936764896
0.0005423909169621766
0.002674832008779049
0.0013535725884139538
0.001764550688676536
0.001571020926348865
0.001102409209124744
0.0009936559945344925
0.0013610274763777852
0.0017917522927746177
0.001236668205820024
0.0024838652461767197
0.0006578798056580126
0.0011362489312887192
0.0019564239773899317
0.003170035080984235
0.0011084985453635454
0.0037076780572533607
0.0028630588203668594
0.0022315499372780323
0.0019737828988581896
0.0026389823760837317
0.0016671557677909732
0.0034313707146793604
0.0026252768002450466
0.001072498271241784
0.0031429147347807884
0.00168711063452065
0.0012760738609358668
0.0018419002881273627
0.0017358538461849093
0.0022341348230838776
0.0015366164734587073
0.003128807758912444
0.0020501273684203625
0.002987958025187254
0.0012551473919302225
0.0012778342934325337
0.0020631977822631598
0.0012870124774053693
0.0002796652552206069
0.0008453895570710301
0.0015796951483935118
0.003098473884165287
0.0014019458321854472
0.001958796288818121
0.0011741830967366695
0.0016484188381582499
0.0026680906303226948
0.002331511117517948
0.0014837624039500952
0.001830423716455698
0.002071358961984515
0.0008393359603360295
0.000829275930300355
0.0009988382225856185
0.00069186941254884
0.0015459293499588966
0.002670158399268985
0.0004297295236028731
0.0007681123679503798
0.002058842685073614
0.000694005866535008
0.0009329654858447611
0.0020015323534607887
0.000838393229059875
0.002257314510643482
0.0024114339612424374
0.0010734951356425881
0.0012233955785632133
0.0021574387792497873
0.0017472502076998353
0.0013296531978994608
0.0020979109685868025
0.0010053589940071106
0.00276767136529088
0.0008798881899565458
0.0009850809583440423
0.00428305147215724
0.0012363085988909006
0.0020118446554988623
0.0020601165015250444
0.005285800434648991
0.0010183476842939854
0.0011127545731142163
0.0020283868070691824
0.0023470146115869284
0.0027192647103220224
0.0021934229880571365
0.0006398856057785451
0.002513650106266141
0.0015895197866484523
0.0015497122658416629
0.000999849638901651
0.0010519169736653566
0.0020579027477651834
0.0011953016510233283
0.0011231554672122002
0.001272812020033598
0.0013846744550392032
0.0026068605948239565
0.0011902805417776108
0.0009535924764350057
0.0024011346977204084
0.0010290893260389566
0.0015660464996472
0.0012221053475514054
0.001131847850047052
0.0011444671545177698
0.001558096264488995
0.0012881668517366052
0.0011279534082859755
0.004982092417776585
0.0010085019748657942
0.0015792360063642263
0.0012854021042585373
0.0025788568891584873
0.0021824913565069437
0.002507752040401101
0.0012670649448409677
0.0019084933446720243
0.002127228304743767
0.0014348963741213083
0.004027806222438812
0.0008826724370010197
0.002153672743588686
0.0019480192568153143
0.0017324780346825719
0.0018987931543961167
0.0009184554219245911
0.0035379952751100063
0.0013463135110214353
0.0009823559084907174
0.0008658950682729483
0.0032643545418977737
0.003219977719709277
0.0012676309561356902
0.002365205902606249
0.0010675140656530857
0.0008837360073812306
0.0013051744317635894
0.0011365541722625494
0.0017789412522688508
0.0029537591617554426
0.0021307042334228754
0.0014405885012820363
0.002196187386289239
0.001287943567149341
0.0009938740404322743
0.0009107866790145636
0.002380140358582139
0.0007249690243043005
0.001532789203338325
0.0016128498828038573
0.002142049837857485
0.0015054780524224043
0.002129801083356142
0.0016010146355256438
0.0018598431488499045
0.001443178509362042
0.001253641676157713
0.0013162342365831137
0.00531419925391674
0.001522794715128839
0.00026696280110627413
0.0007391322869807482
0.0003628488921094686
0.0016811236273497343
0.005372628569602966
0.00118433334864676
0.002811838174238801
0.0015470442594960332
0.004239469300955534
0.0017851423472166061
0.0009546332294121385
0.0016455550212413073
0.0030284321401268244
0.002484559779986739
0.0010196365183219314
0.0015858366386964917
0.0011260586325079203
0.000918320962227881
0.005701009649783373
0.0025693827774375677
0.0009747294243425131
0.0009307602304033935
0.0005772302974946797
0.0014483719132840633
0.000527185678947717
0.0019095222232863307
0.001547702238894999
0.0027180633042007685
0.0030323322862386703
0.0010032153222709894
0.0030432394705712795
0.0012333175400272012
0.0013798769796267152
0.0018058503046631813
0.0010066675022244453
0.001925962045788765
0.0013316422700881958
0.0020522482227534056
0.0011195342522114515
0.002257993444800377
0.0015176100423559546
0.0012259897775948048
0.000933212460950017
0.0007090684375725687
0.0010792528046295047
0.0013473544968292117
0.0007444767979905009
0.0014776164898648858
0.0017695196438580751
0.00063037482323125
0.00146092486102134
0.0008822209783829749
0.004589675925672054
0.0018666725372895598
0.0013356864219531417
0.011948713101446629
0.0016973251476883888
0.00428101746365428
0.0014641849556937814
0.0010424109641462564
0.001055726781487465
0.001639866502955556
0.001566878636367619
0.0012392651988193393
0.0016887980746105313
0.0027864845469594
0.001871210872195661
0.0017213252140209079
0.0018528758082538843
0.0010341486195102334
0.0007651250925846398
0.004684953019022942
0.002282136119902134
0.002467443933710456
0.0025722526479512453
0.0008287985110655427
0.000947544991504401
0.0012709489092230797
0.0005005039856769145
0.0029998852405697107
0.0016246284358203411
0.0025006139185279608
0.0027692539151757956
0.0018554730340838432
0.001313896500505507
0.0003783203137572855
0.0024287307169288397
0.001419583335518837
0.0037181286606937647
0.0027611395344138145
0.0012892248341813684
0.00146028574090451
0.0005763983353972435
0.002094790106639266
0.0011530648916959763
0.0008586081676185131
0.0011859157821163535
0.0018039188580587506
0.0014523572754114866
0.001306142657995224
0.001503997016698122
0.002678206190466881
0.002724741818383336
0.0006659237551502883
0.002448874292895198
0.00761290593072772
0.0019447319209575653
0.0005977656110189855
0.0032979892566800117
0.002917475299909711
0.0013004944194108248
0.0019120840588584542
0.001615962595678866
0.0011880226666107774
0.0010986047564074397
0.0010264451848343015
0.0015602958155795932
0.0014247961807996035
0.000727520848158747
0.001272494555450976
0.0009084283956326544
0.0019297776743769646
0.001525900443084538
0.0003663061070255935
0.0014153433730825782
0.0012763768900185823
0.0008925976580940187
0.001977108418941498
0.0012470075162127614
0.0014811634318903089
0.001036195084452629
0.0041010696440935135
0.0014378775376826525
0.0013617865042760968
0.0010959662031382322
0.0024887884501367807
0.0012396617094054818
0.0007419507019221783
0.0020914904307574034
0.0015501163434237242
0.0012081052409484982
0.0008369385614059865
0.0003978821914643049
0.0017956059891730547
0.0009609244880266488
0.0036456098314374685
0.0006291256286203861
0.0024496600963175297
0.0005447528092190623
0.0004911566502414644
0.0017441961681470275
0.001718577346764505
0.0009133636485785246
0.0020530642941594124
0.0018781386315822601
0.0020570638589560986
0.002906698966398835
0.0013970163417980075
0.001286718645133078
0.002930879592895508
0.0018884860910475254
0.0003045752819161862
0.0006348267197608948
0.001087408629246056
0.003635433968156576
0.0008723422652110457
0.0020492724142968655
0.0009480639710091054
0.0013160768430680037
0.0035497425124049187
0.0018757712095975876
0.0015872531803324819
0.0011826771078631282
0.001755792647600174
0.002183368895202875
0.0011843000538647175
0.001505735912360251
0.0025843302719295025
0.000323104381095618
0.0012200073106214404
0.0011736699379980564
0.000304756365949288
0.0014378858031705022
0.0006668010028079152
0.0015340314712375402
0.0015813541831448674
0.001161924097687006
0.0011964639415964484
0.0013496546307578683
0.005160670727491379
0.001123631838709116
0.0014605525648221374
0.0012151168193668127
0.0007397771114483476
0.0002921425621025264
0.0024905542377382517
0.0013887680834159255
0.0008752458961680532
0.0006668530986644328
0.0013799238950014114
0.0017908407608047128
0.0010625958675518632
0.0010051567805930972
0.0006677565979771316
0.0013765472685918212
0.0007699942216277122
0.0011721943737939
0.0008913293131627142
0.0033190539106726646
0.0007452152785845101
0.0016305805183947086
0.002737070433795452
0.0021013563964515924
0.00362595752812922
0.00035445595858618617
0.000925938191358
0.0015004086308181286
0.0016281652497127652
0.00047704685130156577
0.0018330711172893643
0.002196666318923235
0.001648818259127438
0.0009754863567650318
0.001010316307656467
0.003048862563446164
0.0010002270573750138
0.0031286468729376793
0.0016701421700417995
0.002392929047346115
0.001514002331532538
0.0007937605259940028
0.00038993958150967956
0.0007067845435813069
0.0022616072092205286
0.000712798850145191
0.00043330981861799955
0.000558864907361567
0.0011100517585873604
0.0009185630478896201
0.0006522146286442876
0.00022895651636645198
0.0008707692031748593
0.0018456153338775039
0.0033075062092393637
0.001263784826733172
0.00182379933539778
0.0017384360544383526
0.0010414744028821588
0.0013858008896932006
0.0007947081467136741
0.0014976987149566412
0.0013597526121884584
0.0014428725698962808
0.00165022152941674
0.001889977604150772
0.001091084093786776
0.0011413923930376768
0.0015843528090044856
0.0015280055813491344
0.0012966274516656995
0.0029270991217345
0.0014420081861317158
0.0003686034178826958
0.0019531717989593744
0.002446458674967289
0.002907617250457406
0.0005184480105526745
0.0027063994202762842
0.0015582642517983913
0.0019576395861804485
0.0013478200417011976
0.001924507669173181
0.00125245307572186
0.0014381727669388056
0.0010050986893475056
0.004701657220721245
0.0012595037696883082
0.001998741878196597
0.0027756018098443747
0.0011011046590283513
0.0009369782637804747
0.0022994340397417545
0.002104545943439007
0.005017412360757589
0.003380824578925967
0.0008738158503547311
0.001282719662413001
0.0012642403598874807
0.0015430547064170241
0.0016220888355746865
0.0024046895559877157
0.010933560319244862
0.002436978742480278
0.0011832943418994546
0.00028220537933520973
0.0010727975750342011
0.001195833319798112
0.0014812586596235633
0.0018614631844684482
0.0013811534736305475
0.00125429080799222
0.001573788234964013
0.0008368303533643484
0.001276533119380474
0.001277936389669776
0.002039887011051178
0.0018974964041262865
0.0016948083648458123
0.0015594587894156575
0.001706485403701663
0.0020173746161162853
0.0011531831696629524
0.0007939921342767775
0.002952184295281768
0.0007103095413185656
0.0006096339784562588
0.0013662099372595549
0.0009436168475076556
0.0009459188440814614
0.000965647806879133
0.000717035960406065
0.0036527025513350964
0.0012982743792235851
0.0006943398620933294
0.0014765693340450525
0.0030956044793128967
0.0009001287980936468
0.0009112402913160622
0.0014496493386104703
0.0009637371404096484
0.0016951113939285278
0.0010483366204425693
0.0014257475268095732
0.0016769287176430225
0.0037697358056902885
0.00122114981058985
0.0017621807055547833
0.00022534273739438504
0.0016143044922500849
0.0010563821997493505
0.0009962475160136819
0.0015970362583175302
0.0007033605361357331
0.0015555996214970946
0.0004958297940902412
0.000809621880762279
0.0038596969097852707
0.0014165741158649325
0.0017025858396664262
0.0007658883114345372
0.001583059667609632
0.00260858959518373
0.0023321860935539007
0.001793200266547501
0.0037499305326491594
0.0018541829194873571
0.0011523842113092542
0.001159525359980762
0.0025617885403335094
0.001617686590179801
0.0024231805000454187
0.000873578421305865
0.0011065964354202151
0.001863105338998139
0.0014170368667691946
0.0029782578349113464
0.0025210378225892782
0.0021082560997456312
0.0017830922733992338
0.0008124458254314959
0.0024953025858849287
0.002001990796998143
0.001245322055183351
0.0029977355152368546
0.00177177251316607
0.0015355772338807583
0.0007495795143768191
0.0018989002564921975
0.002292126649990678
0.002431832253932953
0.0008714637951925397
0.0008683345513418317
0.0005534715601243079
0.001605821424163878
0.0026400270871818066
0.002179038478061557
0.0011604683240875602
0.00094699946930632
0.002203689655289054
0.0011400693329051137
0.0012845637975260615
0.001413119724020362
0.0005483889835886657
0.0006370605551637709
0.002628964837640524
0.0007554888143204153
0.003869219683110714
0.0011542370775714517
0.002089744433760643
0.003186909481883049
0.003438312327489257
0.0005415997584350407
0.0009860043646767735
0.0009789097821339965
0.001717990031465888
0.0016933198785409331
0.0016536576440557837
0.0016062884824350476
0.0006653793971054256
0.0015372148482128978
0.0024525776971131563
0.003125392133370042
0.0014971652999520302
0.0011918935924768448
0.0026176441460847855
0.005540919024497271
0.001060948707163334
0.0011408156715333462
0.0027204330544918776
0.0015428037149831653
0.0020049982704222202
0.001444613328203559
0.001526372623629868
0.0011865290580317378
0.0015120812458917499
0.0015657199546694756
0.0009840019047260284
0.0015897550620138645
0.0019178097136318684
0.001587264589034021
0.0011292322305962443
0.0009381298441439867
0.0017397928750142455
0.001321709481999278
0.0012521458556875587
0.0009557927260175347
0.0007614000933244824
0.00048057822277769446
0.0017714729765430093
0.0005298216710798442
0.0023605774622410536
0.0018823981517925858
0.001213728915899992
0.0017525104340165854
0.0008443104452453554
0.0013383844634518027
0.0018235292518511415
0.0035555087961256504
0.0013406655052676797
0.002154033165425062
0.0006217610207386315
0.0029532373882830143
0.0011992297368124127
0.0011513823410496116
0.0010449037654325366
0.00430713314563036
0.0012185886735096574
0.0018137809820473194
0.0008675043354742229
0.0008236767607741058
0.0019902249332517385
0.0009279904188588262
0.0010541840456426144
0.0005750673008151352
0.0008215777925215662
0.0010846044169738889
0.0007390258833765984
0.0009907846106216311
0.000932392431423068
0.0012107131769880652
0.0006336758960969746
0.0010871548438444734
0.001236797426827252
0.0016930074198171496
0.0027669467963278294
0.0011789839481934905
0.0010065886890515685
0.002005767310038209
0.0016342505114153028
0.0023405528627336025
0.0027990248054265976
0.0005649634404107928
0.0013319043209776282
0.0019680168479681015
0.0015805148286744952
0.0029125872533768415
0.0007643246790394187
0.0018397291423752904
0.00030317914206534624
0.0008653812110424042
0.0019705635495483875
0.001530847162939608
0.0012618496548384428
0.0008576926775276661
0.0016190779861062765
0.0008361531654372811
0.0009974318090826273
0.0007027150713838637
0.0019202565308660269
0.0017688974039629102
0.0016198400408029556
0.0016564741963520646
0.0015463801100850105
0.0017157573020085692
0.0021214347798377275
0.0010016582673415542
0.0024105191696435213
0.0017469634767621756
0.0014608753845095634
0.0011354363523423672
0.0012050076620653272
0.001365110743790865
0.0007276488468050957
0.0016197205986827612
0.00203608232550323
0.003949729725718498
0.001483582891523838
0.001516222837381065
0.000814623199403286
0.0023558898828923702
0.0010952824959531426
0.0010248365579172969
0.0013327669585123658
0.0009117775480262935
0.004986489191651344
0.0006966073415242136
0.0007663380820304155
0.00040752338827587664
0.0023224204778671265
0.0014037414221093059
0.0007795276469551027
0.0008866977877914906
0.0019807107746601105
0.0009644300444051623
0.0012103351764380932
0.002454250818118453
0.0011156172258779407
0.0017106927698478103
0.0022709176409989595
0.0020359738264232874
0.003947230521589518
0.002570121316239238
0.0011611850932240486
0.0009836205281317234
0.0029367534443736076
0.003279314609244466
0.0007309893262572587
0.0014480693498626351
0.0012570321559906006
0.0017881601816043258
0.000996640883386135
0.001708892174065113
0.0012728101573884487
0.0010190102038905025
0.0010445233201608062
0.0012863684678450227
0.0024490682408213615
0.0002006205468205735
0.0014203503960743546
0.002342510735616088
0.0016963389934971929
0.0011561202118173242
0.0017321330960839987
0.0015086554922163486
0.0011548121692612767
0.0019592882599681616
0.0014372904552146792
0.0009806157322600484
0.00132459937594831
0.0014980211853981018
0.0008722722413949668
0.0009891309309750795
