0.030289387330412865
0.03910345211625099
0.027743201702833176
0.04607698693871498
0.0591069795191288
0.010287899523973465
0.05217701196670532
0.023463094606995583
0.015821995213627815
0.009339806623756886
0.030332226306200027
0.0262660663574934
0.010751093737781048
0.015617170371115208
0.017646271735429764
0.03195786103606224
0.01822665147483349
0.01774614304304123
0.04429894685745239
0.04600793868303299
0.02038213051855564
0.008420608937740326
0.01078866422176361
0.015404370613396168
0.021430063992738724
0.03173533454537392
0.0499318428337574
0.012622249312698841
0.005461988504976034
0.08016077429056168
0.021677974611520767
0.0118739427998662
0.035409510135650635
0.028585340827703476
0.01836579479277134
0.02616625837981701
0.014818040654063225
0.025311829522252083
0.01158757135272026
0.04557759687304497
0.030745601281523705
0.01768239587545395
0.05367119237780571
0.023687561973929405
0.030059784650802612
0.014300583861768246
0.014560189098119736
0.01691499538719654
0.013035228475928307
0.015702711418271065
0.01593540795147419
0.039328135550022125
0.012743380852043629
0.016519945114850998
0.006860638968646526
0.006660687271505594
0.029802940785884857
0.01950136385858059
0.029821112751960754
0.03198680281639099
0.01725573092699051
0.02055526152253151
0.06615609675645828
0.0285203717648983
0.041105639189481735
0.04004007950425148
0.014297558926045895
0.020800793543457985
0.01627660170197487
0.02951127476990223
0.03650929778814316
0.020067792385816574
0.050794702023267746
0.045524533838033676
0.01461162231862545
0.02904794178903103
0.029936619102954865
0.01634470745921135
0.04995771497488022
0.015891971066594124
0.04254552721977234
0.026171553879976273
0.04688766598701477
0.03141302615404129
0.026546334847807884
0.015084614045917988
0.024373698979616165
0.024419333785772324
0.0277220718562603
0.02288913168013096
0.01642032340168953
0.01906035840511322
0.02064458467066288
0.02188274823129177
0.032918307930231094
0.009076069109141827
0.04145281761884689
0.011828307993710041
0.02861260436475277
0.028669437393546104
0.00862225703895092
0.02068185620009899
0.01672762632369995
0.031709201633930206
0.01769942045211792
0.025836097076535225
0.020939020439982414
0.040106359869241714
0.022333940491080284
0.0035534873604774475
0.019401725381612778
0.02460048720240593
0.01866542361676693
0.0242339838296175
0.013824700377881527
0.0063273231498897076
0.008168996311724186
0.0226313304156065
0.024427266791462898
0.05464073643088341
0.025757284834980965
0.008983136154711246
0.02333703078329563
0.0342695377767086
0.029468785971403122
0.024564197286963463
0.03610435500741005
0.013859711587429047
0.03560567647218704
0.032021597027778625
0.039146777242422104
0.024056052789092064
0.025073669850826263
0.038354746997356415
0.01149112917482853
0.019185950979590416
0.05284936726093292
0.021112537011504173
0.013121336698532104
0.01883036457002163
0.03025631047785282
0.027581466361880302
0.01840437389910221
0.030935097485780716
0.02030520886182785
0.02853328175842762
0.0044288779608905315
0.03285520151257515
0.022559838369488716
0.018519466742873192
0.017409496009349823
0.020569460466504097
0.018576378002762794
0.028923971578478813
0.012246624566614628
0.03194117173552513
0.015622147358953953
0.023546624928712845
0.007551173679530621
0.023531334474682808
0.01833207905292511
0.017433468252420425
0.05017131567001343
0.02694815583527088
0.032999441027641296
0.02074659802019596
0.008900277316570282
0.03138137236237526
0.019642561674118042
0.02086528204381466
0.04129970818758011
0.008158409036695957
0.052509892731904984
0.013416838832199574
0.03340713307261467
0.011130394414067268
0.014751489274203777
0.013804147951304913
0.02106223627924919
0.05607258155941963
0.05096128210425377
0.03598394989967346
0.02459968626499176
0.024286311119794846
0.027638275176286697
0.02936660125851631
0.006189683452248573
0.02743307687342167
0.011351256631314754
0.017324188724160194
0.020108437165617943
0.04666367173194885
0.03428575396537781
0.02406831830739975
0.015353674069046974
0.011439008638262749
0.06661733239889145
0.011948442086577415
0.015756823122501373
0.02294064499437809
0.0200752355158329
0.012515606358647346
0.01730736903846264
0.01601610705256462
0.02227042242884636
0.040194761008024216
0.05733569338917732
0.04690740257501602
0.014474458061158657
0.011709552258253098
0.01782749593257904
0.015590793453156948
0.04955096170306206
0.027357671409845352
0.021668696776032448
0.015413711778819561
0.02981305867433548
0.0206679068505764
0.01677364856004715
0.03420770540833473
0.033932626247406006
0.017295168712735176
0.014134516939520836
0.009406846016645432
0.05150357261300087
0.01988205686211586
0.0515529029071331
0.021802695468068123
0.014222382567822933
0.020761193707585335
0.026447011157870293
0.01832686737179756
0.010816904716193676
0.01606626622378826
0.03567516803741455
0.011315042153000832
0.027522612363100052
0.02725672349333763
0.020059259608387947
0.03732788562774658
0.011874050833284855
0.024609025567770004
0.052333764731884
0.01776416040956974
0.1313067376613617
0.018542340025305748
0.01593584567308426
0.038042761385440826
0.019181588664650917
0.021876074373722076
0.04771441966295242
0.034914858639240265
0.02507144771516323
0.01985078863799572
0.018798017874360085
0.018318798393011093
0.01816472038626671
0.013885941356420517
0.023996731266379356
0.020500339567661285
0.0280002374202013
0.04150952771306038
0.02880728617310524
0.012267159298062325
0.0223074983805418
0.02088715322315693
0.030125916004180908
0.03169944882392883
0.02557787485420704
0.024672284722328186
0.029421871528029442
0.017993927001953125
0.02830119989812374
0.0276689063757658
0.01628711074590683
0.043374061584472656
0.018573548644781113
0.030481670051813126
0.024765457957983017
0.016433365643024445
0.010688160546123981
0.027116354554891586
0.021333999931812286
0.01028485782444477
0.011623356491327286
0.02011675015091896
0.015874339267611504
0.01663191057741642
0.025034742429852486
0.017718901857733727
0.03675482049584389
0.03571699932217598
0.05050477758049965
0.023468460887670517
0.03271413967013359
0.01722286455333233
0.021825024858117104
0.03465528041124344
0.012425951659679413
0.03203325718641281
0.016655847430229187
0.014844107441604137
0.037641607224941254
0.01746169477701187
0.015251676551997662
0.01598508469760418
0.02541358396410942
0.01630478724837303
0.019434954971075058
0.014442776329815388
0.027622753754258156
0.006300841923803091
0.016174130141735077
0.026036864146590233
0.1360335350036621
0.037955135107040405
0.01763935759663582
0.03249047324061394
0.02433316595852375
0.012173119001090527
0.03178989887237549
0.013308466412127018
0.0272993054240942
0.012619402259588242
0.04346013441681862
0.016721079126000404
0.06161966174840927
0.016902469098567963
0.012091574259102345
0.02454976551234722
0.031077023595571518
0.01621631160378456
0.02564586140215397
0.019884329289197922
0.016958415508270264
0.01642797701060772
0.022361628711223602
0.02795838564634323
0.022137286141514778
0.024461014196276665
0.13762444257736206
0.01293688639998436
0.021333232522010803
0.011623449623584747
0.04931243136525154
0.04036782309412956
0.02290894091129303
0.027784254401922226
0.03143535181879997
0.018473302945494652
0.019111761823296547
0.026071708649396896
0.02604006975889206
0.042166952043771744
0.02188332937657833
0.022213777527213097
0.02854347787797451
0.025645786896348
0.022905385121703148
0.023176932707428932
0.02763640321791172
0.01178205106407404
0.009402492083609104
0.027419252321124077
0.021233951672911644
0.04456683620810509
0.016442738473415375
0.023329999297857285
0.01945689506828785
0.026883965358138084
0.03669378161430359
0.031098147854208946
0.025862645357847214
0.012135782279074192
0.01776362769305706
0.03836778551340103
0.0561191625893116
0.020390288904309273
0.01662360318005085
0.01461352314800024
0.01623869687318802
0.01624058373272419
0.018809299916028976
0.018421968445181847
0.021001003682613373
0.02362615428864956
0.028615737333893776
0.035759493708610535
0.010589119046926498
0.015279561281204224
0.02929595485329628
0.027984296903014183
0.024451442062854767
0.0476943701505661
0.034223780035972595
0.05234001576900482
0.02062113583087921
0.010509414598345757
0.006050303112715483
0.006014631595462561
0.020117558538913727
0.021099889650940895
0.03302547335624695
0.017383333295583725
0.029520157724618912
0.010692263953387737
0.0319940522313118
0.09206180274486542
0.012282954528927803
0.02584688737988472
0.01681806892156601
0.06237483397126198
0.026698410511016846
0.021881049498915672
0.03314029052853584
0.01577047072350979
0.02053147740662098
0.008582733571529388
0.04232624173164368
0.021418781951069832
0.027922052890062332
0.024859659373760223
0.017444400116801262
0.01572350040078163
0.021536746993660927
0.028352487832307816
0.019568899646401405
0.03930440545082092
0.010410216636955738
0.017979875206947327
0.030958233401179314
0.05016228184103966
0.01754075661301613
0.058669883757829666
0.04530472308397293
0.03531179577112198
0.031232919543981552
0.04175896197557449
0.026380885392427444
0.05429762601852417
0.041542086750268936
0.01697109267115593
0.049733132123947144
0.026696650311350822
0.020192449912428856
0.029146023094654083
0.027467956766486168
0.03535269945859909
0.02431524731218815
0.04950990527868271
0.03244098648428917
0.047281112521886826
0.019861312583088875
0.020220307633280754
0.032647810876369476
0.02036554180085659
0.0044253915548324585
0.013377349823713303
0.024996919557452202
0.04902990534901619
0.022184234112501144
0.030995773151516914
0.01858014240860939
0.02608439512550831
0.04221956804394722
0.0368935726583004
0.02347888983786106
0.028964420780539513
0.03277695178985596
0.013281558640301228
0.013122369535267353
0.015805503353476524
0.010948063805699348
0.024462612345814705
0.04225228726863861
0.006799991708248854
0.012154524214565754
0.03257889673113823
0.01098187081515789
0.014763141050934792
0.031672023236751556
0.013266640715301037
0.03571949154138565
0.03815826028585434
0.016986867412924767
0.01935887522995472
0.03413907065987587
0.02764829248189926
0.021040283143520355
0.033197108656167984
0.01590868830680847
0.04379532113671303
0.013923252001404762
0.015587810426950455
0.06777452677488327
0.019563209265470505
0.03183520585298538
0.03259905427694321
0.083641916513443
0.016114220023155212
0.017608104273676872
0.03209696710109711
0.03713889792561531
0.04302934184670448
0.03470848128199577
0.0101254777982831
0.03977571800351143
0.025152383372187614
0.02452247403562069
0.015821509063243866
0.016645416617393494
0.03256402164697647
0.018914319574832916
0.01777268573641777
0.020140834152698517
0.021910933777689934
0.041250668466091156
0.01883486658334732
0.015089540742337704
0.03799528628587723
0.016284193843603134
0.024780943989753723
0.019338458776474
0.01791023276746273
0.018109919503331184
0.024655140936374664
0.0203838087618351
0.017848609015345573
0.07883607596158981
0.015958422794938087
0.024989653378725052
0.02034005895256996
0.04080754145979881
0.034535497426986694
0.03968238830566406
0.020049894228577614
0.03019978478550911
0.033661022782325745
0.02270563878118992
0.06373555213212967
0.013967310078442097
0.034079477190971375
0.030825238674879074
0.027414537966251373
0.030046289786696434
0.014533535577356815
0.05598483979701996
0.021303914487361908
0.015544690191745758
0.013701826333999634
0.05165478214621544
0.050952568650245667
0.020058849826455116
0.03742675483226776
0.016892222687602043
0.013984140008687973
0.020652934908866882
0.017984706908464432
0.028149766847491264
0.04673995450139046
0.033716026693582535
0.02279571071267128
0.03475222364068031
0.020380275323987007
0.015726951882243156
0.014412186108529568
0.03766307607293129
0.011471828445792198
0.024254685267806053
0.02552155591547489
0.03389555588364601
0.023822516202926636
0.033701732754707336
0.025334276258945465
0.029429949820041656
0.02283669449388981
0.019837485626339912
0.020827943459153175
0.08409129083156586
0.0240965336561203
0.00422438932582736
0.01169594656676054
0.0057416800409555435
0.026601912453770638
0.08501587063074112
0.018740758299827576
0.04449421167373657
0.02448025532066822
0.0670848861336708
0.0282478928565979
0.01510600931942463
0.02603907883167267
0.047921571880578995
0.039315395057201385
0.016134614124894142
0.025094101205468178
0.017818626016378403
0.014531408436596394
0.0902121365070343
0.04065762460231781
0.015424009412527084
0.014728245325386524
0.009134027175605297
0.02291887439787388
0.008342127315700054
0.030216066166758537
0.02449066750705242
0.04301032796502113
0.047983285039663315
0.015874767675995827
0.048155881464481354
0.019515879452228546
0.021835017949342728
0.02857557311654091
0.015929393470287323
0.03047620691359043
0.02107175812125206
0.03247454762458801
0.01771538518369198
0.035730235278606415
0.024014491587877274
0.01939992420375347
0.014767049811780453
0.011220219545066357
0.0170779749751091
0.021320385858416557
0.011780517175793648
0.023381637409329414
0.02800068072974682
0.009974980726838112
0.023117510601878166
0.013960165902972221
0.0726265162229538
0.029538016766309738
0.021135753020644188
0.18907509744167328
0.026858283206820488
0.06774234026670456
0.023169098421931267
0.01649499498307705
0.016705702990293503
0.025949064642190933
0.024794112890958786
0.01960999332368374
0.026723351329565048
0.044093020260334015
0.029609831050038338
0.027238057926297188
0.029319699853658676
0.01636425219476223
0.01210725400596857
0.07413417100906372
0.03611226752400398
0.03904455527663231
0.04070303961634636
0.013114814646542072
0.014993845485150814
0.02011135406792164
0.00791991874575615
0.0474698469042778
0.02570793777704239
0.0395694337785244
0.04382036253809929
0.029360797256231308
0.02079095132648945
0.005986498203128576
0.03843196481466293
0.022463327273726463
0.05883525311946869
0.0436919629573822
0.020400550216436386
0.02310739830136299
0.009120862931013107
0.033147722482681274
0.018245968967676163
0.013586519286036491
0.018765797838568687
0.028545010834932327
0.02298193983733654
0.020668255165219307
0.023799080401659012
0.04237963631749153
0.0431160107254982
0.01053750328719616
0.03875071182847023
0.12046577036380768
0.0307732205837965
0.009458975866436958
0.05218701437115669
0.04616580158472061
0.02057887800037861
0.0302566047757864
0.025570811703801155
0.018799137324094772
0.017384199425578117
0.01624235324561596
0.024689946323633194
0.022545814514160156
0.011512208729982376
0.02013581059873104
0.0143748689442873
0.030536586418747902
0.02414567768573761
0.005796386860311031
0.022396234795451164
0.020197244361042976
0.014124365523457527
0.031285542994737625
0.019732506945729256
0.02343776449561119
0.01639663428068161
0.06489486992359161
0.02275281399488449
0.021548757329583168
0.017342446371912956
0.03938230872154236
0.019616268575191498
0.011740544810891151
0.03309550881385803
0.02452886663377285
0.019116921350359917
0.01324362214654684
0.006296043284237385
0.028413468971848488
0.015205561183393002
0.05768772214651108
0.009955213405191898
0.038763146847486496
0.008620107546448708
0.007772007957100868
0.027599964290857315
0.02719457633793354
0.014452964067459106
0.03248745948076248
0.029719455167651176
0.03255074843764305
0.045995280146598816
0.02210623025894165
0.02036089263856411
0.046377912163734436
0.029883192852139473
0.004819564986974001
0.010045426897704601
0.017207032069563866
0.05752670019865036
0.013803846202790737
0.032427456229925156
0.015002057887613773
0.020825453102588654
0.05617072805762291
0.029681993648409843
0.025116516277194023
0.018714550882577896
0.0277834665030241
0.03454938530921936
0.018740231171250343
0.0238265972584486
0.04089415445923805
0.005112767685204744
0.019305258989334106
0.018572021275758743
0.004822430666536093
0.022752944380044937
0.010551384650170803
0.024274341762065887
0.025023171678185463
0.018386157229542732
0.018932711333036423
0.02135678380727768
0.08166187256574631
0.017780223861336708
0.023111620917916298
0.019227871671319008
0.011706150136888027
0.004622831009328365
0.03941025212407112
0.02197571098804474
0.013849793002009392
0.010552208870649338
0.02183576114475727
0.02833806350827217
0.016814397647976875
0.015905488282442093
0.01056650560349226
0.02178232930600643
0.01218430232256651
0.018548673018813133
0.014104295521974564
0.05252033844590187
0.011792203411459923
0.0258021242916584
0.04331109672784805
0.033251628279685974
0.05737674608826637
0.005608871579170227
0.014651942066848278
0.023742297664284706
0.02576390467584133
0.0075487359426915646
0.029006311669945717
0.034759800881147385
0.02609071508049965
0.015435987152159214
0.015987131744623184
0.04824486002326012
0.0158274807035923
0.04950735718011856
0.026428142562508583
0.03786544129252434
0.023957403376698494
0.012560377828776836
0.006170360371470451
0.011184079572558403
0.035787418484687805
0.01127924956381321
0.0068566459231078625
0.008843415416777134
0.01756533421576023
0.014535238966345787
0.01032057125121355
0.003622982185333967
0.01377895474433899
0.02920481003820896
0.052337609231472015
0.019997989758849144
0.028859596699476242
0.027508817613124847
0.01648017391562462
0.021928757429122925
0.01257537305355072
0.02369941771030426
0.021516572684049606
0.022831853479146957
0.02611292153596878
0.02990679442882538
0.017265193164348602
0.018061265349388123
0.025070620700716972
0.024178989231586456
0.020517688244581223
0.046318087726831436
0.022818176075816154
0.005832739174365997
0.03090677224099636
0.03871248662471771
0.04600980877876282
0.00820386316627264
0.042825762182474136
0.024657798931002617
0.030977468937635422
0.021327752619981766
0.030453193932771683
0.019818676635622978
0.022757485508918762
0.015904569998383522
0.07439849525690079
0.019930247217416763
0.03162786737084389
0.043920811265707016
0.017423756420612335
0.01482663955539465
0.03638598695397377
0.033302098512649536
0.07939497381448746
0.0534977912902832
0.01382716465741396
0.020297612994909286
0.020005198195576668
0.024417124688625336
0.02566775307059288
0.038051538169384
0.1730114370584488
0.038562480360269547
0.018724316731095314
0.004465586505830288
0.016975829377770424
0.018922733142971992
0.02343927137553692
0.029455585405230522
0.021855218335986137
0.01984775811433792
0.024903448298573494
0.013241909444332123
0.020199717953801155
0.020221922546625137
0.03227894380688667
0.030025770887732506
0.02681845799088478
0.024676701053977013
0.02700323425233364
0.031922709196805954
0.01824784092605114
0.012564042583107948
0.04671503230929375
0.011239858344197273
0.009646779857575893
0.021618753671646118
0.014931687153875828
0.014968113973736763
0.015280302613973618
0.011346296407282352
0.05779995769262314
0.020543748512864113
0.010987156070768833
0.023365067318081856
0.04898449778556824
0.014243537560105324
0.014419364742934704
0.022939089685678482
0.015250069089233875
0.0268232524394989
0.016588760539889336
0.02256086841225624
0.026535531505942345
0.059651877731084824
0.019323337823152542
0.027884550392627716
0.003565798280760646
0.025544574484229088
0.01671607419848442
0.0157645083963871
0.025271322578191757
0.011129898019134998
0.024615634232759476
0.007845954969525337
0.012811366468667984
0.06107541173696518
0.022415710613131523
0.026941528543829918
0.01211933046579361
0.02505015954375267
0.04127803072333336
0.03690425306558609
0.028375400230288506
0.05933848023414612
0.029340382665395737
0.01823519915342331
0.018348200246691704
0.040537454187870026
0.02559809200465679
0.038344137370586395
0.013823406770825386
0.017510658130049706
0.029481571167707443
0.02242303267121315
0.0471276193857193
0.03989262133836746
0.033360809087753296
0.028215453028678894
0.01285605225712061
0.0394853875041008
0.03167928010225296
0.019705837592482567
0.047435831278562546
0.02803632989525795
0.02429880201816559
0.011861261911690235
0.030047984793782234
0.03627035394310951
0.03848104178905487
0.013789945282042027
0.01374042872339487
0.008758071810007095
0.02541033923625946
0.04177549481391907
0.03448086231946945
0.018363120034337044
0.014985213987529278
0.0348709374666214
0.018040329217910767
0.02032679319381714
0.022361047565937042
0.008677645586431026
0.010080775246024132
0.04160044714808464
0.011954770423471928
0.061226099729537964
0.018264519050717354
0.03306788206100464
0.05042929947376251
0.05440746992826462
0.008570213802158833
0.015602422878146172
0.015490159392356873
0.027185281738638878
0.026794904842972755
0.02616729401051998
0.02541772834956646
0.01052888948470354
0.02432471513748169
0.038809314370155334
0.049455855041742325
0.023690976202487946
0.018860390409827232
0.0414213091135025
0.08767887949943542
0.016788333654403687
0.01805214025080204
0.04304782673716545
0.024413153529167175
0.03172686696052551
0.022859400138258934
0.024153148755431175
0.01877550221979618
0.023927005007863045
0.024775777012109756
0.01557073649019003
0.025156106799840927
0.030347205698490143
0.0251166969537735
0.01786884479224682
0.014844861812889576
0.027530288323760033
0.020914582535624504
0.019813815131783485
0.015124357305467129
0.012048309668898582
0.007604616228491068
0.028031589463353157
0.008383838459849358
0.0373535118997097
0.029786856845021248
0.019205911085009575
0.027731528505682945
0.013360274024307728
0.02117844671010971
0.028855321928858757
0.05626197159290314
0.021214541047811508
0.03408518061041832
0.009838677011430264
0.046731699258089066
0.018976477906107903
0.018219346180558205
0.016534440219402313
0.06815559417009354
0.019282810389995575
0.028701066970825195
0.013727291487157345
0.013033769093453884
0.03149309754371643
0.014684416353702545
0.016681291162967682
0.009099800139665604
0.013000555336475372
0.017162658274173737
0.011694262735545635
0.01567806489765644
0.014754073694348335
0.019158190116286278
0.010027216747403145
0.017203016206622124
0.01957094483077526
0.026789959520101547
0.04378385469317436
0.018656110391020775
0.015928147360682487
0.03173903748393059
0.025860197842121124
0.03703664615750313
0.044291455298662186
0.008939918130636215
0.021075904369354248
0.031141677871346474
0.025009889155626297
0.04608845338225365
0.0120945880189538
0.029111668467521667
0.00479747261852026
0.013693694956600666
0.031181978061795235
0.02422395348548889
0.019967367872595787
0.013572032563388348
0.0256201084703207
0.013231193646788597
0.015783248469233513
0.01111968420445919
0.030385924503207207
0.027990834787487984
0.025632167235016823
0.02621186152100563
0.02446974627673626
0.027149951085448265
0.033569347113370895
0.0158501286059618
0.03814378380775452
0.027643755078315735
0.02311672829091549
0.017967017367482185
0.019067905843257904
0.0216013602912426
0.011514234356582165
0.025630276650190353
0.03221873939037323
0.06250008195638657
0.023476049304008484
0.023992540314793587
0.012890506535768509
0.037279337644577026
0.017331628128886223
0.01621689833700657
0.02108955569565296
0.014427865855395794
0.07890564948320389
0.011023036204278469
0.012126447632908821
0.006448604632169008
0.03674972057342529
0.022212646901607513
0.012335157953202724
0.014031006954610348
0.03134254738688469
0.015261032618582249
0.019152209162712097
0.0388357900083065
0.01765340194106102
0.027069810777902603
0.03593474626541138
0.03221702203154564
0.062460534274578094
0.040669310837984085
0.01837446354329586
0.01556470151990652
0.04647085815668106
0.0518915057182312
0.011567093431949615
0.022914087399840355
0.01989113539457321
0.028295647352933884
0.01577073335647583
0.027041317895054817
0.02014080621302128
0.016124702990055084
0.01652842015028
0.020355351269245148
0.03875378146767616
0.0031745971646159887
0.022475466132164
0.037067629396915436
0.02684267796576023
0.01829431764781475
0.027409080415964127
0.023872796446084976
0.018273618072271347
0.03100355714559555
0.022743523120880127
0.015517152845859528
0.020960312336683273
0.023704519495368004
0.013802737928926945
0.015651896595954895
