0.0032464228570461273
0.0017629144713282585
0.002799208741635084
0.0037400524597615004
0.0033916460815817118
0.0024236547760665417
0.0018784677376970649
0.002192053245380521
0.0024896252434700727
0.0042350743897259235
0.002583154244348407
0.002752173226326704
0.0028795506805181503
0.0024105836637318134
0.002446849597617984
0.0035533327609300613
0.003732966957613826
0.0017996105598285794
0.0019500799244269729
0.0026190741918981075
0.0025415150448679924
0.004176193382591009
0.002267206786200404
0.0021289391443133354
0.0033943827729672194
0.002166108228266239
0.002749543869867921
0.00204789568670094
0.0033078514970839024
0.0019722271244972944
0.002807440934702754
0.0033322619274258614
0.0025984887033700943
0.0036720421630889177
0.0021520426962524652
0.0020621372386813164
0.0035385882947593927
0.002046169713139534
0.0034991835709661245
0.002555408049374819
0.0021373098716139793
0.0029883719980716705
0.00392042426392436
0.0034020072780549526
0.0030370899476110935
0.002915974473580718
0.0032999825198203325
0.0029473055619746447
