0.00026267426437698305
0.00014264076889958233
0.00022648931189905852
0.00030261476058512926
0.00027442455757409334
0.00019610252638813108
0.00015199040353763849
0.0001773632102413103
0.00020144031441304833
0.00034266794682480395
0.0002090079360641539
0.0002226835786132142
0.00023298992891795933
0.00019504492229316384
0.0001979792577913031
0.00028750693309120834
0.0003020414733327925
0.00014560991257894784
0.0001577846851432696
0.00021191428822930902
0.0002056388184428215
0.00033790376619435847
0.00018344401905778795
0.00017225652118213475
0.00027464597951620817
0.00017526393639855087
0.00022247082961257547
0.00016569913714192808
0.0002676445583347231
0.00015957665164023638
0.00022715539671480656
0.0002696196606848389
0.00021024867601227015
0.0002971119247376919
0.00017412587476428598
0.00016685144510120153
0.0002863139088731259
0.00016555948241148144
0.0002831256133504212
0.00020676293934229761
0.00017293381097260863
0.0002417948708171025
0.0003172089927829802
0.00027526289341039956
0.0002457367372699082
0.00023593705554958433
0.0002670078829396516
0.00023847210104577243
