0.0002595004334580153
0.00019206122669856995
0.00022501022613141686
0.000354880205122754
0.0002533707011025399
0.00025971507420763373
0.0002443717385176569
0.00021593512792605907
0.0002914956130553037
0.00031159157515503466
0.00016361662710551172
7.939003990031779e-05
0.00021994681446813047
0.00027167171356268227
0.00024807927547954023
0.00024931857478804886
0.0002794930769596249
0.00024064363969955593
0.0002524104784242809
0.0001328354555880651
0.0002529908379074186
0.00016129470895975828
6.761259282939136e-05
0.0003323704586364329
4.326690032030456e-05
0.0002377918135607615
0.00032990536419674754
0.00016631495964247733
0.0003223828098271042
0.00018440125859342515
0.00023013103054836392
0.0002582193701528013
0.00022918617469258606
0.000248139986069873
0.00019653412164188921
0.00021547543292399496
0.00024595006834715605
0.00020735361613333225
0.00021627375099342316
0.0002508506004232913
0.0002932883216999471
0.00024096432025544345
0.0001345258642686531
0.00022391192032955587
0.00013029643741901964
0.00023909217270556837
0.00027455450617708266
0.00023466117272619158
0.0002923864813055843
0.0002638739824760705
0.00024378202215302736
0.00016705208690837026
0.00022849583183415234
0.00029282880132086575
8.22868532850407e-05
0.00023264296760316938
0.0001456506288377568
0.0003071107785217464
0.00022358066053129733
0.00018053741951007396
0.00020652667444664985
0.000248350843321532
0.00026868993882089853
0.0001866152451839298
0.00021379400277510285
0.00018807256128638983
0.00028041424229741096
0.0001517139608040452
0.00020384066738188267
0.00026198680279776454
0.00022984386305324733
0.00021365309657994658
0.0002554027014411986
0.00022540277859661728
0.0002136147377314046
0.00020928015874233097
0.00017673720140010118
0.0001692619698587805
0.00021960228332318366
0.00020961144764441997
0.0002685930230654776
0.00025418473524041474
0.0001438695762772113
0.0003187348193023354
0.00025987011031247675
0.00019622151739895344
0.0002320764760952443
0.00016872277774382383
0.0003233935567550361
0.00024229871632996947
0.00011577367695281282
0.0002179662842536345
0.0002191672392655164
0.00020788449910469353
0.00021151179680600762
0.0002442814293317497
0.0004082346858922392
0.00017185734759550542
0.00021274539176374674
0.000203896954189986
9.005924221128225e-05
0.0002811462909448892
0.0001937113411258906
0.0002379879297222942
0.000412656954722479
4.203286152915098e-05
0.00026678064023144543
0.0002797410124912858
0.00011774080485338345
0.00019028571841772646
0.0001835787988966331
0.00019516158499754965
4.807166988030076e-05
0.00021468910563271493
0.00020843572565354407
0.0001878005132311955
0.00028274868964217603
0.00024214503355324268
0.0002546969335526228
0.0001589425082784146
0.00011299000470899045
0.00012941901513841003
0.00020800127822440118
0.00035702428431250155
0.00011834586621262133
0.00031757348915562034
0.0002937512763310224
0.00022745267779100686
9.01412931852974e-05
0.00023537517699878663
0.0002597641432657838
0.0002124467573594302
0.0002589004288893193
0.00024914281675592065
0.00019650557078421116
0.0002597633865661919
0.00035034221946261823
0.00021131405082996935
0.0001346821227343753
6.992591806920245e-05
0.0003467987116891891
0.0002213390835095197
0.00015806527517270297
0.00031458886223845184
0.00022281028213910758
0.0002277058083564043
0.00035192989162169397
0.00030240262276493013
8.202499157050624e-05
0.00027577532455325127
0.00023141685232985765
0.0002384586987318471
0.00023391470313072205
7.559364894405007e-05
0.00024905032478272915
0.00015992209955584258
0.00024148289230652153
0.00024995661806315184
0.00024288300483021885
0.0002314284211024642
0.0001946790871443227
0.00010610351455397904
0.0002569110947661102
0.00025702049606479704
9.899747965391725e-05
0.0001961653761100024
0.0003091581165790558
0.0003199134371243417
0.0001884965313365683
0.00017513181956019253
0.00017852630116976798
0.00022216913930606097
0.00024560379097238183
0.00025469347019679844
0.00027396855875849724
0.00016353934188373387
0.00023750436957925558
0.00024396521621383727
0.0001970745506696403
0.0002253217826364562
0.00017927961016539484
0.00018846048624254763
0.0002275778679177165
0.00012926221825182438
0.0002033690398093313
0.00016388586664106697
0.0002824463590513915
0.0001343275507679209
0.0002708933607209474
0.0001323829055763781
0.00022319496201816946
0.00017334689619019628
8.834912296151742e-05
0.0001556070492370054
0.00023666996276006103
0.0001961745147127658
9.164258517557755e-05
0.00026768952375277877
6.254720938159153e-05
0.0002808092685882002
0.00024107973149511963
0.00024820701219141483
0.0001768739748513326
2.5624322006478906e-05
0.00029418067424558103
0.00013731635408475995
0.00026634777896106243
0.0002346410183236003
0.0002090967755066231
0.00025560869835317135
0.0002681319892872125
0.00015926975174807012
0.0001882559881778434
0.000251604215009138
0.0002399484219495207
0.00024020546698011458
0.00020987392053939402
9.975567809306085e-05
0.00043192828889004886
0.0002616720739752054
0.0002054508513538167
0.0002208059304393828
0.00027563536423258483
0.00038801709888502955
0.00019212390179745853
0.00010877484601223841
0.00032503451802767813
0.00020509179739747196
0.00022375718981493264
0.0001886610989458859
0.00014502779231406748
0.00020364527881611139
0.0002582770539447665
0.0002840578672476113
0.0002540082496125251
0.0003160037740599364
0.00024871723144315183
0.0002363321982556954
0.00019737560069188476
0.00016501171921845526
0.00017457558715250343
0.0002404421684332192
0.00011905475548701361
0.00012079642328899354
0.00020074844360351562
0.0002972993243020028
0.00019884748326148838
0.00021132896654307842
0.00032683619065210223
0.00019216068903915584
0.000281638465821743
5.641677125822753e-05
0.0002334964374313131
0.00022501972853206098
0.00030359876109287143
0.00023197401606012136
0.00026311655528843403
0.00032919994555413723
0.00015405532030854374
0.00029606392490677536
0.0002667948429007083
0.00018296037160325795
0.00028764293529093266
0.0002332840667804703
0.0002653402043506503
0.0002118751872330904
0.0002106138417730108
0.0002060641854768619
0.0002895608195103705
0.00014516295050270855
0.00021866196766495705
0.0001712410885374993
0.00024133705301210284
0.0002579418942332268
0.00022927316604182124
5.84590234211646e-05
0.0001305187470279634
0.00023266523203346878
0.0002253558050142601
0.00025309494230896235
0.0002128966007148847
0.00019273684301879257
0.00012697141210082918
0.00030127717764116824
0.00018408051982987672
0.00022990517027210444
0.0003587496466934681
0.0005856284988112748
0.0001944411633303389
0.00014459752128459513
0.0002247418015031144
0.0002184565382776782
0.0002396643249085173
0.0003577166935428977
0.00013607708388008177
0.00021297736384440213
0.0002149672363884747
0.00040285036084242165
0.0003177054750267416
0.00021076033590361476
0.0001590107858646661
0.0002154029643861577
0.00024284231767524034
0.0003072628169320524
0.00021963912877254188
0.0001766964269336313
0.0002500868868082762
0.0003165357338730246
0.0002170489460695535
0.0001877935283118859
0.00017230722005479038
0.0002077518729493022
0.0002074618823826313
0.00022931385319679976
0.0001983801630558446
0.00026729467208497226
0.00023741679615341127
0.00030875508673489094
0.00020855272305198014
0.0002876009966712445
0.0002821829402819276
0.00032034795731306076
0.00019987630366813391
0.0003804107545875013
0.00022443613852374256
0.0002863570989575237
0.0003160166379529983
0.0002761568466667086
0.00020809430861845613
0.00022941609495319426
0.0002596803824417293
0.0001975479390239343
0.00027114004478789866
0.00022164879192132503
0.00011648786312434822
0.00021171678963582963
0.00024834153009578586
0.00019154373148921877
0.00019354006508365273
0.00021235419262666255
0.00019252671336289495
0.0003171568678226322
0.00035183114232495427
8.602316665928811e-05
0.00016338239947799593
0.0002091755741275847
0.0002036640071310103
0.00033600482856854796
0.0002700111363083124
0.0001656565145822242
0.0003118150925729424
0.00024807025329209864
0.0002164355682907626
0.00010703330917749554
0.0002225684147560969
0.00022239354439079762
0.00022087630350142717
0.00026182879810221493
0.00016216159565374255
0.00025276257656514645
0.0002838319924194366
6.122480408521369e-05
0.0002739154442679137
0.00020104293071199208
0.00023009123106021434
0.00034801068250089884
0.00026368245016783476
0.00020442382083274424
0.0002870800090022385
0.00021076407574582845
0.00027627995586954057
8.916051592677832e-05
0.00030766960117034614
0.00016875889559742063
0.00027327309362590313
0.000350668269675225
0.00024355419736821204
0.00025040379841811955
0.0001877967151813209
0.0001914952154038474
0.00020173989469185472
0.0002404012338956818
0.00027592721744440496
0.0002919080725405365
0.00019633007468655705
0.0002927776367869228
0.00023401177895721048
0.0003655453328974545
0.00026388178230263293
0.00022599962539970875
6.412570655811578e-05
0.00017751863924786448
0.00020140930428169668
7.187113806139678e-05
0.00019735800742637366
0.0002727900864556432
0.00025921696214936674
0.00020472067990340292
0.00021892930089961737
0.00020507429144345224
0.00019483035430312157
0.0002686612424440682
0.0001599526876816526
0.00018757244106382132
0.00020414598111528903
0.00024591185501776636
0.0003285490092821419
0.00026643535238690674
0.00028405344346538186
0.00011732182611012831
0.0002681271289475262
0.00024269324785564095
0.00023784668883308768
0.00022950672428123653
0.00021280105283949524
0.00023993448121473193
0.000413045403547585
0.00026835675816982985
0.00023132434580475092
0.00028080688207410276
0.00021462311269715428
0.0002544633753132075
0.0001936673215823248
0.0002548827324062586
0.0002292083081556484
0.00025400458252988756
0.0002560954599175602
0.00020418457279447466
0.00023824273375794291
0.00018144052592106164
0.0002364243264310062
0.00023425306426361203
0.00010946796828648075
8.312467980431393e-05
0.000267255149083212
0.00031082218629308045
0.0002734434965532273
0.00026466025155968964
0.00022093835286796093
0.0002627709473017603
0.0004274144594091922
0.0001392935519106686
0.00019391841487959027
0.00018666226242203265
0.00019954222079832107
0.0002692127600312233
4.344880653661676e-05
0.0002829377190209925
0.0002828913275152445
0.00015056223492138088
0.00022886411170475185
0.00022265114239417017
0.0002298333856742829
0.0002267129166284576
0.00012315389176364988
0.00018047360936179757
0.00013804694754071534
0.0002141438890248537
0.00021714676404371858
0.00014988196198828518
0.00021871901117265224
0.0002291988057550043
0.00015555572463199496
0.00034395884722471237
0.00028779212152585387
0.00030400039395317435
0.00016187079017981887
0.0001498109777458012
0.0002469188766553998
0.00021362767438404262
0.00020525757281575352
0.00024118917644955218
0.0002678767195902765
0.00018660412752069533
0.00024599640164524317
0.00023581260757055134
0.000277556391665712
0.0002000152162509039
0.00024601357290521264
0.00021118641598150134
0.0002840413944795728
0.000164316690643318
0.00019379446166567504
0.0001867982791736722
0.0001972725585801527
0.00021526977070607245
0.00022977523622103035
0.00029360735788941383
0.00013654983195010573
0.00027523297467269003
0.0002572651719674468
0.0002698520547710359
0.0002054673823295161
0.0002848651201929897
0.0002443480188958347
0.0002482470008544624
0.00019754032837226987
0.00020292743283789605
0.00014934659702703357
0.00024725895491428673
0.00022134238679427654
0.00017300965555477887
0.00030562534811906517
0.00020206201588734984
0.00028612601454369724
0.00013464481162372977
0.0002228557859780267
0.00019456868176348507
0.0002114207309205085
0.00027249177219346166
0.0001844978833105415
0.0002461533294990659
0.00015685333346482366
0.00023959556710906327
0.00027694323216564953
0.00023571668134536594
0.00017057413060683757
0.0001911952713271603
0.0002161343873012811
0.0002457343216519803
0.00023534429783467203
0.0002797023917082697
0.00017122412100434303
0.000239740198594518
0.0002149640495190397
0.00019244551367592067
0.000380531681003049
0.0003190305724274367
0.00036105874460190535
0.00021097347780596465
0.00021637820464093238
0.0002358228521188721
0.0003011491207871586
0.000255471037235111
0.00030212049023248255
0.0002688246895559132
0.00021805375581607223
0.00013660869444720447
0.0002809435245580971
0.0001775113050825894
7.778954022796825e-05
0.00023502562544308603
0.00019911385606974363
0.0003099399618804455
0.00024738055071793497
0.00025199889205396175
0.00019492027058731765
0.00032054269104264677
0.00017879559891298413
0.0002486639132257551
0.00013342204329092056
0.00021448505867738277
0.00019204210548195988
0.0002783637319225818
0.0002810447767842561
0.000262012064922601
0.0002482773852534592
0.00020640858565457165
0.00017782211943995208
6.112863775342703e-05
0.00019620680541265756
0.0003429408825468272
0.00020960750407539308
0.00019065580272581428
0.000213147810427472
0.00022719326079823077
0.0002733335713855922
0.0002801554510369897
0.00012938086001668125
0.00019259072723798454
0.00027654532459564507
0.00022363734024111181
0.00027566918288357556
0.00022555635950993747
0.00022351999359671026
0.00023334729485213757
0.00026816080207936466
0.00027071917429566383
0.00023967560264281929
0.0002257094602100551
0.00021890511561650783
0.0002809043799061328
0.0001867662213044241
0.00025549400015734136
0.00023401161888614297
0.0003326150472275913
4.482845906750299e-05
0.00020240715821273625
0.00027931464137509465
0.00014294170250650495
0.00011151106446050107
0.00019667582819238305
0.000254603277426213
0.0001787985529517755
0.00010148537694476545
0.0002708643733058125
0.00022707422613166273
0.00021832610946148634
0.0002696505980566144
0.00016381290333811194
0.0002079483965644613
0.00024457264225929976
0.0002758917980827391
9.264908294426277e-05
0.0003184941306244582
0.00022660204558633268
0.00015055725816637278
7.494645979022607e-05
0.00018534406262915581
0.0002854475169442594
0.00017488349112682045
0.00026699097361415625
0.0003009319771081209
4.345994966570288e-05
0.0002428640436846763
0.00019123576930724084
0.00021157923038117588
0.000232065562158823
0.0003109490789938718
0.0001960110239451751
0.00022006854123901576
0.0003015126276295632
0.00016249109467025846
0.0002079813421005383
0.00017527971067465842
0.00027553379186429083
0.0001599331444595009
0.00017575910896994174
0.00021093283430673182
5.4937485401751474e-05
0.00017779043992049992
0.00021692934387829155
4.9249836592935026e-05
0.0002728131366893649
0.00022819495643489063
0.00024212045536842197
0.0003167438553646207
0.00017147995822597295
0.0002812117163557559
0.00016899185720831156
0.00018791899492498487
0.00034904302447102964
0.00017153038061223924
0.00010261053103022277
0.00020574370864778757
0.0002515886735636741
0.00015964121848810464
0.0001812927657738328
9.934820263879374e-05
0.0001739303843351081
0.0002485430159140378
0.00021130114328116179
0.00018895059474743903
5.251659968052991e-05
0.00021664884116034955
0.0002492755011189729
0.0002454713685438037
0.0003074251872021705
0.00012394128134474158
0.00015601578343193978
0.0002680136531125754
0.0001802837650757283
0.00019862648332491517
0.00017946321167983115
0.00021426982129924
0.00024241140636149794
0.00028775783721357584
0.0002098795521305874
0.00020871360902674496
9.0420049673412e-05
0.00012453741510398686
0.00024290049623232335
0.00020059198141098022
0.00012133505515521392
0.00016814078844618052
0.0002609986113384366
0.00020646824850700796
0.0002065435255644843
0.00020436549675650895
0.000198592955712229
0.00019807460193987936
0.0002276424493175
0.00023061729734763503
0.00023112969938665628
0.0002966189058497548
0.00023051146126817912
0.00023938681988511235
0.0001708141207927838
0.0001794351846911013
0.00029266829369589686
0.00020660989684984088
0.0002256116276839748
0.0003196497564204037
5.5723689001752064e-05
0.00012535805581137538
0.00020892583415843546
0.00024132673570420593
0.00031399907311424613
7.73801002651453e-05
0.00018067736527882516
0.00023061771935317665
0.0002509675396140665
0.0001404519280185923
0.0001693636440904811
0.00025156905758194625
0.0001967965654330328
0.0001898218906717375
7.692704093642533e-05
0.00021101688616909087
0.00021558326261583716
0.00010696445679059252
0.000257758452789858
0.0002076899545500055
0.00021336387726478279
4.5394648623187095e-05
0.00022998443455435336
0.0001837448071455583
0.0003167535469401628
0.0001741711748763919
0.0002723892976064235
0.00023592720390297472
0.00022552363225258887
0.00029657900449819863
5.397502172854729e-05
0.00023581886489409953
0.0002859325904864818
0.00024548260262236
0.00021439851843751967
0.00025893872953020036
0.00020776384917553514
0.0001928700366988778
0.0002544878516346216
0.0002705226361285895
0.0001644726435188204
0.00023352332937065512
0.00016913158469833434
0.0003476732817944139
0.0002665648644324392
6.103983469074592e-05
0.00019517897453624755
0.00047785716014914215
6.291977479122579e-05
0.0002521354181226343
0.00020492429030127823
0.00019699646509252489
0.00021570928220171481
0.0001583614939590916
0.00019308029732201248
0.00021789362654089928
0.00013806702918373048
0.00011974463268416002
0.0002604780893307179
0.00024338281946256757
0.0003796049568336457
0.00018477512639947236
0.0002799082431010902
0.00019837993022520095
0.00025010749232023954
0.00013393169501796365
0.00012553775741253048
5.5518477893201634e-05
0.0002109397464664653
0.0002955293166451156
0.00023474179033655673
0.00019318287377245724
0.0002442110562697053
0.00015612263814546168
0.00024845084408298135
0.00019190007878933102
0.00016775241238065064
0.00017005106201395392
0.00022906257072463632
0.0002506742312107235
0.00027948454953730106
0.0002193789550801739
0.0002586459449958056
0.00010034750448539853
0.0003912830143235624
0.00027901868452318013
0.00018871930660679936
0.00015046328189782798
0.00022331162472255528
0.0002221169270342216
0.00024187409144360572
0.0002500518166925758
0.00021336032659746706
0.00023235203116200864
0.0002722768404055387
0.00020076194778084755
0.00016788823995739222
0.00023375896853394806
0.0004016580933239311
0.0002388688299106434
0.0001981969689950347
0.00025639162049628794
0.000211865029996261
7.824493513908237e-05
0.00032261735759675503
0.00017039838712662458
0.00021327206923160702
0.00021782255498692393
0.00021195452427491546
0.00018361216643825173
0.0003537163429427892
3.650101280072704e-05
0.0002077200188068673
0.0001770739327184856
0.00020884933474007994
0.0002310022828169167
0.00031962725915946066
0.00015270333096850663
0.0002790924336295575
0.0001811511319829151
0.00022064949735067785
0.00023689819499850273
5.1774553867289796e-05
0.00024230587587226182
0.00015983737830538303
0.00026402840740047395
0.0001820838951971382
0.0002509340993128717
0.00023826910182833672
0.00034885670174844563
0.0002345697721466422
0.00023402002989314497
0.00019983306992799044
0.000267435418209061
0.00026563083520159125
0.0001818235032260418
0.0002447029110044241
0.00016442377818748355
0.00024196240701712668
0.00042281957576051354
0.00025380231090821326
0.00029733552946709096
0.00019138659990858287
0.00021610614203382283
7.131120946723968e-05
0.00018002107390202582
0.0002625931811053306
0.0001777936122380197
0.0002624375920277089
0.00028808857314288616
0.00028717852546833456
0.0002692666312213987
0.00014347664546221495
0.00022037648886907846
0.00018257797637488693
0.00018565008940640837
0.00017081490659620613
0.00016080864588730037
0.0002862063411157578
0.0002552193764131516
0.00021084357285872102
0.00026250386144965887
0.00022501171042677015
0.00021850428311154246
0.00016055467131081969
0.00016246040468104184
0.00017840122745838016
0.0002319004270248115
0.00026940592215396464
0.00016974045138340443
0.00029859651112928987
0.00019101030193269253
0.00027260047500021756
0.00022898960742168128
0.00021920035942457616
0.0002245303912786767
0.00024212294374592602
0.0002179090806748718
0.0002629843365866691
0.0001631358463782817
0.00033385457936674356
0.00020988634787499905
0.0002689820248633623
0.0002198029396822676
0.0002942692080978304
0.0002492395869921893
0.00029271814855746925
0.000276506005320698
0.0002455961948726326
0.0002474412613082677
0.00016922705981414765
0.0002769365964923054
0.00022812039242126048
0.00030418855021707714
0.0002449794264975935
0.0002273916470585391
0.00025879425811581314
0.0001655999949434772
0.0002019140956690535
0.0002471226907800883
0.00017247998039238155
7.381576142506674e-05
0.0002643429907038808
0.00023702923499513417
0.0002572010853327811
0.00018062014714814723
0.00023603439331054688
0.0003351990890223533
0.00016840115131344646
0.0001452652068110183
0.0002657289442140609
0.0002601979940664023
7.876173185650259e-05
0.0001722277665976435
0.00022154532780405134
0.00029583025025203824
0.00020365776435937732
0.00020270993991289288
5.942997813690454e-05
0.0001886162644950673
0.00030880628037266433
0.00020416858023963869
0.00027349742595106363
0.00028648643638007343
0.00019628922746051103
0.00026177329709753394
0.000183199139428325
0.00025683146668598056
0.00015828754112590104
0.00021277248742990196
0.0003171810240019113
0.00029394603916443884
0.00025456948787905276
0.00023589278862345964
0.00017011878662742674
0.00024110128288157284
0.00022711149358656257
0.00022921028721611947
0.0002642156614456326
0.00025003633345477283
0.00015757131041027606
0.00023685897758696228
0.0002058936661342159
0.000154642213601619
0.0001859536860138178
0.00017462381219957024
0.0002011502510868013
0.00023690507805440575
0.00016096243052743375
5.732753197662532e-05
0.00015540853200946003
0.00019783478637691587
0.0003575690498109907
0.00033239557524211705
0.00020704719645436853
0.000149875195347704
0.00021821222617290914
0.00015596479352097958
0.00027282803785055876
0.00011677906877594069
0.00023271216196008027
0.00011834175529656932
0.00020391051657497883
0.00021769532759208232
0.00011114657536381856
0.00019770849030464888
0.0002401372039457783
0.00030539988074451685
0.0003331949992571026
0.0001534074981464073
0.0002832577738445252
8.280654583359137e-05
0.00012910067744087428
0.00022870823158882558
0.000182436328032054
0.00015526793140452355
0.00017310096882283688
0.00019098857592325658
0.00019092761795036495
0.0002654168929439038
9.705379488877952e-05
0.0001802529877750203
0.0001274932874366641
5.447237708722241e-05
0.00023218244314193726
0.0002226048381999135
5.282277561491355e-05
0.0002613647957332432
0.00014418468344956636
7.760686276014894e-05
0.00020472402684390545
0.00023411559232044965
0.0002385576954111457
0.0003439245920162648
0.0002400068478891626
0.00022632753825746477
0.000174964006873779
4.526391421677545e-05
0.00020082508854102343
0.00020747960661537945
0.00013714325905311853
0.0002281673951074481
0.00015633054135832936
0.00023586755560245365
0.000150361520354636
0.00023282603069674224
0.00023573001089971513
0.00012895796680822968
0.00018783079576678574
0.0001726659684209153
0.00015591287228744477
0.00018739340885076672
0.0002051492192549631
0.0002662544429767877
0.00024089989892672747
0.0002751255233306438
0.0002457445370964706
0.0002125460305251181
0.00013233818754088134
0.00024514380493201315
0.0003153274592477828
0.00024472945369780064
0.0003216673794668168
0.0002774730382952839
0.00018850593187380582
0.0001915438042487949
0.00014473572082351893
9.806045272853225e-05
0.00021727064449805766
0.00020676443818956614
0.00025430478854104877
0.0002839848748408258
0.00026346812956035137
0.00019489586702547967
0.0003035352274309844
0.00011009247100446373
0.00026514919591136277
0.00028540295897983015
0.00035545407445169985
0.00014988442126195878
0.00042067942558787763
0.0002407549472991377
0.000169659178936854
0.0003132568090222776
0.00017218707944266498
0.00021825989824719727
0.0002312564611202106
0.0001988378498936072
0.00031777331605553627
0.0001841593038989231
0.0003640974755398929
0.00022160033404361457
1.7997470422415063e-05
0.00021796482906211168
0.00020699955348391086
0.00019063230138272047
0.00023975377553142607
0.00026851141592487693
0.00018534592527430505
0.00016070171841420233
0.00018851683125831187
0.00021776012727059424
0.00017043921980075538
5.498745304066688e-05
0.0002308537223143503
8.799914212431759e-05
0.00018692250887397677
0.00010736200056271628
0.00025003126938827336
0.0002302365464856848
0.0002753557055257261
0.0001887556427391246
0.00025562039809301496
0.00021921852021478117
0.000170028637512587
0.00024276296608150005
0.00018332696345169097
0.00022271809575613588
9.484217298449948e-05
0.00018852128414437175
0.00023293500998988748
0.0001912361040012911
5.9856727602891624e-05
0.0002036733931163326
0.0002490800397936255
0.00016823466285131872
0.00021149666281417012
0.0001833735004765913
4.8884150601224974e-05
0.0002459549577906728
0.00019765409524552524
4.15933936892543e-05
0.00037324620643630624
0.00014479781384579837
0.00022133355378173292
0.00024170769029296935
0.00017041718820109963
0.00024264132662210613
0.00026061214157380164
0.00018983632617164403
0.00011340302444295958
0.0002055308286799118
0.00018918703426606953
0.0003460796142462641
0.00027922692243009806
0.0002628361398819834
0.0003214656317140907
0.00031230668537318707
0.0002590490330476314
0.0001122482426580973
0.0001261181605514139
0.00023087943554855883
0.00020451615273486823
0.00035080863744951785
0.00024375262728426605
0.00023163728474173695
0.00028918508905917406
0.0002826169948093593
0.00019581359811127186
8.293678547488526e-05
0.00018597165762912482
0.00018644938245415688
0.00022562847880180925
0.0001707428164081648
0.00031319507979787886
0.00018288064165972173
0.00024394541105721146
0.00020325453078839928
0.00034281302941963077
0.00016300342394970357
0.00017458159709349275
0.00016515360039193183
0.00025868642842397094
5.307685205480084e-05
0.0003091750550083816
0.00020710553508251905
0.00024800084065645933
0.00027078264974988997
0.00027620160835795105
0.0002910358307417482
0.00026877160416916013
0.0001352558028884232
0.0002684228529687971
0.0002599292783997953
0.00031160915386863053
0.0002090924681397155
0.00020159708219580352
0.00026670811348594725
0.00022791809169575572
0.00010608480079099536
0.00019935655291192234
0.00027081798180006444
0.00022825223277322948
0.0002455715730320662
0.00018114218255504966
0.00019044250075239688
0.00017926284635905176
0.0003157464670948684
0.00025349395582452416
