0.0001077312117558904
0.00011579257261473686
7.468801049981266e-05
8.949694893090054e-05
3.45209009537939e-05
0.00014507748710457236
0.00012768361193593591
0.0001273213856620714
8.720671030459926e-05
7.438696047756821e-05
0.0001551386812934652
0.00011325428931741044
0.00010214483336312696
0.00013295091048348695
0.00016493917792104185
0.00018805070430971682
9.499668522039428e-05
0.00012237361806910485
9.844503802014515e-05
0.00016562141536269337
0.00010075862519443035
8.566623000660911e-05
0.000141491909744218
0.00015916218399070203
0.00012795141083188355
8.1513928307686e-05
0.00012722992687486112
0.00011571068171178922
0.00012586734374053776
0.00016878655878826976
0.00011657593859126791
0.00015632408030796796
0.00021407178428489715
3.693596227094531e-05
7.320952863665298e-05
0.00013821451284456998
0.00011110256309621036
0.00013000612671021372
8.045123104238883e-05
0.0001624515134608373
0.00015057418204378337
0.00015072969836182892
0.00012075961421942338
0.00015433902444783598
0.00013820119784213603
0.00010334233957109973
0.00010766457853605971
0.00010777418356155977
0.00014448420552071184
0.00010305559408152476
0.00012457009870558977
0.00012075306585757062
9.534601122140884e-05
0.00011217931023566052
7.729559729341418e-05
4.7343452024506405e-05
0.0001149812524090521
9.432535443920642e-05
0.0001491332077421248
0.00010567143908701837
0.00010157293581869453
0.00012139021418988705
0.00014675884449388832
0.00011212752724532038
6.920992746017873e-05
0.00010756948904599994
0.00014425109839066863
0.00010127201676368713
0.00012473548122216016
8.524020086042583e-05
8.512736530974507e-05
0.00019065523520112038
0.00012951427197549492
0.00011975078814430162
0.00010818194277817383
0.00010236471280222759
0.00011153049854328856
9.905890328809619e-05
0.00011331211135257035
0.00012246247206348926
8.365461690118536e-05
0.00016139133367687464
0.00017445202684029937
0.00012939366570208222
0.00010739662684500217
0.0001079913490684703
0.0001393549464410171
8.358281047549099e-05
0.00012922142923343927
0.0001577550283400342
0.00017440866213291883
9.900770237436518e-05
0.000114866292278748
3.1344192393589765e-05
0.00016654022329021245
5.1672930567292497e-05
6.186267273733392e-05
9.009383211378008e-05
0.0001145725545939058
8.077530947048217e-05
0.00012773009075317532
0.00016607841826044023
0.00011731165432138368
6.457701238105074e-05
0.0002266636147396639
6.159987970022485e-05
0.0002204928605351597
0.00014615902910009027
0.00012668113049585372
0.0001113788821385242
0.000111346147605218
0.00013325741747394204
0.00011304330109851435
0.00012463687744457275
7.967128476593643e-05
0.00013785201008431613
0.0001025332385324873
0.00015029756468720734
0.00010498146002646536
0.00011596546391956508
0.00015300979430321604
0.0002254829159937799
0.00010766307968879119
0.00016953921294771135
0.00012984844215679914
0.00010238478716928512
6.342626147670671e-05
0.0001282199809793383
0.0001231495989486575
0.0001262240984942764
0.00010913487494690344
0.00012948572111781687
0.0001344101910945028
0.0001516922056907788
0.00012747477740049362
4.5192278776085004e-05
0.00010298395500285551
7.919364725239575e-05
5.514730582945049e-05
9.26482243812643e-05
0.00014471654139924794
0.00013317946286406368
6.676231714664027e-05
0.00011832123709609732
0.00013525089889299124
0.00013295751705300063
9.235004836227745e-05
4.4402269850252196e-05
9.618357580620795e-05
0.00012900109868496656
7.148515578592196e-05
9.916083217831329e-05
9.983666677726433e-05
8.227552461903542e-05
9.83472345978953e-05
0.00011330570850986987
0.00018725932750385255
5.730973498430103e-05
7.791042298777029e-05
0.00012264787801541388
0.00013707279867958277
7.875915616750717e-05
0.00011363235535100102
0.00010597651271382347
0.0001370771205984056
0.00011336753232171759
0.00015634912415407598
0.00010692190699046478
8.936552330851555e-05
9.218703053193167e-05
0.00013285732711665332
0.0001320885494351387
0.00011586943583097309
0.00013426020450424403
9.176519961329177e-05
9.23714687814936e-05
0.0001717603299766779
7.47531303204596e-05
0.0001186211229651235
3.419761924305931e-05
0.00022608482686337084
0.00010733089584391564
8.350810821866617e-05
0.0001276577968383208
8.248857193393633e-05
8.260950562544167e-05
7.093951717251912e-05
0.0001622269774088636
0.00011930627806577832
0.00013510817370843142
3.845779792754911e-05
9.774680074770004e-05
0.00018106095376424491
0.0001297330018132925
0.00015680895012337714
7.888006075518206e-05
7.592979818582535e-05
8.454970520688221e-05
0.00010653792560333386
0.0001335079869022593
0.00017019582446664572
0.0001480574137531221
0.00013767713971901685
0.0001484305103076622
0.00017111790657509118
7.776902930345386e-05
0.00010327639756724238
8.518876711605117e-05
0.00014342689246404916
5.11354228365235e-05
0.00010992603347403929
8.337693725479767e-05
0.00018213139264844358
0.00011613628157647327
7.746003393549472e-05
0.00013574078911915421
0.00012659573985729367
0.00013588670117314905
0.0002143276360584423
0.0001213114956044592
0.0001260436838492751
0.00014954767539165914
0.0001502855448052287
0.0001654922089073807
0.0001429774856660515
0.00016484202933497727
0.0001384297793265432
4.15519971284084e-05
0.00010265151649946347
0.00011781610373873264
0.0001384696806780994
0.00013977184426039457
0.0001513553288532421
9.311560279456899e-05
0.00010457407915964723
0.00011110863124486059
0.00011439416994107887
0.00015049394278321415
0.00011302840721327811
9.724490519147366e-05
0.00011120525596197695
0.00011820303916465491
4.906452522845939e-05
0.00015133987471926957
3.1889136153040454e-05
0.0001392348640365526
9.344536374555901e-05
8.472085755784065e-05
0.00011364641250111163
0.00013707502512261271
0.00013815474812872708
0.00011150159116368741
7.469094271073118e-05
0.00010240692063234746
0.00016721563588362187
0.00011770698620239273
0.00011162679584231228
9.554017015034333e-05
0.00012343405978754163
0.0001544376864330843
0.00011554262164281681
0.0001058254056260921
0.0001408290845574811
9.263569518225268e-05
4.2717943870229647e-05
0.0001582960394443944
0.00015525883645750582
0.00011644804908428341
5.8450426877243444e-05
0.0001662050635786727
0.00012312472972553223
9.330482862424105e-05
4.824447023565881e-05
0.00012157735181972384
7.108152931323275e-05
0.0001857605966506526
0.00010896327148657292
8.379449718631804e-05
0.00019953827722929418
0.00011349037959007546
1.8032349544228055e-05
0.00018121917673852295
3.4526532544987276e-05
0.0001419317995896563
0.00013927028339821845
0.00013094217865727842
0.00014081313565839082
8.090387564152479e-05
8.886469731805846e-05
0.000140686723170802
0.00011618745338637382
6.286065035965294e-05
0.00011619256110861897
0.00012758123921230435
0.0001343549956800416
0.00016095627506729215
8.205613266909495e-05
0.00017072047921828926
0.00017498079978395253
0.0001395184372086078
0.00010584557458059862
0.0001280043798033148
0.00012229575077071786
7.232609641505405e-05
9.806900925468653e-05
0.00015483376046177
4.825145151698962e-05
0.00014464263222180307
9.436344407731667e-05
0.0001039778653648682
0.00016033108113333583
8.08323165983893e-05
8.223171607824042e-05
0.0001664306764723733
7.20582902431488e-05
8.805021207081154e-05
9.318521915702149e-05
0.00011437921784818172
8.949618495535105e-05
0.0001705163303995505
9.657302871346474e-05
0.00011623384489212185
8.537026587873697e-05
0.00015908494242466986
9.691718150861561e-05
6.703034887323156e-05
0.00012118501035729423
9.118956950260326e-05
8.991859067464247e-05
0.0001364553318126127
0.00011404506221879274
0.00011759080371120945
0.00015235475439112633
0.00013751912047155201
0.00010939252388197929
0.00018813033238984644
7.924339297460392e-05
9.817790851229802e-05
0.00013723692973144352
9.168538963422179e-05
0.00012830864579882473
0.00013689111801795661
0.0001504269166616723
0.00011632279347395524
0.00010557986388448626
0.00010228272003587335
6.091770774219185e-05
0.00028301807469688356
0.00014912437472958118
0.00014447313151322305
0.00011354443995514885
0.00010735898104030639
7.098606147337705e-05
9.108445374295115e-05
0.00017363840015605092
0.0001141657994594425
8.664566848892719e-05
0.00011042269034078345
0.00012063408939866349
0.00019868367235176265
0.0001530497829662636
0.00014981183630879968
0.0001026859536068514
0.00013212041812948883
0.00010195065988227725
8.266006625490263e-05
0.00016173320182133466
0.00011349540727678686
0.0001391950499964878
3.906682104570791e-05
0.00010139209916815162
0.0001727593771647662
0.00011596494732657447
0.00015795318176969886
0.00014587791520170867
7.502234075218439e-05
0.00011055479990318418
0.00017133128130808473
0.00015988318773452193
0.00011347852705512196
8.732728019822389e-05
0.00012566590157803148
3.700247543747537e-05
0.00010613748600007966
0.00014847148850094527
8.6841122538317e-05
0.00013068712723907083
0.00011752494174288586
0.00014562997967004776
0.0001634803193155676
0.00010023140930570662
0.00010993269825121388
9.847460751188919e-05
0.00011769661796279252
0.00014059650129638612
0.00010607904550852254
0.00024483996094204485
0.00012917387357447296
7.125865522539243e-05
9.751126344781369e-05
0.00019895340665243566
8.447534492006525e-05
0.00013696886890102178
0.0001018113034660928
9.491439413977787e-05
0.00013980353833176196
0.00014991652278695256
0.00011085128790000454
4.7774214181117713e-05
9.125821816269308e-05
6.844440940767527e-05
0.0001597050577402115
0.00011653004185063764
0.00014939502580091357
0.00017529731849208474
0.00013476682943291962
9.953915287042037e-05
7.270873902598396e-05
0.00012659188359975815
0.00012065048940712586
9.857819532044232e-05
9.847112960414961e-05
0.00023438474454451352
9.329245222033933e-05
6.940065213711932e-05
8.376766345463693e-05
3.308616578578949e-05
0.0001616973604541272
7.465964154107496e-05
0.00013314558600541204
9.862832666840404e-05
0.00010089971328852698
7.585741695947945e-05
0.00012456814874894917
9.20849633985199e-05
0.00014718939200975
0.00013658354873768985
0.00016989267896860838
7.910319254733622e-05
0.00011283707135589793
0.00015972458641044796
8.992756920633838e-05
0.00011461914255050942
9.812029747990891e-05
0.00011485743743833154
8.42021981952712e-05
0.0001226679451065138
8.505660662194714e-05
0.00011427577555878088
0.000112209003418684
0.00012390765186864883
0.00017035800556186587
0.00016427438822574914
0.00013161907554604113
6.34710377198644e-05
5.85608504479751e-05
0.00016243034042418003
0.00013506121467798948
0.00010929245763691142
0.00014761087368242443
6.462900637416169e-05
0.00011088756582466885
0.00015205434465315193
0.0001328445941908285
7.72479543229565e-05
4.392626215121709e-05
0.00015363817510660738
0.00011500242544570938
9.540032624499872e-05
0.00012792179768439382
0.0001669059129199013
0.00013769690121989697
0.00010712065704865381
0.00016365904593840241
7.591762550873682e-05
0.0001256861287401989
8.532006904715672e-05
0.0001443705550627783
0.0001418333122273907
8.430487650912255e-05
0.00011436110071372241
0.00014228372310753912
0.00011822352098533884
0.00015188856923487037
5.204039189266041e-05
0.00011497235391288996
0.00011841270315926522
8.329388947458938e-05
9.0910674771294e-05
0.00016183471598196775
0.00014448919682763517
5.4056399676483124e-05
0.00016805609629955143
0.00015358737437054515
0.0001321819145232439
0.00013206501898821443
0.00014615498366765678
8.83598331711255e-05
0.000148842140333727
0.00012349679309409112
0.00010943527013296261
0.0001262310252059251
9.934788249665871e-05
0.0001706331968307495
0.00011329003609716892
7.980006193974987e-05
0.00014959271356929094
7.427403033943847e-05
0.00011569602065719664
0.00019026386144105345
0.00012509111547842622
3.824792293016799e-05
0.00010973306052619591
8.20744753582403e-05
0.00011561524297576398
0.00012229087587911636
0.00014499275130219758
0.00011894670751644298
0.0001169837560155429
0.00011473570339148864
0.00016031571431085467
0.00010597227810649201
0.00010079374624183401
0.00015054913819767535
9.006363688968122e-05
8.696614531800151e-05
0.0001189491813420318
7.543407991761342e-05
0.0001113246544264257
0.000151362968608737
8.02568974904716e-05
9.272572060581297e-05
0.00010646158625604585
4.3907690269406885e-05
0.00013634951028507203
0.0001327657955698669
9.542801126372069e-05
0.00016328951460309327
0.00013517728075385094
9.57979864324443e-05
0.00011488657037261873
0.00012092450924683362
0.00013341725571081042
0.00010891657439060509
8.669993258081377e-05
0.000139198440592736
0.00010484398080734536
0.00010714504605857655
0.00020384338859003037
9.041270823217928e-05
0.00016146825510077178
8.424571569776163e-05
0.00013809162192046642
0.00011797658225987107
0.0001540912635391578
0.00010481703793630004
3.328268212499097e-05
0.00011737414024537429
0.00014041420945432037
0.0001064826428773813
8.375363540835679e-05
0.00015978023293428123
0.00013004591164644808
0.00015103879559319466
0.00015984263154678047
0.00012671337753999978
0.00011359847121639177
0.00012831238564103842
9.68955791904591e-05
0.0001658179535297677
0.00013159512309357524
0.00014005127013660967
5.252078335615806e-05
9.813891665544361e-05
0.00012644019443541765
7.725796604063362e-05
0.00012407424219418317
7.453749276464805e-05
0.00010680798732209951
8.985799649963155e-05
0.00012162638449808583
0.00016139743092935532
0.00011604008614085615
7.783633191138506e-05
8.000514935702085e-05
0.0001414076250512153
0.0001240561541635543
0.0001236927491845563
0.00017128072795458138
5.571276051341556e-05
0.00014279175957199186
9.34279669309035e-05
0.00012050257646478713
9.790292824618518e-05
0.00010834068962140009
0.00012042881280649453
0.00021593009296339005
4.93155384901911e-05
0.00012408064503688365
9.875943214865401e-05
0.0001285665639443323
0.00013017999299336225
9.322224650532007e-05
0.00013798155123367906
3.800661215791479e-05
5.873666304978542e-05
0.00010041111818281934
9.582249913364649e-05
0.0001505240797996521
0.00011303998326184228
0.00012167573004262522
0.00010872942948481068
9.773042984306812e-05
0.000129014762933366
0.0001374848943669349
0.0001246463943971321
0.0001481769431848079
9.447809134144336e-05
0.00010118425416294485
0.0001518240023870021
0.00010599514644127339
0.00012009956844849512
9.640982170822099e-05
0.00020234484691172838
0.00013902528735343367
6.138148455647752e-05
0.00021446058235596865
0.00013085565296933055
4.796326902578585e-05
6.707626016577706e-05
0.0001993729965761304
8.62153829075396e-05
0.00016535578470211476
0.00012143384083174169
0.00012458628043532372
0.00014641192683484405
8.718170283827931e-05
9.580115147400647e-05
0.0001189699542010203
0.0001909845304908231
0.00013418348680716008
3.3806052670115605e-05
0.00011065866419812664
7.789101800881326e-05
0.00014167196059133857
0.00016971916193142533
6.400775600923225e-05
0.00016266416059806943
0.00013234793732408434
0.00015268744027707726
0.0001469266280764714
8.204371260944754e-05
9.388679609401152e-05
5.607178536592983e-05
0.0001332706306129694
0.00021405094594229013
0.00014240689051803201
8.273404819192365e-05
7.626511069247499e-05
8.577894186601043e-05
0.000174268803675659
0.00010453257709741592
0.00012866436736658216
0.00012625327508430928
0.00010290799400536343
9.18260047910735e-05
8.338062616530806e-05
4.119919321965426e-05
8.846872515277937e-05
0.00019023267668671906
0.00017971190391108394
0.00012589694233611226
0.00013563020911533386
0.00014323483628686517
9.538148151477799e-05
9.511951066087931e-05
0.00019527833501342684
9.400466660736129e-05
0.00012721333769150078
0.0001284298487007618
0.00012112488911952823
0.00014714710414409637
0.00017656123964115977
8.062032429734245e-05
0.00011745949450414628
0.00014012331666890532
0.00011505722795845941
6.394615047611296e-05
0.00014165605534799397
0.00015018644626252353
0.00012125854118494317
0.00012806520680896938
0.00010619153908919543
0.00018292338063474745
0.00012868232442997396
7.27715523680672e-05
9.821287676459178e-05
0.00013718784612137824
0.00013054738519713283
0.0001575592323206365
0.00012477814743760973
3.9509108319180086e-05
0.00012269278522580862
0.00012999956379644573
0.0001586594298714772
0.00015248505224008113
0.00019171494932379574
5.1878203521482646e-05
0.0001424565416527912
0.00012193048314657062
5.2368086471688e-05
6.240898073883727e-05
0.00013497205509338528
4.424041253514588e-05
0.000159193150466308
0.00019391911337152123
0.00010935732279904187
7.873580761952326e-05
0.00010240056144539267
0.00017416232731193304
9.598844189895317e-05
0.00016285019228234887
0.0001498722704127431
0.00012825701560359448
0.00014839853974990547
0.00013718414993491024
7.952765736263245e-05
0.00010009721154347062
0.0002273531281389296
0.00010651826596586034
0.00014959732652641833
0.0001244948070961982
5.770808638771996e-05
3.237202326999977e-05
8.67319104145281e-05
0.00011306455417070538
9.938571020029485e-05
0.00019152330060023814
9.880495053948835e-05
0.0001051398940035142
0.00012083112960681319
0.00012426030298229307
0.0002170073421439156
0.00013127898273523897
5.809556023450568e-05
8.189103391487151e-05
0.00012031612277496606
0.00012107022484997287
0.00013775356637779623
0.00010835796274477616
9.335247159469873e-05
0.0001013206274365075
7.156148785725236e-05
7.861297490308061e-05
0.00011918484960915521
0.0001207825553137809
0.00022480133338831365
0.0001505425025243312
7.502049265895039e-05
0.0001479855418438092
0.00017200587899424136
0.00013675693480763584
9.431763464817777e-05
0.00011801908112829551
0.00011395390902180225
0.00015205501404125243
0.00024249912530649453
7.028377149254084e-05
0.0001300116564380005
5.4366897529689595e-05
0.00011624337639659643
0.00014984834706410766
0.00014697045844513923
0.0001429384428774938
4.9705729907145724e-05
0.00016515242168679833
9.826442692428827e-05
8.43544039526023e-05
0.00012752784823533148
0.00014678150182589889
0.00011177579290233552
8.580061694374308e-05
8.511085616191849e-05
0.00013741788279730827
0.00012578368477988988
8.896771760191768e-05
3.332907726871781e-05
0.0001041363284457475
0.00011166845069965348
0.00011938612442463636
9.619425691198558e-05
4.511911902227439e-05
0.00013055327872280031
0.0001396348961861804
0.0001412377314409241
0.00011864319822052494
9.875476825982332e-05
3.2589090551482514e-05
0.0001040140341501683
5.774862802354619e-05
9.944432531483471e-05
7.114458276191726e-05
0.00011355448077665642
7.368018850684166e-05
0.00011322816862957552
5.453238190966658e-05
0.00016342189337592572
0.00011022530816262588
9.841658174991608e-05
8.912774501368403e-05
0.0001570225867908448
0.00020819045312236995
0.00012483700993470848
0.00015729381993878633
8.722857455722988e-05
0.00016328311176039279
0.0001282974553760141
9.572604176355526e-05
9.769061580300331e-05
0.0001309983927058056
0.00016529981803614646
5.875648639630526e-05
0.00011242429172853008
0.00013880002370569855
0.00015440786955878139
7.054084562696517e-05
0.00014897853543516248
3.754188583116047e-05
0.00011099125549662858
0.00011272870324319229
0.0001289867068408057
9.333764319308102e-05
0.00014174079115036875
0.0001102807727875188
0.00031574879540130496
0.00015286717098206282
0.00014865300909150392
0.00011970484047196805
6.138649041531608e-05
0.00011368945706635714
0.00014557765098288655
7.051297870930284e-05
0.00010409797687316313
0.00011777046893257648
5.785365283372812e-05
0.0001586478902027011
0.0001529999281046912
7.598314550705254e-05
0.00019690944463945925
0.00017437059432268143
0.00011708118836395442
3.208310226909816e-05
6.715020572301e-05
0.00028316350653767586
0.00019500195048749447
0.00016703947039786726
9.313440386904404e-05
0.00017258309526368976
0.00012707957648672163
0.00010560388182057068
0.00011926845036214218
0.00012927304487675428
0.00013270691852085292
0.0001527833373984322
0.00012497988063842058
9.486638009548187e-05
3.9060538256308064e-05
7.669081242056563e-05
7.011335401330143e-05
0.0001260911813005805
0.00013419249444268644
3.711376484716311e-05
7.609011663589627e-05
0.00011428401194280013
7.679470581933856e-05
0.00011009709123754874
0.00020668402430601418
0.00012894431711174548
0.00018018981791101396
0.00017812020087148994
9.316774230683222e-05
0.00012558122398331761
3.3879616239573807e-05
3.820691199507564e-05
0.00010423552157590166
0.00010166704305447638
9.049112850334495e-05
5.66017915843986e-05
0.0001347583602182567
0.00014517793897539377
0.00020045394194312394
0.00010772971290862188
0.00013794896949548274
9.047947969520465e-05
0.00011380502837710083
0.00011962126154685393
3.49870060745161e-05
7.695804379181936e-05
0.00010811389802256599
3.862000448862091e-05
0.00010702954023145139
7.35204157535918e-05
9.013807721203193e-05
0.0002159381692763418
7.299480785150081e-05
9.63904894888401e-05
4.06659601139836e-05
0.00014860383816994727
0.00014187130727805197
0.00016854946443345398
0.00014184621977619827
8.747541869524866e-05
7.631860353285447e-05
0.00016885707736946642
8.927776070777327e-05
0.00011986674508079886
0.0001644126168685034
0.00014649085642304271
0.00012394238729029894
0.00010702743747970089
0.00013442618364933878
9.114019485423341e-05
0.0001716682018013671
7.925850513856858e-05
9.079650772036985e-05
0.0002124518941855058
0.00015934256953187287
0.00012280960800126195
0.00014553868095390499
0.00011669695231830701
9.188075637212023e-05
6.79310760460794e-05
0.00012869008060079068
0.00021270896831993014
0.00015567334776278585
0.00017907642177306116
0.00010235186346108094
8.623183384770527e-05
0.00010819125600391999
0.00010343934263801202
0.00014733383432030678
9.796117228688672e-05
6.829250924056396e-05
0.0001390500256093219
0.0001342839386779815
6.016026600264013e-05
4.175318463239819e-05
0.00013183586997911334
5.0034828745992854e-05
0.00011426935088820755
0.00010328330245101824
0.00015558433369733393
0.0002445929276291281
0.00016063735529314727
0.00013689810293726623
2.936033888545353e-05
9.843525913311169e-05
8.143558807205409e-05
0.00011833311145892367
0.0001149389281636104
8.265663927886635e-05
4.447205355972983e-05
0.0001689902856014669
0.0001283383899135515
0.00013960331853013486
9.170769044430926e-05
0.00011020871170330793
9.161359776044264e-05
9.772330668056384e-05
0.00018472755618859082
0.00018556244322098792
0.00011993393127340823
6.906713679200038e-05
0.00012682964734267443
0.00020025260164402425
6.890908116474748e-05
0.0001453534932807088
0.0001773003168636933
0.00014024344272911549
0.0001796140131773427
0.00016033064457587898
8.97750724107027e-05
0.0001155669306172058
8.806530968286097e-05
0.00010297824337612838
0.00010497296170797199
0.00010038571781478822
0.00017485202988609672
9.903957834467292e-05
0.00018475569959264249
8.762509969528764e-05
0.00017001676314976066
0.00015113374684005976
0.0001711990189505741
9.233187302015722e-05
9.859834972303361e-05
0.00015080497541930526
0.0001506654662080109
0.00013383626355789602
7.222168642329052e-05
0.00010297234985046089
0.0001694080128800124
9.027449414134026e-05
0.00020893177133984864
0.00014582312724087387
0.0001506608969066292
0.0001107186617446132
0.00020546249288599938
4.637424353859387e-05
9.105844219448045e-05
0.00014682309119962156
0.0001583222474437207
0.00011349109263392165
6.804095028201118e-05
0.00013744145689997822
7.209242176031694e-05
0.0001397346204612404
0.00010936514445347711
5.0047099648509175e-05
0.00012231088476255536
9.241466614184901e-05
0.00015221451758407056
0.00014902817201800644
0.00011526687012519687
6.367117748595774e-05
0.00015475446707569063
0.00015683799574617296
0.0001467171823605895
0.0001235574163729325
0.00014586055476684123
9.137369488598779e-05
9.940720337908715e-05
0.0001532018359284848
0.00012230964784976095
0.00013510276039596647
0.00014984843437559903
0.00010501471842871979
8.370876457775012e-05
0.00011951303895330057
8.699331374373287e-05
9.988939564209431e-05
0.00012981957115698606
0.00022793779498897493
0.00012989442620892078
0.00014493626076728106
7.624139834661037e-05
0.00015914278628770262
9.09528971533291e-05
0.00018114957492798567
0.00011157285916851833
9.505049092695117e-05
0.00019984114624094218
0.00011911665933439508
0.0001400614855811
0.00015053154493216425
0.00015803937276359648
5.1071838242933154e-05
0.00021198012109380215
0.00011558137339306995
0.00011884169362019747
0.00012942928879056126
0.00014579165144823492
0.00011566608736757189
6.602684879908338e-05
9.177590982289985e-05
8.73420576681383e-05
0.00011056708899559453
0.00010652936180122197
0.00013486843090504408
0.0001481632934883237
8.795001485850662e-05
0.0001625350269023329
0.00014601857401430607
0.00012138505553593859
9.45240244618617e-05
0.0001326387282460928
0.00020849572320003062
0.0001203592328238301
9.21478567761369e-05
0.0001237735996255651
2.3144697479438037e-05
5.783032247563824e-05
0.00010801558528328314
0.00014224040205590427
0.00012801772390957922
7.844228821340948e-05
0.0001483773230575025
0.00012705112749245018
0.00013032997958362103
0.00010475632734596729
7.42955890018493e-05
7.336541602853686e-05
0.00012422013969626278
0.00011591262591537088
0.00013418502931017429
6.367266905726865e-05
0.00016494699229951948
7.694258238188922e-05
0.0001728866045596078
9.075381240108982e-05
0.00012587470700964332
0.0001461538631701842
0.00015499840083066374
6.57594864605926e-05
5.187775241211057e-05
0.00012979864550288767
0.00010609529272187501
0.00012125381181249395
0.00020237785065546632
0.00015290699957404286
0.00012631378194782883
6.931139068910852e-05
7.51848638174124e-05
0.00015910164802335203
0.00010067135735880584
9.710309677757323e-05
0.00010031697456724942
0.00016618627705611289
9.47394291870296e-05
0.00011219402949791402
0.00013539427891373634
6.6564061853569e-05
0.00011273915151832625
0.0001472754229325801
0.00017552268400322646
9.404424054082483e-05
3.798995749093592e-05
0.00013949075946584344
0.00010822738113347441
0.0001558829826535657
7.808487862348557e-05
0.00013777081039734185
0.00010034618753707036
0.00011551527859410271
7.255674427142367e-05
0.00010243816359434277
0.000148236911627464
0.00010845401993719861
0.00013725130702368915
0.0001330117229372263
0.00013242405839264393
0.0001252798392670229
0.00012459544814191759
0.0001326369820162654
0.00011245399218751118
9.13617986952886e-05
0.00016267668979708105
6.591170676983893e-05
0.00012104486086172983
0.00014283596829045564
7.658607501070946e-05
8.97329009603709e-05
