0.0032103697303682566
0.0021110461093485355
0.0019287188770249486
0.0029888025019317865
0.0030751419253647327
0.002509948331862688
0.0029702214524149895
0.0021189646795392036
0.0020237076096236706
0.0025278590619564056
0.00243669212795794
0.002878667088225484
0.003185844048857689
0.0017569049960002303
0.003000299446284771
0.006779849994927645
0.002625424414873123
0.005280635319650173
0.0036233016289770603
0.0029625033494085073
0.0025674160569906235
0.0035724565386772156
0.0018871792126446962
0.002098358003422618
0.0032826426904648542
0.002538752043619752
0.001849892782047391
0.0022987076081335545
0.002583692781627178
0.0036544655449688435
0.002434635069221258
0.003034289926290512
0.003504236927255988
0.0029328539967536926
0.001724031986668706
0.002994783688336611
0.002465095603838563
0.0026138185057789087
0.0019970666617155075
0.0034858672879636288
0.003485131310299039
0.002663356950506568
0.002101367572322488
0.0038513115141540766
0.0018282008823007345
0.001934668980538845
0.0024272846058011055
0.0022786215413361788
