0.00015401661221403629
0.00016554143803659827
0.00010677680984372273
0.00012794822396244854
4.9352387577528134e-05
0.00020740825857501477
0.00018254132010042667
0.00018202346109319478
0.00012467401393223554
0.00010634641512297094
0.00022179212828632444
0.0001619126123841852
0.00014603011368308216
0.00019007165974471718
0.00023580329434480518
0.0002688443928491324
0.0001358108565909788
0.00017494996427558362
0.00014074075443204492
0.00023677863646298647
0.0001440483465557918
0.00012247168342582881
0.00020228218636475503
0.00022754428209736943
0.000182924180990085
0.00011653539695544168
0.0001818927121348679
0.00016542436787858605
0.00017994472000282258
0.0002413036418147385
0.0001666613679844886
0.00022348682978190482
0.00030604511266574264
5.2805047744186595e-05
0.00010466310777701437
0.00019759668793994933
0.0001588364248163998
0.00018586167425382882
0.00011501612607389688
0.00023224683536682278
0.00021526655473280698
0.00021548887889366597
0.00017264251073356718
0.00022064890072215348
0.00019757766858674586
0.00014774211740586907
0.0001539213553769514
0.00015407805040013045
0.00020656008564401418
0.00014733217540197074
0.0001780901220627129
0.00017263315385207534
0.00013631026376970112
0.00016037578461691737
0.00011050471221096814
6.768399180145934e-05
0.00016438154852949083
0.0001348510995740071
0.00021320646919775754
0.00015107188664842397
0.00014521251432597637
0.0001735440455377102
0.00020981200214009732
0.00016030175902415067
9.89451291388832e-05
0.000153785411384888
0.00020622683223336935
0.00014478230150416493
0.0001783265615813434
0.00012186262028990313
0.00012170130503363907
0.00027256793691776693
0.0001851585111580789
0.0001712002558633685
0.00015466100012417883
0.00014634446415584534
0.0001594482164364308
0.00014161835133563727
0.00016199528181459755
0.00017507698794361204
0.00011959581024711952
0.000230731166084297
0.00024940320872701705
0.00018498607096262276
0.00015353827620856464
0.00015438851551152766
0.000199227113625966
0.00011949314648518339
0.00018473983800504357
0.00022553256712853909
0.0002493412175681442
0.00014154515520203859
0.00016421719919890165
4.481084397411905e-05
0.00023809219419490546
7.387357618426904e-05
8.844122203299776e-05
0.00012880154827143997
0.00016379726002924144
0.00011547943722689524
0.00018260777869727463
0.00023743198835290968
0.00016771318041719496
9.232173761120066e-05
0.0003240468795411289
8.806552068563178e-05
0.00031522492645308375
0.0002089544723276049
0.0001811081456253305
0.0001592314656591043
0.00015918466669972986
0.00019050984701607376
0.0001616109802853316
0.00017818559717852622
0.00011390108556952327
0.0001970784505829215
0.00014658540021628141
0.00021487109188456088
0.0001500854705227539
0.0001657886168686673
0.00021874858066439629
0.00032235891558229923
0.00015391921624541283
0.0002423796831863001
0.00018563623598311096
0.00014637316053267568
9.067658538697287e-05
0.00018330813327338547
0.00017605932953301817
0.0001804547500796616
0.00015602335042785853
0.00018511769303586334
0.000192157895071432
0.00021686492254957557
0.0001822427730076015
6.460859003709629e-05
0.0001472297590225935
0.00011321822967147455
7.884067599661648e-05
0.00013245340960565954
0.00020689224766101688
0.0001903983938973397
9.544593922328204e-05
0.00016915651212912053
0.00019335981050971895
0.0001900811039377004
0.00013202712580095977
6.347916496451944e-05
0.00013750768266618252
0.00018442484724801034
0.00010219788237009197
0.00014176407421473414
0.000142730277730152
0.00011762420035665855
0.00014060092507861555
0.0001619861286599189
0.00026771301054395735
8.193216490326449e-05
0.00011138369154650718
0.00017534205107949674
0.00019596445781644434
0.00011259707389399409
0.00016245311417151242
0.00015150803665164858
0.0001959706423804164
0.000162074516993016
0.0002235226274933666
0.00015285960398614407
0.00012776032963301986
0.00013179406232666224
0.00018993786943610758
0.00018883879238273948
0.0001656513341004029
0.000191943472600542
0.00013119100185576826
0.00013205774303060025
0.00024555507116019726
0.00010686990572139621
0.00016958524065557867
4.889021147391759e-05
0.0003232194285374135
0.00015344431449193507
0.0001193863499793224
0.00018250441644340754
0.00011792877921834588
0.00011810167052317411
0.00010141781967831776
0.00023192583466880023
0.00017056477372534573
0.0001931557635543868
5.498072277987376e-05
0.00013974252215120941
0.0002588515926618129
0.00018547121726442128
0.00022418001026380807
0.00011276991426711902
0.00010855211439775303
0.00012087546201655641
0.00015231064753606915
0.00019086807151325047
0.0002433183981338516
0.00021166847727727145
0.00019682844867929816
0.00021220187772996724
0.0002446366415824741
0.00011118154361611232
0.0001476478500990197
0.00012178908218629658
0.00020504850544966757
7.310513319680467e-05
0.00015715441259089857
0.00011919881944777444
0.0002603819302748889
0.00016603282711002976
0.0001107397984014824
0.0001940601650858298
0.00018098606960847974
0.00019426876679062843
0.00030641088960692286
0.000173431501025334
0.0001801968173822388
0.00021379902318585664
0.00021485389152076095
0.0002365939290029928
0.00020440602384041995
0.00023566441086586565
0.00019790444639511406
5.94043085584417e-05
0.00014675449347123504
0.0001684343587839976
0.00019796148990280926
0.00019982311641797423
0.00021638331236317754
0.00013312158989720047
0.00014950305921956897
0.00015884509775787592
0.00016354223771486431
0.00021515182743314654
0.0001615896908333525
0.0001390249963151291
0.0001589832390891388
0.00016898753528948873
7.014450238784775e-05
0.00021636120800394565
4.558991713565774e-05
0.00019905543013010174
0.00013359302829485387
0.00012112014519516379
0.0001624732103664428
0.00019596764468587935
0.0001975112536456436
0.00015940688899718225
0.00010678099351935089
0.00014640481094829738
0.00023905780108179897
0.0001682783622527495
0.0001595858921064064
0.00013658784155268222
0.0001764659973559901
0.00022078996698837727
0.0001651841012062505
0.00015129199891816825
0.00020133459474891424
0.00013243549619801342
6.107118679210544e-05
0.00022630600142292678
0.00022196389909368008
0.0001664785377215594
8.356293983524665e-05
0.00023761304328218102
0.00017602377920411527
0.0001333921100012958
6.897212006151676e-05
0.00017381158249918371
0.00010162084799958393
0.0002655703865457326
0.0001557780196890235
0.00011979578266618773
0.00028526748064905405
0.00016225014405790716
2.577972918516025e-05
0.00025907778763212264
4.936043478664942e-05
0.00020291107648517936
0.00019910605624318123
0.0001871998974820599
0.00020131177734583616
0.00011566324246814474
0.00012704433174803853
0.0002011310716625303
0.00016610597958788276
8.986796456156299e-05
0.0001661132846493274
0.00018239495693705976
0.00019207898003514856
0.00023010917357169092
0.00011731054837582633
0.00024406846205238253
0.0002501591807231307
0.0001994608319364488
0.00015132084081415087
0.00018299990915693343
0.00017483864212408662
0.00010340012522647157
0.00014020316302776337
0.00022135619656182826
6.898210267536342e-05
0.00020678657165262848
0.00013490555284079164
0.0001486506953369826
0.0002292153803864494
0.00011556093522813171
0.00011756156891351566
0.00023793558648321778
0.00010301725706085563
0.00012587991659529507
0.00013322111044544727
0.00016352086095139384
0.0001279471325688064
0.00024377659428864717
0.00013806445349473506
0.00016617230721749365
0.00012204855738673359
0.00022743386216461658
0.00013855646830052137
9.582912753103301e-05
0.00017325067892670631
0.00013036806194577366
0.0001285510224988684
0.00019508169498294592
0.0001630431361263618
0.00016811226669233292
0.0002178121212637052
0.000196602544747293
0.00015639168850611895
0.00026895824703387916
0.00011328935215715319
0.00014035885396879166
0.00019619910744950175
0.00013107690028846264
0.00018343489500693977
0.00019570472068153322
0.00021505600307136774
0.00016629946185275912
0.00015094096306711435
0.00014622724847868085
8.709025860298425e-05
0.00040461335447616875
0.00021319383813533932
0.00020654425316024572
0.00016232742927968502
0.00015348446322605014
0.00010148435831069946
0.00013021778431721032
0.00024824001593515277
0.00016321575094480067
0.0001238719269167632
0.0001578644587425515
0.00017246305651497096
0.00028404570184648037
0.00021880575513932854
0.00021417667448986322
0.0001468037226004526
0.00018888433987740427
0.00014575252134818584
0.00011817395716207102
0.00023121990670915693
0.00016225733270402998
0.00019899850303772837
5.585140752373263e-05
0.0001449539850000292
0.00024698334163986146
0.00016578787472099066
0.0002258158492622897
0.00020855257753282785
0.00010725477477535605
0.00015805332805030048
0.00024494167882949114
0.00022857505246065557
0.00016223319107666612
0.00012484638136811554
0.0001796567376004532
5.2900140872225165e-05
0.00015173816063906997
0.0002122604491887614
0.0001241513527929783
0.0001868352701421827
0.00016801810124889016
0.00020819813653361052
0.0002337176410946995
0.0001432946155546233
0.00015716394409537315
0.00014078302774578333
0.0001682635338511318
0.00020100206893403083
0.00015165461809374392
0.0003500324673950672
0.00018467185145709664
0.00010187406587647274
0.000139405790832825
0.0002844313276000321
0.00012076915299985558
0.0001958158827619627
0.00014555329107679427
0.00013569320435635746
0.00019986843108199537
0.00021432634093798697
0.00015847719623707235
6.829982157796621e-05
0.00013046620006207377
9.78507159743458e-05
0.00022832039394415915
0.0001665957533987239
0.0002135807735612616
0.000250611687079072
0.0001926677650772035
0.00014230493979994208
0.00010394716082373634
0.0001809805544326082
0.00017248649965040386
0.00014093112258706242
0.00014077805099077523
0.00033508529304526746
0.0001333744148723781
9.921779565047473e-05
0.00011975742381764576
4.7301233280450106e-05
0.00023116865486372262
0.00010673624638002366
0.0001903499651234597
0.00014100279076956213
0.0001442500506527722
0.00010844863572856411
0.0001780873426469043
0.0001316481502726674
0.000210427533602342
0.00019526500545907766
0.00024288499844260514
0.00011308892135275528
0.00016131614393088967
0.00022834830451756716
0.00012856385728809983
0.00016386386414524168
0.0001402764901285991
0.00016420453903265297
0.00012037865235470235
0.00017537073290441185
0.00012160014011897147
0.00016337296983692795
0.00016041823255363852
0.00017714306886773556
0.00024355025379918516
0.00023485287965741009
0.00018816761439666152
9.074059926206246e-05
8.372080628760159e-05
0.00023221656738314778
0.0001930886210175231
0.00015624862862750888
0.000211030084756203
9.239607607014477e-05
0.00015852905926294625
0.00021738263603765517
0.00018991965043824166
0.00011043659469578415
6.279864464886487e-05
0.00021964694315101951
0.00016441181651316583
0.0001363879127893597
0.0001828818494686857
0.000238615000853315
0.00019685669394675642
0.00015314374468289316
0.0002339731581741944
0.0001085347103071399
0.00017968563770409673
0.00012197680189274251
0.00020639761351048946
0.0002027702721534297
0.0001205254447995685
0.00016349495854228735
0.00020341419440228492
0.0001690168137429282
0.000217145643546246
7.439891487592831e-05
0.00016436883015558124
0.00016928727563936263
0.00011908009764738381
0.0001299693394685164
0.00023136503295972943
0.0002065672306343913
7.728107448201627e-05
0.00024025935272220522
0.00021957432909402996
0.00018897226254921407
0.0001888051483547315
0.00020894869521725923
0.00012632255675271153
0.0002127903571818024
0.00017655569536145777
0.0001564528065500781
0.0001804646453820169
0.00014203149476088583
0.00024394366482738405
0.00016196371871046722
0.00011408518912503496
0.00021386340085882694
0.00010618496162351221
0.0001654034131206572
0.0002720084157772362
0.00017883499094750732
5.468067683978006e-05
0.0001568785373819992
0.00011733677820302546
0.00016528792912140489
0.00017483167175669223
0.00020728712843265384
0.00017005071276798844
0.00016724440502002835
0.0001640304981265217
0.00022919340699445456
0.00015150198305491358
0.00014409855066332966
0.00021523074246942997
0.00012875838729087263
0.00012433009396772832
0.00017005424888338894
0.00010784341429825872
0.00015915393305476755
0.0002163942262995988
0.0001147383009083569
0.0001325641933362931
0.0001522015081718564
6.277209467953071e-05
0.00019493041327223182
0.00018980700406245887
0.00013642749399878085
0.00023344486544374377
0.00019325455650687218
0.00013695642701350152
0.00016424618661403656
0.00017287825176026672
0.0001907383557409048
0.00015571125550195575
0.0001239495031768456
0.00019900334882549942
0.00014988891780376434
0.00015317861107178032
0.0002914222131948918
0.00012925743067171425
0.00023084113490767777
0.00012044086179230362
0.00019742100266739726
0.00016866378427948803
0.0002202946925535798
0.00014985039888415486
4.758217983180657e-05
0.0001678025146247819
0.000200741458684206
0.0001522316160844639
0.00011973736400250345
0.00022842787439003587
0.0001859185576904565
0.00021593077690340579
0.00022851707763038576
0.00018115423154085875
0.0001624046708457172
0.00018344023555982858
0.00013852558913640678
0.000237059619394131
0.00018813335918821394
0.00020022259559482336
7.50856997910887e-05
0.0001403031055815518
0.00018076368723995984
0.00011045091378036886
0.00017738124006427824
0.00010656162339728326
0.00015269673895090818
0.00012846439494751394
0.00017388167907483876
0.0002307398826815188
0.00016589529695920646
0.0001112777681555599
0.00011437838838901371
0.00020216169650666416
0.00017735538131091744
0.00017683583428151906
0.00024486941401846707
7.964907126734033e-05
0.00020414050959516317
0.0001335681590717286
0.00017227504577022046
0.00013996573397889733
0.00015488795179408044
0.00017216958804056048
0.0003087018267251551
7.050335989333689e-05
0.0001773903932189569
0.0001411902194377035
0.00018380362598691136
0.00018611025006975979
0.00013327405031304806
0.0001972636382561177
5.433569094748236e-05
8.397215424338356e-05
0.00014355152961798012
0.00013699146802537143
0.00021519491565413773
0.00016160623636096716
0.00017395222675986588
0.000155443703988567
0.0001397191226715222
0.00018444439047016203
0.00019655360665638
0.00017819920321926475
0.00021183936041779816
0.00013506945106200874
0.00014465683489106596
0.00021705334074795246
0.0001515346666565165
0.00017169889179058373
0.00013783112808596343
0.0002892798511311412
0.0001987558207474649
8.775329479249194e-05
0.0003066009667236358
0.00018707619165070355
6.857010157546028e-05
9.589475666871294e-05
0.00028503118664957583
0.00012325677380431443
0.000236398889683187
0.00017360641504637897
0.000178113259607926
0.0002093160292133689
0.00012463825987651944
0.00013696095265913755
0.00017008394934237003
0.00027303872047923505
0.00019183378026355058
4.8330413846997544e-05
0.00015820181579329073
0.0001113559483201243
0.00020253959519322962
0.00024263693194370717
9.150790720013902e-05
0.0002325508394278586
0.00018920961883850396
0.00021828775061294436
0.00021005187591072172
0.00011729279503924772
0.00013422411575447768
8.016234642127529e-05
0.00019052873540204018
0.0003060153394471854
0.00020359027257654816
0.00011827972048195079
0.0001090314908651635
0.00012263281678315252
0.00024914127425290644
0.00014944373106118292
0.0001839434407884255
0.0001804964558687061
0.0001471211580792442
0.00013127793499734253
0.00011920409451704472
5.8899924624711275e-05
0.0001264782331418246
0.0002719638287089765
0.00025692294002510607
0.00017998702242039144
0.00019390207307878882
0.00020477393991313875
0.00013636097719427198
0.0001359864545520395
0.0002791773003991693
0.00013439262693282217
0.0001818690070649609
0.00018360817921347916
0.00017316472076345235
0.00021036707039456815
0.00025241862749680877
0.00011525786976562813
0.00016792453243397176
0.00020032559405080974
0.00016449016402475536
9.141983900917694e-05
0.0002025168651016429
0.0002147122286260128
0.00017335580196231604
0.00018308687140233815
0.00015181544586084783
0.00026151418569497764
0.00018396912491880357
0.0001040369679685682
0.0001404088397976011
0.00019612893811427057
0.00018663548689801246
0.00022525264648720622
0.00017838756320998073
5.648371370625682e-05
0.00017540623957756907
0.00018585230282042176
0.00022682553390040994
0.00021799840033054352
0.0002740829368121922
7.416704465867952e-05
0.00020366127137094736
0.00017431643209420145
7.486739923479035e-05
8.922223787521943e-05
0.00019296114624012262
6.324776768451557e-05
0.00022758854902349412
0.00027723409584723413
0.00015634136798325926
0.00011256369180046022
0.00014639571600127965
0.0002489890612196177
0.0001372287078993395
0.00023281679023057222
0.00021426306921057403
0.00018336107314098626
0.00021215617016423494
0.00019612364121712744
0.00011369574349373579
0.00014310276310425252
0.00032503262627869844
0.00015228254778776318
0.00021387000742834061
0.0001779824960976839
8.250166138168424e-05
4.628027090802789e-05
0.00012399522529449314
0.00016164136468432844
0.00014208556967787445
0.0002738089533522725
0.00014125529560260475
0.00015031197108328342
0.00017274475248996168
0.00017764723452273756
0.0003102419141214341
0.0001876813912531361
8.305560913868248e-05
0.00011707451631082222
0.00017200848378706723
0.00017308657697867602
0.00019693771901074797
0.00015491264639422297
0.0001334602275164798
0.00014485180145129561
0.00010230701445834711
0.00011238807928748429
0.00017039116937667131
0.00017267531075049192
0.00032138449023477733
0.00021522125462070107
0.0001072521336027421
0.00021156572620384395
0.0002459061215631664
0.00019551289733499289
0.00013484005467034876
0.00016872453852556646
0.00016291282372549176
0.00021738359646406025
0.00034668593434616923
0.00010048033436760306
0.00018586957594379783
7.772497338009998e-05
0.0001661859278101474
0.00021422887220978737
0.00021011452190577984
0.00020435020269360393
7.106119301170111e-05
0.00023610814241692424
0.00014048254524823278
0.00012059624714311212
0.00018231863214168698
0.00020984438015148044
0.00015979890304151922
0.00012266381236258894
0.00012167770182713866
0.00019645779684651643
0.00017982511781156063
0.00012719161168206483
4.7648507461417466e-05
0.00014887723955325782
0.00015964543854352087
0.00017067891894839704
0.00013752294762525707
6.45039981463924e-05
0.00018664391245692968
0.00019962733495049179
0.00020191881048958749
0.000169616803759709
0.0001411835546605289
4.6590597776230425e-05
0.000148702398291789
8.255962166003883e-05
0.0001421693741576746
0.00010171098983846605
0.0001623417774681002
0.00010533598833717406
0.0001618752721697092
7.796155841788277e-05
0.0002336341276532039
0.00015758226800244302
0.0001407000672770664
0.00012742039689328521
0.00022448542586062104
0.00029763695783913136
0.00017847170238383114
0.00022487320529762655
0.00012470527144614607
0.00023343571228906512
0.0001834189024521038
0.00013685357407666743
0.00013966219557914883
0.00018728025315795094
0.00023631886870134622
8.40004940982908e-05
0.0001607260201126337
0.00019843375775963068
0.00022074732987675816
0.0001008478575386107
0.0002129853528458625
5.3671297791879624e-05
0.00015867729962337762
0.00016116122424136847
0.00018440428539179265
0.00013343902537599206
0.00020263799524400383
0.0001576615613885224
0.0004514064348768443
0.00021854469378013164
0.0002125199680449441
0.00017113456851802766
8.776044705882668e-05
0.00016253475041594356
0.0002081233251374215
0.00010080802167067304
0.00014882240793667734
0.00016836912254802883
8.270976832136512e-05
0.00022680901747662574
0.00021873447985854
0.0001086283809854649
0.0002815091866068542
0.0002492867934051901
0.00016738369595259428
4.58672184322495e-05
9.600047633284703e-05
0.0004048212431371212
0.00027878215769305825
0.00023880595108494163
0.00013314846728462726
0.0002467313315719366
0.0001816777657950297
0.0001509753055870533
0.0001705106842564419
0.00018481364531908184
0.00018972282123286277
0.00021842482965439558
0.00017867596761789173
0.00013562456297222525
5.584242535405792e-05
0.00010964008833980188
0.00010023669892689213
0.00018026471661869437
0.0001918466732604429
5.3059244237374514e-05
0.00010878131433855742
0.0001633847423363477
0.00010978861973853782
0.0001573989720782265
0.0002954833034891635
0.0001843436766648665
0.00025760618154890835
0.000254647369729355
0.00013319612480700016
0.00017953566566575319
4.843558053835295e-05
5.462204717332497e-05
0.00014901904796715826
0.00014534704678226262
0.00012936953862663358
8.092006464721635e-05
0.00019265564333181828
0.00020755187142640352
0.0002865765418391675
0.00015401447308249772
0.0001972170575754717
0.00012935289123561233
0.00016269997286144644
0.00017101508274208754
5.001874887966551e-05
0.00011002212704624981
0.0001545637205708772
5.521262210095301e-05
0.00015301347593776882
0.00010510756692383438
0.00012886480544693768
0.00030871338094584644
0.00010435613512527198
0.00013780349399894476
5.813759344164282e-05
0.00021244966774247587
0.00020282459445297718
0.0002409646986052394
0.00020278872398193926
0.0001250581699423492
0.00010910796117968857
0.00024140445748344064
0.00012763486301992089
0.00017136603128165007
0.0002350504946662113
0.00020942886476404965
0.00017719273455440998
0.00015301047824323177
0.00019218075613025576
0.00013029747060500085
0.0002454233472235501
0.00011331096175126731
0.00012980612518731505
0.0003037292626686394
0.00022780217113904655
0.00017557326646056026
0.00020806760585401207
0.00016683437570463866
0.0001313562097493559
9.71168337855488e-05
0.0001839802134782076
0.00030409678583964705
0.0002225565112894401
0.0002560144348535687
0.00014632609963882715
0.00012328028969932348
0.00015467431512661278
0.0001478807971579954
0.00021063402527943254
0.00014004900003783405
9.763355774339288e-05
0.00019879118190146983
0.00019197739311493933
8.600739238318056e-05
5.9691934438887984e-05
0.00018847754108719528
7.153168553486466e-05
0.00016336378757841885
0.00014765771629754454
0.0002224292402388528
0.00034967929241247475
0.00022965323296375573
0.00019571470329537988
4.19746502302587e-05
0.00014072677004151046
0.00011642339813988656
0.00016917349421419203
0.00016432104166597128
0.00011816906044259667
6.357893289532512e-05
0.00024159489839803427
0.00018347741570323706
0.00019958218035753816
0.000131108783534728
0.00015755854838062078
0.00013097426563035697
0.00013970893633086234
0.00026409351266920567
0.00026528708986006677
0.00017146208847407252
9.874099487205967e-05
0.0001813204726204276
0.0002862887049559504
9.851502545643598e-05
0.00020780284830834717
0.0002534752420615405
0.00020049733575433493
0.00025678297970443964
0.00022921475465409458
0.00012834584049414843
0.00016521885117981583
0.00012590149708557874
0.00014722159539815038
0.0001500733196735382
0.00014351522258948535
0.0002499750698916614
0.00014159073180053383
0.00026413373416289687
0.00012527215585578233
0.00024306240084115416
0.000216066517168656
0.00024475259124301374
0.0001320011360803619
0.00014095993537921458
0.00021559649030677974
0.00021539704175665975
0.00019133738533128053
0.0001032508589560166
0.00014721316983923316
0.00024219210899900645
0.00012905983021482825
0.0002986967738252133
0.00020847425912506878
0.0002153905079467222
0.00015828758478164673
0.00029373695724643767
6.629837298532948e-05
0.0001301805896218866
0.00020990385382901877
0.00022634347260463983
0.00016225116269197315
9.727392171043903e-05
0.00019649149908218533
0.00010306605690857396
0.0001997699000639841
0.00015635254385415465
7.154922786867246e-05
0.00017486026627011597
0.00013211950135882944
0.00021761163952760398
0.00021305630798451602
0.0001647898752707988
9.102672629524022e-05
0.00022124283714219928
0.0002242215268779546
0.00020975244115106761
0.00017664236656855792
0.0002085277665173635
0.0001306312915403396
0.00014211630332283676
0.0002190231462009251
0.0001748584909364581
0.00019314800738357008
0.0002142289886251092
0.00015013301162980497
0.00011967321916017681
0.00017086036677937955
0.00012436893302947283
0.00014280565665103495
0.00018559496675152332
0.00032586848828941584
0.00018570199608802795
0.0002072063653031364
0.00010899758490268141
0.00022751654614694417
0.00013002970081288368
0.00025897828163579106
0.00015950878150761127
0.00013588777801487595
0.0002857004583347589
0.00017029368609655648
0.00020023720571771264
0.00021520558220800012
0.00022593906032852829
7.301423465833068e-05
0.0003030548105016351
0.00016523950034752488
0.00016990058065857738
0.00018503700266592205
0.00020842926460318267
0.00016536061593797058
9.439448331249878e-05
0.0001312063104705885
0.00012486751074902713
0.00015807089221198112
0.0001522984093753621
0.00019281300774309784
0.00021181984629947692
0.00012573666754178703
0.0002323662192793563
0.00020875368500128388
0.0001735366677166894
0.00013513512385543436
0.00018962533795274794
0.0002980733697768301
0.00017207011114805937
0.0001317380665568635
0.00017695142014417797
3.3088534109992906e-05
8.26764153316617e-05
0.0001544231636216864
0.000203352261451073
0.0001830189721658826
0.0001121440582210198
0.00021212584397289902
0.00018163709319196641
0.00018632467254064977
0.00014976361126173288
0.00010621578257996589
0.00010488597763469443
0.00017758981266524643
0.00016571307787671685
0.0001918359921546653
9.102885815082118e-05
0.00023581447021570057
0.00011000002268701792
0.00024716524058021605
0.00012974507990293205
0.0001799552410375327
0.0002089470945065841
0.00022159158834256232
9.401224815519527e-05
7.416639709845185e-05
0.00018556506256572902
0.0001516778429504484
0.00017334903532173485
0.00028932702844031155
0.00021860163542442024
0.00018058295245282352
9.909018262987956e-05
0.00010748712520580739
0.0002274577273055911
0.00014392357843462378
0.0001388222590321675
0.00014341693895403296
0.0002375861949985847
0.00013544307148549706
0.0001603968266863376
0.00019356478878762573
9.516250429442152e-05
0.00016117615450639278
0.00021055051183793694
0.00025093386648222804
0.00013444920477923006
5.431188037618995e-05
0.00019942126527894288
0.00015472595987375826
0.0002228562079835683
0.00011163309682160616
0.00019696236995514482
0.00014345870295073837
0.0001651450147619471
0.00010372986434958875
0.00014644947077613324
0.0002119251003023237
0.00015504997281823307
0.0001962196547538042
0.00019015859288629144
0.00018931843806058168
0.00017910479800775647
0.00017812637088354677
0.0001896228495752439
0.00016076848260127008
0.00013061428035143763
0.0002325687528355047
9.422987204743549e-05
0.00017305031360592693
0.00020420369401108474
0.00010949034913210198
0.0001282855519093573
