0.00010142094106413424
7.205138535937294e-05
6.792161730118096e-05
6.885073526063934e-05
6.184656376717612e-05
7.300789002329111e-05
4.331978925620206e-05
0.0001001171549432911
5.738304753322154e-05
9.04652988538146e-05
7.799748709658161e-05
0.0001012712309602648
7.3364564741496e-05
7.593996269861236e-05
7.666305464226753e-05
9.488536306889728e-05
8.629813964944333e-05
9.655611211201176e-05
5.326200698618777e-05
6.792515341658145e-05
7.335084228543565e-05
6.36338590993546e-05
5.425143535831012e-05
8.412462921114638e-05
6.377996760420501e-05
6.735356146236882e-05
0.00010379221203038469
7.091966108419001e-05
6.540902541019022e-05
7.607482984894887e-05
7.139036461012438e-05
6.035066689946689e-05
0.00012179920304333791
8.4595252701547e-05
6.070975723559968e-05
7.81655398895964e-05
0.00012847408652305603
8.964260632637888e-05
7.452389399986714e-05
0.0001130986274802126
0.00011601734877331182
6.970305548748001e-05
8.81823361851275e-05
5.8285382692702115e-05
7.065927638905123e-05
5.6507888075429946e-05
8.911153418011963e-05
5.53863646928221e-05
9.164745279122144e-05
5.4956322856014594e-05
5.905847865506075e-05
7.813284173607826e-05
6.507919897558168e-05
7.534366159234196e-05
0.00013958232011646032
8.437398355454206e-05
6.612838478758931e-05
5.320037962519564e-05
7.732498488621786e-05
9.46728396229446e-05
7.059239578666165e-05
8.891045581549406e-05
7.890052802395076e-05
9.147027594735846e-05
6.40528742223978e-05
7.118265784811229e-05
7.291958172572777e-05
6.848680641269311e-05
8.351659926120192e-05
7.610549801029265e-05
6.83903053868562e-05
8.124718442559242e-05
6.6504449932836e-05
8.355139289051294e-05
6.649821443716064e-05
7.262657163664699e-05
7.971385639393702e-05
7.488535629818216e-05
6.273195322137326e-05
5.923826392972842e-05
6.601316999876872e-05
0.00010176445357501507
6.308540469035506e-05
6.82463069097139e-05
7.790106610627845e-05
6.518882582895458e-05
7.002208440098912e-05
9.962922922568396e-05
7.633384666405618e-05
6.629069685004652e-05
0.00012019388668704778
6.841628783149645e-05
0.00011795586760854349
0.00012520620657596737
7.133182953111827e-05
6.196709000505507e-05
6.12900621490553e-05
6.582840433111414e-05
7.476945756934583e-05
0.00010129318980034441
0.0002372103335801512
4.634610377252102e-05
9.643565135775134e-05
9.051176311913878e-05
0.0001208398534799926
5.614547262666747e-05
5.669097663485445e-05
7.28067898307927e-05
5.406871787272394e-05
9.328790474683046e-05
6.462057353928685e-05
0.00010214609210379422
6.455307448050007e-05
6.756990478606895e-05
6.212512380443513e-05
8.630396041553468e-05
7.828428351785988e-05
7.454697333741933e-05
7.112402090569958e-05
7.140648813219741e-05
7.317366544157267e-05
8.371782314497977e-05
0.00010192673653364182
7.478125189663842e-05
4.5490691263694316e-05
8.981616701930761e-05
8.891646575648338e-05
6.888696225360036e-05
9.44638013606891e-05
8.474796049995348e-05
7.109038415364921e-05
6.866851617814973e-05
6.123382627265528e-05
9.019994467962533e-05
7.467473187716678e-05
6.282186950556934e-05
8.877934305928648e-05
8.902703848434612e-05
9.244194370694458e-05
6.113851122790948e-05
0.00012120430619688705
8.08456534286961e-05
9.258350473828614e-05
0.00010715782264014706
5.639445225824602e-05
6.778485112590715e-05
6.843427399871871e-05
0.00013967306585982442
7.79637775849551e-05
7.736164843663573e-05
7.579876546515152e-05
6.375585508067161e-05
6.068067523301579e-05
0.00010962995293084532
0.00012002157018287107
7.276640826603398e-05
7.839854515623301e-05
6.937995931366459e-05
9.815713565330952e-05
9.452772792428732e-05
8.038664236664772e-05
0.00012195430463179946
0.00010404766362626106
6.522513285744935e-05
9.949249943019822e-05
7.381974864983931e-05
9.052500536199659e-05
5.782562948297709e-05
8.455608622170985e-05
7.766950875520706e-05
7.901660865172744e-05
7.446030213031918e-05
8.527853788109496e-05
6.313709309324622e-05
7.64070064178668e-05
7.290158100659028e-05
7.985077536432073e-05
5.757491817348637e-05
6.762319389963523e-05
6.827353354310617e-05
9.03198670130223e-05
7.91061029303819e-05
7.456043385900557e-05
7.08598381606862e-05
8.371176954824477e-05
7.295599061762914e-05
7.014685252215713e-05
0.00013080760254524648
9.276779746869579e-05
8.948495815275237e-05
7.398588059004396e-05
9.209718700731173e-05
6.552470586029813e-05
7.228229515021667e-05
7.17918956070207e-05
9.857996337814257e-05
7.526949775638059e-05
8.648078801343217e-05
6.675610347883776e-05
6.138004391686991e-05
7.587465370306745e-05
7.532151357736439e-05
7.587495201732963e-05
0.00016921863425523043
5.7217213907279074e-05
5.5760738177923486e-05
6.654216849710792e-05
7.57191373850219e-05
9.005016181617975e-05
8.928088209358975e-05
0.00010526486585149541
6.518173904623836e-05
9.007676271721721e-05
7.654314686078578e-05
5.7313420256832615e-05
8.021613757591695e-05
8.43904199427925e-05
9.188729018205777e-05
0.00010104363173013553
6.256356573430821e-05
8.45830436446704e-05
7.068289414746687e-05
8.505721780238673e-05
5.516486999113113e-05
6.376268720487133e-05
8.171256195055321e-05
0.00010351711534895003
5.049911487731151e-05
7.535253098467365e-05
8.864012488629669e-05
6.579134060302749e-05
8.87431888259016e-05
8.953631913755089e-05
6.298832886386663e-05
5.2817133109783754e-05
6.485095946118236e-05
6.222991942195222e-05
7.702507718931884e-05
8.630755473859608e-05
8.157989213941619e-05
6.525281787617132e-05
5.711282210540958e-05
8.052191697061062e-05
6.384703738149256e-05
0.00010730627400334924
4.557073043542914e-05
8.692918345332146e-05
7.470622949767858e-05
6.498642324004322e-05
7.223914144560695e-05
5.7918303355108947e-05
3.814178489847109e-05
6.633013254031539e-05
7.721652218606323e-05
5.418660293798894e-05
9.506059723207727e-05
7.657380774617195e-05
5.5205251555889845e-05
6.615911115659401e-05
8.236661233240739e-05
5.9864658396691084e-05
8.960150444181636e-05
0.00010801634925883263
6.393346848199144e-05
6.024082176736556e-05
8.950255141826347e-05
5.492855780175887e-05
5.888474333914928e-05
9.055632108356804e-05
0.00013254708028398454
7.407718658214435e-05
8.745033846935257e-05
8.988487388705835e-05
5.995487663312815e-05
7.26202197256498e-05
6.146398663986474e-05
9.717617649585009e-05
6.51360533083789e-05
8.668308146297932e-05
7.916261529317126e-05
8.853952749632299e-05
9.600647899787873e-05
6.405663589248434e-05
6.868952186778188e-05
7.488498522434384e-05
7.971350714797154e-05
6.374595977831632e-05
0.00011072238703491166
7.721620931988582e-05
4.259630441083573e-05
7.624171848874539e-05
8.601094305049628e-05
6.703333201585338e-05
0.000102730278740637
8.170993532985449e-05
6.657059566350654e-05
8.82862150319852e-05
7.16471258783713e-05
6.667065463261679e-05
8.11843856354244e-05
7.239708065753803e-05
0.00010356549319112673
5.6584696721984074e-05
6.692703027511016e-05
8.640902524348348e-05
9.531562682241201e-05
8.331223943969235e-05
6.520777242258191e-05
6.938421574886888e-05
7.203557470347732e-05
6.705416308250278e-05
7.800746971042827e-05
9.398833208251745e-05
8.30584904178977e-05
7.375134009635076e-05
8.209148654714227e-05
9.825420420384035e-05
6.950305396458134e-05
6.202773511176929e-05
6.456717528635636e-05
7.365331111941487e-05
9.529908129479736e-05
7.008069223957136e-05
0.00011634507245616987
8.815700857667252e-05
6.73295435262844e-05
0.00019254712969996035
5.812062227050774e-05
7.066928083077073e-05
7.409985846607015e-05
6.810757622588426e-05
0.00012285736738704145
6.77462958265096e-05
5.120084824739024e-05
6.851570651633665e-05
0.0001013060100376606
9.335071808891371e-05
8.67079506861046e-05
8.469425665680319e-05
6.392159411916509e-05
6.119863246567547e-05
6.987195956753567e-05
0.00011544459994183853
4.782633186550811e-05
6.338400271488354e-05
9.657933696871623e-05
8.0273617641069e-05
6.257939094211906e-05
9.36950309551321e-05
9.932895045494661e-05
4.984902625437826e-05
5.403590694186278e-05
7.063831435516477e-05
8.291232370538637e-05
7.006375381024554e-05
6.228188431123272e-05
8.276903099613264e-05
0.00010396311699878424
9.531805699225515e-05
9.7423187980894e-05
0.00015903865278232843
8.320314373122528e-05
5.9219768445473164e-05
8.168726344592869e-05
8.031766628846526e-05
6.22548395767808e-05
6.926903733983636e-05
7.779126462992281e-05
7.2356233431492e-05
7.602263212902471e-05
8.856921340338886e-05
9.762049012351781e-05
5.8109406381845474e-05
7.613478373968974e-05
8.642945613246411e-05
7.647429447388276e-05
7.132664177333936e-05
8.72397213242948e-05
7.761939923511818e-05
8.26190589577891e-05
7.643197750439867e-05
9.026757470564917e-05
6.25437605776824e-05
9.997389861382544e-05
0.00014160700084175915
7.341053424170241e-05
6.241763185244054e-05
6.773560016881675e-05
6.784564902773127e-05
0.00011742562492145225
8.59400606714189e-05
6.269086588872597e-05
0.0001300747535424307
5.5753069318598136e-05
6.589261465705931e-05
8.237501606345177e-05
0.00010913496225839481
9.277405479224399e-05
7.883220678195357e-05
0.00012232975859660655
8.786821126705036e-05
5.325167876435444e-05
6.818267866037786e-05
0.0001372843107674271
8.037759835133329e-05
0.00010131378803635016
0.00010760374425444752
6.880196451675147e-05
8.083030843408778e-05
0.00010541912342887372
6.999510515015572e-05
5.957408211543225e-05
6.683098763460293e-05
8.077800885075703e-05
7.58039896027185e-05
9.78056195890531e-05
6.777694215998054e-05
6.93146139383316e-05
8.322879148181528e-05
0.00017838485655374825
5.787151167169213e-05
5.97257494518999e-05
8.415306365350261e-05
7.743893365841359e-05
6.353220669552684e-05
7.79787078499794e-05
9.300313104176894e-05
9.100037277676165e-05
0.00010747794294729829
7.077585178194568e-05
7.384704076685011e-05
7.123553223209456e-05
0.0001013777800835669
0.00014592603838536888
9.300161764258519e-05
6.655340985162184e-05
7.230798655655235e-05
9.076297283172607e-05
5.883625635760836e-05
6.151641719043255e-05
0.00011153541709063575
7.196752267191187e-05
4.6945817302912474e-05
8.829670696286485e-05
0.00025282890419475734
0.00011990356870228425
0.0001323762262472883
8.841896487865597e-05
0.00011959246330661699
6.643248343607411e-05
6.915371341165155e-05
5.5349129979731515e-05
7.318882853724062e-05
6.614580343011767e-05
0.0001442378415958956
8.336462633451447e-05
0.00013770279474556446
6.819448753958568e-05
6.687112909276038e-05
7.980258669704199e-05
8.71545635163784e-05
8.86445413925685e-05
7.102781819412485e-05
5.694528590538539e-05
6.468144420068711e-05
7.066339458106086e-05
8.541704301023856e-05
8.478912786813453e-05
6.733380723744631e-05
8.35150494822301e-05
7.635654037585482e-05
7.973463652888313e-05
5.892918852623552e-05
7.957270281622186e-05
8.06397438282147e-05
0.0001286287442781031
6.403365114238113e-05
6.232266605366021e-05
6.9000969233457e-05
7.659375114599243e-05
0.00011952189379371703
6.899298750795424e-05
0.00010461414785822853
9.035683615365997e-05
0.00010785261838464066
0.00012275532935746014
0.00010303292219759896
7.281173020601273e-05
7.837645534891635e-05
7.2950788307935e-05
7.644295692443848e-05
6.924675835762173e-05
7.100393122527748e-05
4.443878788151778e-05
8.311279088957235e-05
9.484301699558273e-05
0.00010555315384408459
7.256118988152593e-05
4.794952837983146e-05
9.377669630339369e-05
9.158789180219173e-05
7.489026029361412e-05
8.914530917536467e-05
7.05914426362142e-05
0.00011418171925470233
7.495948375435546e-05
6.138812022982165e-05
6.28345223958604e-05
0.00010455160372657701
8.605713082943112e-05
7.321847078856081e-05
8.23040318209678e-05
8.761561184655875e-05
8.892429468687624e-05
7.473571895388886e-05
0.00011789719428634271
6.900735752424225e-05
6.237681373022497e-05
9.327122825197875e-05
6.273404142120853e-05
9.94739166344516e-05
7.600827666465193e-05
9.765331196831539e-05
6.668811693089083e-05
6.911483797011897e-05
7.806724170222878e-05
6.745617429260164e-05
5.0675651436904445e-05
0.0001249408524017781
8.007275755517185e-05
8.416048513026908e-05
6.7600813054014e-05
9.141014015767723e-05
7.254914817167446e-05
5.981015056022443e-05
6.35184915154241e-05
5.169609357835725e-05
0.00018820501281879842
9.068148938240483e-05
6.76740673952736e-05
8.352884469786659e-05
8.524121949449182e-05
0.00010467236279509962
0.00011438339424785227
8.821884694043547e-05
8.683399937581271e-05
8.04626542958431e-05
7.057582115521654e-05
8.580927533330396e-05
7.943362288642675e-05
8.423458348261192e-05
8.817154593998566e-05
9.130629041464999e-05
0.00010291139915352687
6.848603516118601e-05
6.254025356611237e-05
5.589177453657612e-05
8.579932182328776e-05
6.980491161812097e-05
6.640297215199098e-05
5.837380376760848e-05
9.319913806393743e-05
0.00011208296928089112
6.087022120482288e-05
6.535360444104299e-05
8.411516319029033e-05
7.374273263849318e-05
6.318411033134907e-05
6.938924343558028e-05
9.503209730610251e-05
7.131189340725541e-05
5.4603693570243195e-05
7.976072083692998e-05
7.083369564497843e-05
7.726920739514753e-05
8.071758929872885e-05
9.176333696814254e-05
6.658182974206284e-05
7.13893459760584e-05
6.937147554708645e-05
8.035903738345951e-05
7.474271842511371e-05
6.34066091151908e-05
6.24913809588179e-05
7.066720718285069e-05
0.00010016174201155081
8.309994882438332e-05
6.493857654277235e-05
6.993531133048236e-05
8.728268585400656e-05
9.292245522374287e-05
6.25025641056709e-05
8.015965431695804e-05
9.449065692024305e-05
0.000203941177460365
0.00010958925849990919
9.064385085366666e-05
7.371347601292655e-05
7.97143075033091e-05
8.30090357339941e-05
8.088440517894924e-05
5.080954360892065e-05
6.253387982724234e-05
0.00021401447884272784
6.016824772814289e-05
8.26052128104493e-05
6.328424206003547e-05
5.19042914675083e-05
6.944026245037094e-05
9.935697016771883e-05
6.858268898213282e-05
8.333778532687575e-05
8.932006312534213e-05
0.0001000584161374718
0.00010479096818016842
6.791442137910053e-05
7.75034714024514e-05
7.690319034736603e-05
6.744772690581158e-05
7.751430530333892e-05
0.00012118974700570107
7.99606932559982e-05
9.520559979137033e-05
9.127194789471105e-05
6.894337275298312e-05
8.291876292787492e-05
6.74752882332541e-05
9.94787915260531e-05
8.94611221156083e-05
6.994079740252346e-05
9.776859951671213e-05
0.00011193661339348182
0.00014095311053097248
7.90278718341142e-05
8.099661499727517e-05
6.274347106227651e-05
7.068918057484552e-05
7.609537715325132e-05
0.00012687432172242552
8.498506940668449e-05
6.929918163223192e-05
8.230072126025334e-05
7.580875535495579e-05
4.187031299807131e-05
0.00011189459473825991
7.613341585965827e-05
7.54903958295472e-05
9.361123375128955e-05
8.445112325716764e-05
9.200155909638852e-05
0.00018819118849933147
7.765904592815787e-05
8.614739635959268e-05
4.93937186547555e-05
5.627420250675641e-05
7.240477134473622e-05
5.49712021893356e-05
7.517815538449213e-05
7.463374640792608e-05
6.561681220773607e-05
8.081355190370232e-05
8.256636647274718e-05
6.075086275814101e-05
6.766901060473174e-05
9.098048030864447e-05
6.293584738159552e-05
7.78342000558041e-05
8.076635276665911e-05
6.0184076573932543e-05
0.000102414887805935
5.15483770868741e-05
8.17749896668829e-05
6.213369488250464e-05
5.853367110830732e-05
8.453703776467592e-05
0.00012268847785890102
7.86668824730441e-05
6.79736549500376e-05
6.034765101503581e-05
0.00012903488823212683
7.959683716762811e-05
8.330593118444085e-05
0.00010156564530916512
5.805115870316513e-05
6.163132638903335e-05
7.269990601344034e-05
8.136573160300031e-05
8.520034316461533e-05
0.00010369276424171403
5.8636833273340017e-05
0.00010876952001126483
5.8905767218675464e-05
5.5435903050238267e-05
7.976620690897107e-05
9.344555292045698e-05
7.497891783714294e-05
9.23282204894349e-05
8.35044847917743e-05
0.00011876753706019372
6.879539432702586e-05
5.610497100860812e-05
6.462063902290538e-05
6.0189653595443815e-05
7.358463335549459e-05
0.00011373997404007241
7.216389349196106e-05
6.717451469739899e-05
5.278862590785138e-05
8.558332046959549e-05
0.00010021353227784857
3.822793223662302e-05
8.016643550945446e-05
6.586347444681451e-05
7.344499317696318e-05
6.601127097383142e-05
9.094430424738675e-05
7.44766293792054e-05
7.327959610847756e-05
8.683545456733555e-05
8.43726156745106e-05
0.00010005196963902563
7.580802775919437e-05
0.00010798305447679013
5.4520507546840236e-05
6.933762051630765e-05
7.645633013453335e-05
7.510556315537542e-05
5.7012028264580294e-05
7.113008905434981e-05
5.4332096624420956e-05
4.4019769120495766e-05
9.276730270357803e-05
9.553737618261948e-05
8.549605263397098e-05
9.329208842245862e-05
5.8315767091698945e-05
8.726806117920205e-05
6.829039921285585e-05
9.237994527211413e-05
6.183222285471857e-05
9.001661965157837e-05
7.983191608218476e-05
7.300681318156421e-05
6.784739525755867e-05
6.110510730650276e-05
6.68823704472743e-05
9.486288763582706e-05
8.251021063188091e-05
8.684997737873346e-05
7.049688429106027e-05
5.807564593851566e-05
7.267561159096658e-05
9.12592513486743e-05
8.399673242820427e-05
7.924909732537344e-05
7.562508108094335e-05
7.398632442345843e-05
8.888587763067335e-05
0.00010621437832014635
8.260391041403636e-05
6.34212265140377e-05
6.074801422073506e-05
0.0001005031808745116
8.394076576223597e-05
6.350631156237796e-05
8.404803520534188e-05
9.835081436904147e-05
6.450956425396726e-05
7.730591460131109e-05
6.615914753638208e-05
7.94780717114918e-05
8.061718108365312e-05
6.013225356582552e-05
0.00014808400010224432
8.645984053146094e-05
5.6268956541316584e-05
8.602566231274977e-05
0.00013739264977630228
8.707821689313278e-05
5.737636820413172e-05
7.699554407736287e-05
6.065289198886603e-05
8.432963659288362e-05
0.00014187191845849156
7.853029819671065e-05
5.812744711874984e-05
7.433466089423746e-05
7.714712410233915e-05
6.844309973530471e-05
7.295487012015656e-05
7.718729466432706e-05
0.00011129142512800172
7.531778828706592e-05
5.167073322809301e-05
5.865832281415351e-05
8.567100303480402e-05
5.0772658141795546e-05
8.938511746237054e-05
0.00011076671944465488
7.160289533203468e-05
7.811773684807122e-05
7.497827027691528e-05
8.05151357781142e-05
6.743313133483753e-05
7.498172635678202e-05
7.092653686413541e-05
7.33447668608278e-05
8.375244942726567e-05
7.884103251853958e-05
5.6106677220668644e-05
0.00014645019837189466
7.5498603109736e-05
6.468337232945487e-05
7.146141433622688e-05
0.00010199826647294685
6.73772010486573e-05
6.76573981763795e-05
7.904023368610069e-05
7.761280721751973e-05
7.635242218384519e-05
7.988957077031955e-05
7.290441863005981e-05
7.440574700012803e-05
0.00018367115990258753
9.136982407653704e-05
0.00013209709140937775
7.915628521004692e-05
0.00010064877278637141
8.91467570909299e-05
8.956531382864341e-05
6.764906720491126e-05
8.439509110758081e-05
9.437145490664989e-05
7.96742970123887e-05
0.00010403890337329358
7.085992547217757e-05
6.301723624346778e-05
7.157408253988251e-05
7.481641659978777e-05
7.48619859223254e-05
7.753515819786116e-05
5.022736877435818e-05
7.208892202470452e-05
0.00012044445611536503
6.685440166620538e-05
8.152294321916997e-05
6.544547068187967e-05
9.203331865137443e-05
7.509005081374198e-05
8.070567855611444e-05
0.00010697877587517723
0.00010560281225480139
6.855781248304993e-05
9.959381713997573e-05
8.315766899613664e-05
8.120018901536241e-05
6.651023431913927e-05
7.081164949340746e-05
7.186256698332727e-05
6.820097769377753e-05
7.35975118004717e-05
7.519903010688722e-05
6.794962973799556e-05
7.615299546159804e-05
8.281127520604059e-05
8.18352127680555e-05
8.558027184335515e-05
7.250862108776346e-05
7.986664422787726e-05
7.242288120323792e-05
0.00010556959023233503
9.239591599907726e-05
7.654092769371346e-05
8.110007183859125e-05
0.00010339614527765661
5.238287121756002e-05
6.491415842901915e-05
5.924898505327292e-05
6.178759940667078e-05
5.583571328315884e-05
6.543070048792288e-05
0.0001207534660352394
7.10313324816525e-05
8.854612678987905e-05
7.951894804136828e-05
0.00010722711886046454
7.402923802146688e-05
6.711261812597513e-05
0.00011719686881406233
8.45698596094735e-05
7.273198571056128e-05
5.8626967074815184e-05
8.659376908326522e-05
8.619233267381787e-05
7.893673318903893e-05
7.6795338827651e-05
5.626673373626545e-05
8.850089943734929e-05
8.10252022347413e-05
9.082812175620347e-05
7.233552605612203e-05
7.926434773253277e-05
8.071008778642863e-05
8.471504406770691e-05
6.957836012588814e-05
5.3971387387719005e-05
9.63023558142595e-05
6.991437840042636e-05
9.505925845587626e-05
6.412906077457592e-05
7.071664731483907e-05
6.725447019562125e-05
9.196054452331737e-05
7.956096669659019e-05
8.96426645340398e-05
0.00014930745237506926
7.963569078128785e-05
6.372040661517531e-05
6.924563786014915e-05
7.5826101237908e-05
6.66855921735987e-05
7.431623089360073e-05
0.00010280575224896893
8.043186971917748e-05
8.395388431381434e-05
6.104430940467864e-05
0.00011470205936348066
0.0001115182603825815
7.572920003440231e-05
7.500252104364336e-05
7.510658906539902e-05
8.185493061318994e-05
9.804317960515618e-05
0.00014505737635772675
5.800722283311188e-05
0.00013183799455873668
7.260037091327831e-05
6.194799061631784e-05
7.101935625541955e-05
0.0001311278756475076
9.395917732035741e-05
7.483072840841487e-05
5.805543332826346e-05
0.00010186937288381159
7.774562982376665e-05
0.00010308690252713859
6.719931843690574e-05
5.197566861170344e-05
0.00010564214608166367
6.095946082496084e-05
9.892908565234393e-05
7.977928908076137e-05
7.263466977747157e-05
9.931276144925505e-05
0.00010291139187756926
7.392262341454625e-05
8.059615356614813e-05
9.71534100244753e-05
4.775596607942134e-05
8.126680768327788e-05
0.00011927587183890864
7.566533167846501e-05
0.00011512177297845483
7.265070598805323e-05
5.782134030596353e-05
8.041260298341513e-05
6.43681560177356e-05
6.000783832860179e-05
7.167940202634782e-05
5.734673322876915e-05
9.09527443582192e-05
0.00010136784112546593
5.777706974186003e-05
0.0001303425815422088
8.015426283236593e-05
6.817426037741825e-05
9.819167462410405e-05
0.00010240697156405076
7.935945905046538e-05
9.738095832290128e-05
8.38886626297608e-05
6.664411921519786e-05
5.362449155654758e-05
9.34642375796102e-05
9.411740029463544e-05
0.00012536435679066926
9.897978452499956e-05
7.933686720207334e-05
7.580895908176899e-05
7.020967314019799e-05
5.713942664442584e-05
6.728641892550513e-05
7.942548108985648e-05
5.996643449179828e-05
6.584201037185267e-05
7.908496627351269e-05
6.023305468261242e-05
9.81804114417173e-05
6.699728692183271e-05
5.622189928544685e-05
7.771652599330992e-05
7.847013330319896e-05
7.692122017033398e-05
6.699324876535684e-05
8.291022822959349e-05
9.146263619186357e-05
6.880283035570756e-05
8.222117321565747e-05
7.384656055364758e-05
6.017570194671862e-05
6.53623283142224e-05
5.016480281483382e-05
7.566530985059217e-05
6.939056765986606e-05
9.314763155998662e-05
0.00016094766033347696
6.132455018814653e-05
4.8466899897903204e-05
8.092749339994043e-05
7.359556184383109e-05
5.432136822491884e-05
7.280855788849294e-05
6.245768599910662e-05
7.439503679051995e-05
9.382057032780722e-05
9.561152546666563e-05
7.010987610556185e-05
9.965337812900543e-05
0.00013016274897381663
7.850998372305185e-05
5.511793642654084e-05
7.95301457401365e-05
9.813517681322992e-05
0.00011454916966613382
7.213075150502846e-05
6.716898496961221e-05
7.409533282043412e-05
7.287935295607895e-05
0.00011023240222129971
9.338202653452754e-05
7.709008059464395e-05
7.193482451839373e-05
7.181779074016958e-05
7.101178198354319e-05
7.14106354280375e-05
0.00015803962014615536
5.727454481530003e-05
9.850838978309184e-05
0.00010742220911197364
8.641820022603497e-05
0.00010084646055474877
7.249705231515691e-05
0.00010505891259526834
7.894649752415717e-05
8.058178354986012e-05
6.121965998318046e-05
6.0594182286877185e-05
7.657951209694147e-05
3.6537843698170036e-05
7.019761687843129e-05
6.521922477986664e-05
5.7360852224519476e-05
8.683937630848959e-05
7.688583718845621e-05
7.682204886805266e-05
9.429000783711672e-05
8.904892456484959e-05
8.326477836817503e-05
6.765968282707036e-05
7.918050687294453e-05
7.881353667471558e-05
0.00013990011939313263
8.673041156725958e-05
8.819370123092085e-05
9.223556116921827e-05
9.367598249809816e-05
6.773609493393451e-05
8.189089567167684e-05
6.188465340528637e-05
9.597048483556136e-05
9.586929809302092e-05
6.658882921328768e-05
7.483235822292045e-05
9.811831841943786e-05
9.373546345159411e-05
0.00010805867350427434
6.879620923427865e-05
8.640337910037488e-05
7.659472612431273e-05
5.888312080060132e-05
6.226215919014066e-05
9.757046063896269e-05
0.00010479657794348896
0.00010365631169406697
8.763986988924444e-05
6.585903611266986e-05
0.00010714209929574281
9.861210128292441e-05
6.816677341703326e-05
0.0001039176931953989
5.179855725145899e-05
0.00010051921708509326
0.00014111283235251904
0.0001026128520607017
8.760453783906996e-05
6.765554280718789e-05
8.943935972638428e-05
6.0596710682148114e-05
4.8617668653605506e-05
9.197684266837314e-05
7.484580419259146e-05
7.42882548365742e-05
8.495053771184757e-05
8.135394455166534e-05
9.889701323118061e-05
6.768477032892406e-05
7.296029798453674e-05
6.739040691172704e-05
7.970802107593045e-05
6.803002906963229e-05
8.405756670981646e-05
5.488724491442554e-05
0.00012300653907004744
6.977513839956373e-05
7.110342266969383e-05
7.601807010360062e-05
6.053962351870723e-05
5.62602945137769e-05
5.9142737882211804e-05
7.985467527760193e-05
5.8354242355562747e-05
6.972388655412942e-05
6.490259693237022e-05
6.460160511778668e-05
0.00012031637015752494
5.112953658681363e-05
7.556183845736086e-05
7.405234646284953e-05
7.85145239206031e-05
7.043601362966001e-05
8.76530320965685e-05
0.0001640937989577651
7.437011663569137e-05
7.539189391536638e-05
0.00011567601177375764
8.243122283602133e-05
0.00012507775682024658
6.194564048200846e-05
7.313737296499312e-05
0.00010158681106986478
7.49076934880577e-05
7.932014705147594e-05
