0.0010727684712037444
0.0029170052148401737
0.0011943492572754622
0.0023932454641908407
0.0016671266639605165
0.0009613751899451017
0.0013281622668728232
0.0009457282721996307
0.0009339284733869135
0.0015194976003840566
0.0005306887323968112
0.0021751606836915016
0.0008352901786565781
0.0007825641660019755
0.00048785554827190936
0.0003929990634787828
0.0017099358374252915
0.0007118175853975117
0.0019684541039168835
0.0006395194795913994
0.0006593047291971743
0.0004204155702609569
0.0009525583009235561
0.00035535558708943427
0.0015232372097671032
0.0009630762506276369
0.0006428849883377552
0.00040730409091338515
0.0017475744243711233
0.0011565726017579436
0.0007259040721692145
0.0011367951519787312
8.651289681438357e-05
0.0008832575986161828
0.0017998605035245419
0.0008312307763844728
0.0004977406933903694
0.0023672226816415787
0.0016040622722357512
0.000422263634391129
0.002783033763989806
0.0005702513735741377
0.0011970259947702289
0.0005670303362421691
0.0007839323370717466
0.0008338961633853614
0.0029895238112658262
0.0016309954226016998
0.0023304475471377373
0.0016442841151729226
0.001306322286836803
0.0006691053858958185
0.0008609528886154294
0.00084307900397107
0.0008627428323961794
0.0014474515337496996
0.002544925780966878
0.0012467936612665653
0.001782285631634295
0.0010362884495407343
0.0018633409636095166
0.0008737642201595008
0.0006443250458687544
0.0004423431819304824
0.0012931824894621968
0.0008374187746085227
0.0008572607184760273
0.002743534278124571
0.0005095007363706827
0.0012363878777250648
0.0011004838161170483
0.00045384661643765867
0.0004945790860801935
0.0007693421794101596
0.0004928522394038737
0.0007249953341670334
0.0024622278288006783
0.0006320661632344127
0.001885581179521978
0.001296901609748602
0.002314832527190447
0.001224825158715248
0.0009978340240195394
0.0008843736140988767
0.0024247777182608843
0.0016891382401809096
0.0007097934721969068
0.0010676230303943157
0.002113799564540386
0.000697427662089467
0.0029742552433162928
0.0012075963895767927
0.000654940027743578
0.0021905337926000357
0.001720456057228148
0.002460730029270053
0.0014515230432152748
0.0023698373697698116
0.0032467034179717302
0.0006887017516419291
0.0004782221221830696
0.0017946013249456882
0.002681979676708579
0.0011937664821743965
0.0014830476138740778
0.0018576574511826038
0.002367140259593725
0.0018753688782453537
0.0004511038423515856
0.0007973433821462095
0.0019948440603911877
0.0012635206803679466
0.002302349777892232
0.0015330034075304866
0.0015977900475263596
0.0008377187186852098
0.0010108546121045947
0.0011909448076039553
0.0015829760814085603
0.0015321720857173204
0.0012080244487151504
0.00021930276125203818
0.0019222436239942908
0.0012550310930237174
0.0011050546308979392
0.0016845047939568758
0.002964969491586089
0.002263077534735203
0.0009916365379467607
0.000694156507961452
0.0014192095259204507
0.001509502762928605
0.001429696218110621
0.0004987766151316464
0.0008701980113983154
0.0018786240834742785
0.0005841999081894755
0.0010185549035668373
0.0010052610887214541
0.0008884117123670876
0.0012590129626914859
0.0010729683563113213
0.00204128073528409
0.0010145117994397879
0.0007748235948383808
0.0005113045335747302
0.0008721799240447581
0.0020845027174800634
0.0023561744019389153
0.0015250833239406347
0.0010594851337373257
0.0019988303538411856
0.0008262324845418334
0.00043101809569634497
0.0020333610009402037
0.001672901096753776
0.0003953023115172982
0.0004163007833994925
0.001074354280717671
0.0011278088204562664
0.0004258829285390675
0.0014531690394505858
0.0007722522714175284
0.0019355801632627845
0.0007702530128881335
0.000724210636690259
0.00038535171188414097
0.0008937696693465114
0.0008751278510317206
0.0012904537143185735
0.0011292336275801063
0.0013712529325857759
0.0013098606141284108
0.0007635637884959579
0.001029406557790935
0.0015918954741209745
0.001122332294471562
0.0006443478050641716
0.0019184318371117115
0.0019749708008021116
0.0001780194288585335
0.0015527720097452402
0.0017923270352184772
0.0009275787742808461
0.0011999959824606776
0.0010060538770630956
0.0018119614105671644
0.0001858380710473284
0.0008160228608176112
0.001203781459480524
0.0029417367186397314
0.001747539616189897
0.0010301098227500916
0.0007421801565214992
0.0013615015195682645
0.0010514321038499475
0.0011202660389244556
0.001485972898080945
0.0018845511367544532
0.00030224723741412163
0.0008450110326521099
0.0005356398760341108
0.0010314802639186382
0.0010505479294806719
0.0014193551614880562
0.001448783092200756
0.0016433849232271314
0.0008666749927215278
0.001849657972343266
0.0014263051562011242
0.0011033582268282771
0.0005816728807985783
0.001773306867107749
0.0017553013749420643
0.0013914966257289052
0.0009923222241923213
0.0015335527714341879
0.0005678318557329476
0.0009860824793577194
0.0009578327881172299
0.0018028061604127288
0.0015452579827979207
0.0003886406193487346
0.0014440190279856324
0.0012120079481974244
0.003076297463849187
0.0011283044004812837
0.0013494109734892845
0.00121607247274369
0.0006219003698788583
0.0009222387452609837
0.0019656135700643063
0.0015752018662169576
0.0010602936381474137
0.001039002207107842
0.0011939164251089096
0.0010318097192794085
0.0014267056249082088
0.0010028959950432181
0.001829219050705433
0.0008628430077806115
0.0011673462577164173
0.0011025501880794764
0.0017143707955256104
0.0010061911307275295
0.0005097007961012423
0.000806897587608546
0.0016163598047569394
0.0009115379652939737
0.00023987154418136925
0.0007644587312825024
0.000891930132638663
0.0008022375986911356
0.0012567947851493955
0.0012080363230779767
0.0015677018091082573
0.0017686880892142653
0.000662216916680336
0.0006489385268650949
0.0007526456611230969
0.0009742231341078877
0.0010085466783493757
0.0006933001568540931
0.0015013013035058975
0.0029409786220639944
0.0006218038033694029
0.0011491032782942057
0.0009327421430498362
0.0014809691347181797
0.0012669607531279325
0.0015522808535024524
0.0005325080710463226
0.002389719011262059
0.0023779510520398617
0.0006452356465160847
0.0004221959097776562
0.00024153209233190864
0.002485788892954588
0.0006318330415524542
0.000601298117544502
0.004043282940983772
0.00023169699124991894
0.0017064287094399333
0.0020509345922619104
0.0005504373111762106
0.0008719066972844303
0.00022193028416950256
0.0009726480348035693
0.0006442130543291569
0.0005294156144373119
0.0012016159016638994
0.0017674809787422419
0.0008505736477673054
0.0005225042114034295
0.0007232799543999135
0.0025736778043210506
0.001488109934143722
0.0007186087314039469
0.00037472997792065144
0.0005749429692514241
0.0007423071656376123
0.0013782890746369958
0.0012316233478486538
0.0007043113582767546
0.002704514190554619
0.00047261686995625496
0.001176272751763463
0.0007085231482051313
0.001264785649254918
0.0011166147887706757
0.0002884006826207042
0.0013873552670702338
0.0009873313829302788
0.0008988141198642552
0.0007305330946110189
0.0007022093050181866
0.001286691171117127
0.0012697059428319335
0.0008227365906350315
0.0014599065762013197
0.001536801690235734
0.0011529979528859258
0.0008957793470472097
0.00035513381590135396
0.0010196857620030642
0.0005772955482825637
0.0011470160679891706
0.0010819550370797515
0.0007096996996551752
0.0010330711957067251
0.0018500220030546188
0.0010748927015811205
0.0005652564577758312
0.002755436347797513
0.0005932144122198224
0.0020701794419437647
0.0008474317146465182
0.0011874435003846884
0.0005041157128289342
0.0011511258780956268
0.00034638302167877555
0.0005231564282439649
0.0007289556670002639
0.0024478186387568712
0.0010353525867685676
0.0007351661333814263
0.002082743216305971
0.00032817680039443076
0.0014944225549697876
0.0016160832019522786
0.0012152728158980608
0.001136505394242704
0.0019730913918465376
0.0006570200785063207
0.00114965729881078
0.0014917716616764665
0.0015745923155918717
0.0010264315642416477
0.0009793781209737062
0.0013182186521589756
0.002431694185361266
0.0018522348254919052
0.0010712163057178259
0.001297319889999926
0.0014440258964896202
0.0016596883069723845
0.0005865663406439126
0.0004829081008210778
0.0010383370099589229
0.0010955525794997811
0.001471721101552248
0.0003697581996675581
0.0021992225665599108
0.0005258647142909467
0.0008419784717261791
0.001305030076764524
0.0018954905681312084
0.0008827262208797038
0.0026027874555438757
0.0003918622969649732
0.0020570813212543726
0.0014357453910633922
0.0011677189031615853
0.0008973731892183423
0.0008054052595980465
0.0020636674016714096
0.00071077881148085
0.0013016234152019024
0.0007291294168680906
0.0003537960001267493
0.0008281907066702843
0.0006014711107127368
0.001019810326397419
0.001412376295775175
0.0009422687580808997
0.0004355425189714879
0.0001497253542765975
0.0023502393160015345
0.001166306552477181
0.0015161464689299464
0.0003604569938033819
0.001693039434030652
0.000795348547399044
0.0007385756471194327
0.00032870005816221237
0.0008466410217806697
0.00029737892327830195
0.0006324987043626606
0.000732715125195682
0.0009528924128971994
0.0009819272672757506
0.0011100094998255372
0.001346325734630227
0.0009657287737354636
0.0009879255667328835
0.0015025681350380182
0.0009589135879650712
0.003976558335125446
0.0021806745789945126
0.0009246329427696764
0.0013986892299726605
0.0018748263828456402
0.0002497502719052136
0.0011367956176400185
0.001202937331981957
0.0018181513296440244
0.0012361959088593721
0.0011082038981840014
0.0010807731887325644
0.0017646035412326455
0.0008412835304625332
0.0008278225432150066
0.0012258252827450633
0.0012649203417822719
0.0026486197020858526
0.0010649035684764385
0.001454921904951334
0.0025558406487107277
0.0010016185697168112
0.0012652069563046098
0.000876462203450501
0.0008979837875813246
0.0013243000721558928
0.0012320821406319737
0.0009443777962587774
0.0011654053814709187
0.0005363945383578539
0.0005289650871418417
0.0015519459266215563
0.0020492286421358585
0.0012902284506708384
0.0006025138427503407
0.0006397257675416768
0.0007205685251392424
0.0008941036066971719
0.002177206566557288
0.0013537751510739326
0.0008463383419439197
0.0016795737901702523
0.0010547013953328133
0.0011456263018772006
0.0021977825090289116
0.0013656595256179571
0.0009357587550766766
0.0012576495064422488
0.0008626492926850915
0.0005564907332882285
0.0015050924848765135
0.0009022162412293255
0.001153615303337574
0.0012211231514811516
0.002097358461469412
0.0008196095586754382
0.0007416920852847397
0.0029737940058112144
0.0015669238055124879
0.0007336964481510222
0.00032317210570909083
0.0016646707663312554
0.0010149577865377069
0.0013650053879246116
0.0007391215185634792
0.002508716192096472
0.001307644764892757
0.0014920798130333424
0.000886349065694958
0.00043146638199687004
0.001200670376420021
0.0010969591094180942
0.0022673513740301132
0.000989681575447321
0.001286504091694951
0.0008657717262394726
0.0013412877451628447
0.001718228217214346
0.0027699272613972425
0.0012438991107046604
0.0015030994545668364
0.0018190081464126706
0.00032860078499652445
0.0017772383289411664
0.0006441927398554981
0.0019957770127803087
0.0008327350951731205
0.0008324463269673288
0.00118022202514112
0.00279824691824615
0.0020803911611437798
0.0009395471424795687
0.0002042813430307433
0.002845653798431158
0.0014033573679625988
0.0014730171533301473
0.0006241290830075741
0.0014679536689072847
0.0017594551900401711
0.0007434533326886594
0.0007835169672034681
0.0004245743330102414
0.0008755330927670002
0.0004303414898458868
0.0005698304739780724
0.0014740400947630405
0.001742238411679864
0.0004043043009005487
0.000835368235129863
0.0005792161100544035
0.0016864743083715439
0.003139384789392352
0.0011186003684997559
0.0014866241253912449
0.002147478051483631
0.0007959732320159674
0.003700729226693511
0.0005115551757626235
0.0016304409364238381
0.0007274786476045847
0.0021936148405075073
0.00173418247140944
0.0008984620799310505
0.0007483357912860811
0.0003831948561128229
0.0014314064756035805
0.0020790020935237408
0.0008853023173287511
0.0005170651711523533
0.0011994155356660485
0.0016633898485451937
0.00018164716311730444
0.0006508346414193511
0.0022975546307861805
0.0007318490534089506
0.0016439380124211311
0.002132880501449108
0.0006189441191963851
0.0011100880801677704
0.001688745222054422
0.001681524678133428
0.0025794932153075933
0.0019077127799391747
0.0004807584045920521
0.0004376599099487066
0.00024611264234408736
0.00027530136867426336
0.0005512137431651354
0.0014768119435757399
0.0008211620151996613
0.001168062794022262
0.0012617518659681082
0.0018370745237916708
0.0005945636075921357
0.0002979968849103898
0.0019030689727514982
0.0013953367015346885
0.0005247158696874976
0.0009638203191570938
0.0020709147211164236
0.0008893730700947344
0.001111903227865696
0.0015070306835696101
0.0007334398105740547
0.0013996193883940578
0.0018098383443430066
0.000463409029180184
0.0004772678657900542
0.0012266025878489017
0.0006067875656299293
0.0016107895644381642
0.00042555585969239473
0.0015146967489272356
0.0023333332501351833
0.0008017167565412819
0.0009349657921120524
0.0014592728111892939
0.001838209806010127
0.0007448187679983675
0.00023620440333615988
0.00240063457749784
0.000948516943026334
0.00048224901547655463
0.0012343971757218242
0.0005949424230493605
0.0014943794813007116
0.0016511993017047644
0.0018450841307640076
0.0031737880781292915
0.0009349502506665885
0.001159432576969266
0.00037234637420624495
0.001313506392762065
0.0006287721334956586
0.0018990171374753118
0.0010186047293245792
0.0003720634849742055
0.0008817980997264385
0.0008684806525707245
0.0021758200600743294
0.0008411029702983797
0.0008799308561719954
0.0014892215840518475
0.0009537666337564588
0.0012947437353432178
0.0016622795956209302
0.0006626244867220521
0.0009446082403883338
0.003177001141011715
0.002013810444623232
0.0015771944308653474
0.0011649996740743518
0.0016055383021011949
0.00046512993867509067
0.0016159848310053349
0.0012672243174165487
0.000505750416778028
0.0007400677422992885
0.00042505725286900997
0.0018565298523753881
0.0010910016717389226
0.0015747464494779706
0.0015078147407621145
0.0013321398291736841
0.001509666908532381
0.0006930597592145205
0.0015239836648106575
0.0005789140122942626
0.0012055967235937715
0.0016001551412045956
0.0032025508116930723
0.0019121310906484723
0.0007001396734267473
0.0003851323272101581
0.0006899229483678937
0.00177079311106354
0.0024197096936404705
0.0007037081522867084
0.0002396891068201512
0.0016939586494117975
0.0017889448208734393
0.0009260963415727019
0.0011514469515532255
0.0004753743123728782
0.0011123460717499256
0.001386486110277474
0.0018981100292876363
0.0005608138744719326
0.002500423463061452
0.000717292889021337
0.0007888615364208817
0.001083282520994544
0.00046200453653000295
0.0010704128071665764
0.00213693012483418
0.0010732973460108042
0.002486320910975337
0.0009646980324760079
0.0015773613704368472
0.00018599590111989528
0.0025923592038452625
0.0035907959099859
0.0009435358224436641
0.001330015598796308
0.0008234440465457737
0.0005615000263787806
0.0007492853328585625
0.0008875584462657571
0.0012014155508950353
0.0017142589204013348
0.0020323367789387703
0.0014940251130610704
0.001236232346855104
0.0016522397054359317
0.001194441458210349
0.0023551885969936848
0.0015180400805547833
0.0009331826004199684
0.0014829735737293959
0.0020772796124219894
0.0013330060755833983
0.0008109406335279346
0.0011528066825121641
0.0018720721127465367
0.0016718005063012242
0.0024825320579111576
0.0022131868172436953
0.0007594370399601758
0.0023819219786673784
0.000565720780286938
0.0017768905963748693
0.0006704842089675367
0.0010453133145347238
0.0018330522580072284
0.0009537077276036143
0.0021900474093854427
0.00227310205809772
0.000944934377912432
0.0006038386491127312
0.0014604104217141867
0.001480000908486545
0.002246848540380597
0.001876880880445242
0.0014704786008223891
0.00015896976401563734
0.0008837726782076061
0.0014175270916894078
0.0008100943523459136
0.0012010878417640924
0.0008736593299545348
0.0013028511311858892
0.0004502997035160661
0.0009081066236831248
0.0008222751785069704
0.0006567088421434164
0.0015587108209729195
0.00105450046248734
0.0024028299376368523
0.0007822861662134528
0.000418307346990332
0.000967803003732115
0.0014377146726474166
0.0008824890828691423
0.0012878277339041233
0.0011273566633462906
0.0020640315487980843
0.0005084924632683396
0.0016051855636760592
0.0005369618302211165
0.0016182665713131428
0.0021206894889473915
0.001083166804164648
0.001020281109958887
0.0010388230439275503
0.001010455540381372
0.0009453954407945275
0.000860378029756248
0.0011973718646913767
0.0022026195656508207
0.0008525261073373258
0.0005713418941013515
0.0017122294520959258
0.0014266037615016103
0.001755913719534874
0.0010355917038396
0.0014717772137373686
0.0006897134007886052
0.0012140247272327542
0.0005982450093142688
0.00041496663470752537
0.0010477335890755057
0.0023195212706923485
0.0029723774641752243
0.0011572312796488404
0.000701449578627944
0.0011948243482038379
0.0015170195838436484
0.001995597966015339
0.001117320149205625
0.000816020299680531
0.0008534207590855658
0.0023784912191331387
0.002664051251485944
0.0016136647900566459
0.0018105674535036087
0.0008188996580429375
0.0021516880951821804
0.0006682046805508435
0.0010082183871418238
0.0015708254650235176
0.0010978461941704154
0.0007038902840577066
0.0011017500655725598
0.0015411826316267252
0.0017652390524744987
0.0012677755439653993
0.000807341537438333
0.001873536384664476
0.0009073341498151422
0.0008216491551138461
0.0020080900285393
0.0009381471900269389
0.0011356024770066142
0.002549450844526291
0.0011058521922677755
0.0012266490375623107
0.001313004526309669
0.0011103490833193064
0.0008902152767404914
0.00023699285520706326
0.0005199983716011047
0.0017490005120635033
0.0007231930503621697
0.0021636367309838533
0.002686543855816126
0.0010307851480320096
0.002734067151322961
0.0013949978165328503
0.0016882242634892464
0.0004134744231123477
0.0009430526988580823
0.0008179023861885071
0.0006640658248215914
0.0008728237589821219
0.0012467887718230486
0.002119696233421564
0.0002825764531735331
0.00046812446089461446
0.0012123927008360624
0.00027966449852101505
0.0021024320740252733
0.0005044141435064375
0.0010924875969067216
0.0011645198101177812
0.0015016223769634962
0.0009437182452529669
0.0004913147422485054
8.309633994940668e-05
0.0019903085194528103
0.0006170836859382689
0.00016282366414088756
0.0009356587543152273
0.0007042100187391043
0.0008931164047680795
0.0016377094434574246
0.0010474855080246925
0.0006719355005770922
0.0015253397868946195
0.000875311903655529
0.0007126058917492628
0.0024338383227586746
0.000273325655143708
0.0012538059381768107
0.0009507111390121281
0.0010378434089943767
0.0013373171677812934
0.0010123681277036667
0.0004260126152075827
0.00035439172643236816
0.00044148918823339045
0.0013087623519822955
0.0006690591690130532
0.0014841124648228288
0.0013552327873185277
0.0013321482110768557
0.0012936603743582964
0.000546331808436662
0.00038142676930874586
0.0009116021683439612
0.0009287419379688799
0.0007776843849569559
0.0008244264172390103
0.0010637810919433832
0.0013871907722204924
0.0018107470823451877
0.001339915324933827
0.0006854356033727527
0.0013962278608232737
0.0011467020958662033
0.0011709288228303194
0.0005902391858398914
0.0004913603770546615
0.0014244512422010303
0.0008241973700933158
0.0008246856741607189
0.001323673059232533
0.001059386762790382
0.0008525479934178293
0.0011820277431979775
0.0011337390169501305
0.0013392921537160873
0.0014282712945714593
0.0016748188063502312
0.0003318853850942105
0.0008956665988080204
0.001938064699061215
0.0016125309048220515
0.002451635431498289
0.0020689493976533413
0.0023848670534789562
0.001797740114852786
0.0010559154907241464
0.002010251861065626
0.0010607166914269328
0.001353927538730204
0.0014645386254414916
0.00040907011134549975
0.0010239523835480213
0.0007580728852190077
0.0005933481734246016
0.0006179294432513416
0.0006782826967537403
0.000678965006954968
0.0021340856328606606
0.0009302299586124718
0.0016381395980715752
0.0014129289193078876
0.0018594992579892278
0.0008771202410571277
0.0019397615687921643
0.001804022234864533
0.0004022178763989359
0.0011840832885354757
0.0015580103499814868
0.0015480008441954851
0.0020905914716422558
0.0025295966770499945
0.0020487464498728514
0.000555213657207787
0.0004954927717335522
0.0020559807308018208
0.002139992779120803
0.0012381498236209154
0.0017162326257675886
0.0013073213631287217
0.0015512247337028384
0.0003688403812702745
0.0010221325792372227
0.0011067321756854653
0.001301022944971919
0.0008757260511629283
0.0014482698170468211
0.0009208984556607902
0.0003741704276762903
0.0012054345570504665
0.0004971144953742623
0.0010868035024031997
0.00264545064419508
0.002213628264144063
0.0021419492550194263
0.0011277146404609084
0.0013489119010046124
0.0006584174698218703
0.000984860584139824
0.001516959280706942
0.0006908878567628562
0.0006919186562299728
0.0003313091292511672
0.0022461458574980497
0.0016342629678547382
0.0011233172845095396
0.0009874420939013362
0.0015005306340754032
0.002721626777201891
0.001998328370973468
0.0006578881875611842
0.0024713699240237474
0.0005114860832691193
0.0014970218762755394
0.001959666144102812
0.0013899400364607573
0.0005947467871010303
0.00015209258708637208
0.0009349097381345928
0.001823193277232349
0.001062480267137289
0.0015550494426861405
0.0016256403177976608
0.0009237296180799603
0.0011384455719962716
0.0015468243509531021
0.0011875777272507548
0.001770187634974718
0.0010898176115006208
0.0016724920133128762
0.00016715729725547135
0.0010590539313852787
0.0011726687662303448
0.0010148801375180483
0.0020767641253769398
0.0007605044520460069
0.0008623423636890948
0.0004092422022949904
0.0006574128055945039
0.0008507067686878145
0.001158932107500732
0.002080090343952179
0.0007404893403872848
0.004082617349922657
0.001537142787128687
0.0021188377868384123
0.0027588168159127235
0.001785765285603702
0.0011168360942974687
0.0005700458423234522
0.0014526254963129759
0.0014031095197424293
0.0012870936188846827
0.0029605987947434187
0.0009127854718826711
0.0018754902994260192
0.0027858465909957886
0.0007189870229922235
0.0006938730366528034
0.0006632404983974993
0.0014872407773509622
0.0007684787269681692
0.0020378672052174807
0.0026133167557418346
0.0021407795138657093
0.0011094312649220228
0.0031851946841925383
0.0005597157287411392
0.0011646095663309097
0.001037485315464437
0.0018360974499955773
0.0005003304686397314
0.00038474577013403177
0.002047534566372633
0.00032608775654807687
0.0004470523272175342
0.0009652057779021561
0.0009982659248635173
0.0015430497005581856
0.0011188425123691559
0.0008787473780103028
0.0007790377712808549
0.001086152857169509
0.0024684828240424395
0.0012037543347105384
0.0017397813498973846
0.0011785910464823246
0.0017920418176800013
0.002421131357550621
0.0007519927457906306
0.00023005575349088758
0.0006260804948396981
0.0019815145060420036
0.0006315461941994727
0.001623722491785884
0.0017937852535396814
0.0010620781686156988
0.001898110960610211
0.0008490884210914373
0.0015056147240102291
0.001847967505455017
0.0013790011871606112
0.0007608880405314267
0.001482168328948319
0.0012519005686044693
0.0001123223191825673
0.0011350794229656458
0.0011716565350070596
0.0012655132450163364
0.00167034100741148
0.0005007381550967693
0.0020604669116437435
0.0017321312334388494
0.000963401747867465
0.00047575728967785835
0.0011012379545718431
0.0005516079836525023
0.002262095920741558
0.0009184184018522501
0.0013262048596516252
0.0015060222940519452
0.0012772366171702743
0.0013487517135217786
0.001373019185848534
0.0014723329804837704
0.0010023348731920123
0.0014609195059165359
0.00039690342964604497
0.001379461376927793
0.0018223047954961658
0.0011626271298155189
0.0004359533777460456
0.0011262635234743357
0.0015457812696695328
0.0019415866117924452
0.0014032406033948064
0.00312695000320673
0.0024286836851388216
0.0009230453288182616
0.001666252501308918
0.0007519697537645698
0.0009708715952001512
0.0005835327901877463
0.0024071247316896915
0.0008185232290998101
0.0012792033376172185
0.0010944660753011703
0.0007216209196485579
0.0018139118328690529
0.001229763263836503
0.0008015166386030614
0.0007955330656841397
0.0005662517505697906
0.0016565719852223992
0.001291659427806735
0.001600088900886476
0.0017171213403344154
0.0018984772032126784
0.00026490300660952926
0.0011024107225239277
0.001285725156776607
0.0014289036625996232
0.0014909672318026423
0.0014737945748493075
0.0022895762231200933
0.0023762844502925873
0.0020104541908949614
0.0005371136940084398
0.001983694965019822
0.0004771971143782139
0.0004437322495505214
0.0016190123278647661
0.0005086271557956934
0.0013248645700514317
0.003535412484779954
0.0015712743625044823
0.0005426989519037306
0.001703942660242319
0.0013420036993920803
0.00044325808994472027
0.0014916971558704972
0.0014230730012059212
0.0018964200280606747
0.000946291140280664
0.0011741359485313296
0.0017341364873573184
0.002337291371077299
0.0003235521144233644
0.0012850099010393023
0.0018988401861861348
0.0006755947833880782
0.0022533151786774397
0.001139925792813301
0.0016713733784854412
0.0008356487960554659
0.0008777680341154337
0.0018037210684269667
0.002228326862677932
0.0008874659542925656
0.0011050731409341097
