0.0030175521969795227
0.0034701835829764605
0.003289078827947378
0.0026657222770154476
0.0022150250151753426
0.0028530850540846586
0.0025410486850887537
0.0023026522248983383
0.003441069507971406
0.0028857230208814144
0.0023943204432725906
0.002085084095597267
0.0025843323674052954
0.0021198485046625137
0.0021980945020914078
0.0026142282877117395
0.0020243634935468435
0.0036744787357747555
0.0023227103520184755
0.00460477452725172
0.0023192637600004673
0.0026915245689451694
0.00279761734418571
0.0022754427045583725
0.002714417176321149
0.0025417564902454615
0.002220368944108486
0.003082796698436141
0.0028914634604007006
0.0034185375552624464
0.0025421995669603348
0.0030824400018900633
0.0024159918539226055
0.0032942318357527256
0.002736845286563039
0.0029742771293967962
0.003299536183476448
0.003377332119271159
0.0023651854135096073
0.003247863380238414
0.0026711449027061462
0.0030609520617872477
0.002734963083639741
0.002601696876809001
0.0021536967251449823
0.003201462794095278
0.0026509116869419813
0.0032195555977523327
