0.0001897533074952662
0.0002182162133976817
0.00020682776812464
0.00016762912855483592
0.0001392878475598991
0.00017941108671948314
0.00015978925512172282
0.00014479811943601817
0.00021638543694280088
0.00018146347429137677
0.00015056251140777022
0.0001311167434323579
0.00016251105989795178
0.00013330283400136977
0.00013822320033796132
0.0001643910218263045
0.00012729843729175627
0.00023106294975150377
0.00014605943579226732
0.0002895629149861634
0.00014584269956685603
0.0001692516525508836
0.00017592310905456543
0.00014308709069155157
0.000170691215316765
0.00015983375487849116
0.00013962388038635254
0.00019385608902666718
0.00018182444910053164
0.00021496854606084526
0.00015986162179615349
0.00019383366452530026
0.00015192528371699154
0.00020715181017294526
0.00017210155783686787
0.00018703204113990068
0.00020748536917380989
0.00021237741748336703
0.0001487304107286036
0.00020423601381480694
0.000167970109032467
0.00019248243188485503
0.00017198320711031556
0.00016360300651285797
0.00013543132808990777
0.00020131819474045187
0.0001666977914283052
0.00020245593623258173
