0.001000290154479444
0.0013535110047087073
0.000965167535468936
0.00080830481601879
0.0008439930388703942
0.0009488382493145764
0.0012400606647133827
0.0005130707286298275
0.0011386180995032191
0.0012877305271103978
0.0006614555022679269
0.0009083444601856172
0.0015529032098129392
0.001072535291314125
0.0010183971608057618
0.0017045869026333094
0.0012266433332115412
0.002216530265286565
0.0010387205984443426
0.0011795595055446029
0.001345641678199172
0.001299235038459301
0.0013403270859271288
0.001126565388403833
0.0010173044865950942
0.0013374174013733864
0.0010664701694622636
0.0027138518635183573
0.0012017699191346765
0.0014111065538600087
0.0014355641324073076
0.0010748612694442272
0.002373148687183857
0.0011053887428715825
0.0010874156141653657
0.0013265596935525537
0.0012067488860338926
0.0016598248621448874
0.001159029663540423
0.0011701688636094332
0.0012138258898630738
0.0014649091754108667
0.0006034675752744079
0.0012274137698113918
0.0022496404126286507
0.0009546081419102848
0.0010822442127391696
0.0012366896262392402
0.0019387251231819391
0.0014638989232480526
0.0010868958197534084
0.0012235832400619984
0.0014124236768111587
0.0013734839158132672
0.0032882371451705694
0.0011009827721863985
0.001531914691440761
0.0009032618836499751
0.0010675834491848946
0.0010890716221183538
0.0010049392003566027
0.0008210201631300151
0.0008654320845380425
0.004650789313018322
0.0016702280845493078
0.0013289866037666798
0.0012008064659312367
0.00130999565590173
0.0013816066784784198
0.0015350675676018
0.0027022669091820717
0.0014614674728363752
0.000988075160421431
0.0013596179196611047
0.0012087171198800206
0.0011212109820917249
0.0009709912701509893
0.001452635508030653
0.0010713677620515227
0.002084871055558324
0.0018844956066459417
0.0007484657689929008
0.0018966856878250837
0.0012279903749004006
0.0014114435762166977
0.0008710796828381717
0.0013198163360357285
0.0013488986296579242
0.0012063877657055855
0.0011280233738943934
0.0017738918540999293
0.0008286238298751414
0.0011426816927269101
0.0006145835504867136
0.0012843998847529292
0.0009668830898590386
0.0016515289898961782
0.0010439525358378887
0.0014913493068888783
0.0012285385746508837
0.001099675428122282
0.0007022059289738536
0.0012461685109883547
0.0015861589927226305
0.0011988164624199271
0.0017929502064362168
0.0012561297044157982
0.0009163215872831643
0.0009974621934816241
0.0010232565691694617
0.001950252102687955
0.0010076378239318728
0.0013041665079072118
0.001274561625905335
0.0011716492008417845
0.0011963905999436975
0.0012372290948405862
0.0014811885775998235
0.0011347203981131315
0.0015071373200044036
0.0009658767376095057
0.0011051744222640991
0.0013834916753694415
0.001958732260391116
0.0010793772526085377
0.0021711678709834814
0.0015715063782408834
0.000944402301684022
0.0010478696785867214
0.0012872695224359632
0.001485896878875792
0.0012423275038599968
0.0013097997289150953
0.0011039787204936147
0.0011260636383667588
0.00046494873822666705
0.0013077673502266407
0.0011421763338148594
0.0007632638444192708
0.0014303087955340743
0.0027370289899408817
0.0011391674634069204
0.0008570437785238028
0.000856679689604789
0.0025295831728726625
0.0010059146443381906
0.0014129462651908398
0.0008341802749782801
0.0011974413646385074
0.0010208531748503447
0.0006186627433635294
0.0009167019743472338
0.001704434398561716
0.0007211155607365072
0.0012014115927740932
0.00094066490419209
0.0009319959790445864
0.0006566244992427528
0.0006934617995284498
0.0011493355268612504
0.00154390512034297
0.0010608361335471272
0.0013444081414490938
0.0012843030272051692
0.001839578035287559
0.0015727346763014793
0.0013146644923835993
0.0015532036777585745
0.0016701570712029934
0.001093180850148201
0.0022851901594549417
0.0012434532400220633
0.0009036622359417379
0.0032575561199337244
0.0013015723088756204
0.0008817355264909565
0.0009984615026041865
0.0011642951285466552
0.0009547530207782984
0.0008653002441860735
0.0033205256331712008
0.0010848637903109193
0.0016763011226430535
0.0010421180631965399
0.0012903339229524136
0.0010765051702037454
0.000947952619753778
0.001056402106769383
0.0017454090993851423
0.0011833444004878402
0.0022604898549616337
0.0011022172402590513
0.0010567447170615196
0.0016712462529540062
0.001008197315968573
0.0013723191805183887
0.0013586643617600203
0.001020007417537272
0.0017577100079506636
0.0014701057225465775
0.003499625949189067
0.0011345390230417252
0.001201186329126358
0.001210011774674058
0.0014401329681277275
0.0011447735596448183
0.0014410244766622782
0.0012300503440201283
0.0009869553614407778
0.0013975348556414247
0.001237421645782888
0.0010932617587968707
0.0009404317825101316
0.0023651295341551304
0.0021057608537375927
0.0011801423970609903
0.0009099235176108778
0.0014624991454184055
0.0011272422270849347
0.0011289049871265888
0.001054102904163301
0.0010274312226101756
0.0013780829031020403
0.002134116366505623
0.0009311448084190488
0.0009653163724578917
0.0023322789929807186
0.0011491592740640044
0.0011671538231894374
0.0011136663379147649
0.0017943211132660508
0.0008561129216104746
0.0009543732739984989
0.002805084455758333
0.0013051668647676706
0.0011002372484654188
0.0015019334387034178
0.0009610580164007843
0.0013560678344219923
0.0015868019545450807
0.0012283496325835586
0.0004264939925633371
0.0006612514262087643
0.0012699976796284318
0.000744891760405153
0.001487618894316256
0.001126890885643661
0.0010282694129273295
0.001102921669371426
0.0009300207020714879
0.0015588245587423444
0.0013607938308268785
0.0010288071352988482
0.0009747830918058753
0.000968006148468703
0.0011061896802857518
0.0008461037650704384
0.0014617940178140998
0.0011446676217019558
0.0010051425779238343
0.0011920849792659283
0.0010849988320842385
0.001401931163854897
0.002344634383916855
0.001132759265601635
0.0011646519415080547
0.001153968391008675
0.0011329505359753966
0.0007337494171224535
0.0012829230399802327
0.0010253079235553741
0.0012180216144770384
0.0004831292317248881
0.0012009728234261274
0.0013166724238544703
0.0011999825946986675
0.0005336623871698976
0.0013408020604401827
0.002535994863137603
0.0012895104009658098
0.003288996871560812
0.0009630972635932267
0.000521151116117835
0.0007146563148126006
0.0010365549242123961
0.0014428420690819621
0.0006991749396547675
0.0012807404855266213
0.0007722416776232421
0.0014014114858582616
0.0008522587595507503
0.0007660440169274807
0.0014361698413267732
0.0008763977093622088
0.0010920966742560267
0.001046573743224144
0.0009139514295384288
0.0012993663549423218
0.0016583246178925037
0.0012050509685650468
0.0009412193321622908
0.0015489705838263035
0.0011613975511863828
0.0010360953165218234
0.0014461989048868418
0.0013273352524265647
0.0006079096347093582
0.0011923405108973384
0.001377907581627369
0.0012909164652228355
0.000839701562654227
0.0014723128406330943
0.001693547354079783
0.0010833435226231813
0.0011964475270360708
0.0010793143883347511
0.0016155252233147621
0.0010807920480147004
0.0017591281794011593
0.0007980242953635752
0.0018739956431090832
0.0010945629328489304
0.0009515874553471804
0.002830379642546177
0.001107038464397192
0.0011777381878346205
0.0010364424670115113
0.0012991447001695633
0.0012088081566616893
0.001870563835836947
0.0012155569856986403
0.0012180678313598037
0.0011094806250184774
0.0011762764770537615
0.0013816929422318935
0.001646592398174107
0.0013974360190331936
0.001388970878906548
0.0010301342699676752
0.001527690328657627
0.0013423576019704342
0.001035762601532042
0.0012822584249079227
0.0009320990648120642
0.0010236717062070966
0.0005349205457605422
0.0019294893136247993
0.0016743779415264726
0.001297671697102487
0.0008831502054817975
0.0011514418292790651
0.0010662379208952188
0.0026087381411343813
0.0012420756975188851
0.0044343192130327225
0.0009366657468490303
0.0008748029358685017
0.0011977017857134342
0.0017746991943567991
0.0012973948614671826
0.0012421272695064545
0.0010759489377960563
0.001321291085332632
0.0017640464939177036
0.0010846798541024327
0.0014421584783121943
0.0019072011345997453
0.0019330830546095967
0.0012415320379659534
0.0005152026424184442
0.0009799647377803922
0.0012562128249555826
0.0011552718933671713
0.003289414569735527
0.0012117975857108831
0.0015094844857230783
0.0016318864654749632
0.0032155648805201054
0.0011422508396208286
0.0013058996992185712
0.0012732085306197405
0.0014626269694417715
0.000694836606271565
0.001013526925817132
0.0013341282028704882
0.0012333421036601067
0.001182634849101305
0.0009119892492890358
0.0007737111300230026
0.0013375718845054507
0.0011812092270702124
0.0010143364779651165
0.001151033560745418
0.0013809679076075554
0.0012868910562247038
0.0010860555339604616
0.002889250637963414
0.0009400735725648701
0.0009715898777358234
0.003181631676852703
0.002099177800118923
0.0011071880580857396
0.0012372310739010572
0.0011329526314511895
0.0009520629537291825
0.0009878776036202908
0.0012236973270773888
0.0014869484584778547
0.0008391949813812971
0.0023696625139564276
0.0012809917097911239
0.0015855103265494108
0.0009014090173877776
0.0012549464590847492
0.0010364404879510403
0.002087280387058854
0.0008938127430155873
0.0014491485198959708
0.0017000968800857663
0.0009469246724620461
0.0012695671757683158
0.0011355378665030003
0.0010620963294059038
0.0012653619050979614
0.0012794923968613148
0.0004990299348719418
0.000689314620103687
0.0013372409157454967
0.001622699899598956
0.0009864798048511147
0.00046536169247701764
0.001573082059621811
0.0009663004311732948
0.0019456192385405302
0.0017896216595545411
0.0013314553070813417
0.0008728513494133949
0.0013382871402427554
0.001310570864006877
0.0009716151398606598
0.0008195069967769086
0.0013419759925454855
0.001121779321692884
0.0008632293320260942
0.0010876413434743881
0.0013864000793546438
0.0007022474892437458
0.0011547334725037217
0.00170095672365278
0.001029788050800562
0.0013246337184682488
0.0013477973407134414
0.0010524785611778498
0.0014562176074832678
0.0007818500162102282
0.0008167773485183716
0.0008873321930877864
0.0006002605077810585
0.0012739545200020075
0.0008157020201906562
0.0014988704351708293
0.0008864171104505658
0.002876056358218193
0.0010598604567348957
0.0011072320630773902
0.000682941114064306
0.0008712544804438949
0.0009132283739745617
0.0010588616132736206
0.0013244319707155228
0.0013790794182568789
0.0009928345680236816
0.000699904456268996
0.0032586960587650537
0.0014281354378908873
0.0015976112335920334
0.0009056483977474272
0.0008923969580791891
0.001253292546607554
0.0010262731229886413
0.0010155244963243604
0.0010756138944998384
0.0012041919399052858
0.0017517483793199062
0.0014745260123163462
0.0010246108286082745
0.0008709061075933278
0.0012647005496546626
0.0014511675108224154
0.0014720752369612455
0.0011146072065457702
0.0012471938971430063
0.0012989903334528208
0.001072781509719789
0.0013946605613455176
0.0010814970592036843
0.000841685279738158
0.0009513202821835876
0.00209102057851851
0.0012765140272676945
0.0019179158844053745
0.0010886804666370153
0.0016202592523768544
0.0009551431867294014
0.001594775472767651
0.0013908213004469872
0.0011211939854547381
0.0015216574538499117
0.0010730655631050467
0.000553976627998054
0.0012393207289278507
0.001273900968953967
0.001265119295567274
0.0013487017713487148
0.0014106853632256389
0.001228693057782948
0.0013713904190808535
0.0015981399919837713
0.0010674558579921722
0.0010799117153510451
0.0014240489108487964
0.0014570303028449416
0.003385495627298951
0.001299676951020956
0.0009301933459937572
0.0011646089842543006
0.00137239636387676
0.001429402967914939
0.0015450210776180029
0.002702882746234536
0.0010629601310938597
0.001001044292934239
0.00165603740606457
0.001253895927220583
0.0009185710223391652
0.000844618130940944
0.0011146067408844829
0.0008976578246802092
0.0017513902857899666
0.0010836798464879394
0.0010880542686209083
0.0009643497760407627
0.001448141410946846
0.001127850147895515
0.0014048219891265035
0.0023177422117441893
0.0011586290784180164
0.0011772699654102325
0.001042931922711432
0.0011577854165807366
0.0020657647401094437
0.0013036755844950676
0.0014198116259649396
0.0014420036459341645
0.0010713778901845217
0.0010626002913340926
0.0008423198014497757
0.0007255246164277196
0.0011850069276988506
0.0010622875997796655
0.0010639253305271268
0.0014223146717995405
0.0010651631746441126
0.0014169190544635057
0.0016946792602539062
0.0013730868231505156
0.0015720308292657137
0.0012498927535489202
0.0018907667836174369
0.0012032159138470888
0.0015415243105962873
0.0010866239899769425
0.0018216436728835106
0.0008977850084193051
0.001004776917397976
0.001011350192129612
0.0010916193714365363
0.0009760565590113401
0.0006938790320418775
0.0010593542829155922
0.001052157487720251
0.000978013384155929
0.0008752575377002358
0.0006233779713511467
0.0012824017321690917
0.002371365437284112
0.0005410603480413556
0.0014868468279018998
0.0016730017960071564
0.0011927849845960736
0.0011025113053619862
0.0015701574739068747
0.0010577283101156354
0.001493485877290368
0.0010903935180976987
0.001205902430228889
0.0009963351767510176
0.0007784897461533546
0.0010807847138494253
0.0009207938564941287
0.0013161557726562023
0.0012344556162133813
0.0011797512415796518
0.0010049114935100079
0.0012529692612588406
0.0013429962564259768
0.0008055102662183344
0.0013908909168094397
0.0009423489682376385
0.0010908920085057616
0.0013845459325239062
0.0011774123413488269
0.0012459992431104183
0.0011321576312184334
0.0010981421219184995
0.0017064041458070278
0.000963906291872263
0.0012188872788101435
0.0014388865092769265
0.000978947151452303
0.0015619377372786403
0.0011234261328354478
0.0012282240204513073
0.0032637016847729683
0.0005846202839165926
0.0014948190655559301
0.000864190049469471
0.001012182212434709
0.0015755799831822515
0.004448734689503908
0.0026688771322369576
0.0013941972283646464
0.0012139492901042104
0.0011364339152351022
0.0009997535962611437
0.0012562675401568413
0.0015611160779371858
0.0011798925697803497
0.0013457952300086617
0.0013439779868349433
0.0010593343758955598
0.0007749725482426584
0.0012316202046349645
0.0012251262087374926
0.0012683095410466194
0.0015141007024794817
0.0010568482102826238
0.0013667746679857373
0.0010577301727607846
0.0013139211805537343
0.0017918820958584547
0.0008825534023344517
0.0015351885231211782
0.0015968619845807552
0.0013218533713370562
0.001634075422771275
0.001284198253415525
0.0011282487539574504
0.0012047725031152368
0.0018632664578035474
0.0012897744309157133
0.0017067589797079563
0.0010829162783920765
0.0012221788056194782
0.001015638466924429
0.0009003164013847709
0.0017017078353092074
0.0007581517565995455
0.0011562022846192122
0.0010773737449198961
0.0010737512493506074
0.0014841113006696105
0.0011739160399883986
0.0010006941156461835
0.0015080785378813744
0.0012857039691880345
0.0015474966494366527
0.0017254299018532038
0.0010944490786641836
0.0014300461625680327
0.001426782226189971
0.0012702406384050846
0.001002647913992405
0.0012487528147175908
0.0011903538834303617
0.0016679423861205578
0.0007853443385101855
0.001643930678255856
0.0009146031807176769
0.0010443500941619277
0.0015664843376725912
0.0014914583880454302
0.0015963930636644363
0.0015371359186246991
0.001061697956174612
0.0010708232875913382
0.001943262293934822
0.00091024418361485
0.0015368280000984669
0.0014579190174117684
0.001261721714399755
0.0008527646423317492
0.0009269494912587106
0.001329990685917437
0.001891973428428173
0.001055466360412538
0.0010599027154967189
0.0018221320351585746
0.0012792295310646296
0.00296019553206861
0.0029244758188724518
0.0018414261285215616
0.0022144389804452658
0.0010378108127042651
0.001169354422017932
0.001024798839353025
0.0010719066485762596
0.0012727794237434864
0.0011067015584558249
0.0018113689729943871
0.001255288952961564
0.002122090198099613
0.0011518484679982066
0.001145069720223546
0.001641998183913529
0.001909054582938552
0.000565230380743742
0.0005688506062142551
0.0016676170052960515
0.0013090186985209584
0.0015259092906489968
0.0011710053076967597
0.0014729836257174611
0.0008112462237477303
0.0009215247700922191
0.0011427105637267232
0.0007362167234532535
0.0022095884196460247
0.0012373250210657716
0.0012712018797174096
0.0010204830905422568
0.0012738951481878757
0.0013091237051412463
0.0010548484278842807
0.00045260266051627696
0.0005502692074514925
0.0013086317339912057
0.0013725331518799067
0.0009411305072717369
0.0016266913153231144
0.0011726011289283633
0.0008476688526570797
0.0007921254145912826
0.001018684939481318
0.0013173185288906097
0.0008199117728509009
0.0011494341306388378
0.0014074902283027768
0.001183892134577036
0.0011109757469967008
0.0020484542474150658
0.0012493572430685163
0.00175968068651855
0.0013541537337005138
0.0012795109068974853
0.0020642171148210764
0.0007814096752554178
0.0006055834237486124
0.0010050201090052724
0.0005637690192088485
0.001212898874655366
0.0011022340040653944
0.001011601067148149
0.0009598927572369576
0.0005415910272859037
0.0008971937349997461
0.0010602425318211317
0.0006945639033801854
0.0012509571388363838
0.0010692354990169406
0.0015621038619428873
0.0010186334839090705
0.0013382697943598032
0.0011693774722516537
0.0012575594009831548
0.0011872620088979602
0.0006163688376545906
0.0007154594641178846
0.001196416444145143
0.0010016011074185371
0.0010216673836112022
0.0008775907917879522
0.0011815772159025073
0.0014889320591464639
0.0013093177694827318
0.001031251740641892
0.001419819425791502
0.0009267159039154649
0.0006386535242199898
0.0014794737799093127
0.001650499296374619
0.0012737814104184508
0.0010891566053032875
0.0011149989441037178
0.0013666505692526698
0.0010190362809225917
0.002340111415833235
0.0008845024276524782
0.0007888789987191558
0.0010055539896711707
0.0017170864157378674
0.0016344052273780107
0.0016006920486688614
0.0016045045340433717
0.001964566996321082
0.0015388601459562778
0.0013285267632454634
0.0009407781763002276
0.001187812420539558
0.0012718617217615247
0.0012098614824935794
0.0009846561588346958
0.0012213957961648703
0.000979920499958098
0.0012595823500305414
0.0013234972720965743
0.0010546898702159524
0.0008790544234216213
0.0006796852685511112
0.0009490835946053267
0.0009575267904438078
0.0014323944924399257
0.001829756423830986
0.0009340491378679872
0.002196794142946601
0.0012278218055143952
0.0010941968066617846
0.00259597459807992
0.0011725767981261015
0.0012021992588415742
0.00175755366217345
0.0012410309864208102
0.0010776667622849345
0.0010623754933476448
0.0010301604634150863
0.0015586462104693055
0.0007746636983938515
0.0011362959630787373
0.0014242094475775957
0.001117890002205968
0.0009738108492456377
0.0008078976534307003
0.0016180456150323153
0.00135992921423167
0.0030247659888118505
0.0012805314036086202
0.0007974011241458356
0.001763201435096562
0.0009726423886604607
0.0008630311349406838
0.0010867246892303228
0.001161176827736199
0.000743553857319057
0.001065435935743153
0.0016551512526348233
0.0011862487299367785
0.0011097645619884133
0.0009285870473831892
0.0009504323243163526
0.0011294846190139651
0.000967725645750761
0.0007748156785964966
0.001826389809139073
0.0016760386060923338
0.0011942244600504637
0.001183129963465035
0.0007327437633648515
0.0009462868329137564
0.0014303746866062284
0.0011157721746712923
0.0009425209718756378
0.001368109486065805
0.0009845023741945624
0.0007075447938404977
0.0012566634686663747
0.001590239000506699
0.0013199804816395044
0.0017928758170455694
0.0008546853787265718
0.0009267769055441022
0.0015535360435023904
0.001255036797374487
0.0012301147216930985
0.0014477299991995096
0.0011486627627164125
0.001663082279264927
0.0007073535234667361
0.0011968027101829648
0.0014261866454035044
0.0008124022861011326
0.0012346406001597643
0.0013256222009658813
0.0013220167020335793
0.0010361855383962393
0.001106520532630384
0.0011649772059172392
0.003572414629161358
0.001283275312744081
0.0011212850222364068
0.0013324478641152382
0.0013536147307604551
0.0015636077150702477
0.0011789087438955903
0.0010792916873469949
0.0011041003745049238
0.0009904599282890558
0.0015631526475772262
0.0013681157724931836
0.0018257542978972197
0.0009458161075599492
0.0014063186245039105
0.0014506198931485415
0.0014009911101311445
0.0018461113795638084
0.001639745314605534
0.0016276921378448606
0.0009313245536759496
0.0014999151462689042
0.0010017210152000189
0.0010731579968705773
0.00034807485644705594
0.000933709554374218
0.0009478673455305398
0.002389319008216262
0.0008401019731536508
0.0012258165515959263
0.0015495255356654525
0.0011601228034123778
0.0017677540890872478
0.001466411747969687
0.0009781362023204565
0.0013400779571384192
0.0008048011222854257
0.002499781548976898
0.0015288995346054435
0.0005358598427847028
0.0011024803388863802
0.0013480879133567214
0.0006215068860910833
0.0010879439068958163
0.0027705791871994734
0.0015525443013757467
0.002884486224502325
0.0013248884351924062
0.0007336144335567951
0.0024194594006985426
0.001017382717691362
0.0009884376777336001
0.0011078922543674707
0.0010524527169764042
0.0012944679474458098
0.0013584374682977796
0.004453347995877266
0.0014871928142383695
0.0007480866624973714
0.0015686826081946492
0.0012060736771672964
0.0016462331404909492
0.0010016366140916944
0.0023007700219750404
0.0012434988748282194
0.0012208422413095832
0.00114480743650347
0.0008848761208355427
0.0017532429192215204
0.0010197884403169155
0.002669340930879116
0.0009000686113722622
0.001170632429420948
0.0011363456724211574
0.0013568929862231016
0.0011229765368625522
0.0006147976382635534
0.0014320858754217625
0.0010817901929840446
0.001112704980187118
0.0016830306267365813
0.0013148419093340635
0.0010867645032703876
0.0015107598155736923
0.0011822544038295746
0.0012081351596862078
0.0009721828973852098
0.001020544790662825
0.0008770356653258204
0.0012195914750918746
0.0010972245363518596
0.0009874110110104084
0.0010872024577111006
0.00116394751239568
0.0011635146802291274
0.0016453374410048127
0.0008740826160646975
0.0017640908481553197
0.0014311146223917603
0.0007668142206966877
0.0009730235324241221
0.0010607077274471521
0.0007065386744216084
0.001199522870592773
0.0013147422578185797
0.0013136888155713677
0.0009699119254946709
0.0012486093910411
0.0010946717811748385
0.0005294530419632792
0.000903103151358664
0.0010470161214470863
0.0004538912617135793
0.001042654737830162
0.0012234136229380965
0.001325705903582275
0.0017364706145599484
0.0008930585463531315
0.000563250039704144
0.0014184900792315602
0.0010691111674532294
0.001421951106749475
0.00036876919330097735
0.003201541490852833
0.000565853901207447
0.001482123974710703
0.0013598058139905334
0.0011414941400289536
0.0011209517251700163
0.0013704517623409629
0.0008742916979826987
0.001016233116388321
0.0011932416819036007
0.0012889086501672864
0.0011698772432282567
0.0012560555478557944
0.0014195414260029793
0.0013869262766093016
0.0011458159424364567
0.0012913296231999993
0.0011562113650143147
0.0016328546917065978
0.0011060925899073482
0.0011157117551192641
0.0012345293071120977
0.00203316705301404
0.0010076044127345085
0.0011365426471456885
0.001318017952144146
0.001275879330933094
0.0006715117488056421
0.0017867183778434992
0.0008795937173999846
0.0011956695234403014
0.00158383185043931
0.0011365010868757963
0.0012705809203907847
0.0021711476147174835
0.0011324036167934537
0.0019105912651866674
0.0011441090609878302
0.0012398670660331845
0.0009826429886743426
0.0015655399765819311
0.0009479059372097254
0.0008012581383809447
0.00136601272970438
0.0008958394173532724
0.0012769524473696947
0.0008908077143132687
0.002838757121935487
0.0010754265822470188
0.0009506116039119661
0.0013414118438959122
0.0020952688064426184
0.0014338132459670305
0.0008587847696617246
0.0013218449894338846
0.0016036841552704573
0.0015294183976948261
0.0007429050747305155
0.0011775390012189746
0.0011888256995007396
0.0008411361486651003
0.0013053147122263908
0.0014336935710161924
0.0013784108450636268
0.0017408173298463225
0.0013134499313309789
0.002760490169748664
0.0011672534747049212
0.0012126972433179617
0.0012738930527120829
0.0007525792461819947
0.0009899409487843513
0.0010300264693796635
0.0011445716954767704
0.0017704524798318744
0.0006291346508078277
0.0010348375653848052
0.001091010170057416
0.001204612199217081
0.0009242410305887461
0.001109995529986918
0.0012084997724741697
0.0009533404954709113
0.0013946188846603036
0.0011367317056283355
0.0012901159934699535
0.0013749221106991172
0.0012243532110005617
0.0015429407358169556
0.0011829161085188389
0.00110033736564219
0.0013828977243974805
0.0010759669821709394
0.00174475007224828
0.0008226023055613041
0.0006471493979915977
0.0012337956577539444
0.0004910556599497795
0.0017493237974122167
0.0014175341930240393
0.0010320183355361223
0.0013315575197339058
0.001543982420116663
0.001489248825237155
0.0009235027828253806
0.002244850154966116
0.0010930864373221993
0.0011241178726777434
0.0012289425358176231
0.0013337117852643132
0.0009971236577257514
0.0012982770567759871
0.0009606196545064449
0.001409700489602983
0.0007928638369776309
0.0010167884174734354
0.0011623406317085028
0.001897765789180994
0.0012050489895045757
0.0012978273443877697
0.0009512450196780264
0.0017928570741787553
0.001175732002593577
