0.0005600186996161938
0.0005797773483209312
0.0003967421071138233
0.000365086569217965
0.0004968912689946592
0.00044356254511512816
0.0004899406339973211
0.0005354509921744466
0.00036905345041304827
0.00047285933396779
0.0005672796978615224
0.0005275950534269214
0.00041292919195257127
0.0005906609003432095
0.0004385459760669619
0.00042726279934868217
0.00040670394082553685
0.00047847311361692846
0.00039890327025204897
0.0006080460734665394
0.0007092825835570693
0.00047801228356547654
0.0006283367401920259
0.0005019931122660637
0.0005822330131195486
0.0005853270995430648
0.0010664970614016056
0.0005365391843952239
0.0005753248115070164
0.0005370078142732382
0.00047776749124750495
0.0005388067802414298
0.0004959208308719099
0.0005345271783880889
0.000519780267495662
0.00044330034870654345
0.000514749379362911
0.0007004131330177188
0.0005215299315750599
0.0005180702428333461
0.00048394183977507055
0.0006245824042707682
0.000452708249213174
0.0005385885597206652
0.0005471435142681003
0.0003971686528529972
0.0006250225123949349
0.0005605485639534891
0.0006155955488793552
0.0005456323269754648
0.0005173399113118649
0.0006330684409476817
0.000516028783749789
0.0005425207200460136
0.0005041598342359066
0.0006104236235842109
0.0005635858396999538
0.0007643700228072703
0.0006613346631638706
0.0005432419129647315
0.000565574795473367
0.0006007394404150546
0.0006462534074671566
0.0003581882920116186
0.0005103697185404599
0.0005244938074611127
0.00046925892820581794
0.0005956844543106854
0.0005649501108564436
0.0005512527422979474
0.000532622798345983
0.0003814003139268607
0.0005458136438392103
0.000515562598593533
0.0006382554420270026
0.0005284468061290681
0.000540698179975152
0.00038110962486825883
0.00048544438323006034
0.0004163375124335289
0.0005351525614969432
0.0005031410255469382
0.0004563067341223359
0.00041247979970648885
0.00045311939902603626
0.0004438661562744528
0.0006352655473165214
0.0003760263498406857
0.0004680469573941082
0.0007954190950840712
0.00041232394869439304
0.0006273756735026836
0.0007347070495598018
0.0004821190959773958
0.0004509845457505435
0.0005104097072035074
0.0005875637871213257
0.00041789692477323115
0.0004799840389750898
0.0008043281850405037
0.0006281595560722053
0.0005484057473950088
0.0004709680797532201
0.00048377926577813923
0.0004010861739516258
0.00041352142579853535
0.0003700745292007923
0.0006288125296123326
0.0005766698741354048
0.00047698948765173554
0.0005814729374833405
0.0005796163459308445
0.0004952852614223957
0.0006555983563885093
0.0004902785876765847
0.0006174190784804523
0.00047439750051125884
0.000698846997693181
0.0006992534617893398
0.0005335989990271628
0.0007223266293294728
0.00048055220395326614
0.000466375146061182
0.0005808704299852252
0.0005616649868898094
0.0006226926343515515
0.0008963249856606126
0.00042349938303232193
0.0006353859789669514
0.0006870488869026303
0.00042019604006782174
0.00061888707568869
0.0005069816834293306
0.000522187037859112
0.0006242883391678333
0.0005389027064666152
0.0004977392964065075
0.0005760147469118237
0.0003485937777440995
0.000523679715115577
0.00036771735176444054
0.000768577097915113
0.00040564980008639395
0.000643133360426873
0.0005250933463685215
0.0005290425033308566
0.00039814331103116274
0.0005753672448918223
0.0003829632478300482
0.0006719754892401397
0.0004318776773288846
0.00044728082139045
0.0004594835627358407
0.0005634760018438101
0.00045797479106113315
0.0005270254332572222
0.00054635462583974
0.0005018848460167646
0.00048155288095586
0.0005995234241709113
0.0005125204334035516
0.000606555724516511
0.00041316577699035406
0.0004548557917587459
0.0005468445015139878
0.00054589455248788
0.0004311513912398368
0.00040485366480425
0.0005316994502209127
0.00046341813867911696
0.0005926956655457616
0.00041317229624837637
0.000604719331022352
0.00043612197623588145
0.00039174684206955135
0.0004422861966304481
0.0004331886302679777
0.0004022993380203843
0.00040584831731393933
0.00042669387767091393
0.0004283240414224565
0.0006030153017491102
0.0005556254182010889
0.0003681423550006002
0.0004887317772954702
0.0005171557422727346
0.000657961645629257
0.00038028607377782464
0.0006242723320610821
0.0005368430865928531
0.0005113821243867278
0.00038693586247973144
0.00042441190453246236
0.0004477770999073982
0.0005996539257466793
0.0005151054356247187
0.0004922542721033096
0.0004443892394192517
0.00037799315759912133
0.0004783434560522437
0.0006432036170735955
0.0007371229585260153
0.0005674605490639806
0.0005469559691846371
0.0006279176450334489
0.00047583106788806617
0.0007134011830203235
0.0006074606208130717
0.0004994624760001898
0.000498985406011343
0.0005480963736772537
0.0005788392154499888
0.000544567359611392
0.0006847470649518073
0.0004451321728993207
0.0005204696790315211
0.0005177384591661394
0.0007745090406388044
0.0005981844151392579
0.0005270803812891245
0.0005423403927125037
0.0005424513947218657
0.0004757666611112654
0.0004447693645488471
0.0004936123732477427
0.0006048920913599432
0.0005170418880879879
0.0005308238323777914
0.0005129799828864634
0.0004897414473816752
0.0005036033107899129
0.0003759902610909194
0.0006230377475731075
0.0004550452867988497
0.00047349321539513767
0.0006621662178076804
0.00041935735498555005
0.0004384653002489358
0.0004426090745255351
0.0005806600674986839
0.0004854689468629658
0.0005256241420283914
0.0006172476569190621
0.0005862040561623871
0.0004573615442495793
0.00053648732136935
0.00043931780965067446
0.0005860701785422862
0.0006515500135719776
0.00043025112245231867
0.0007520284852944314
0.0005449512391351163
0.0006077627185732126
0.0004308756906539202
0.0006308986339718103
0.0005745372618548572
0.0004933301242999732
0.0005045912112109363
0.0005832320312038064
0.0004208870814181864
0.0005136012332513928
0.0005926319863647223
0.000542280962690711
0.000618786842096597
0.0005372012383304536
0.000696309027262032
0.0006719172233715653
0.0004929799470119178
0.00047157498192973435
0.000484923628391698
0.000543033704161644
0.0004960380028933287
0.00044937519123777747
0.0005288957618176937
0.0004911315627396107
0.0005879529635421932
0.0004877635801676661
0.0004956186166964471
0.00043276234646327794
0.00043258091318421066
0.0003943157207686454
0.0007916998583823442
0.00044268585043027997
0.0005821512313559651
0.0004826016374863684
0.0006782778655178845
0.0003963031922467053
0.00045183481415733695
0.0004321103042457253
0.0005029096500948071
0.00040915809222497046
0.00046856931294314563
0.00045848876470699906
0.0005262554041109979
0.0004951223381794989
0.0005406655254773796
0.00039572108653374016
0.00039705599192529917
0.000638621102552861
0.0007276530959643424
0.0005865790299139917
0.00045998371206223965
0.00041543252882547677
0.00048019937821663916
0.00038440272328443825
0.000504500640090555
0.00039848912274464965
0.0003882356686517596
0.00047815684229135513
0.0003866527695208788
0.0004633337666746229
0.00054768385598436
0.0005204361514188349
0.0005467782029882073
0.0004857954918406904
0.0006275370251387358
0.000561994151212275
0.0006426352774724364
0.0004693139635492116
0.0005316830356605351
0.0005779497441835701
0.0004591043689288199
0.0007096248446032405
0.0004281775909475982
0.000388040003599599
0.0005130543140694499
0.00045865282299928367
0.0003485696797724813
0.0005533213843591511
0.00044319647713564336
0.00040239744703285396
0.0004621793341357261
0.0005364799872040749
0.0006393035291694105
0.00042315025348216295
0.0005002928082831204
0.000493680767249316
0.00045064406003803015
0.0004583947593346238
0.00038054303149692714
0.0005572340451180935
0.0005518794059753418
0.0005070047336630523
0.0004249210760463029
0.0004156729264650494
0.00048576650442555547
0.00090314558474347
0.00048672317643649876
0.0005450733588077128
0.000529732380528003
0.0005722343339584768
0.00043678292422555387
0.0005805547116324306
0.000509658653754741
0.0005946782184764743
0.0005972300423309207
0.00047605400322936475
0.0004952149465680122
0.0005013113841414452
0.0005153694073669612
0.00041747442446649075
0.0005809915601275861
0.0004407063825055957
0.0005063334247097373
0.0006210063002072275
0.0005250836838968098
0.0005624385084956884
0.0004646121815312654
0.0005060222465544939
0.0005586773622781038
0.0006809328333474696
0.00037406946648843586
0.0007834709249436855
0.00044390166294761
0.0004956693155691028
0.0004369796079117805
0.0005121297435835004
0.0010116711491718888
0.0005914026987738907
0.0006511937244795263
0.0005588015192188323
0.00038249630597420037
0.0003911323146894574
0.0005472984630614519
0.0004448280669748783
0.0005175616242922843
0.0005138561245985329
0.0004896910395473242
0.0004092799499630928
0.00043127191020175815
0.0006134814466349781
0.0005191556992940605
0.0005664312047883868
0.0005829296424053609
0.0005229160306043923
0.0005093617364764214
0.0004277093103155494
0.0006197660113684833
0.00044073324534110725
0.0007617248920723796
0.0004818332090508193
0.0005092776264064014
0.000502728100400418
0.0005103053990751505
0.0006716622738167644
0.0006578718894161284
0.0005419548251666129
0.0005769288982264698
0.0006224408280104399
0.0004785684868693352
0.0005895460490137339
0.0006625748937949538
0.0005077560199424624
0.00048279957263730466
0.0005091511993668973
0.00045877674710936844
0.0005999774439260364
0.0005472381017170846
0.0006225788965821266
0.0006975001888349652
0.0005762875662185252
0.0006948222289793193
0.000666168169118464
0.0004213982028886676
0.00037859586882404983
0.0006505865603685379
0.0005410233861766756
0.0004642459098249674
0.0006029769429005682
0.0005350714200176299
0.00048292515566572547
0.0004015353915747255
0.0004331590607762337
0.0004120160301681608
0.00042287324322387576
0.0007347112987190485
0.0004536018241196871
0.0009711947641335428
0.0005596593837253749
0.0005870887544006109
0.000556094222702086
0.0004992132307961583
0.000765652337577194
0.0005579031421802938
0.00040699553210288286
0.0005066990852355957
0.000818532716948539
0.0005660046590492129
0.00041292919195257127
0.0004324106848798692
0.00040205635013990104
0.0005369732971303165
0.0004994657356292009
0.0004744954057969153
0.0005151548539288342
0.0007505927933380008
0.0005397711647674441
0.0004629269242286682
0.0004811721737496555
0.000390808709198609
0.0006297259824350476
0.0005223232437856495
0.0005507376627065241
0.0005265785730443895
0.0003603188379202038
0.0005518802790902555
0.000663367158267647
0.0005108623299747705
0.0006803791620768607
0.00044647688628174365
0.00037512171547859907
0.0004777772119268775
0.0003990206168964505
0.0006876858533360064
0.0005343740340322256
0.0003296859795227647
0.0004502148076426238
0.0005166318733245134
0.00044757043360732496
0.00040880197775550187
0.000589013856370002
0.0005154102109372616
0.0005472467164508998
0.00040856475243344903
0.0005030726315453649
0.000755047076381743
0.0004902473301626742
0.00048566929763183
0.0006021712906658649
0.0006982489139772952
0.0005715300212614238
0.0007293916423805058
0.000577063299715519
0.0005992098012939095
0.0004810699902009219
0.0009285543346777558
0.0004552695609163493
0.0005984888994134963
0.0005822099628858268
0.00044843790237791836
0.000605967128649354
0.0004799499874934554
0.00038360198959708214
0.0005685095093213022
0.0005765589303337038
0.0004918055492453277
0.0005399633082561195
0.0005526419263333082
0.000541467743460089
0.0005287243402563035
0.0005343717057257891
0.0003999251639470458
0.0005877067451365292
0.00048716249875724316
0.0006099398015066981
0.0006860044086351991
0.0005107788019813597
0.000590907467994839
0.00040783913573250175
0.0004440532939042896
0.0004710844368673861
0.0005465705180540681
0.0004519163048826158
0.0006274038460105658
0.00041031191358342767
0.0005798654165118933
0.0005172753590159118
0.0004734839021693915
0.00046301347902044654
0.00036535135586746037
0.0005484178545884788
0.0006571863777935505
0.000574030913412571
0.0006246748380362988
0.0007599731325171888
0.0005368008860386908
0.0004930468858219683
0.00045298473560251296
0.0006044410984031856
0.0005704323993995786
0.00047488001291640103
0.0003719416563399136
0.0005129511700943112
0.0003353260981384665
0.00046025594929233193
0.0005589235224761069
0.00046700917300768197
0.0006544485804624856
0.000772022467572242
0.000697465380653739
0.000595509132836014
0.0005115071544423699
0.00047575499047525227
0.0005100315902382135
0.0006954295677132905
0.0005213392432779074
0.0006307397270575166
0.0005913525237701833
0.0004287617630325258
0.0006373492069542408
0.0008109178161248565
0.0004985147970728576
0.000715946254786104
0.0005489081959240139
0.0005210342933423817
0.0003405687166377902
0.00039939393172971904
0.0005088684847578406
0.0004951270530000329
0.00037266596336849034
0.0003604805388022214
0.0005570211797021329
0.00041505275294184685
0.0004766364290844649
0.0004845439689233899
0.00038726202910766006
0.0005291896522976458
0.0004384802305139601
0.0006011193618178368
0.0005043288692831993
0.0006525368080474436
0.0004595904902089387
0.0005033548222854733
0.0005209633964113891
0.0006460404256358743
0.0005368240526877344
0.00046003455645404756
0.000457411544630304
0.0005214945995248854
0.0003612623841036111
0.0005564579623751342
0.0008720496552996337
0.0006096897996030748
0.0006005148752592504
0.0004124999395571649
0.000503170071169734
0.00046965994988568127
0.0005813973257318139
0.00044577420339919627
0.0004141188401263207
0.0005033255438320339
0.00041327154031023383
0.0005568587221205235
0.0004299645370338112
0.0005686116055585444
0.0005828505381941795
0.0005746555398218334
0.0005223344778642058
0.0006042958120815456
0.0004985306295566261
0.0004676269891206175
0.0006412389921024442
0.00044428533874452114
0.0005705435178242624
0.00045061626587994397
0.0005276776500977576
0.00035397510509938
0.0006018761196173728
0.0004732912639155984
0.0004297621489968151
0.0005265239742584527
0.00047165551222860813
0.0005607145139947534
0.0004436371091287583
0.0006743763224221766
0.0003881747252307832
0.0006995581788942218
0.00043008822831325233
0.0007326378836296499
0.0007261720020323992
0.0005342747317627072
0.0006772927008569241
0.00037180405342951417
0.0004187416343484074
0.00038252657395787537
0.00037352321669459343
0.0006318690138868988
0.00044765081838704646
0.0005614343099296093
0.0004267610202077776
0.000513146398589015
0.0006868774071335793
0.0005122748552821577
0.0004473963927011937
0.0005778076592832804
0.00044446688843891025
0.00048184889601543546
0.0005285789375193417
0.0005802612868137658
0.0005955981323495507
0.0007583528058603406
0.0006680696969851851
0.0005560681456699967
0.0005221905885264277
0.000651341921184212
0.0005475668585859239
0.0005184522015042603
0.0004384497588034719
0.0005848908331245184
0.0004073086893185973
0.000524235307238996
0.0005704686627723277
0.00036716496106237173
0.0005636786809191108
0.0005394628387875855
0.0004959632060490549
0.00040833037928678095
0.0005636336863972247
0.0006166878738440573
0.00043474172707647085
0.0007018109899945557
0.000499123998451978
0.0006764970603398979
0.0004839909670408815
0.0005373248714022338
0.0005793485324829817
0.0003751405456569046
0.0004776677524205297
0.0003876698319800198
0.0006923924665898085
0.0004413255664985627
0.0005483762943185866
0.0006975929718464613
0.000560532440431416
0.000759710615966469
0.0005765842506662011
0.0004600893007591367
0.0004756555426865816
0.0005948937032371759
0.00042816073982976377
0.0005925774457864463
0.00045467549352906644
0.000599574064835906
0.000590791052673012
0.0004411180561874062
0.0007864789222367108
0.0005994897801429033
0.0006133682327345014
0.000722444907296449
0.00043705495772883296
0.0004593413614202291
0.0005278878379613161
0.0005949141341261566
0.0005064918659627438
0.0005141695728525519
0.00039037264650687575
0.0009813134092837572
0.0009119585156440735
0.0007333866087719798
0.0004736504051834345
0.0006486065103672445
0.0007424426730722189
0.0005840334924869239
0.0005276906304061413
0.0005784805398434401
0.0006621832144446671
0.00047834927681833506
0.00035942174145020545
0.0004980025696568191
0.0003997368330601603
0.0004707810585387051
0.00042886080336757004
0.0006619986379519105
0.0008190826047211885
0.0005763824447058141
0.0005383435054682195
0.0005508820177055895
0.0004246036405675113
0.0005204122280701995
0.0005306915263645351
0.0005706195952370763
0.00045287824468687177
0.0007064914098009467
0.0004015957529190928
0.0003638094349298626
0.0004295713733881712
0.000522280519362539
0.00047380017349496484
0.0007577266660518944
0.0007968710851855576
0.00046858261339366436
0.0005065032746642828
0.0004973704344592988
0.0005879141972400248
0.0005494299111887813
0.0005814819596707821
0.0005021166289225221
0.0004513020976446569
0.0005092309438623488
0.0003739481617230922
0.0005655167624354362
0.0005614677793346345
0.00045501324348151684
0.0005343175726011395
0.0005787352565675974
0.00047489337157458067
0.00043169729178771377
0.0004622239794116467
0.0004243123112246394
0.0005846454878337681
0.00048655399587005377
0.0004998561926186085
0.000442800868768245
0.0005535261007025838
0.00037895538844168186
0.0005632169195450842
0.0005165252950973809
0.0004838656750507653
0.0005822504754178226
0.0006453842506743968
0.0004678710538428277
0.0005022134864702821
0.0005722773494198918
0.0005903708515688777
0.00044597728992812335
0.0005471508484333754
0.0004251176433172077
0.0004939833888784051
0.00043006439227610826
0.00042202608892694116
0.0005714372964575887
0.0005420606466941535
0.00043959784670732915
0.000614742748439312
0.0004371281829662621
0.00044128799345344305
0.0004366064677014947
0.0006805507582612336
0.0004299659631215036
0.0005799385253340006
0.000455649133073166
0.0007863676291890442
0.000592870288528502
0.000504473689943552
0.0004264926537871361
0.0005771120195277035
0.00042421265970915556
0.0003764804860111326
0.00046756252413615584
0.0008025513961911201
0.0004598835075739771
0.00041992610204033554
0.0004291639488656074
0.0005262991180643439
0.0005218022270128131
0.000691829773131758
0.0005413102335296571
0.000548432522919029
0.0004871757992077619
0.000640982121694833
0.0005019874661229551
0.00037415014230646193
0.0005764941452071071
0.0008208777871914208
0.0004837608721572906
0.0008851821767166257
0.0005889073945581913
0.0006542488117702305
0.0006040477892383933
0.0005267126252874732
0.0005032405606471002
0.0005251299007795751
0.0006850567297078669
0.00046964464127086103
0.00041622461867518723
0.0005509723559953272
0.0005372564774006605
0.0005857952055521309
0.0006224395474418998
0.0005803743260912597
0.00090510438894853
0.00046936143189668655
0.00042965944157913327
0.0004689904162660241
0.0006180646014399827
0.00047667641774751246
0.00067993433913216
0.000471151783131063
0.00044237764086574316
0.0005505671142600477
0.0005634523113258183
0.0007473928271792829
0.00040046186768449843
0.0008123968727886677
0.0004790698585566133
0.0005417914944700897
0.0003993231221102178
0.0005236401921138167
0.0004762773751281202
0.0006050729425624013
0.00042418480734340847
0.0006480602896772325
0.0006597462925128639
0.000675681047141552
0.0005350188002921641
0.000562802713830024
0.000395583629142493
0.0010635959915816784
0.000763263669796288
0.0004100044316146523
0.0004799515591003001
0.0006444468162953854
0.0005510022165253758
0.0005142528098076582
0.0004999119555577636
0.00046660995576530695
0.0007473881705664098
0.00042657539597712457
0.0005732919089496136
0.0004732673114631325
0.0006064468179829419
0.0004513573949225247
0.0005749592091888189
0.00042042843415401876
0.0005302928620949388
0.0003280560777056962
0.0006797406240366399
0.0004881366912741214
0.0004391317197587341
0.00047767427167855203
0.0004501504299696535
0.0005373069434426725
0.00044194472138769925
0.0005106993485242128
0.0005971696227788925
0.0007435996667481959
0.0004008054092992097
0.0005043676937930286
0.0005244243075139821
0.0004873901780229062
0.000574720383156091
0.000541621760930866
0.0005079388502053916
0.0007569093140773475
0.0005145350005477667
0.0006015730323269963
0.0006512374966405332
0.0005373583408072591
0.0004908781265839934
0.000513546634465456
0.0005508597823791206
0.0004617096856236458
0.0005133069353178144
0.00040595271275378764
0.0005227124784141779
0.0006198517512530088
0.0005136730615049601
0.00046745865256525576
0.0005893807392567396
0.000354873132891953
0.0005643322947435081
0.0005216915742494166
0.00045524619054049253
0.00043655437184497714
0.0005825038533657789
0.0006289434968493879
0.0005307249375618994
0.000571302545722574
0.0005719843320548534
0.0006115974974818528
0.00041516823694109917
0.0005088935140520334
0.0005607297061942518
0.0004204309079796076
0.00043478913721628487
0.0005179615109227598
0.000676520518027246
0.0004439652257133275
0.000547963019926101
0.00043337332317605615
0.0004617312806658447
0.0005186050548218191
0.00044877768959850073
0.0005684597999788821
0.0005997579428367317
0.000559276610147208
0.0005271887639537454
0.00045181202585808933
0.0005239847814664245
0.00046904251212254167
0.0005567651242017746
0.0005126751493662596
0.000495103478897363
0.0006537623121403158
0.0004296345869079232
0.00046962618944235146
0.0006055447738617659
0.0005277519230730832
0.00041425516246818006
0.0004913009470328689
0.0004459489427972585
0.00047703520976938307
0.0006443854654207826
0.0005856358911842108
0.0006124549545347691
0.00039356935303658247
0.0004784342891070992
0.0003928539517801255
0.00043795289820991457
0.0007106094853952527
0.0004917137557640672
0.0004207110032439232
0.00042992178350687027
0.0005196523270569742
0.0005827038548886776
0.0006610836717300117
0.0005228038062341511
0.00044073074241168797
0.0005672283004969358
0.0005992493242956698
0.0005435210769064724
0.0006916942656971514
0.0004956932389177382
0.000466212717583403
0.0006582277710549533
0.0004322865861468017
0.0005300453049130738
0.00043987800017930567
0.0005116179236210883
0.0004874597361776978
0.0004949501599185169
0.00044602627167478204
0.0005383584066294134
0.0003690907615236938
0.0005943545256741345
0.00035330757964402437
0.0005720538320019841
0.0005769404233433306
0.00039505946915596724
0.0006271429010666907
0.0004807401855941862
0.0005455233622342348
0.00045192171819508076
0.000587324844673276
0.0005539159756153822
0.00048728796537034214
0.0005284008802846074
0.0005292191635817289
0.0006871280493214726
0.000498740584589541
0.0004903285880573094
0.0004695432144217193
0.0006085887434892356
0.0005503270658664405
0.00048139755381271243
0.0004772447282448411
0.000515048042871058
0.0007778268773108721
0.00043418240966275334
0.0007068029954098165
0.00045884697465226054
0.00039317505434155464
0.000419753574533388
0.0005809605936519802
0.0006889443029649556
0.0006833217339590192
0.00045359123032540083
0.0005165488109923899
0.000555806269403547
0.0005248775123618543
0.00038899065111763775
0.0004314941761549562
0.0005330579006113112
0.0006318654050119221
0.000589715491514653
0.0005978892440907657
0.0005430611781775951
0.0004950368893332779
0.0005521401762962341
0.0004453664005268365
0.0011170671787112951
0.000443253549747169
0.0004909128765575588
0.00041835737647488713
0.0005700444453395903
0.00038446986582130194
0.0005344493547454476
0.0005797189078293741
0.0005624727928079665
0.0006027200142852962
0.0005292797577567399
0.0005942300776951015
0.0005526496097445488
0.0009876390686258674
0.0006228914717212319
0.0006022482411935925
0.0006983279599808156
0.0005307618994265795
0.0005553904920816422
0.0007250699563883245
0.0006496249116025865
0.0004976629861630499
0.0009378750692121685
0.0008977302350103855
0.0005080255214124918
0.0004405200597830117
0.0005769653944298625
0.0004623878048732877
0.00042537576518952847
0.0005098621477372944
0.00042782985838130116
0.0005440401146188378
0.0005007758736610413
0.000680678931530565
0.0005921078845858574
0.000518013839609921
0.0004783986078109592
0.0005235496209934354
0.00041168337338604033
0.0005239361780695617
0.0004995231283828616
0.0006784474826417863
0.0006660426734015346
0.00046133846626617014
0.0006487733917310834
0.0005926135927438736
0.0006449169013649225
0.0005195084377191961
0.0005073359934613109
0.0005947399768047035
0.0007256448152475059
0.0007713963859714568
0.0005311817512847483
0.0006727935397066176
0.0005295309238135815
0.000376431125914678
0.0005312135326676071
0.0005082652787677944
0.0007346095517277718
0.0005019375239498913
0.0005511370254680514
0.0005372849409468472
0.0005272629205137491
0.0004777952271979302
0.00047949873260222375
0.000720467884093523
0.0006027320632711053
0.00046931608812883496
0.0005383131210692227
0.0005480509717017412
0.0004778896109201014
0.0006463275058194995
0.00044011540012434125
0.000498523295391351
0.0004901281208731234
0.00040765979792922735
0.0005995458923280239
0.0004929951974190772
0.0004764731856994331
0.0006239417707547545
0.0003895395784638822
0.0004399530007503927
0.0006654209573753178
0.0005620127776637673
0.000534827820956707
0.0005682579940184951
0.00046426072367466986
0.00048768799751996994
0.0007483583758585155
0.0005031796172261238
0.0005324695375747979
0.0005243291961960495
0.0005897273076698184
0.000433219043770805
0.0007591409375891089
0.00040440139127895236
0.0005749771371483803
0.00048312859144061804
0.0006068925140425563
0.0004292999510653317
0.00039229137473739684
0.00044503583922050893
0.000480956572573632
0.0004603767301887274
0.0004363430489320308
0.00042056338861584663
0.0005115367821417749
0.000555819075088948
0.0004855627194046974
0.0005936141824349761
0.0007320649456232786
0.0005308598047122359
0.0006627106922678649
0.00044097224599681795
0.0005216050194576383
0.0006136464071460068
0.0005545293679460883
0.0005146791809238493
0.0005825054831802845
0.000515263993293047
0.00033746109693311155
0.0005534227238968015
0.0005468495655804873
0.0005263254861347377
0.0003871405206155032
0.0005337036564014852
0.0007317127310670912
0.000567426613997668
0.0006348949391394854
0.00044209908810444176
0.0003984798677265644
0.0005043279379606247
0.0005315083544701338
0.0004416806623339653
0.0003886789781972766
0.0004908919800072908
0.00037145797978155315
0.00046380353160202503
0.0006244179676286876
0.0004739202850032598
0.0007197624654509127
0.0006285487907007337
0.0005965425516478717
0.00039182958425953984
0.0004436942981556058
0.0005666825454682112
0.0004611944023054093
0.0005163094610907137
0.0005871809553354979
0.0005926153971813619
0.0007487270631827414
0.0006281600799411535
0.000503580376971513
0.00034834284451790154
0.0008379179053008556
0.0004446885141078383
0.00062889966648072
0.0006514402339234948
0.0005022296099923551
0.00041402268107049167
0.0005539146368391812
0.0006532245897687972
0.0004981894162483513
0.0005248014349490404
0.00036863828427158296
0.0005279512261040509
0.0005681139300577343
0.0004728775529656559
0.0004678961413446814
0.0005630464293062687
0.0005847961292602122
0.00045203688205219805
0.00042451141052879393
0.0004302122979424894
0.0004750672960653901
0.0004169152525719255
0.0005314525333233178
0.0006503968616016209
0.0009131915285252035
0.0005176744307391346
0.000570263247936964
0.0004638685495592654
0.0003682114474941045
0.0007082720403559506
0.0004152158508077264
0.00045156539999879897
0.0009571255650371313
0.0004915922763757408
0.0006576782325282693
0.0004967668210156262
0.00045908792526461184
0.00046781753189861774
0.00048030971083790064
0.00040725289727561176
0.0004850382392760366
0.00043234319309704006
0.0005724179209209979
0.0004995348281227052
0.0005378919886425138
0.0003865213075187057
0.0006541884504258633
0.0004803164047189057
0.0004930526483803988
0.000514694896992296
0.0004238797118887305
0.0006232808227650821
0.000604737491812557
0.0005158156855031848
0.0004510994767770171
0.0005580738070420921
0.0004870546981692314
0.0006795003428123891
0.0004521273076534271
0.0005899868556298316
0.00043439186993055046
0.0005031607579439878
0.0005312486900947988
0.0005324605735950172
0.00045011984184384346
0.0004113359027542174
0.00031568974372930825
0.000570960168261081
0.0004601391265168786
0.00046911597019061446
0.0003761767584364861
0.0005650364910252392
0.0005207027425058186
0.0004805471980944276
0.000653148046694696
0.0008031656034290791
0.0005851538153365254
0.00043389861821196973
0.0002893846249207854
0.0004505921679083258
0.0005063347634859383
0.0005284219514578581
0.0004869044350925833
0.0004901870852336287
0.0005485757137648761
0.0005019302479922771
0.0005207802751101553
0.0005342658259905875
0.0005183180910535157
0.0006558569148182869
0.00041112786857411265
0.0003777335805352777
0.0005270413239486516
0.0005207256181165576
0.0006217639893293381
0.0005918543902225792
